#version: 0.2
Ø §
Ġ Ø
Û Į
Ø ±
Ġ Ù
Ù Ĩ
Ù ĩ
Ø ¯
Ù Ī
Ø ª
Ġ Ø§
Ù ħ
ĠØ ¨
Ú ©
Ù Ħ
Ø ³
ĠÙ ħ
Ø ²
ĠØ ¯
Ø§ ÙĨ
Ø ´
Ø§ ÛĮ
ĠÙ Ī
Ø§ Ø±
Ġ Ú©
Ø ¨
â Ģ
Ú ¯
âĢ Į
Ù ģ
ĠØ ª
ĠØ¯ Ø±
ÛĮ ÙĨ
Ø³ Øª
Ø ¹
ĠÙ Ĩ
ĠØ ´
ĠØ ±
Ø Į
ĠØ¨ Ùĩ
ĠØ ³
Ù Ĥ
ÙĪ Ø±
ĠØ¨ Ø§
Ø ¬
Ø¯ Ùĩ
ĠÙ ĩ
Ø§ Ùħ
ĠØ§ Ø²
Ø ®
ÙĨ Ø¯
Ø§ ÙĦ
ÙĪ Ø¯
ĠØ ®
Ø Ń
Ø µ
ĠÙ ¾
ÛĮ Ø±
ĠØ§ ÛĮÙĨ
Ġ Ú¯
Ġ Û
ĠØ¨ Ø±
Ùĩ Ø§ÛĮ
ĠØ§ Ø³Øª
ĠØ ¢
Ġ [
ĠÙħ ÛĮ
Ø§ Ø¯
Ø§ Ùĩ
ÙĦ ÛĮ
Ø ·
Ø± Ø¯
Ùģ Øª
Ø§ Øª
ÛĮ Ùħ
ĠÙ ģ
ĠÚ© Ùĩ
ĠØ ¬
ÙĪ ÙĨ
Ø§ Ø²
ĠØ Ń
Ø² Ø§Ø±
ĠØ ¹
ĠØ± Ø§
Ø± ÛĮ
ĠÙ Ĥ
Ø´ Øª
Ú Ĩ
Ùĩ Ø§
Ø ¶
ĠØª ÙĪ
Ø§ Ø¨
ÛĮ Ø¯
Ø§Ø± ÛĮ
Û °
Ø± ÙĪ
ĠÙĩ Ùħ
ÛĮ Øª
Ġ ÛĮ
ĠØ µ
ĠÚ© Ø±Ø¯
Ø§ Ø³
ĠØ± ÙĪ
Ø± Ú©
ĠØ ²
Ùħ Ø§ÙĨ
ĠØ¨Ø± Ø§ÛĮ
ĠØ§ Ùħ
ĠØ§ ÙĨ
ÙĪ ÙĦ
Ø ¸
Ø °
Ø³ ÛĮ
ĠÙħ ÙĨ
ĠØ ·
Ø§Ø± Ø¯
ĠØª Ø§
Ø® Øª
Ù ¾
ĠØ§ Ùģ
ĠØ¢ ÙĨ
Ø§ÙĨ ÛĮ
Ùĩ Ø±
ĠÙĨ ÛĮ
ĠÛ ±
ĠØ´ Ø¯Ùĩ
ÙĪ Ø§ÙĨ
ÙĦ Ø§
ĠÚ© Ø´
Ġ ÚĨ
Ø ¦
Ø± Ø§
Ø¨ Ùĩ
ĠØ´ Ø¯
Ùħ ÛĮ
Ú¯ Ø§Ùĩ
Ú© ÙĨ
ĠØ¨ ÛĮ
ĠÙĪ ÛĮ
Øª Ø±
ĠØ¯ Ø§
ÙĪ ÛĮ
ĠÚ©Ø´ ÙĪØ±
ĠÙħ ÙĪ
ĠÚ¯ ÙģØª
Ú ĺ
ĠÙħ ØŃ
Ø§ÛĮ ÛĮ
ĠÚ© Ø±
ĠØ§Ùģ Ø²
Ø º
ĠØ³ Ø§ÙĦ
Ø² ÛĮ
ĠØ® ÙĪØ¯
Ø±Ú© Øª
ĠÛĮ Ú©
ĠÙ Ħ
Øª ÛĮ
ĠÙĨ ÙģØª
Ø§Ùħ Ùĩ
ĠÙħ Ø¯
ĠÛ ²
Ø§ÙĨ Ùĩ
ĠØ´ Ø±Ú©Øª
ĠÛ± Û
ĠÚ© ÙĨ
ĠØ§ ÛĮØ±
ĠÚ© Ø§Ø±
Ú¯ Ø±
Ø§Ø± Ùĩ
ĠÙ¾ ÛĮ
Ú© Ùĩ
Ø «
Ø§ÛĮ Ø´
Ø¨ Øª
Ø¬ Ùĩ
ĠØ¢ Ùħ
ÙĨ Ú¯
ĠÙħ Ø¹
Ø¨ Ø±
ĠØ® ÙĪ
ĠÙģ Ø±
Ø§ Ø¯Ùĩ
ĠÙĩ Ø²Ø§Ø±
ĠØ¨ ÙĪØ¯
Ø± Ùģ
ĠÙħÛĮ ÙĦÛĮ
ÙĪ Ø²
Ø²Ø§Ø± Ø´
ÙĦ Ø§Ùħ
ĠÚ¯ Ø²Ø§Ø±Ø´
Ø¨ ÛĮ
ĠØ§ Ø³
ĠØ§ ÙĤ
Ø ¢
Ø´Øª Ùĩ
Ø§Ø¯ ÛĮ
ĠØ§ Ø¹
Ø¹ Ùĩ
ĠÙħ Ø³
Ø¯ ÛĮ
ĠØ§ÛĮØ± Ø§ÙĨ
Ø¯ Ø§
ĠØ§ Ø±
Ø´ ÙĪØ¯
ĠØ¯ ÙĪ
ĠÙĨÛĮ Ø²
ĠÙĤ Ø±
ĠØ³ Ø±
ÙĨ Ø§
ÙĪØ± ÛĮ
ĠØ¯ Ø³Øª
ÙĨ ÛĮ
Ùħ Ø§ÛĮ
ĠØ§ Ø¬
ĠÙħ Ø´
ĠÙħ Ø¬
Ùħ ÙĦ
Ø§ÛĮ Ø¯
ĠØ³ Ø§Ø²
Ø§ÙĦ ÛĮ
ĠØ´ Ùĩ
ÙĪØ± Ø¯
Ùģ Ø±
ĠØªÙĪ ÙĦÛĮ
Ø³Øª Ø§ÙĨ
Ø± ØŃ
ĠÙħ Øª
ĠØ´ ÙĩØ±
ĠÚ¯ Ø§Ø²
Ùĩ Ø§Ø±
ĠØ±ÙĪ Ø²
Ø¹ ÛĮ
Ġ (
Ø§ÙĨ Ø¯
Ø´ Ø¯
Ø® Ø´
ĠØ§ Ø¯
ĠØ¯ ÛĮ
ÛĮ ÙĦ
ĠÙ¾ÛĮ Ø´
Ø± Ø§ÛĮ
ĠØªÙĪÙĦÛĮ Ø¯
Ú¯ ÛĮØ±
ĠÙĪ Ø§
Û ±
ÛĮ Ø³
ĠØ¯ Ø§Ø±
ĠØ§ ÙĦ
ĠÙħØ¯ ÛĮØ±
ĠØ§ Øµ
Øª ÙĪØ§ÙĨ
ĠØ¯ Ø§Ø¯
ÙĪ Ø¹
ÙģØª Ùĩ
Ø§ Ø·
Ú¯ ÛĮ
ĠÙĨ ÙĤ
Ø§ Ùģ
Ø¬ Ø§Ùħ
Øµ Ø¯
Û µ
ĠØ®ÙĪ Ø§Ùĩ
Ø§ Ø®Øª
ĠÚ¯ Ø°
ÙĪ Ùħ
ĠØµ ÙĨ
Ø§Ùħ ÙĦ
ĠØª Ø¹
ÙĤ ÛĮ
ĠØ§ÙĨ Øª
ĠÚ¯ Ø±
ĠØ§ÙģØ² ÙĪØ¯
ĠÙĨ Ø¸
Û ¹
ĠØª ØŃ
Û ²
ÙĨ Ø§ÙħÙĩ
ĠØ¯ Ø§Ø±Ø¯
ĠØ® Ø¨Ø±
Ú© ÛĮ
ĠÙħ Ø§Ùĩ
ĠÙħÛĮÙĦÛĮ ÙĪÙĨ
ĠØ¨ Ø§ÛĮØ¯
ĠÚ© Ùħ
ĠØª Øµ
ĠØ§ ÛĮ
ĠÙħ ÙĤ
ĠØ º
Ø§Ø² ÛĮ
ĠÙĤØ± Ø§Ø±
ĠÙĩ Ø±
Ø´ ÙĨ
Ø¹ Øª
ĠØ¨ Ø®Ø´
ĠØ§ÙĨ Ø¬Ø§Ùħ
ĠØ¹ Ùħ
ĠØ§Ø³Øª Ø§ÙĨ
ĠØªÙĪ Ø³
Ùħ ÛĮÙĨ
Û° Û°
ĠÛ ³
ĠØ± ÛĮ
ĠØ§ÙģØ² Ø§ÛĮØ´
ÙĤ Ùĩ
ĠÙħ Ø±
ĠØ³ Ùĩ
Ú© ÙĦ
ĠØ¨ ÛĮÙħ
ĠÙĨ Ø´
ĠÙħ Øµ
ĠØ¨Ø§ Ø²Ø§Ø±
ÙĪØ± Øª
ĠÚ©Ø± Ø¯Ùĩ
ĠØ§ÛĮÙĨ Ú©Ùĩ
ĠØ´ ÙĪØ¯
Ú¯ Ø§ÙĨ
ĠÚ©Ø± ÙĪÙĨ
ĠÙ¾ Ø§ÛĮ
ĠÙĩÙħ ÚĨ
ĠÛĮ Ø§
ĠØ± Ø³
ĠØ· Ø±ØŃ
ĠØ³Ø§Ø² ÙħØ§ÙĨ
Ø± Ø³
Ø´ ÛĮ
ĠØ¯ Ø§ÙĨ
ĠØ³ ÛĮ
ĠØ¯Ø± ØµØ¯
ÙĨ Ø¯Ùĩ
ĠØ§ ÙĪ
Ø® Øµ
ÙĨ ÛĮÙĨ
Ø§Øª ÛĮ
ĠÙħ ÙĦÛĮ
ÙĦ Ùĩ
ĠÙĩ Ø³Øª
Û ´
ĠØ¨Ø§ Ø²
Úĺ Ùĩ
ĠØ¬ Ùĩ
ĠØ®ÙĪØ§Ùĩ Ø¯
ĠÚ©Ø±ÙĪÙĨ Ø§
ĠØ¬ Ùħ
ĠØ§ Ø´
ÙĪ Ø³
ĠØ§Ø¯ Ø§ÙħÙĩ
ĠÚ© Ø§Ùĩ
ÙĪ Ø¯Ùĩ
Û ¸
Ú¯ Ø²Ø§Ø±
ĠÙħ Ø§
ĠØ§Ùħ Ø§
Ø¯ ÛĮØ¯
ĠØ¨ ÛĮÙĨ
Øª Øµ
ĠÛ µ
ĠÛ ¹
Ø¬ ÙĪØ¯
Øª Ùħ
ĠÛ ´
ĠÚ©Ø§Ùĩ Ø´
Ø§ Ø³Øª
ĠÙģ Ø¹
ÙĪ Ùĩ
ĠÙħ ÙĪØ±Ø¯
Û ³
Ø¯ Ùħ
ĠÙħ Ùĩ
ĠØ¯ ÙĪÙĦ
Ø³ Ùĩ
Øª Ø¨
Ø² Ø´
ĠØ§ÙĤ ØªØµ
Ø± Ùĩ
ĠØ§ Ø¸
Ùģ Ø§Ø¯Ùĩ
Û ·
ĠÙĤ ÛĮÙħ
ĠØ± Ø§Ùĩ
ĠØ¯Ø§ÙĨ Ø´
ĠØ§Ø¹ ÙĦØ§Ùħ
ĠØ§Ø³Øª ÙģØ§Ø¯Ùĩ
Û ¶
Ø±ÙĪ Ø´
Ø¯ Ø§Ùħ
ĠØµ ÙĪØ±Øª
ĠÙ¾ Ø±ÙĪ
ĠØ§Ø¸ ÙĩØ§Ø±
ĠÙħ Ø±Ø¯
ĠÙĩÙħÚĨ ÙĨÛĮÙĨ
ĠØ¨ÛĮ Ø§ÙĨ
ĠØ§Ø´ Ø§Ø±Ùĩ
ÙĨ ÙĪØ§ÙĨ
ĠÙĤÛĮÙħ Øª
ĠØª Ùħ
ĠØ¨Ø± ÙĨØ§ÙħÙĩ
ĠØ ¶
ĠØ¯ÛĮ Ú¯Ø±
ÙĨ Ø¬
ĠØªÙĪ Ø¬Ùĩ
Ú¯ÛĮØ± ÛĮ
ĠÙģØ¹ Ø§ÙĦ
ĠÙĨ ÙģØ±
ÙĪ Ø¨
ĠØ§ ÛĮÙħ
ĠØ¯Ø§ Ø´Øª
ĠÚ©ÙĨ ÙĨØ¯
Ø±ÛĮ Ú©
Ø§Ø¯ Ø±
ĠØ§ ØŃ
Ø³ Ø§ÙĦ
ĠØª ÙĨ
ĠØ¯ Ùĩ
ĠØŃ Ø§ÙĦ
ĠØ¹ ÙĨÙĪØ§ÙĨ
ĠÙħÙĨ Ø·
Ø® ÛĮ
Ùģ Ùĩ
ĠØªÙĪØ³ Ø¹Ùĩ
Ø§Ø³ ÛĮ
ĠÚ¯Ø° Ø´ØªÙĩ
ĠØ´ ÙĪØ±
ÙĪÙĨ ÛĮ
ĠÚ© ÙĨØ¯
ØªØ± ÛĮÙĨ
ĠØ§ÙĤ Ø¯Ø§Ùħ
Ú© ÙĨØ¯
Ùģ ÛĮ
ĠÛ ¶
Ùħ ÙĨ
Ø¦ ÛĮØ³
ĠØ³ ÙĪ
Ø§ ÙĤ
Ø² ÛĮÙĨ
Ø¯ ÙĪØ¯
ĠØ¯ÙĪÙĦ Øª
ĠÙħ Ø·
ĠØ¢ Ø¨
ĠÙħÙĨØ· ÙĤÙĩ
ĠÙĪ Ø²Ø§Ø±
ĠÙ¾ Ø³
Ø± Ø³ÛĮ
Ø§Ø± Ø§ÙĨ
ĠØ§ Øª
Ùħ Ø¯
ĠÙĪØ²Ø§Ø± Øª
ÙĩØ§ÛĮ ÛĮ
ĠØ± Ø¦ÛĮØ³
ĠØª Ø±
Ø¯Ø§ Ø´Øª
ĠØªØ§ Ú©
ĠØ¨ÛĮ Ø´Øª
Ø§ Øµ
ĠØ¹ ÙĦ
ĠØ§ Ø·
Ø§ Ú©
ĠÙĪ Ø¬ÙĪØ¯
ÛĮÙħ ÛĮ
ĠÙĨÙĤ ÙĦ
ĠØ² ÛĮ
ÙĪ Øµ
Ø§ Ø¶
Ø§Ùħ ÛĮÙĨ
ĠÙĩØ³Øª ÙĨØ¯
ĠØ¨ Ø§ÙĨ
ĠØ³ Ø§Ø®Øª
ĠØ² ÙħÛĮÙĨ
ÛĮ Ùĩ
Ø±Ø¯ Ø§Ø±ÛĮ
ĠØ¯Ø§ Ø´ØªÙĩ
Ú¯ Ø°
ĠØ´ Ùħ
ĠØª Ø¬
ĠÙħÛĮÙĦÛĮ Ø§Ø±Ø¯
ĠØ¢Ùħ Ø±ÛĮÚ©
ĠÙĩ ÛĮ
ĠÙĪØ§ ØŃ
ÙħØ§ÛĮ Ùĩ
ĠØ² ÙħØ§ÙĨ
ĠÙħØ±Ø¯ Ùħ
ĠØ¬ Ø¯ÛĮØ¯
Ø±ÙĪ Ø²
ĠØ¬ ÙĦ
Ùħ ÙĨØ¯
ĠØ¹ Ø±
Ù «
ĠØ³Ø± ÙħØ§ÛĮÙĩ
ÙĪ Ø·
ĠÛ² Û°
ĠÙĨ Ø³
ĠÙħØµ Ø±Ùģ
ĠÙĪ Ø²
ĠØ® Ø·
ĠØ¨ ÙĪØ¯Ùĩ
ĠÙĩ ÙĪ
ĠØ¨Ø§ Ø´
ĠØ¨Ø§ Ø´Ø¯
ĠØ¨ Ø³ÛĮ
ĠÙĨÛĮ Ø§Ø²
ĠØ¯ ÙĦ
ĠÚ© ÙĦ
ĠØª Ø§ÙħÛĮÙĨ
Ú© Ø§Ø±ÛĮ
Ø±Ø§ÛĮ Ø·
ĠØ´ Ø±Ø§ÛĮØ·
ÙĩØ± Ø§ÙĨ
Ú©ÙĨ ÙĪÙĨ
ĠØ¯ ÙĪØ±
ĠØ¨Ø± Ú¯Ø²Ø§Ø±
Ø§ÛĮ Øª
ĠØ´ÙĪØ± Ø§ÛĮ
ĠØª ÙĩØ±Ø§ÙĨ
Ø±ÛĮ ØŃ
ĠÙĨØ¸ Ø±
ĠØ® Øµ
ĠØµÙĨ Ø¹Øª
ĠØ¨ Ø¯
Ø Ľ
Ú© Ø§ÙĨ
ĠØªØ§Ú© ÛĮØ¯
ĠÙħ Ø±Ú©
ĠÛ ·
Ø¯Ùĩ Ø§ÛĮ
ĠØ®Øµ ÙĪØµ
ĠØ ¸
Ø³ Ø§Ø²ÛĮ
ĠÙħ Ø¨
Ø¯ Ø§Ø¯
Ø§Ø± Øª
ĠØ§Ùħ Ø±ÙĪØ²
Ú©ÙĨ ÙĨØ¯
ĠØ®Ø¨Ø± ÙĨÚ¯
Ø´ Ø§ÙĨ
ĠØ® Ø¯Ùħ
ĠØ§ÙĤØªØµ Ø§Ø¯ÛĮ
ĠÙĪ Ø±
ĠØ¨ ÙĨ
ĠÙħ Ø±Ø§
Ú© Ø±
Ø® ÙĪ
Ø¹ ÛĮØª
ÙĦÛĮ ÙĦ
ĠÙĩÙħ Ùĩ
ĠØ¢Ùħ ÙĪØ²
ĠÙĨ ÙĪ
Ø¶ Ø§
ÛĮ Ø§
ĠØ§Øµ ÙģÙĩ
Úĺ ÛĮ
ÙĪØ² Ùĩ
ÙĦ Ùģ
ĠØ¯Ø§ Ø¯Ùĩ
ĠØ «
ĠØ§ÛĮ Ø¬
ĠØª ÛĮÙħ
ĠØ§ÛĮÙħ ÙĨØ§
ĠØŃ ÙĪØ²Ùĩ
ĠØ§ÛĮØ¬ Ø§Ø¯
ĠØŃ Ø¶
ĠØ§Ø· ÙĦØ§
ĠØ¢ÙĨ ÙĩØ§
Ú© Øª
ĠÛ ¸
Ø¨ Ø§Ø±Ùĩ
ĠØ¢ÙħØ±ÛĮÚ© Ø§
ĠÙ¾Ø±ÙĪ ÚĺÙĩ
ĠØ§ØµÙģÙĩ Ø§ÙĨ
ĠØ¨Ø§ Ø²ÛĮ
ĠÙ¾ Ø±
Ø¹ Ø§Øª
ÙĪ ÙĨØ¯
Ø¯ Ø±
ĠØ² ÛĮØ±
ĠØ§Ø³ Ø§Ø³
Ø§Ùħ ÛĮ
ÙĪ ÙĤ
ĠØ¨ÛĮØ´Øª Ø±
ÙĪ Øª
ĠØ§ ÙĪÙĦ
ĠØª ÙĤ
ĠÙħÙĪ Ø¶
ĠÙģØ¹Ø§ÙĦ ÛĮØª
Ø§ ÙĪÙĨ
ĠØ¨ÛĮ Ø´
ĠÙħØ´ Ú©ÙĦ
ĠÙĪØ² ÛĮØ±
ĠØ®Ø¨Ø±ÙĨÚ¯ Ø§Ø±
ĠÙĨ Ø§
ĠØ§Ø³ ÙĦØ§Ùħ
ĠØ§ Ø±Ø§
ĠØ®ÙĪØ¯ Ø±ÙĪ
ĠØ® Ø§Ø±
ĠØªØµ Ø±ÛĮØŃ
Ø¢ ÙĪØ±
ĠØº ÛĮØ±
ĠØ§ Ø®Øª
ĠÙĨØ³ Ø¨Øª
ĠØµ Ø§Ø¯Ø±
ÙĪ ÙĦÛĮ
Ø® Ø§Ø¨
ĠÙħÛĮ Ø²
ĠØŃØ¶ ÙĪØ±
Ø¶ Ø§ÛĮ
ĠØ´Ùĩ Ø±Ø¯Ø§Ø±ÛĮ
ÛĮÙĨ ÛĮ
ĠÙĨ Ùħ
ØªÙĪØ§ÙĨ Ø¯
ĠØ§Ùģ Ø±
ĠÙħ Ø§ÙĦÛĮ
ĠÙħØ¯ÛĮØ± ÛĮØª
ĠÚĨ ÙĩØ§Ø±
ĠØ§Ø¬ Ø±Ø§ÛĮ
ÙĦ Ø³
ĠØ¬Ùħ Ùĩ
ĠÙĨ ÙħÛĮ
Ú© Ø±Ø¯
ĠØ§Ø³ÙĦØ§Ùħ ÛĮ
ĠÚ¯Ø± ÙģØªÙĩ
ĠÙĩÙħ Ú©Ø§Ø±ÛĮ
ĠØ¨ Ø§Ø±
Ø² Ø±
ĠØ´Ùĩ Ø±ÛĮ
Ø§Ø¨ ÙĦ
ĠØ³ Ø§
ĠÙħÙĪØ¶ ÙĪØ¹
ĠØª Ø¨
ĠØ¬ Ø§ÛĮ
ĠØªÙĪ ÙħØ§ÙĨ
ĠÛĮÚ© ÛĮ
ÙĤ ÙĦ
Ú¯ ÙĪ
Ø´ÙĨ Ø¨Ùĩ
ĠØ¢ Ø²
ĠØ °
ÙĪ ÙħÛĮ
ĠØ±Ø³ ÛĮØ¯
ĠÙĤ Ø§ÙĨ
Ùģ Ø§
ĠÙħØ¹ Ø§ÙĪÙĨ
ĠÙĨ ÛĮØ±
ĠÙ¾ Øª
ĠØ¨Ø§ÙĨ Ú©
ĠØ´ Ø¨
ĠÛ±Û ³
Ø¬ ÛĮ
ĠÙ¾ Ø±Ø¯
ĠØ¯Ø± Ø¨Ø§Ø±Ùĩ
ĠØ¨Ùĩ Ø±Ùĩ
ĠØ²ÙħÛĮÙĨ Ùĩ
ĠÙĤ Ø·
ĠØ§ Ùĩ
ÙĦ Ø§ÛĮ
Ø¦ Ùĩ
ĠØ¨Ø± Ø±Ø³ÛĮ
ĠØ§ Ú¯Ø±
ĠØ¨ Ø¹
ĠØŃ Ø³
ÙĪ Ø§Ø±
ĠÙ¾Ø§ÛĮ Ø§ÙĨ
Ø§Ø± Ø³
ĠÙĨÛĮ Ø³Øª
Ø¯ Ø§ÙĨ
ĠØŃ Ø¯ÙĪØ¯
ĠØ´ Ø§ÙĨ
ĠØ¨Ùĩ Ø¯Ø§Ø´Øª
ĠØ¨ÛĮÙħ Ø§Ø±ÛĮ
ĠÙħÙĩ Ùħ
ĠØ¯Ø§Ø± ÙĨØ¯
ĠØ±ÛĮ Ø§ÙĦ
ĠØª Ø´
ĠØ§Ø±Ø§ Ø¦Ùĩ
Ø±ÛĮ ÙĤ
Ùħ Ø§Ùĩ
ĠÙħØ¬ ÙĦØ³
Ø§ÛĮØ´ Ú¯Ø§Ùĩ
ĠØ±ÙĪ ÛĮ
ĠÙĪ ÛĮØ±
ĠØ§ÙĨØª Ø®Ø§Ø¨
ĠØ¯Ø§ Ø®
ĠØ¸ Ø±Ùģ
ĠØ§ Ø®
ĠÙĨÙģØª ÛĮ
Ø¯ Ø§Ø±
ĠÙħ ÙĩØ±
Ø± Ø¨
ĠØ¯ÙĦ Ø§Ø±
ĠØ®Ø¯Ùħ Ø§Øª
ÙĨÚ¯ ÛĮ
ĠØ¹Ùħ ÙĦÛĮ
ĠÙĤ Ø¨
ĠØ¬ ÙĨ
ĠÙĨ ÙħØ§ÛĮ
ĠØ¯ ÙĦÛĮÙĦ
ĠØ´ ÛĮ
ĠÙħØ¬ Ùħ
âĢ İ
ĠÙĪ Ø§Ø±Ø¯
ĠÚĨ ÙĨØ¯
ĠÙħ Ø®Øª
ĠØ¨ Ø²Ø±
Ø§ÛĮ Ø¹
ĠÙĨ Ø®
ĠØ¯Ø§ÙĨØ´ Ú¯Ø§Ùĩ
Ø±ÙĪ Ùĩ
Ø§Ø² Ùħ
ĠÙħÛĮ Ø§ÙĨ
ĠØ³ Ø·
ĠØ¨Ø± Ø®ÛĮ
Ø§ ØŃ
ØªÙħ Ø§
ĠÙ¾Ø±Ø¯ Ø§Ø®Øª
ĠÙħÛĮØ² Ø§ÙĨ
ĠÛ± Û°
Ø± ÚĺÛĮ
Ø¯ Ø§Ø±ÛĮ
ĠÙĪÛĮØ± ÙĪØ³
Ú© Ø§Ø±
Ø« Ø±
ĠØ§Ùħ Ø³Ø§ÙĦ
ĠØ´ ÙĨ
ĠÚ¯Ø± ÙģØª
Ø¯Ùĩ Ø¯
Ø±ÙĪØ´ ÛĮÙħÛĮ
ÙħÙĦ Ùĩ
ĠØ¯Ø³Øª Ú¯Ø§Ùĩ
ĠØ§ÙĨ Ø±ÚĺÛĮ
Ú¯ Ø±ÛĮ
ĠÙĩ Ø¯
ĠÙ¾Øª Ø±ÙĪØ´ÛĮÙħÛĮ
Ø± Ø§ÙĨ
ÙĪ Ø´
ĠØ§ÙĨØª ÙĤ
ĠØ¨ Ø´
ĠÙ¾ ÙĨØ¬
ĠÙħØ³ Ø¦
ÙĨ Ùĩ
ĠÙħ Ø´Øª
ĠØ¬ÙħÙĩ ÙĪØ±ÛĮ
ĠÙ¾ Ø§ÙĦ
ĠÙģ Ø±ÙĪØ´
Ø²ÛĮÙĨ Ùĩ
ĠØ§ Ø¨Øª
Ø³Øª Ùĩ
ĠÙĩ ÙģØªÙĩ
ĠØªØ¹ Ø¯Ø§Ø¯
Øµ ÙĪÙĦ
Ø¨ ÙĪØ¯
ĠØ¸Ø±Ùģ ÛĮØª
ĠØ§ÙģØ± Ø§Ø¯
ĠØ¯Ø± ÛĮØ§
ĠÙĪ Ø¶
ĠÙģØ± Ùĩ
ĠØ³ Ø¨
ĠÚ© Ø§ÙĦ
ÛĮÙĨ Ø¯Ùĩ
ĠØ³ ÙĪÛĮ
ĠØ´Ø§ÙĨ Ø§
ĠØª ÙĦØ§
ĠØ³ Ø§Ùħ
ĠÙĨØ´ Ø§ÙĨ
ĠØ³Ø· ØŃ
ĠÙħ Ø§ÙĨ
ĠÙĨ Ø§Ùħ
Ø§ ÙĪØ±
ĠÙĨØ® Ø³Øª
Øº ÛĮ
ĠØ® Ø§ÙĨ
ĠØ§Ø¬ ØªÙħØ§
Ú© Ø³
Ø¶ Ùĩ
ĠÙĩÙħ ÛĮÙĨ
ĠÙħÙĨ Øª
ĠÙĪØ§ØŃ Ø¯
Ø§ÛĮ Ø±
ĠÙĦ Ø§Ø²Ùħ
ĠØ¬ Ø§Ùħ
ĠÚ© ÙĪ
ĠÙģ ÙĨØ§
ĠÙħØ¯ Øª
Øº Ø§Ø²
Ø¨ Ø§ÙĦ
ÙĨØ¯ ÛĮ
ĠØ¢ ÛĮÙĨØ¯Ùĩ
ĠØ® Ø±ÛĮ
ÙĪÙĨ Ùĩ
ĠØ¨Ø³ÛĮ Ø§Ø±
ĠØªÙĦØ§ Ø´
ÛĮØª Ø±
ĠØŃ ÙĤ
ĠØ§Ø¬ØªÙħØ§ Ø¹ÛĮ
ĠØªÙĪ Ø§ÙĨ
ÙĦÛĮ Ùĩ
ĠØ´Ø¯ ÙĨ
ĠØ¢ÙħÙĪØ² Ø´
ĠÚ© Ø³
ĠØ¹Ùħ ÙĪÙħÛĮ
ĠØ¨ ÙĦ
ĠÙħ Ø³Øª
ĠÚ© ÙħÛĮ
ĠÚ©Ùħ Ú©
Ø§Ø· Ø±
ĠØŃ ÙħØ§ÛĮ
Ùħ Øª
ĠÙħØŃ ØµÙĪÙĦ
Ú¯Ø° Ø§Ø±ÛĮ
ĠØ¬Ùĩ Ø§ÙĨÛĮ
ÚĨ Ùĩ
ĠØ³ÙĪ Ø®Øª
ĠØ¢ ØºØ§Ø²
ĠØ¨ ØŃ
ĠÚ©ÙĨ ÛĮÙħ
ĠÚ¯ Ø±ÙĪÙĩ
Ø´ Ø§Ø±
ĠÚ©Ø´ÙĪØ± ÙĩØ§ÛĮ
ÙĨ Ø§ÙĨ
ĠÙĨÛĮØ± ÙĪ
ĠÙĩ ÙĨ
ĠØ¯Ø±ÛĮØ§ ÙģØª
ĠØªÙĪØ³ Ø·
ĠÙĩØ¯ Ùģ
ĠÙħØ®Øª ÙĦÙģ
ĠØ¨Ø²Ø± Ú¯
ĠØ¬ ÙħÙĦÙĩ
Ø§Ø¨ Ø¹
ĠÙĨØ´ Ø³Øª
ÙĦØ§ ØŃ
ĠÚ¯ÙģØª Ùĩ
ĠÙĩ Ø²ÛĮÙĨÙĩ
ÛĮØ± ÛĮ
ĠÙħÙĨ Ø§Ø·
ÙĪÙĦ Ùĩ
ĠØ¹Ø± Ø¶Ùĩ
ĠØ§ÙĨØªÙĤ Ø§ÙĦ
Ø¨ Ø§ÙĨ
Ø± ÛĮÙħ
ĠÙĪÛĮ ÚĺÙĩ
ĠØ« Ø¨Øª
Ø§Ø¨ ÛĮ
Ø® Ø§ÙĨÙĩ
Ø§Ùģ ÙĤ
ĠØµÙĨ Ø§ÛĮØ¹
ĠÙģÙĨØ§ ÙĪØ±ÛĮ
ĠØ§Ùħ ÙĪØ±
ĠÚ©Ø±Ø¯ ÙĨØ¯
ĠØ® Ø§Ø·Ø±
ĠÙħØ± Ø¨
Ø± Ø®
ĠØ¯ÙĪØ± Ùĩ
Ø± Ø§Ùĩ
ĠØ¯Ø± ÙħØ§ÙĨ
ĠØ³ Øª
Ø± Ø§Øª
ĠØ´Ø¨ Ú©Ùĩ
ĠØ³Ø§ Ø¹Øª
ĠØ· ÛĮ
ĠØ´ Ø§
ĠÙħÙĨØ§Ø· ÙĤ
ĠØ§Ùħ Ú©Ø§ÙĨ
ÙĨØ¯ Ú¯Ø§ÙĨ
ĠÙĤØ§ÙĨ ÙĪÙĨ
ÛĮ Ø²
ĠØ¢ Ø³ÛĮ
ĠÛĮ Ø§Ø¯
ĠØ· Ø±ÛĮÙĤ
ĠØ¨Ø´ Ú©Ùĩ
ØŃ ÛĮ
Ø§Ùĩ Ùħ
ĠØ¹ ÙħÙĦ
Ø¢ÙĪØ± Ø¯Ùĩ
ĠØ±ÙĪ Ø³Øª
Ġ Â
ĠØ§ Ø¨
Ø¬ Ùħ
ÙĪ ÛĮØª
ĠØ¨ÙĪØ¯ Ø¬Ùĩ
Ú¯Ø²Ø§Ø± ÛĮ
Ø§ Ù¾
ĠØ´ÙĩØ± Ø³ØªØ§ÙĨ
ĠØª Ú©
ĠÙĪØ¶ Ø¹ÛĮØª
ĠØªÙħ Ø§Ùħ
Ø¨ Ø§
ĠØ§ Ø¶
Ø³ÛĮ ÙĪÙĨ
ĠØ¨Ø§ ÙĦ
ĠØŃÙħØ§ÛĮ Øª
ĠÚ© ÛĮ
Ø§Ø³ Ø¨
ĠØ¬Ùĩ Ø§ÙĨ
ĠØ§ ÙĨØ¯
ĠØ± Ø´Ø¯
Ø´ Ùħ
Ø³Øª ÛĮ
ĠÙĩÛĮ ÚĨ
ØªÙĪØ§ÙĨ ÙĨØ¯
ÙħÙĦ ÙĦÛĮ
ĠØ± ÙĤ
Ø§Ø¨ Ø±
ĠÚ© ÛĮÙĦ
ĠÙħÙĨ Ø§Ø¨Ø¹
ĠÚ¯ ÙĪ
ĠÙħ Ø®
ĠÙģØ± Ø¢ÙĪØ±Ø¯Ùĩ
ĠØ¹ ÙĦØ§
ĠØ§ Ú©ÙĨÙĪÙĨ
Ø¹ Ø§ÙħÙĦ
ĠÙħØ±Ú© Ø²
ĠÙħØ±Ø¨ ÙĪØ·
Â »
ÛĮ Ø·
ĠÙħ ØªØ±
ĠÂ «
ĠÙħØ´Ú©ÙĦ Ø§Øª
ĠØµØ§Ø¯Ø± Ø§Øª
ĠØª ØºÛĮ
ĠÙĦ ÛĮ
ĠÙĩÙħ Ø±Ø§Ùĩ
ĠÙħØ³ Ø§
ĠØ¨ÛĮÙħ Ø§Ø±
ĠÙĤØ± Ø§Ø±Ø¯
ĠÙ¾ Ø²Ø´
Ú© ÙĪ
ĠÙ¾ Ø§Ø±
ÙĤÛĮ ÙĤ
ĠØ®Ø¨Ø± Ú¯Ø²Ø§Ø±ÛĮ
ĠÙ¾ Úĺ
Ø®ÙĪ Ø§Ùĩ
ĠÙħØŃ ÛĮØ·
ĠÙħÙĨ Ø¸
ÙĨØ¯ Ø§ÙĨ
ĠØ¨Ø± ÙĤ
ĠØ¯Ø³Øª ÙĪØ±
ĠØ¹ Ø¶
Ùħ ÛĮÙħ
Ø± ÛĮÙĨ
ĠØ§Ø± Ø²Ø´
ĠØ¢ Ø°
ĠØŃ Ùģ
ĠØ¢ ÙĦ
ĠØ³Ø§Ø² ÛĮ
ĠÚ©ÙħÛĮ Ø³ÛĮÙĪÙĨ
ØªØ¨ Ø§Ø·
ĠÙħ Ø¨Øª
Ø³Øª Ø±
ĠØ§Ùħ ÛĮØ¯
ĠØ§Ø± ØªØ¨Ø§Ø·
ĠÚ¯ Ø±Ø¯
ĠØªØºÛĮ ÛĮØ±
Ø± Ø§ÛĮÛĮ
ĠØ¬ÙĦ Ø³Ùĩ
ĠÛ±Û ²
Ø§Ø¨ Ø·
Ø¹ Ø¨
ĠÚ©Ø±Ø¯ ÙĨ
ÙĨØ¯ Ú¯ÛĮ
ĠØ§ ÙģØª
ĠØ§ÙĤØªØµ Ø§Ø¯
ĠÙĨ Ùĩ
ĠØŃ Ø§Ø¶
ĠÙĤ Ø§Ø¨ÙĦ
ĠØ¯Ø§Ø® ÙĦÛĮ
ĠØ§Ø·ÙĦØ§ Ø¹Ø§Øª
ĠÙĨ Ø¯
Ø§ÛĮ Ø¬
ĠÛ±Û µ
ĠØ®Ø±ÛĮ Ø¯
ĠÙ¾Úĺ ÙĪÙĩ
ĠØŃØ§Ø¶ Ø±
ĠØ¯ ÛĮØ¯
ĠØ³Ø§Ùħ Ø§ÙĨÙĩ
ĠØŃ ÙħÙĦ
ÙĪØ± Ø³
ĠØ¨Ø¹ Ø¯
Ø² Ùĩ
ĠÙħØ´Øª Ø±Ú©
ĠÚ¯ ÙĦ
ĠØ§Ø¬ Ø±Ø§ÛĮÛĮ
ĠØ¹ÙħÙĦÛĮ Ø§Øª
Ø° ÛĮØ±
Ú©ÙĨ Ø§ÙĨ
ĠØ´ÛĮ ÙĪØ¹
ĠÙĪØ§ ÙĤ
ĠÙħØ±Ú© Ø²ÛĮ
ĠÙħ Ø«
Ø§Ø² Ùĩ
ĠÙħØ¯ÛĮØ± Ø¹Ø§ÙħÙĦ
ĠØ§Ø± Ø²
ĠØª Ø±Ú©
Ù¾ Ú©
ÙĪ Ø¨ÛĮ
ĠØ§Ø¶ Ø§Ùģ
Ùģ Ø¹
ĠØªÙĨ ÙĩØ§
ĠØªØµ ÙħÛĮÙħ
ÙĪØ¯ ÛĮ
ĠØ¯ÙĪ Ùħ
ĠÙħØŃ ÙĦ
ÙĪÛĮ ÛĮ
ĠØ§Øµ ÙĦÛĮ
ĠÚ¯Ø° Ø§Ø±ÛĮ
ÛĮ Ø§Ø±
ĠÛ±Û ¹
Ùħ Ø±
ĠÛ±Û ´
ĠØª Ø³Ùĩ
ĠÙĦ ÙĪÙĦÙĩ
ĠØ¨Ø¯ ÙĪÙĨ
Ø±Ø¯ ÛĮ
ĠÚĨ Ùĩ
Ø´ Ùĩ
Ø¹ ØªÛĮ
ĠØªØ§ Ú©ÙĨÙĪÙĨ
ĠØªØ³Ùĩ ÛĮÙĦ
ĠØ±ÙĪ Ø³ÛĮ
Ø¶ ÛĮ
ĠØ§Ø® ÛĮØ±
ĠÙĨØ¯ Ø§Ø±Ø¯
ĠÙĤØ¨ ÙĦ
ĠØ¢Ùħ Ø§Ø±
Ø« ÛĮØ±
ĠØ¹Ø¶ ÙĪ
ĠØ§Ø¶Ø§Ùģ Ùĩ
ĠÚ©Ø§ÙĦ Ø§
ĠØ´Ø§ Ø®Øµ
ĠØ³ÛĮ Ø§Ø³Øª
ĠØ³ ÙĨ
Ø±ÛĮ Ø§ÙĨ
ĠØ¶ Ø±
Øª ÙĤ
ĠØªØŃ Ø±ÛĮÙħ
ĠØ® Ø§Ùħ
ĠØ§Ø¹ ØªØ¨
Ø¨ Ø±ÛĮ
ÙĪ Ø§
ĠØ³ ÙĦØ§Ùħ
Ġ Úĺ
Ø±Ø³ Ø§ÙĨÛĮ
ĠÙħØ³ Ú©ÙĨ
ĠÛ±Û ±
ĠÚ©Ø³ Ø¨
ÛĮØ± Ùĩ
ĠÙħÙĨØ¸ ÙĪØ±
ĠØ¬Ø§ÛĮ Ú¯Ø§Ùĩ
ĠØ¢Ø² Ùħ
ĠØªÙĪ Ø§ÙģÙĤ
ĠØ± Ø§ÛĮ
Øª Ø§Ø¨
ĠØ¬ Ø§Ø±ÛĮ
ĠØ±ÙĪ Ø§Ø¨Ø·
ĠÙħØ· Ø§ÙĦ
Øµ ÙĦ
ĠÙĦ ÛĮØªØ±
Ø®Øµ Øµ
ĠØ· Ø¨
ĠØ§ Ø±ÙĪ
ĠÙģ ÙĪ
Ġ âĢĮ
ĠØ¨Ø± Ø®
ÙĤ ÙĤ
ĠØ± Ø¹
ĠÙħ ÙĦ
ĠØ¨ ÙĪØ±Ø³
Ø³Øª Ùħ
ĠÙĪ ÙĤ
ĠØ¨Ø±Ú¯Ø²Ø§Ø± ÛĮ
Ø´Øª ÛĮ
ĠØ´Ùĩ Ø±ÙĪ
Ø§Ø¨ ÙĤ
ĠØ±ÙĪØ³ÛĮ Ùĩ
ĠØª Ùĩ
Ùħ ÛĮØª
ĠÙħ Ø°
ĠÙħØŃØµÙĪÙĦ Ø§Øª
ĠØ²ÛĮ Ø§Ø¯ÛĮ
Ø³ÛĮ Ø¯Ùĩ
ĠÙĨ Ø±Ø®
ĠØ¹ Ø¨
ĠØ§Ø¬ Ø±Ø§
ĠØ¬Ùĩ Øª
ĠØªØ§ Ø«ÛĮØ±
ĠØ· ÙĪØ±
Ø§Ø¨ Øª
ĠØ¨Ø³ÛĮ Ø§Ø±ÛĮ
ĠÙ¾ Ø§Ø³
ÙĨ Ø´Ø§ÙĨ
Ø§ÛĮ ÙĦ
ĠØ§Ùħ ÙĨ
ĠÙ¾Ø§ÙĦ Ø§ÛĮØ´Ú¯Ø§Ùĩ
ĠÚ©Ø§Ø± Ø´ÙĨ
ĠØ¨Ø§Ø´ ÙĨØ¯
ĠØ± Ø³ÛĮØ¯Ùĩ
Ùģ ÙĤ
ĠØ§Ø³Øª Ø§ÙĨØ¯
ĠØŃ Ø§ÙĦÛĮ
ĠÙħÛĮ ÙĦ
ĠÙħÙĪ Ø§Ø¯
ĠØ²ÙħØ§ÙĨ ÛĮ
Ú¯ÛĮØ± Ø¯
ĠØª Ø§Ø±ÛĮ
ĠÙħØ§ÙĨ ÙĨØ¯
Ø§Ø³ Ø§ÙĨ
ĠÙģØ±Ùĩ ÙĨÚ¯ÛĮ
ĠÙ¾Ø²Ø´ Ú©ÛĮ
Ø§Ùħ Ù¾
ĠÙħØ³ ÛĮØ±
Ø· Ùĩ
ĠØ±Ø¹ Ø§ÛĮØª
ĠÚ© Ø§
ĠÛ²Û° Û±
ĠÙģ Ø¶Ø§ÛĮ
ĠØ±Ø§ Ø³Øª
ĠØµÙĨ Ø¹ØªÛĮ
ĠØ²ÛĮ Ø³Øª
ĠØ´ Ø§ÙħÙĦ
Ø§Ø¯ ÙĦ
ĠØ§ÙĤØ¯Ø§Ùħ Ø§Øª
ĠÙħØŃ Ø¯ÙĪØ¯
ÛĮ ÙĦÛĮ
ĠØ¯Ø§Ø± Ø§ÛĮ
ĠØ· Ø¨ÛĮ
ĠÙħØŃ ÙħØ¯
ĠÛ³ Û°
Ú© Ø²
ĠØ¯Ø± Ø¢
ĠØª Ø¬Ùĩ
ĠØ¨Ø§Ø´ Ú¯Ø§Ùĩ
Ø¯ ÙĨ
Ù¾ Ø§
ĠØ¬Ø§Ùħ Ø¹Ùĩ
ĠØªØ¬Ùĩ ÛĮØ²
ĠØ³ Ø§ÛĮØ±
ĠÙĨ Ø²
ĠØ®Ø§Ø·Ø± ÙĨØ´Ø§ÙĨ
ĠÚĨ ÛĮÙĨ
ĠØ§Ø·ÙĦØ§ Ø¹
Ø§ÙĨ Ø³
ĠØ®ÙĪ Ø¨ÛĮ
ĠØ±ÙĪ ÙĨØ¯
ĠÙħ Ú©
ĠØ®Ø§Ø± Ø¬ÛĮ
ĠØ¨ÙĨ Ø²ÛĮÙĨ
ĠÚ©ÙĨ ØªØ±
ĠØŃ Ø§
Ú© ØªØ±
ĠØ· Ø±Ùģ
ĠÙģ ÙĨÛĮ
ĠÙħÙĪ Ø¬ÙĪØ¯
Ø´ ÙĪÙĨØ¯
ĠØŃ Ø¯Ø§
ĠØ± ÙģØª
Ġ -
Ú¯Ø± Ø§ÙĨ
ĠØ§ÙĨØª Ø¸
ĠØªØŃ Øª
ĠØ±ÙĪØ² Ø§ÙĨÙĩ
ĠÙ¾ÚĺÙĪÙĩ Ø´
ØŃ Ùĩ
ĠØª Ùģ
ĠØ³ Ùģ
ĠÛ² Û´
ĠÙ¾ Ø±Ø³
Ø§ÙĦ Øª
ØªÛĮ Ø¬Ùĩ
ĠØ§Øµ ÙĦØ§ØŃ
ĠÙ¾ Ø®Ø´
Ú¯ Ùĩ
ÛĮØ¯ Ø§
ĠØ¨Ø§ Ø¹
ĠØ· ÙĪÙĦ
ĠÙħØ±Ø§ Ú©Ø²
Ú© ÛĮÙĦ
ĠØ¬ÙĨ ÙĪØ¨ÛĮ
Ø¨Øª Ùĩ
ĠØ³ÙĦØ§Ùħ Øª
Ø¹ÛĮ ÛĮÙĨ
ĠØ¨Ø§Ø¹ Ø«
ĠÙħÙĪ Ø§Ø±Ø¯
ĠØ§ÙħÙĨ ÛĮØª
ĠÚ©ÙĨØªØ± ÙĦ
ĠØª Ø¹ÛĮÛĮÙĨ
ĠÙħÙĨ Ø§Ø³Ø¨
ĠÙħØ´ Ø®Øµ
ĠØ§ÙĪ Ù¾Ú©
ĠØ³Øª Ø§Ø¯
ĠØ´ Ú©
ĠØ§ÙĦ Ø¨ØªÙĩ
ÙĪ Ø§Ø±Ùĩ
Ø±Ùģ Ùĩ
ĠÙĨ ØªÛĮØ¬Ùĩ
ĠØ§Ø¯ Ø§Ø±Ùĩ
ĠØ´Ø¯ ÙĨØ¯
ĠÛĮØ§ ÙģØªÙĩ
ĠÙħÛĮ Ø¯Ø§ÙĨ
ĠØ¬ Ø²
ĠÙħÙĪ ÙģÙĤ
ĠØ§ÙĨ Ø³
Ø¯Ùĩ ÛĮ
Øª Ø±ÛĮ
ÙĨ Ø¨Ø§ÙĦ
ĠÙħØ³Ø¦ ÙĪÙĦ
ÛĮÙĨ Ùĩ
Ùħ Ø²
Ùħ Ø§
ĠÙĨ ÛĮÙħ
ĠØ¬ Ø§ÙĨ
ĠÚ¯ Ø³ØªØ±
ĠÙħ Ø±ØŃ
ÙĦ Ø¨
ĠØŃ ØªÛĮ
ĠØª Ø®
ĠØ§ÛĮØ± Ø§ÙĨÛĮ
ĠØ¨Ø±Ø® ÙĪØ±Ø¯
ĠØ§Ø®Øª ÛĮØ§Ø±
ĠØ³ÛĮ Ø³ØªÙħ
ĠØªÙĪ Ø²ÛĮ
ĠÚ©ÙĨ ÙĨØ¯Ùĩ
Ø¯ Ø§ÛĮ
Ù¾ Ø±
ĠØŃ ÙĦ
ĠÙħØ¹ Ø§ÙħÙĦ
ĠØ¯ ÙĨØ¨Ø§ÙĦ
ĠØ³ Ø®
ĠØ¯Ø§Ø± ÛĮÙħ
Ø§Ø¨ Ùĩ
ĠØ®ØµÙĪØµ ÛĮ
Ø´ Ø±
ĠØ¹ Ø±Ø§
ĠØ´ÙĩØ±ÙĪ ÙĨØ¯Ø§ÙĨ
ĠÙģØ± Ø§ÙĩÙħ
ĠÚ©Ùħ ÛĮØª
ĠØ¬ÙĦ ÙĪ
ĠÙ¾Ø§Ø³ Ø®
ĠØ³Ùĩ Ø§Ùħ
ĠÚ¯Ø±Ø¯ Ø´
ĠØªÙĪØ²ÛĮ Ø¹
ĠØ¨Ø± Ø§Ø¨Ø±
Ø¦ Øª
ĠØ® Ø§ÙĨÙĩ
Ø Ł
Ø§ Ø´
Ø±Ø§ÛĮ ÙĨ
ÙĪ Ø¹Ùĩ
Øª Ø´
ĠØ¨ÙĩØ¯Ø§Ø´Øª ÛĮ
ĠÙģ Ø±Ø¯
ĠØ¢ Ø±
ĠØ§Ø¹ Ø¶Ø§ÛĮ
ĠØª Ø¯
ĠÙĨÙĤ Ø´
ĠÙħØ±ØŃ ÙĦÙĩ
ĠØ§Ø± Ø²ÛĮ
ĠÛ±Û³ Û¹
ĠÚ© Ø§ÙħÙĦ
Øµ Ø¯ÛĮ
ĠØ¹ÙĦ ÙħÛĮ
Ø¬ Ø±
ĠÙĤØ±Ø§Ø±Ø¯ Ø§Ø¯
ĠØ¶ ÙħÙĨ
ĠÚ©ÙħÛĮØª Ùĩ
ĠØ¨ÛĮÙħ Ùĩ
ĠØ¨Ø®Ø´ ÛĮ
ĠÛ² Ûµ
ĠÙĪØ§ØŃ Ø¯ÙĩØ§ÛĮ
ĠØ§ØŃ ØªÙħ
ĠØ·Ø¨ÛĮ Ø¹ÛĮ
ĠØ¯Ùĩ Ø¯
Ø¨ Ø§Ø±
ĠØ§ÛĮØ± ÙĨØ§
ĠØ´ Ø±
ĠÙĨØ¸ Ø§Ø±Øª
ĠØ´ÙĨ Ø§Ø³
Ø¬ Ø§
Ø±Ø§ ØŃÛĮ
ĠØ¨Ùĩ Ø¨ÙĪØ¯
ĠÙ¾ ÛĮØ¯Ø§
ĠØµ ÙĨØ¯
ĠØ¨Ø± Ø³
ĠÙĪØ± Ø²Ø´
ÙħØ§ÙĨ ÛĮ
ĠØ§ ÙĪØ±
Ø§Ø³ÛĮ ÙĪÙĨ
ĠØªØ± Ø§ÙħÙ¾
ĠØ¨ ÙĨØ¯
ĠÙĩ ÙģØª
ĠÙħØ¬Ùħ ÙĪØ¹
ĠÙĨ Øµ
Ø®ÙĪ Ø§Ø³Øª
Ùħ Ú©ÙĨ
ĠÚ© ØªØ§Ø¨
ĠØ§ÙĨØªØ®Ø§Ø¨ Ø§Øª
ØªØ¨ Ø§ÙĦ
Ø§Ø± Ø§Øª
ĠØ§ Ø´Øª
ĠÙħØ´ Ø§Ø±
ÙĦÛĮ Ø³
ĠÙĨØ² Ø¯ÛĮ
ĠØ³ ÙĪÙħ
ĠÚ©ÛĮ Ùģ
ĠØ¹ ÙĦÛĮ
ĠÛµ Û°
ĠØªØ¬ÙĩÛĮØ² Ø§Øª
ĠÙĩÙħ Ø§ÙĨ
ÙĪ ÛĮØ¯
ĠØ³ ÙĪØ¯
ĠÛĮØ§ ÙģØª
ĠØ±ÙĪ Ø´
ĠØ¯Ø± ØµØ¯ÛĮ
ĠÙħØ±Ø§ Ø¬
Ø§Ø¨ Ø¯
ÛĮÙĨ Ø¯
ĠØªØ´ Ú©ÛĮÙĦ
ĠØ·Ø¨ ÙĤ
ĠÙħÙĤ Ø±
ĠÙħÛĮÙĦ Ø§Ø¯ÛĮ
ĠØ³ ÙģØ±
ĠÙ¾ ÛĮØ±
ĠØªØ¬ Ø§Ø±Øª
ĠØŃÙģ Ø¸
ĠØ¢ Ø®
ĠÙħ Ø§Ø¯Ùĩ
ÛĮ Ø§ÙĨ
ĠÙģ ØµÙĦ
ĠØ§ Ø«Ø±
ĠØ¹ÙĦ ÙĪÙħ
ĠØ¬ÙĦÙĪ Ú¯ÛĮØ±ÛĮ
ĠØªØ³ÙĩÛĮÙĦ Ø§Øª
ĠÛ±Û ¶
ĠÙģ Ø´Ø§Ø±
ĠÙħØ¬Ùħ ÙĪØ¹Ùĩ
ĠØ¹ÙĦØ§ ÙĪÙĩ
Ø ¤
ĠØ¨ÙĨ Ø§Ø¨
Ø¯ÛĮ ÙĦ
ĠÙħ ÙħÚ©ÙĨ
ĠØ° Ø®
ĠÙ¾ Ø°ÛĮØ±
ĠØ¨Ø§ ÙĦØ§
ĠÙĦÛĮ Ú¯
ĠÚ¯ ÛĮØ±
ĠÙģ ÙĤ
ÙĪ ÛĮÙĨ
ÙĪ Ø¦
ĠØ¨ÙĪØ¯ ÙĨØ¯
ĠÙħØ´Ø§Ø± Ú©Øª
ĠØ® Ø±
ĠØ¨ÙĨØ§Ø¨ Ø±Ø§ÛĮÙĨ
ĠØ± ÙģØ¹
ĠØµÙĨØ¯ ÙĪÙĤ
ĠØ§Ùĩ ÙħÛĮØª
ĠØ¢Ø³ÛĮ Ø¨
ĠØ¹ÙħÙĦ Ú©Ø±Ø¯
ĠÛ±Û ¸
ĠÙħØ· Ø±ØŃ
ĠØ³Ùĩ Ùħ
Ø±Ø³ Ø¯
Ù ł
Û² Û°
ĠØ®Ø§ÙĨ ÙĪ
ĠÙĨØ´ Ø¯Ùĩ
Ø± ÙĪØ¯
ĠÙħÙĤ Ø§Ùħ
ĠØ´ ÙĪÙĨØ¯
Ø§ÙĦ ÙħÙĦÙĦÛĮ
ĠØªÚ© ÙħÛĮ
ĠÙģÙĪ ØªØ¨Ø§ÙĦ
ĠÙħÙĪ Ø¬
ĠØ¹Ø±Ø§ ÙĤ
ĠØ±ÛĮ ÛĮØ³
ĠØ¢Ø² Ø§Ø¯
) ØĮ
ĠØ®Ø§Ø± Ø¬
Ø ¡
Øµ Ø§Øµ
ĠÙĩØ³Øª ÛĮÙħ
ĠÙ¾ÛĮØ´ ÙĨÙĩ
Ø¨ ÛĮØ±
ĠØª Ø§Ø³
Ú©ÙĨ ÛĮÙħ
ĠÚ©ÛĮÙĦ ÙĪÙħ
ĠØªØŃ ÙĤÛĮÙĤ
Ø¢ ÙĪØ±ÛĮ
ĠÙĩÛĮ Ø¦Øª
ĠØ¨ÛĮÙħØ§Ø± Ø³ØªØ§ÙĨ
ĠÙĪØ§ÙĤ Ø¹
Ġ âĢ
ĠØ¯ÙĪÙĦ ØªÛĮ
Ø§ÛĮ Ùĩ
ĠØ§Ø®Øª ØµØ§Øµ
ĠØ· Ø±Ø§ØŃÛĮ
ÙĪÛĮ Ø¨
Ø¯Ùĩ Ø§
ĠÙĨØ¸ Ø§Ùħ
ÛĮ Ú©
ĠØªØµ ÙĪÛĮØ¨
Ø¯Ø§ Ø«
ĠÙģ Ø§Ø²
ĠØªØ¬ Ø±
Ùĩ ÙĨ
Ø§ÛĮ Ùħ
ĠÙĨÙħØ§ÛĮ ÙĨØ¯Ùĩ
ĠØ¯ÛĮØ¯ Ø§Ø±
ĠÚ© ÙĪØ¯
ĠØ§ØŃ Ø¯Ø§Ø«
ĠØµ Ø¯
ĠÚĨ Ø±Ø§
ĠØªÙĤ Ø§Ø¶
Ø§Ø¯ Ø«
ĠØ´ ÛĮØ±
ĠØªØ¬ Ø§Ø±ÛĮ
Ø§Ø¨ ÙĦÙĩ
ĠØ¬ ÙĪ
ĠØ´ÙĨØ§Ø³ Ø§ÛĮÛĮ
Ø§ÙĦ Ø¨
ĠÙħÙĤ Ø§Ø¨ÙĦÙĩ
ĠÙģØ± Øµ
ĠÙĨ Ø¨
ĠØº Ø°
ĠÙĪØ± ÙĪØ¯
ÙĦØ§ Ùģ
ĠØ¬Ùħ Ø¹
ĠØ¨ Ø³Øª
ĠØ´Ùħ Ø§
ĠÚ©ÙĨ Ø§Ø±
Ùħ ÛĮØ±
ÙĪØ± Ø´
ĠÚ©ÛĮÙģ ÛĮØª
ĠØ¯ ÙĨÛĮ
Ø¨ Ø±Ø¯Ø§Ø±ÛĮ
ĠØ³ ÙĨÚ¯
ĠØ¨ÛĮÙĨ ÛĮ
ĠØ¨ØŃ Ø±Ø§ÙĨ
Ú¯ Ø§ÙĨÛĮ
Ø¨ Ø§Øª
ĠØ³ Ø®Øª
Ú¯Ø° Ø§Ø±
ĠÙ¾ÛĮ Ú¯ÛĮØ±ÛĮ
ĠØ¨ÙĪØ¯ ÙĨ
ĠØ² ÙĨØ¯Ú¯ÛĮ
ĠÙĨ Ø§ÙħÙĩ
ĠØ§Ø± Ø³Ø§ÙĦ
ĠÙħØŃ Ùħ
ĠÚ© ÙĦÛĮ
ĠØ®Ø§ÙĨÙĪ Ø§Ø¯Ùĩ
ĠÙħØ´ Ø§Ø¨Ùĩ
ĠÙħØ¯ÛĮØ± Ø§ÙĨ
ĠÙģ Ø±Ø§
ĠØ²ÛĮØ± Ø§
ĠØ¨ Ø³ØªÙĩ
Ø¦ ÙĦ
ĠØ¯Ø§Ø® ÙĦ
ĠØ´ÙĨ Ø¨Ùĩ
Ø§Ùĩ ÛĮ
ĠØ¹Ø± Ø¨
Ø±Ùģ ÛĮ
ĠÙĨÙħØ§ÛĮ ÙĨØ¯Ú¯Ø§ÙĨ
Ú¯ ÙĪÙĨÙĩ
ĠØ§Ø³ Ø§Ø³ÛĮ
ĠÙħØ¨Øª ÙĦØ§
Ø¯ Ø¯
ĠØª Ø§ÛĮ
ĠÙħØŃØ¯ÙĪØ¯ ÛĮØª
ĠÛ² Û°Û°
ĠØªØ§Ø³ ÛĮØ³
Ø§Øµ ÙĦÙĩ
ĠØµ ØŃ
Ø§Ø³ Ø§Ø³
ĠØŃÙĤ ÙĪÙĤ
ĠÙĨ Ú¯Ùĩ
Ø¯Ø§ Ùģ
ĠÙħØª ØŃ
ĠÙĨØ²Ø¯ÛĮ Ú©
ĠØ¯ÛĮ Ú¯Ø±ÛĮ
Ø¨ ÛĮÙĨ
Ø±ÛĮ Ùģ
ĠØ³Ø± Ø§Ø³
ĠØ®ÙĪØ§Ùĩ ÙĨØ¯
ĠØ¯Ø± Ø®ÙĪØ§Ø³Øª
ĠØª Ø³
ĠÙĩÙĪ Ø´
ÛĮÙħ Ø§ÙĨ
ĠØªØ¨ Ø¯ÛĮÙĦ
ĠÚ©Ùħ ØªØ±
ĠØ¨ÛĮÙħ Ø§Ø±Ø§ÙĨ
ĠÙĨ ÙĪØ¹
ĠÙ¾Ø§ÙĦ Ø§ÛĮØ´
ÙĪ Ø²ÛĮ
ĠØ§ÙħÛĮØ¯ ÙĪØ§Ø±
ÙĨ Ø´
ĠÛ± Û°Û°
ĠØ´Ùħ Ø§Ø±
ĠÙĩ Ø´Øª
ĠÙģ Ø¯Ø±
ĠØ³ Ù¾
ĠØ¢ ØªØ´
ĠØ®Ø· ÙĪØ·
ĠÙ¾ÛĮØ´ Ø±
ĠØ³ Ø±ÛĮ
ĠÙĩÙħ Ø§Ùĩ
ĠØ§Ø¹ Ùħ
ĠÙħÙĩ ÙĨØ¯
ĠØ¢Ùħ Ø¯Ùĩ
ĠÙ¾ ÙĦ
ĠØ¨Ø± Ø§Ø³Ø§Ø³
ĠÛ´ Û°
ĠÙģ Ø§Ø±Ø³
ĠØ¨ÛĮØ´Øª Ø±ÛĮ
ĠØ¢Ùħ Ø§Ø¯Ùĩ
ĠØ¹ Ø¯Ùħ
Ø´ Ø¯Ùĩ
Ùģ Ø§ÙĤ
Ø®ÛĮ Øµ
ÙĪÛĮ ÙĦ
ĠØ§ÙĪ ÙĦÛĮÙĩ
ĠØªÙĩ ÛĮÙĩ
Ø±Ø¯ Ø§Ø±
ĠÚ¯Ø±Ø¯Ø´ Ú¯Ø±ÛĮ
Ú¯ Ø±Ø¯
ĠÙĩÙĨ Ø±
ĠØ¬ Ø°
ĠØ±Ø³ Ø§ÙĨÙĩ
ĠØª Ø±Ø§
ĠÛ±Û ·
ĠØ§ÛĮÙħ ÙĨÛĮ
ĠÙĤØ· Ø¹
ĠÙĨÙħ Ø§ÛĮØ´Ú¯Ø§Ùĩ
ĠÙĨ Ø¯Ø§Ø±
ĠØ±ÛĮ Ø§Ø³Øª
ĠØªØ§Ø±ÛĮ Ø®
ĠÙĨØ§ Ø´ÛĮ
ĠÚ¯Ø§Ø² Ø±Ø³Ø§ÙĨÛĮ
Ø§Øª Ø±
ĠØ¨ØŃ Ø«
ĠÙĩÙĨ ÙĪØ²
ĠØ® Ø§Øµ
ĠØ®ÙĪ Ø§Ø³Øª
ĠØ´ Ú©ÙĦ
ĠÚ©Ø§Ø± Ú©ÙĨØ§ÙĨ
ĠØ§ÙĪÙĦ ÙĪÛĮØª
ĠÙ¾ Ø§Ø±Ø³
ØªÙĪØ§ÙĨ ÛĮÙħ
ĠÙħØªØ± Ùħ
Ø±Ø¨ Ø§ÛĮØ¬
ĠØ§ÙĨØªØ¸ Ø§Ø±
ĠÙĦ ØŃ
ĠØªÙħ Ø§ÙħÛĮ
ĠÙ¾ ÙĪØ´
Ø´ ÙĩØ±
ĠÙħØŃ ÙĤÙĤ
ĠØª Ø®ØµØµ
ĠÙħØ³Øª ÙĤ
Ø®Øµ ÛĮ
ĠÙħØ¹ Ø±ÙģÛĮ
ĠØ¢Ø° Ø±Ø¨Ø§ÛĮØ¬
ĠØ±Ø§Ø³Øª Ø§ÛĮ
ĠØªÙĤ ÙĪÛĮØª
ĠØ§Ø± ØªÙĤ
ĠÙħÙĨØª Ø´Ø±
ĠØªÚ©ÙħÛĮ ÙĦ
Ø§ ÙĪ
ĠÚ©Ø± ÙħØ§ÙĨ
ĠØ¬ ÙĪØ§ÙĨ
ĠØ§ÙĦ ÙħÙĦÙĦÛĮ
ĠØª ÙĪØ±
ĠØ¯Ùĩ ÙĨØ¯
ĠÙĪ ÙĦÛĮ
ĠØ§Øª ÙģØ§ÙĤ
ĠÙĨØ®Ø³Øª ÛĮÙĨ
ĠÙħÙĪ ÙĤ
ĠØ¯Ø§Ø± ÙĪ
ĠÙħ Ø²
ĠØ¢Ø® Ø±ÛĮÙĨ
Ø¸ Ø±
ĠÛ¹ Û¹
ĠØ¢Ø°Ø±Ø¨Ø§ÛĮØ¬ Ø§ÙĨ
ĠÙħØ¬ Ø§Ø²ÛĮ
ĠØ³ÛĮ Ø§Ø³ÛĮ
Øº Ø§ÙĦ
ĠÙ¾ Ø§Ú©
ĠÙĩÛĮ Ø§Øª
ĠÙħÙĪ Ø§
ĠÙħØ° Ø§Ú©
ĠØ§Ø±ÙĪ Ù¾Ø§
ĠÙĪØ§Ø±Ø¯ Ø§Øª
ĠÙĨ Øª
Ø¨ Ø¹
ĠØ§Ø³Øª ÙĤÙĦ
ĠÚ©ÙĪ ÙĪÛĮØ¯
ĠÙĩÙĪ Ø§
ĠÙģØ±Øµ Øª
Ú©ÙĨÙĨØ¯ Ú¯Ø§ÙĨ
Ø· ÙĪØ±
ĠØ¢ÙħÙĪØ² Ø´ÛĮ
ĠÙħØª Ø¹
Ø§Ùĩ Ø§
ĠÙģ ÛĮ
Ø¦ ÛĮ
ĠØªØ¹ Ø·
ĠØ¹Ø±Ø¨ Ø³ØªØ§ÙĨ
Ú© ÙĪØ±
ĠÙħØª ÙĤ
ĠÙħØ¨ ÙĦ
ĠØ¢Ø¨ Ø§ÙĨ
ĠØª ÙĦ
ĠÚ©ÛĮÙĦ ÙĪ
Ù¾ ÙĪÙĦÛĮ
ĠÙģØ±Ùĩ ÙĨÚ¯
ÙĪÛĮ Ùĩ
ĠÛµ Û°Û°
ĠØ§Øª ØŃ
ĠØ§ØŃØªÙħ Ø§ÙĦ
ĠØ§ÙĨ Ú¯
ĠØ¬Ùħ Ø¹ÛĮØª
ĠØŃØ³ Ø§Ø¨
ĠÙħÙĪ Ø³
ĠÚ© Ø§ÙĨ
ĠÙħØ³Ø§ Ø¦ÙĦ
ĠÙĨÛĮØ±ÙĪ ÙĩØ§ÛĮ
ĠÙħÙĪØ¬ Ø¨
ĠØ±Ø³ Ø§ÙĨÛĮ
ĠØ¢Ø° Ø±
Ø±ÛĮ Ø²ÛĮ
ĠÙģØ¯Ø± Ø§Ø³ÛĮÙĪÙĨ
ÛĮÙĨ Ú¯
Ø®ÙĪØ§Ùĩ Ø¯
ĠØ§Ø³ØªÙĤÙĦ Ø§ÙĦ
ĠÙħ ÛĮØ±
ĠÚ©Ø§Ø± Øª
ĠÙħÙĪØ§ Ø¬Ùĩ
ĠØ³Ø§Ø®Øª ÙħØ§ÙĨ
ĠØ±ÙĤ Ùħ
ĠØ³ Ø±ÙĪ
ĠØªÙĪÙĦÛĮ Ø¯ÛĮ
ĠÙĤØ§ÙĨ ÙĪÙĨÛĮ
Ø² Ø¯
ĠÙĨØµ Ø¨
ĠÙħØ¹Ø§ÙĪÙĨ Øª
ĠÙĪØ§ Ú©Ø³
Ø± Ùħ
ĠÙħ Ø¤
ĠÙĦ Ø§ÛĮ
Ø¨ ÛĮÙĨÛĮ
ĠØ¨Ø§ÙĨ Ú©ÛĮ
ĠÙ¾Ø§ÛĮ Ùĩ
Ùħ ÙĪÙĦ
ĠØ±ÙĤ Ø§Ø¨Øª
ĠØªØ§ÛĮ ÛĮØ¯
ĠÙħØŃ Ø³
Ø¯Ùĩ Ùħ
ĠØ¹ÙħÙĦÛĮ Ø§ØªÛĮ
Ø± Ø§ÙĨÛĮ
ĠÙĨ ÙĩØ§ÛĮÛĮ
ĠÙĨÛĮØ±ÙĪ Ú¯Ø§Ùĩ
ĠÚ©ÛĮÙĦÙĪÙħ ØªØ±
ĠØ§ÛĮ Ø³Øª
Ú© Ø§Ø±Ø§ÙĨ
ĠÙ¾ÛĮØ´ÙĨÙĩ Ø§Ø¯
Ø¯Ùĩ ÙĨØ¯
ĠØ§Ø¹ØªØ¨ Ø§Ø±
ĠÙħØŃ ÙĪØ±
ĠØªØ¹ ÙħÛĮØ±
Ø¹ Ùģ
ĠØ§Ø¨Øª Ø¯Ø§ÛĮ
ĠØ² ÙĨØ¬
Ø§ÙĦ Ø§Øª
ĠÚĨ ÙĨÛĮÙĨ
ĠÙĪ Ø¸
ĠÙħØ¨ Ø§Ø±
ĠÚ©Ø´ Ø§ÙĪØ±
Ø§Ø¯ Ú¯ÛĮ
ĠØ¬ ÛĮ
ĠØ¹ Ø§ÙĦÛĮ
ĠØªØ¬Ø± Ø¨Ùĩ
ĠØ³ Ø¹
ĠÙħ Ø§Ø³
Ø¯Ø§ Ø´ØªÙĩ
ĠØ´ÙĩØ± Ø³Ø§Ø²ÛĮ
Ø¨ Ø±Ø¯
Ø¨Ø± Ø§ÙĨ
ĠÙĩÙĪØ´ ÙħÙĨØ¯
Øµ Ø±
ĠÙħØ±Ø§Ø¬ Ø¹Ùĩ
Ùħ Ù¾
ĠØ¬ Ø±ÛĮØ§ÙĨ
ĠØ±Ø³ ÙħÛĮ
ĠÙĩÙħØ§Ùĩ ÙĨÚ¯ÛĮ
ĠØ¬ Ø¯ÛĮ
Ø§ÙĦ Ùĩ
ÙĦØ§ÛĮ ÙĨ
ĠØ§ÙĨØª Ø´Ø§Ø±
ĠÚ© Ø§Ø±ÛĮ
ĠØ¯Ø±Ø¢ ÙħØ¯
ĠÙ¾Ø§ÛĮ ÛĮÙĨ
ĠØµ Ø§Ø¯
Ø§Ø¯Ùĩ Ø§ÛĮ
ĠØ¹ Ø§ÙħÙĦ
ĠÙ¾Ø±Ø³ Ù¾ÙĪÙĦÛĮ
ĠÙ¾ Ø§ÛĮØ¯
ĠÚ¯ ÛĮØ±ÛĮ
ĠØº Ø±Ø¨
ĠØ¨ ÙĨÛĮ
ĠØ³Ø¨ Ø¨
ĠØ¯Ø±ÙħØ§ÙĨ ÛĮ
ĠÙĤ Ø¯Ø±
ĠØ§ÙĦ Ú©ØªØ±
ĠÙĨ ØŃ
ĠØ§Ø±Ø²ÛĮ Ø§Ø¨ÛĮ
ÙĪÙĦÛĮ Øª
ÙĪÙĨ Ø¯Ùĩ
ĠØŃ Ú©
ĠØ¬ Ø´ÙĨ
Ø¹Ùĩ Ø¯
ÙĨ Øª
ĠØ§ Ø±Ø¯
ĠØ¨ÛĮØ´ØªØ± ÛĮÙĨ
ĠÙĤ Ø§ÙĦØ¨
Ø§Ø¯ÛĮ Ùĩ
Ùħ Ø±Ú©
ĠÙ¾Ø±Ø³Ù¾ÙĪÙĦÛĮ Ø³
ĠØ±ÙĪØ² ÙĩØ§ÛĮ
ĠØ¯ÙĨÛĮ Ø§
Ø¨ Ø§ÙĨÛĮ
ĠØ¨Ø± Ø¯Ø§Ø±ÛĮ
ĠØ¯Ø± ÛĮ
ĠÚĨ Ø´Ùħ
Ú©ÙĨ ÙĨØ¯Ùĩ
ĠØ³ ÙħØª
ĠÙĩÙħÚĨ ÙĨØ§ÙĨ
ĠÙĨØª Ø§ÛĮØ¬
ĠØ¶ Ø¯
Ø§Ø¨ ÙĤÙĩ
ĠÛ² Û²
Øµ Ùĩ
ÙĪØ§ Ø¹
ĠØ± Ø¶
ÛĮÙħ Ø§
ĠÙĤ Ø§
ÙĦ Ùħ
ĠÙģ ÛĮÙĦ
ĠØ§Ùĩ Ø¯Ø§Ùģ
ĠØªØ®ØµØµ ÛĮ
ĠÙģ Ø§ØµÙĦÙĩ
ĠØ§ÛĮÙĨ ØªØ±
ĠØ´ ÙĨØ§
ĠØ§ØªØŃ Ø§Ø¯ÛĮÙĩ
ĠØ®Ø· Ø±
Ú¯ ÛĮÙĨ
ĠØ¢ Ø³
ĠÙħØª ÙĨ
Ø³ Ø§Ø®Øª
ĠÚ¯ ÙĪÙĨÙĩ
ĠÙģ ÙĪÙĦ
ĠØ¨Ø§Ø² Ú¯
ĠÛĮØ§Ø¯ Ø¢ÙĪØ±
ĠØ¯ Ø¨ÛĮØ±
ĠÚ©ÙĪ ÚĨ
ÙĦÛĮ Øª
ĠÙħØ§Ùĩ Ùĩ
ĠÙħØ´ Ø§ÙĪØ±
ĠÙ¾Ø± ÙĪÙĨØ¯Ùĩ
ĠØ§ Ø¨Ø±
ĠØ®ÙĪ Ø´
ĠÛ¹ Û¸
ĠØªØŃ ÙĪÛĮÙĦ
ĠÙĨÛĮÙħ Ùĩ
Ø¬Ùħ Ùĩ
ĠÙħÙĨ Ø¨Ø¹
ĠØŃ Ø¬Ùħ
Øº ÙĦ
ĠÙħØ³Ø¦ÙĪÙĦ Ø§ÙĨ
ĠÙ¾Ø§ÛĮ Ú¯Ø§Ùĩ
ĠØ¬ÙĨ ÙĪØ¨
Ùĩ ÛĮ
ĠÙħØ¬ ÙĪØ²
ĠØ³ ÙĤ
ĠØ³ Ø§ÛĮØª
ĠØ´ Ø±ÙĪ
ĠÚ©Ø±Ø¯ ÛĮÙħ
Ø± Ø§Ø±
ÙħÙĨØ¯ Ø§ÙĨ
ĠØ°Ø® ÛĮØ±Ùĩ
ĠØ§ÙĪØ± Ø§ÙĤ
ĠÙħØ± ØªØ¨
ĠÙ¾ÛĮ Ø§Ùħ
ĠÙ ¡
ĠØ¬ ÙĨÚ¯
ĠØ± Ø´ØªÙĩ
ĠØªØ±Ú© ÛĮÙĩ
ĠÙĪØ§Ú©Ø³ ÙĨ
ÙĪ Ø¨Ùĩ
ĠØ§Ø¨ ÙĦØ§
Ø®Øª Ùĩ
ĠÙĤ Ø¯
ÙĪ Ú¯ÙĪ
ĠÙħØµ ÙĪØ¨
ĠØ´Ùĩ Ø±Ø¯Ø§Ø±
ĠØªØ± ØªÛĮ
ĠØª ÛĮØ±
ĠØ³Ø® ÙĨÚ¯
ĠÙ¾ÙĪØ´ Ø´
Ø¹ ÙĨÛĮ
ĠÙģØ± Ø¢
ĠØŃÙģ Ø§Ø±ÛĮ
ĠØ¯Ø§ÙĨ Ø³Øª
Ø¸ ÛĮÙħ
ĠØ¨Ø±Ø®ÙĪØ±Ø¯ Ø§Ø±
ĠÚ©ÙĨ ÛĮØ¯
ĠØ§ÙĨ ÙĪØ§Ø¹
ĠÙĨÛĮØ± ÙĪÛĮ
ĠÙ¾ ÙĪÙĦ
ĠÙħØªØ±Ùħ Ú©
Ø§Ùģ ÛĮ
ĠÚ¯Ø§Ø² ÛĮ
ĠØ³Ø¨ Ø²
ĠØ±ÙĪØ³Øª Ø§
ĠÚ¯Ø³ØªØ± Ø´
ĠØ²ÛĮØ± Ø³Ø§Ø®Øª
ĠÛ² Û³
ĠÙħÙĩÙĨØ¯ Ø³ÛĮ
ĠØ±ÙĪØ³Øª Ø§ÛĮÛĮ
ĠØ¨Ø³Øª Ø±ÛĮ
ĠØ¢Ø²Ùħ Ø§ÛĮØ´
ĠÛ² Û±
ĠØ§Ùħ Ø±
ĠÙĨ Ø¨ÙĪØ¯
ĠÙħØ§Ø³ Ú©
ĠØ¨Ø§Ø² Ø±
Ø§ Ø¸
Ø§Øµ ÙĦ
ĠÙħØ¨ÙĦ Øº
ĠÙħØ¹Ø§ÙħÙĦ Ø§Øª
ĠØ¢ ÛĮ
Øº Ø§ÙĨ
ĠØ¬Ø° Ø¨
ĠØ³Ø±ÙĪ ÛĮØ³
ĠÙħØµ ÙĪØ¨Ùĩ
ĠÙĨ Ú¯Ø±
ĠÛ¶ Û°
ĠØ§ÙĦÚ©ØªØ± ÙĪÙĨÛĮ
ĠØ§ÙĨØ³ Ø§ÙĨÛĮ
ĠØ´Ø±ÙĪ Ø¹
ĠØªØ±ØªÛĮ Ø¨
ĠØ³Ø®ÙĨÚ¯ ÙĪÛĮ
ĠØŃØ¯Ø§ ÙĤÙĦ
ĠØ§Ø¹Ùħ Ø§ÙĦ
ĠØª Ø±Ø¯
ĠØ¨Ùĩ Ú©
ĠÙħØªØ±ÙħÚ© Ø¹Ø¨
ĠØ¨Ùĩ ØªØ±
ĠÙħØ³Ø§ ÙģØ±
ÚĨ Ø§Ø±
Ø¸ Øª
ĠÙ¾ÛĮØ´Ø± ÙģØª
ĠØ¬Ø´ÙĨ ÙĪØ§Ø±Ùĩ
Øª ÙĪ
ĠÙģÙĤ Ø·
Ú© Ø´
ĠÙĤ ÙĩØ±
Ø§ ÙĪÙħ
ĠÚ©Ø§Ø±Ø´ÙĨ Ø§Ø³Ø§ÙĨ
ĠÙħ Ø§Ø²
Ùħ Ùĩ
ĠØ¨Ùĩ ØªØ±ÛĮÙĨ
ĠÙħØ³ Ø§Ø¨ÙĤ
ĠØ®Ø§Ø± Ø¬Ùĩ
ÛĮØ¯ ÛĮ
ĠØ§ÙĪÙĦ ÛĮÙĨ
ĠÚ¯Ø° Ø§
ĠØ® ÙĪØ±
ĠÚ©ÙĦ Ø§ÙĨ
ĠÙ¾ ÙĦÛĮØ³
ĠØ¨ÙĦ Ú©Ùĩ
ĠÙ¾Ø±ÙĪ Øª
ĠØ¢Ø³ÛĮ Ø§
Ø² ÙĨ
ĠÙħØªÙĤ Ø§Ø¶
Ø³ Ø§Øª
ĠØ³Ø± Ø¹Øª
Ø§ÙĦ Ø¹
ĠÚĨ Ø§ÙĦ
ĠØ¹ ÙĪ
ĠØ§Øª Ø§ÙĤ
ĠÙħÛĮØ§ÙĨ Ú¯ÛĮÙĨ
ÙħÙĨØ¯ ÛĮ
Ø³Øª Ø§ÙĨÛĮ
ĠÙĪØ± Ø²
ĠØ§Ø¨Øª ÙĦØ§
ĠØ§Ø³Øª ÙĤ
ĠÙħØ³Ø§Ø¨ÙĤ Ø§Øª
Øª ÙĪØ±
ĠÙ¾Ø§Ø± Ú©
ĠØ± Ø§ÙĨ
ĠØµ Ø¨
ĠØ´ Ø´
ĠØ³ ÙĦ
ĠÚ¯ÛĮØ± Ø¯
ĠÙħ Ø§ÙĦ
ĠØ´Ùħ Ø§ÙĦ
ĠØ´ÙĩØ± ÙĩØ§ÛĮ
ĠØ¨Ø§ ÙĦØ§ÛĮ
ĠØ¯Ø³Øª ÛĮ
ĠÛĮ Ø¹ÙĨÛĮ
ĠØ¢ Ø«
ĠØ¨Ø§Ø´ ÛĮÙħ
ĠØ§ Ú©
ĠØ±ÛĮ Ø²ÛĮ
ĠØª ÙĦÙģ
ĠÙħØ· ÙĦ
ÙĪØ± ÙĪ
ĠØ® Ø¨Ø±ÛĮ
ĠÙ¾ÛĮØ´ Ú¯ÛĮØ±ÛĮ
ĠØ§ÛĮØ³Øª Ú¯Ø§Ùĩ
ĠÙĦØ§ÛĮ ØŃÙĩ
ĠÙħØ±ØªØ¨ Ø·
Ø´ÛĮ Ùĩ
ĠØªØ§Ø³ÛĮØ³ Ø§Øª
ĠÙħØ¹ Ø¯ÙĨ
ĠÙĨ ÙĪØ³
ĠÚ©ÙĨ ÙĪÙĨÛĮ
ĠÙĨ ÙĩØ§
ĠØ® ÛĮ
ĠØ§Ø´Øª ØºØ§ÙĦ
ĠØ®ÙĪ Ø¨
Ø§Ùħ Ø¨Ø±
ĠÙħÙĤ Ø§Ø¨ÙĦ
Ø³ Ø§Ø²
ĠØ¨Ø§Ø²ÛĮ Ú©ÙĨØ§ÙĨ
Ùģ ÙĨØ¯
Ûµ Û°
ĠØ®Ø± Ø§Ø³Ø§ÙĨ
ĠÙħÙĨ Ø¬Ø±
ØŃ ÙĦ
ÙģØª Ø±
ĠØ±Ø§ Ø¨
ĠØ§ Ù¾
ĠÚ¯ÙģØª Ú¯ÙĪ
Ùħ Ø§ÛĮÛĮ
ÙĩØ§ÛĮ Øª
ĠØŃØ§ Ø´ÛĮÙĩ
ĠØ³Ø§ÙĦ Ùĩ
Ú¯ ÙĪÛĮ
ĠØª Ø§Ø¨
ÙħÛĮ Ùĩ
ĠâĢ ¦
Ùģ Ø§ÙĨÙĩ
ĠØ® Ø±ÙĪ
Ø§ÛĮ Ø³Ùĩ
ĠÙħØ¨ ÙĨÛĮ
ĠÙĪØ±Ø² Ø´ÛĮ
ÙĨ Ø²
ÛĮØª ÛĮ
ĠØ® ÙĪÙĨ
ĠØ¨Ø§Ø²Ø± Ú¯Ø§ÙĨÛĮ
ĠÚ©Ø´ÙĪØ± ÙĩØ§
ĠØ³ ÛĮØ¯
ĠØ± ÙĪÙĨ
ĠØ§ÙģØ± Ø§Ø¯ÛĮ
ĠÙĩ ÙĨØ¯
ĠÙħÙĤ Ø§ÛĮØ³Ùĩ
ĠØªÙĪ Ø¶ÛĮ
ĠÚ©Ø´Ø§ÙĪØ± Ø²ÛĮ
ĠØŃ ÙĪ
ĠØ¢Ùħ Ø§Ø¯Ú¯ÛĮ
Ø§ÙĨÛĮ Ùĩ
Ø± Ø¨ÛĮ
ĠØ¨Ø§Ø²ÛĮ Ú©ÙĨ
ĠØ³Ùģ ÛĮØ¯
ÙĨ Ø§ÛĮ
ĠØ¢Ø« Ø§Ø±
ĠÙĦ ÙĪ
ĠØ¯ ÙģØªØ±
ĠÙħØ¹ ÙĦ
ĠÚ©Ø§ÙĦØ§ ÙĩØ§ÛĮ
ĠØ¢ ÙĤ
ĠÙģ Ø±ÙĪ
ĠÙħØ« Ø¨Øª
ĠØŃØ¯Ø§ Ú©
ĠØ§ Ú©Øª
ĠØ® ÙĦÛĮ
Ø§Ø³ Ùħ
ĠØ¯Ø§Ø´Øª ÙĨØ¯
ĠØ¯Ø³Øª Ø±Ø³ÛĮ
ĠØŃ Ø±Ú©Øª
ĠØªÙĪØ¶ÛĮ ØŃ
Ø± Ø¶Ø§
ĠØŃ Ø¯
Ø¬ Ø§ÙĨ
Ù¾ Ø°ÛĮØ±
ĠØ¨Ø± ØªØ±
ĠÙĩ ÙĨÚ¯
ĠØ¯ ÚĨØ§Ø±
Ø² Ø§Ùħ
ĠØµØ¯ ÙĪØ±
ĠØ§Ø¨ÙĦØ§ Øº
ĠÛ² Û·
Ø§ÙĨØ¯ Ø§Ø²ÛĮ
ĠØªØŃ ÙĤÙĤ
ÙģØ§ ÙĪØª
ĠØ¯ ÙĤÛĮÙĤ
Ù¾ Ø±Ø¯
ĠØ´ÙĩØ±ÛĮ ÙĪØ±
Ùħ ØŃ
ĠÛ· Û°
ĠÙĩÙħ Ø³
Ø® ÙĪØ§ÙĨ
ĠØ¹ÙĦ Øª
ĠØµØ¨ ØŃ
ĠØªÙģ Ø§ÙĩÙħ
ĠØ´ Ø¹
ĠÚ©ÙĪÚĨ Ú©
ĠØ´Ø¯ ÛĮØ¯
ĠØ³ ÛĮÙĨ
ĠØ´Ùħ Ø§Ø±Ùĩ
ĠØ®ÙĪØ¯Ø±ÙĪ ÙĩØ§ÛĮ
ĠÙħØª Ø§Ø³
ĠØ§Ø³ØªØ§ÙĨØ¯ Ø§Ø±
ĠØ³Ø±ÛĮ Ø¹
ĠØ¬ Ø§Ø¯Ùĩ
ĠÙħØ¬ ØªÙħ
ĠÙħØª Ø®ØµØµ
Ø¢ Ùħ
ĠÙģÛĮÙĦ Ùħ
ĠØ¨ÙĨØ¯ Ø±
ĠØŃ ÙģØ§
ĠÙ¾Ø± ÙĪØ±Ø´
ĠØªØ´ Ø®ÛĮØµ
ĠØ¯Ø§ÙĨØ´ Ø¬
ĠÙħØ¬ØªÙħ Ø¹
ĠØµ Ùģ
ĠØ±Ø§Ø¨ Ø·Ùĩ
Øª ÙĨ
Ú¯Ø§Ùĩ ÛĮ
ÙĦ Ø§ÙĦ
ĠØ¨ Ø§Ø±Ùĩ
Ø¨Ø§ Ø´Ø¯
ĠÙĩ Ø§ÛĮÛĮ
ĠØªØ¯ ÙĪÛĮÙĨ
ĠØ¹Ùħ Ø¯Ùĩ
ĠØ¨Ø±Ø³ Ø¯
ÙħØ§ÙĨ Ø¯
ĠÙħØªØ§Ø³ ÙģØ§ÙĨÙĩ
ĠÙ¾ ÛĮÙħØ§ÙĨ
ĠÙħÙĦ Øª
ĠÙĪ Ø³
ĠØ³Ø± Ù¾Ø±
ĠÙħØ¨Ø§Ø± Ø²Ùĩ
ĠØŃ Ø§Ø¯Ø«
ĠÙħØ° Ú©ÙĪØ±
ĠÙĩÙĪ Ø§Ù¾
Ø±ÛĮ Ø¨
ĠØ¨Ø¯ ÙĨ
ĠÙħ ÙĩØ§Ø±
ÙĪ Ø³Øª
ĠÙĦØŃ Ø§Ø¸
ÙĪØ± Ø§ÙĨ
ĠÙħØ¨Øª ÙĦØ§ÛĮ
ĠÙĨÙĪ Ø´Øª
ĠØ³Ø±Ø§Ø³ Ø±
ĠÚĨØ§ÙĦ Ø´
ÙĪ ÙĤÛĮ
ĠÙĨ ÙĩØ§ÛĮØª
ĠÙĨ Ø¯Ø§Ø´ØªÙĩ
ĠÚ© ÙĪØª
ĠØ®Ø¯Ùħ Øª
ĠØ¹ ÙĦÛĮÙĩ
ĠØª Ø¹ÙĩØ¯
ĠØ¬ÙħÙĩ ÙĪØ±
ĠÙģÙĪÙĦ Ø§Ø¯
ĠÙ¾Ø§ÛĮØ¯ Ø§Ø±
Ùĩ Ùħ
ĠØ± ÙĪØ¯
Ø§ÙĦ Ø¯
ĠØ¶Ø± ÙĪØ±ÛĮ
ĠØŃØ§Ø¯Ø« Ùĩ
ĠØ´ÙĪØ± Ø§
ĠØªÙĪ Øµ
Ø² ÙħØ§ÙĨ
ĠØ® Ø±Ø¯
ĠÙħØ± Ø²
ĠØ¨Ø§Ø²Ø§Ø± ÙĩØ§ÛĮ
ĠØ§Ø±ØªØ¨Ø§Ø· Ø§Øª
ÚĨ ÛĮ
ĠÙħØ³Ø¦ ÙĪÙĦÛĮØª
ĠØªÙĨ Ø¸ÛĮÙħ
ĠØ¬ Ø¯
ĠØ¨Ø§Ø² Ø¯ÛĮØ¯
ĠÙĤ ÙĪØ§ÙĨ
ĠØ¶Ø± ÙĪØ±Øª
ĠØ¯ÛĮ Ø¯Ùĩ
ĠÚ©ÙĨÙĨØ¯ Ú¯Ø§ÙĨ
ĠÙĤØ¯Ø± Øª
ĠØ§ÙĨ Ø¬
ĠØ¨ ÙĪ
ĠÛ² Û¸
ĠÙ¾Ø§Ø± Ø³Ø§ÙĦ
ĠÚĨ ÙĪÙĨ
ĠÙĨØ¨ Ø§ÛĮØ¯
Ø¶ Ø§ÛĮÛĮ
Ø´ ÛĮÙĨ
ĠÙħØ³Ø¦ ÙĦÙĩ
ĠØ®ÙĦÛĮ Ø¬
Øª Ø§ØŃ
Ø¨ ÙĨØ¯ÛĮ
ĠÙħÙĤ Ø¯Ø§Ø±
ĠÚ¯ ÙħØ±Ú©
Ø¯ Ø§Ø¯ÛĮ
ĠÚ© Ø§Ùħ
ĠØ¨Ø± Ø¬Ø§Ùħ
ĠØ® Ø³
ĠØ¯Ø§Ø± Ø§ÛĮÛĮ
ĠØ§Ø³ØªØ§ÙĨØ¯ Ø§Ø±Ø¯
ĠÚĨ Ø§Ùĩ
ĠÙħÙĤ Ø§ÙĪÙħ
ĠØ¢ ÙĩÙĨ
ĠØ§Ùħ Ø¶Ø§
ĠØ± Ø®
ĠØ³Ø§ÙĦ Ø§ÙĨÙĩ
ĠÙħÙĪ Ø§ÙģÙĤ
ĠÙħ Øº
ĠØ®Ø§ÙĨ ÙĪØ§Ø±
ĠØŃ Ø§ØµÙĦ
ĠØµ Ø±Ùģ
Ù¾ Ø§ÛĮÛĮ
ĠØ§ÙĨØ¬ ÙħÙĨ
ÙĦØ§ Ú©
Ø§ ÙģØª
ĠÙħØ§ÙĦÛĮ Ø§Øª
ØŃ Ø³
ĠÛ² Û¶
ĠØ¨ Ú¯ÛĮØ±
ĠØŃÙĤ ÙĪÙĤÛĮ
ĠØ§Øª ÙĪØ¨
Ø³Øª Ú¯ÛĮ
ĠØ® ÛĮÙĦÛĮ
ÙĦ ÙĪ
ĠØ¬Ø§Ùħ Ø¹
ĠØ¢ÙħØ±ÛĮÚ© Ø§ÛĮÛĮ
ĠÙĨÙħ Ø§ÛĮØ´
Øª Ø¨Ùĩ
ĠØ®ÙĪØ§Ùĩ ÛĮÙħ
Ø¦ ÙĪ
ĠÛĮ Ø§Ø¨Ø¯
ĠØ±ÙĪ ØŃ
ĠØ± Ùģ
ĠØ§ÙĨØ¯ Ø§Ø²ÛĮ
ĠØŃ Ø°
ĠÙħØ¹ Ø§Ø¯ÙĦ
ĠØ¯ ÙĤÛĮ
ĠØ§Ø³ ÙģÙĨØ¯
Ø¦ Ùħ
ĠØ§Ùģ ØºØ§ÙĨ
ĠÙħØŃØ³ ÙĪØ¨
ĠÙĨ Ø¬
Ø¨ Ø±Ø¯ÛĮ
Û± Û¹
ĠØ§ÙģØª ØªØ§ØŃ
ĠÙĤÙĪØ§ÙĨ ÛĮÙĨ
ÙĦ Ø§Øª
ĠÙĨ Ø®ÙĪØ§ÙĩØ¯
ĠÙĨ ÙĪØ±
ĠÙħ Ø§Ùħ
ĠÙģØ± Ø§ÙĨ
ĠÙģ ÙĪÙĤ
Ø³ ÙĦ
ÙĪØ¯ Ú¯ÛĮ
Ø¨ÛĮ ÙĦ
ĠÚ© Ø´ØªÛĮ
ÙĪÛĮ Ø§ÙĨ
ĠÙ¡ Ù
ĠÙĩÙħÚĨ ÙĪÙĨ
ĠØ¨Ø± ÙĪØ²
ĠÙģØ± ÙħØ§ÙĨ
ĠØ® ÙĪØ§ÙĨ
ĠØ¨Ø§ÛĮØ¯ ÙĨ
ĠÚ¯Ø±ÙģØª ÙĨ
ĠÛĮ ÙĪØ±ÙĪ
ĠÚ¯Ø³ØªØ± Ø¯Ùĩ
Ø² ÙĪÙħ
ĠØ¯ÙĪØ± Ø§ÙĨ
ĠÙĨØŃ ÙĪÙĩ
ĠÙħØ¯ÛĮØ± Ú©ÙĦ
ĠÙħÙĪÙģÙĤ ÛĮØª
ĠÛ³ Û°Û°
ĠØ§Ùħ ØªÛĮ
ĠÛ² Û¹
ĠÙ¾Ø±ÙĪØª Ú©ÙĦ
ĠØ®ÛĮ Ø§Ø¨
ĠØ³ÙĨ Øª
ĠØ¯Ø§Ø¯ ÙĨØ¯
ÙĦØ§ ÙĤ
ĠÙħØ¯ Ø§Ø±Ø³
ÙĨ Ø§Ø¯
ĠÙĨ Ø¯Ø§Ø´Øª
ĠÛ¸ Û°
ĠÙĨØ¯Ø§Ø± ÙĨØ¯
ĠØ¢Ø± Ø§Ùħ
ĠØ¨Ø§Ø² Ùĩ
ĠÛ¹ Û°
Ø±ÛĮ Ø²
ĠØ§ØªÙĪØ¨ ÙĪØ³
ĠØ¢ÙĨ Ø§ÙĨ
ĠØ¯Ø±Ø¢ Ùħ
ĠØŃÙģØ§ Ø¸Øª
ĠØ¯ ÙģØ§
ÙĪØ± ØªÛĮ
ĠØ¯ Ø§Ùħ
ĠØª Ø³Øª
ĠØºØ° Ø§ÛĮÛĮ
ĠØ´Ùĩ ÛĮØ¯
ĠØ³Ø±Ù¾Ø± Ø³Øª
ĠØ³Ø§Ùħ Ø§ÙĨ
Øª Ø§
ĠØ¯Ø± Ø¬Ùĩ
Ù¾ ÛĮ
ĠØ¯ÙĪ Ø´ÙĨØ¨Ùĩ
ĠØ¯ ÛĮØ±
Ø§Ùģ Ø¹
ĠØ¨ ÙĨØ¯ÛĮ
ĠØŃ ÛĮ
ĠØ§Ø¬ Ø§Ø²Ùĩ
ĠÚ©ÙĪØ¯ Ú©Ø§ÙĨ
ĠÙĨÛĮØ§Ø² ÙħÙĨØ¯
ĠØ¢ ÛĮØ§
ĠÙħØ¨ØªÙĦØ§ÛĮ Ø§ÙĨ
Ø² Ø§Ø¯Ùĩ
ĠØªØŃÙĤÛĮÙĤ Ø§Øª
ĠØ¨Ø± Ú¯
Ø· Ø±
ĠØ´Ùħ Ø§ÙĦÛĮ
ĠÚ¯ Ø§Ùħ
ĠÙĤ Ø²
ÙĦ ØŃ
Ú©ÙĨ Ø´
ĠØ¨Ø§ Øº
ĠØ¹Ø± ØµÙĩ
ĠØ¢ ÙĪØ±
Ú© ÙĦÛĮ
ĠÙĨÙĤ Ø§Ø·
ĠÚĨÙĩØ§Ø± Ø´ÙĨØ¨Ùĩ
ÙĨØ¬ ÛĮ
ĠÙħØ³ØªÙĤ ÛĮÙħ
ĠØ¢Ø¨ Ø§Ø¯
Ø¢ Ø¨
ĠØ² ÙĨØ§ÙĨ
ĠÛ³ Û±
ĠÙħØ± Ø§Ø³Ùħ
ĠØªØŃ Øµ
ĠØ§ÙģØºØ§ÙĨ Ø³ØªØ§ÙĨ
ĠÙħØªØŃ Ø¯Ùĩ
ĠÙĤ Ø§Ø¨
ĠØ³ ÛĮÙĦ
ĠØ§ÙħÚ©Ø§ÙĨ Ø§Øª
ĠÙĨ Ùģ
ĠØŃØ° Ùģ
ĠØªÙĪÙĦÛĮØ¯ Ú©ÙĨÙĨØ¯Ú¯Ø§ÙĨ
ÙĪ Ø§Ø±ÛĮ
ĠØ§Ø±ØªÙĤ Ø§ÛĮ
Úĺ Ø§ÙĨØ³
ĠØªØ§Ø±ÛĮ Ø®ÛĮ
ĠØ¯Ùĩ ÛĮÙħ
Û³ Û°
ĠØ²ÛĮ Ø§Ø¯
ĠÙħÙĤØ± Ø±
ĠØ§Ø³ Ù¾
Ø§ÙĦÛĮ Ø§
ĠØªÙħ Ø§Ø³
ĠØªÙĤØ§Ø¶ Ø§
ĠÙħÙĨ Ø§Ø³
Ú©ÙĨ Ùħ
ĠÙħ Ùģ
ĠÚ© Ø§ÙģÛĮ
Ø¸ Ùĩ
Ú©Ø± Ø¯Ùĩ
ĠÚ©Ø± Ùĩ
ĠØ¨Ø± Ø¯Ø§Ø´Øª
ĠØªØ±Ø§ ÙģÛĮ
ÙĦ ÙĤ
ĠØªØ±Ú© ÛĮ
Ø´ Ú©
ĠÙħØª ÙĪØ³
ĠÙħØŃÙĤÙĤ Ø§ÙĨ
ĠÙĪÙĤ ØªÛĮ
ĠÙĨÙħ ÙĪÙĨÙĩ
ĠØªØ±Ø¯ Ø¯
ÙĤ Øª
ĠÛ³ Ûµ
Ø¨Ùĩ Ø´Øª
ĠØ¢ Ø¨ÛĮ
ĠØ¯ Ú©ØªØ±
ĠØªØŃ ÙĦÛĮÙĦ
ĠÙĨ Ú¯Ø§Ùĩ
ĠØ´ ÙĪ
ÙĪÙĦ ÙĪ
ĠÙħØ·Ø§ÙĦ Ø¹Ùĩ
ĠÛ²Û° Û²Û°
ĠÙħØ±Ø§ ÙĤ
ĠØ¨Ø§ ÙĤÛĮ
ĠÛ´ Û°Û°
ĠØ§ Ø±Ø¯ÛĮ
ĠØ§Ø¨ Ø²Ø§Ø±
ĠØ¨Ø± Ø¯
ĠØ¢ ÙĪØ±ÛĮ
ĠØ³ÙĨÚ¯ ÛĮÙĨ
Ø¢ ÛĮØ¯
ĠØŃØ³ ÙĨ
ĠÙģØ±Ø¢ ÛĮÙĨØ¯
ÙĪØ±Ø¯ ÛĮÙĨ
ĠØ¯ÙĤÛĮ ÙĤÙĩ
Ø§ÙĨ Ø§Øª
ĠÚ¯Ø± Ùħ
ĠÙħØ´ Ùĩ
ĠØ§Ø±Ø¯ÛĮ Ø¨ÙĩØ´Øª
ĠØªØ¹ÙħÛĮØ± Ø§Øª
ĠØ³Ø§Ø®Øª Ùĩ
ĠØ¢ÙĦ ÙĪØ¯Ú¯ÛĮ
Ø¢ ÙĨ
ĠØ¬Ùħ Ø¹Ùĩ
ĠÙħÙĩÙħ ØªØ±ÛĮÙĨ
Ø« Ø±ÛĮ
ĠÙģØ¹ ÙĦÛĮ
ĠÙĤØ§Ø¨ ÙĦÛĮØª
Ø² Ùħ
ĠØ´ Ùģ
ĠØ§ÙĨØ¯ Ø§Ø²Ùĩ
ĠØ§ÙħØªÛĮ Ø§Ø²
ĠØªÙĤØ§Ø¶ Ø§ÛĮ
Ø§ Ø®
ĠÙħÙĩ Ø¯ÛĮ
ĠØ± ØªØ¨Ùĩ
ĠØµØŃ Ø¨Øª
ĠÙģØ± ÙĪØ±Ø¯ÛĮÙĨ
ĠÙħÙĤØ± Ø±Ø§Øª
ĠØªØ¹ Ø±ÛĮÙģ
ĠÙĨÙĩ Ø§Ø¯
ĠÚĨ ÛĮ
ĠÚ©Ø§Ø± Ø®Ø§ÙĨÙĩ
ĠØ¨Ø§Ø²Ú¯ Ø´Øª
ÛĮ Ø§Ø¨Ø¯
ĠÙħ Ø§ÙĨØ¯
ĠÙħØ¯ Ø§Ø±
ĠØ±Ø³ÛĮØ¯ Ú¯ÛĮ
ĠØ´ÛĮ ÙĪÙĩ
ĠØ§ÙħÛĮØ¯ÙĪØ§Ø± ÛĮÙħ
ĠØ± Ùĩ
ĠØ¨Ø¹ Ø¯ÛĮ
Øµ ÙĪØ±Øª
ĠØ³Ùĩ ÙħÛĮÙĩ
ĠØ¹ Ùĩ
ĠØ¢ÙĤ Ø§ÛĮ
ĠÙħØ±Ø§ ØŃÙĦ
ĠØ§Ø¨Øª Ø¯Ø§
ĠÙĪÙĤ Øª
ĠØ±ÙĪ ÛĮØ¯
ĠØ¯Ø³ØªÙĪØ± Ø§ÙĦØ¹
ĠÛ¹ Û·
Ø®Øµ ÙĪØµ
ĠØ³ Ø§ÛĮ
ĠØµ ÙģØ±
ĠÙĤ ØµØ¯
ĠØ±ÙĪ Ø¨
ĠØ®Ø§ÙĨ Ú¯ÛĮ
ĠØ´Ø± ÙĤ
ĠØ¨ÙĦ ÙĨØ¯
ĠÛ±Û³Û¹ Û¹
ĠØªØ¹ Ø§ÙħÙĦ
ĠØ§Ø¯ Ø§Ø±ÛĮ
ĠØªØ¹Ø· ÛĮÙĦ
ÛĮØªØ± Ø²
ĠÙħØ·Ø§ÙĦ Ø¹Ø§Øª
ĠÚ©Ø´ÙĪØ± ÛĮ
ĠØ¹ÙĪ Ø§ÙħÙĦ
Ú¯ Ø²ÛĮÙĨ
Ø±Ú© ÙĨ
ĠØ³Ø¨ Ú©
ĠÙħÙĩ ÙħÛĮ
ĠÙĩÙħ Ø²ÙħØ§ÙĨ
ĠØ±ÙĪ ÛĮØªØ±Ø²
Ø§ Ø°
ĠÙģØ±Ø§ÙĨ Ø³Ùĩ
Ø² Ø³ØªØ§ÙĨ
Ø±ÙĪ ÛĮ
ĠØ´ÙĩØ± ÙĩØ§
ĠÙģ Ø¶Ø§
ĠØ´Ø¯ Øª
ĠÙħØ±Ø¯ Ø§Ø¯
ÙħÙĨ Ø³ØªØ§ÙĨ
ĠÙģ Ú©Ø±
ĠÚ¯ ÛĮ
ÙĨ ÙĪ
ÙĨ Ø¸Ø±
ĠØ§ÙĨ ÙĤÙĦ
ÙĪÙĨ Øª
ĠØ´Ùĩ Ø±Ú©
Ø² Ø§ÛĮÛĮ
ĠÙĨ Ø±Ùħ
ĠØ¨ÛĮ Ø§ÙĨÛĮÙĩ
ĠÙģÛĮ Ø²ÛĮ
ĠÚ©ÙĪØª Ø§Ùĩ
Ø±Ø§ Ùģ
ĠØ¨Ùĩ ÛĮÙĨÙĩ
ĠØ³ ÙĨØ¯
Ø¢ ÙĪØ±Ø¯
ĠØ±Ø§Ø³Øª Ø§
ĠØµ Ø§ØŃ
ĠØ¨ ØªÙĪØ§ÙĨÛĮÙħ
ĠÙģØ¹Ø§ÙĦ Ø§ÙĨ
ĠØ±ÙĪÛĮ Ú©Ø±Ø¯
ĠÚ©Ùħ Ø¨ÙĪØ¯
ÙĨ ØªÛĮ
ĠØ¯ÙĪ Ø¨Ø§Ø±Ùĩ
ĠØ¨ Ú¯ÛĮØ±Ø¯
Ú©Øª Ùĩ
ĠÙħÚ© Ø¹Ø¨
Ø´ Ø§Ùĩ
Ø§Ø² ÙĨ
ĠØ¬ÙĪØ§ÙĨ Ø§ÙĨ
ĠØ¹Ùĩ Ø¯Ùĩ
ĠØªÙĪØµ ÛĮÙĩ
ĠÙĨÚ¯Ø± Ø§ÙĨÛĮ
ĠØ¨Ø§Ø² Ø±Ø³ÛĮ
ĠÙħØ¯ Ø±Ø³
ĠØ®ÛĮØ§Ø¨ Ø§ÙĨ
ĠÙĨ Ø´Ø¯
ĠØ¨Ùĩ ÙħÙĨ
ĠØ±Ø³ÛĮØ¯ ÙĨ
ĠÙĤØ· Ø±
ĠØº Ø±Ø¨ÛĮ
ĠÙĨÙĤ Ø·Ùĩ
Ø§ÙĦ ÙĦÙĩ
ĠØŃ Ø±ÙģÙĩ
ĠØ¯Ø³ØªÙĪØ±Ø§ÙĦØ¹ ÙħÙĦ
ĠØ§ÛĮ Ø§ÙĦØ§Øª
ĠØ¬Ø§ÛĮ Ú¯Ø²ÛĮÙĨ
ĠØ¢ Ø´
Ø§Ø¯ ÙĨ
ÙħÙĨ Ø§ÙĨ
ĠØ§ØŃ Ø³
ĠØ³Ø§Ø®Øª Ø§Ø±
ĠØµØ§Ø¯ Ø±Ú©ÙĨ
Ø¹ ÙĦÛĮ
ĠØµ Ø±ÙģÙĩ
ĠØ¢Ø²Ùħ ÙĪÙĨ
ĠÙ ¢
ĠØ§Ø¨Ø± Ø§Ø²
Ø¯ Ø§Ø±Ø§ÙĨ
ĠØ´Ú© Ø³Øª
ĠØ³Ø§ÙħØ§ÙĨ Ø¯ÙĩÛĮ
ĠÙħØ¹ ØªÙĤ
ĠÙĩØ³Øª Ùĩ
ĠØ¯Ùĩ Ùĩ
ĠØ¨ Ø¯ÙĩÛĮ
ĠØ´Ø±Ú©Øª ÙĩØ§ÛĮ
Úĺ Ø§Ø¯
ĠØ±Ø§Ùĩ Ú©Ø§Ø±
ĠØªÙĪØ± Ùħ
ĠÙĦ Ø¨
Ø±ÛĮ Ùĩ
ĠÙĦ Øº
ĠÙĩÙħ ÛĮ
ÙĪÙĦÙĪ ÚĺÛĮ
Ú¯ÙĪ ÛĮØ¯
ĠÙĨØ§ ÙĪ
ĠÙħØ¬Ùħ Ø¹
Ø®ØµÛĮ Øµ
ĠØ¨ ÙĨØ§
Ø¹ Ø¯
ĠØ®Ø±Ø¯ Ø§Ø¯
ĠØª Ø®ØµÛĮØµ
ĠÙĨØ¸ Ø§ÙħÛĮ
ĠØ² Ø§Ø¯Ùĩ
ĠØ¢ ÙĪØ±Ø¯
ĠÙħØ´Øª Ø±ÛĮØ§ÙĨ
ĠØªÙħ Ø±ÛĮÙĨ
ĠØ®Ø±ÙĪ Ø¬
ĠÙĨ Ú©Ø±Ø¯Ùĩ
ĠÙĦ Ø²ÙĪÙħ
ĠØ² Ø¨Ø§ÙĨ
ĠÙĨÚ¯Ùĩ Ø¯Ø§Ø±ÛĮ
ĠØ¨Ø§Ø± Ø´
ĠØ¹ Ø¯
ĠÙ¾ Ø´Øª
ĠØŃØ³ ÛĮÙĨ
ĠÙħÙĨ ÙģÛĮ
Ú¯Ø± Ùħ
Ø§Ø± ÚĨ
ĠÙħÙĪ ØªÙĪØ±
ÛĮ ÙģÙĩ
ĠÙĨÛĮØ§Ø² ÙĩØ§ÛĮ
ĠØ§Øµ ÙĦ
Ú© ÙĪÙĨÛĮ
ĠÙĤØ± ÙħØ²
Øµ Ø±Ùĩ
ĠØ§ÙģØ² ÙĪØ¯Ùĩ
Ø¢ ÙģØ±
ĠØ®ÙĪ Ø²Ø³ØªØ§ÙĨ
ĠØ¨Ø§Ø² ÙĨØ´
ĠØªØºÛĮÛĮØ± Ø§Øª
ĠÙ¾ ÙĪØ±
ĠØ¯Ø§Ø¯ ÙĨ
ĠÙĪØ¸ ÛĮÙģÙĩ
ĠÚ©Ø´ Ùģ
ĠÙĤØ± ÙĨ
Ø§ÙĨ Øª
ĠÙħÙĪØ§ÙģÙĤ Øª
ÙħØ± Ø¨ÛĮ
ĠÙħØªÙĪØ³ Ø·
ĠÙĩÙħ ÙĪØ§Ø±Ùĩ
ĠÚ© ÙĪØ±
Ø§Ø² Ø¯ÙĩÙħ
Ø¨ ÙĪØ±
ĠØ· ÙĦØ§
ĠÙħØ® Ø§ÙĦ
ĠÙĪØ² ÙĨ
Ø¨ ÛĮØª
ĠØ¯Ø§Ø´Øª ÙĨ
ĠÚ©Ø§ Ø´Ø§ÙĨ
ĠÙħØ¹Ø§ÙħÙĦ Ùĩ
ĠÙħØ§ Ø´ÛĮÙĨ
Ø§ Ø«
ĠÙĪ Ø§Ø¨
ĠØªØŃ ÙĪÙĦ
ĠØ® ÛĮØ±
ĠØ§Ø® Ø°
ĠÙĨÙĤ Ø¯
ĠØ§ÙĨÙĤÙĦ Ø§Ø¨
ĠØ¨ Ø³
ĠØ³Ø± ÙħØ±Ø¨ÛĮ
ĠØ¨ÙĦ ÙĪ
ĠÙĤ Ø¶Ø§
ĠØ´ Ø§ÛĮ
Úĺ ÙĨ
ĠØ´Ùģ Ø§Ùģ
ĠØŃØ¯Ø§Ú© Ø«Ø±
ĠÙ¾ ÙĨ
Ø±ÙĪ Ùħ
ĠØ¹ ÙĪØ§Ø±
ĠØ² ÙĨÚ¯
Øº Ø°
ĠØµØ§Ø¯Ø± Ø§ØªÛĮ
ĠÙħØ³ Ú©ÙĪÙĨÛĮ
ÙĪØ± ÛĮØª
ĠØ¨ ÛĮØ±
ÙĦ Øª
ĠÙħØ± Øº
ĠÚ©Ø§Ùħ ÙĦØ§
ĠØ§Ø¹ Øª
ĠÙ¾ÛĮØ± ÙĪØ²ÛĮ
ĠØ²ÙĨØ¬ ÛĮØ±Ùĩ
ĠØªÙĪØ¬Ùĩ ÛĮ
ĠÙħØ°Ø§Ú© Ø±Ø§Øª
ÚĨ Ø§ÙĤ
ĠÙħØ« ÙĦ
ĠØ¹ÙĦ ÛĮØ±
ĠØª Ø¶
ĠÙħÙĨØª ÙĩÛĮ
ĠØ³ÙĤ Ùģ
ĠÙħØ¹ Ùħ
ĠØ´ Ø§ÛĮØ¯
Ø¯ÛĮ Ú¯Ø±
ĠÚĺ Ø§Ù¾
ĠÚĨÙĩØ§Ø± Ùħ
ĠÚ©Ø´ÙĪØ± ÙħØ§ÙĨ
ĠØ¢Ùħ Ø¯
ĠÛĮÚ© Ø´ÙĨØ¨Ùĩ
ĠÙĤØ· Ø¹ÛĮ
Ú¯ Ø±ÙĪÙĩ
Û² Û±
ĠØ§Ø®Øª ÙĦØ§Ùģ
ĠØ§Ø¹ØªØ¨ Ø§Ø±ÛĮ
ĠÙĤØ§ ÚĨØ§ÙĤ
ĠÙģ ÙĪØª
ĠØ¨ Ø®
ĠØ¬Ø¯ÛĮØ¯ ÛĮ
ĠÙħÙĩØ± ÙħØ§Ùĩ
Ġ C
ĠØ§Ùħ ÛĮØ±
ØªÙħ Ø§Ùħ
ĠØ´Ø± ÙĤÛĮ
ĠØ§ÙĦÚ©ØªØ±ÙĪÙĨÛĮ Ú©ÛĮ
ĠÙħØ± Ø¨ÛĮ
ĠÙħÛĮØ± Ø§Ø«
ĠÙħØŃÛĮØ· ÛĮ
ĠØ§Ø³Øª Ø®
ĠÙħØ¬ Ø§Ø²
ĠÙħØªÙĤØ§Ø¶ ÛĮØ§ÙĨ
ĠÙħØª ÙĪ
ĠÙĪØ¶ Ø¹
Ø¦ ÛĮÙĨ
ĠÙĨØ§ÙĪ Ú¯Ø§ÙĨ
ĠØ¹ Ø¯Ø¯
ĠØ¢ÙĦ ÙħØ§ÙĨ
ĠØ³ÙĪ Ø§ÙĦ
ĠÙħØ±Ø§ÙĤ Ø¨Øª
ĠØª Ø§Ø²Ùĩ
ĠÙĪÛĮ Úĺ
ĠÚ©Ø§Ø±Ø´ÙĨ Ø§Ø³
ĠÙħ ÙĩØ§
ĠÙ¾ ÙĦÛĮ
Ø³ Ø±
Ø¨ Ø®Øª
ĠØŃÙĪ Ø§Ø¯Ø«
Ù¾Ø±Ø¯ Ø§Ø²
ĠØ¢Ø°Ø± ÙħØ§Ùĩ
ĠØ¯ÙĪ ÙħÛĮÙĨ
ĠÙħØ· Ø§Ø¨ÙĤ
ĠØ® Ø§Ú©
ĠØ¯ÙĪ Ø³Øª
Ø±Ø§ Ø¬
ÙĪÛĮ Ø³
ĠØ§ ÛĮØª
ĠÙĪØ§ÙĤ Ø¹ÛĮ
Ú¯ ÙĦ
ĠÙĪØ§ Ú©ÙĨØ´
ĠÙĩÙĪ Ø§ÛĮÛĮ
ÛĮ Ø§Ø±ÛĮ
Ú© Ø§
ÙĪ Ùģ
ĠØ¹ Ø§Ø¯ÛĮ
ĠØµ ÙĪØ±ØªÛĮ
Ù¾ ÙĪØ±
ĠØªÙĪØ§ÙĨ Ø³Øª
ĠØ´ Ø±ØŃ
Ø§ÙĨÛĮ Ø§
ĠØ± Ú©
ÙĪ ØªÛĮ
Ø§ÛĮ ÙĨ
ĠÙĪÛĮÚĺ Ú¯ÛĮ
ĠØ§ÙĨØ³ Ø§ÙĨ
ĠÙĤÙĩØ± ÙħØ§ÙĨ
ÙĪ Ø³ÛĮ
ĠÙĨ Ø´ÙĪØ¯
ĠÙģ ÙĦ
ĠØ¢ÙĨ ÙĦØ§ÛĮÙĨ
ĠØ¬ÙĦ Ø³Ø§Øª
ĠÙ¾ Ø´ØªÛĮ
ĠØªÙħ Ø¯ÛĮØ¯
Ú¯ ÙĪÙĨ
ĠÛ³ Û²
ÙĪ Ø§ÙĦ
ĠØ¯ Ø¹
ĠØ³ Ø±Ø¯
ĠØµ Ø¯Ø§
ĠØ¨ ØªÙĪØ§ÙĨØ¯
ĠØ¯ Ø´
ĠØ¹ÙĪØ§Ø± Ø¶
ÙĪ Ø§ÙĨÛĮ
ĠØªØ¹ Ø¯Ø§Ø¯ÛĮ
ĠØ´ Ø®ØµÛĮ
ĠØ¨Ø²Ø±Ú¯ ØªØ±ÛĮÙĨ
ĠÙħ Ø§ÛĮØ¹
ĠÛ´ Ûµ
ĠØ³ Ø§ÙĨ
ĠØŃØ³ Ø§Ø³
Ø±Ø§ ÙģÛĮ
ĠØ§Ø± Ø´Ø¯
Ø³ Ùħ
Ø¯ ÙĪ
Ø¯ ÙĨÛĮ
Ø· Ø±Ùģ
ĠØ® ÙĪØ±Ø¯
ĠÛ³ Û¶
ĠØ¹ÙĦØ§ ÙĤÙĩ
ĠÙĩÙĨÚ¯ Ø§Ùħ
ĠØ´Ø±Ø§ÛĮØ· ÛĮ
ĠÛ· Û°Û°
ĠÙħ ÙħÙĨ
ĠÚ©Ø±ÙħØ§ÙĨ Ø´Ø§Ùĩ
ĠÙħØ¯ÛĮØ± Ùĩ
Ø´ÙĨ Ø§Ø³ÛĮ
ĠÙħØ§ÙĨ Ø¯Ùĩ
Ø±ÛĮ Ø¯
Ø±Ø® Ùĩ
ĠÙħØ°Ø§Ú© Ø±Ùĩ
ĠÙĩ Ø´Ø¯
Ø² Ø§
Ø§ÛĮ Ùģ
ĠØªØ¹Ø· ÛĮÙĦÛĮ
ĠØ¯Ø±ÛĮ Ø§ÛĮÛĮ
ĠØ§Ø±ÙĪ Ù¾Ø§ÛĮÛĮ
ĠØ®ÙĪØ± Ø§Ú©
ĠÚĺ ÙĪØ¦
ĠÙħØ·ÙĦ ÙĪØ¨
ĠÙĨØ¸ ÛĮØ±
ĠÚ© Ø³ÛĮ
ĠÙħØ± Ú¯
ĠÙ¾Ø°ÛĮØ± Ø´
ĠÙĪØ§ Ú¯Ø°Ø§Ø±ÛĮ
ĠÙħØ±Ø¨ÙĪØ· Ùĩ
ĠÛĮ Ø§Ø±
ĠØ¨ ØªÙĪØ§ÙĨÙĨØ¯
ĠØ³Ù¾ Ø³
ĠÙĪ Ø§Ùħ
ÙĪÛĮ ÚĺÙĩ
Ø§ Ú¯Ø±
ĠØ±ÙģØª Ø§Ø±
ĠÙħØ¹ØªÙĤ Ø¯
ĠØ§Ø³ØªÙĤ Ø¨Ø§ÙĦ
ĠÙĨ Ú©ØªÙĩ
Ø§Ø¯ Ø§Ø±
ĠØµÙĨ ÙģÛĮ
ĠÙħØª ÙĪÙĤ
ĠÛ °
ĠÛ¶ Û°Û°
ÙĪÙĨ Ø§
ĠÚ©Ø§Ø± ÙĩØ§ÛĮ
ĠÙħØªÙĪÙĤ Ùģ
ĠØ±Ø§Ùĩ Ø¨Ø±Ø¯ÛĮ
ĠÙħÚ© Ø§ÙĨÛĮ
ĠÙħØ§Ø² ÙĨØ¯
ĠÙĪ Ø³ÛĮ
ĠÙħ Ø®Ø§Ø¨
ĠØ§Ø· ÙħÛĮÙĨ
Ú¯ Ø§Ø±
ĠÙĨÙĪØ³ Ø§Ø²ÛĮ
ĠÙĦ Ø°
ĠÙħÙĨ Ø§ÙģØ¹
Ġ A
ĠØºØ° Ø§
ĠØ³ ÙħÙĨØ§ÙĨ
ĠØ³Ø¹ ÙĪØ¯ÛĮ
ĠÙ¾ÚĺÙĪÙĩ Ø´ÛĮ
ĠÙĩØ´Ø¯ Ø§Ø±
ĠØ¨Ø§ÙĦ Øº
ĠØª Ú©ÙĨ
ĠØ¯Ø± Ø³Øª
ĠØ¹Ø¨ Ø¯
ÙģØ± Ø§ÙĨØ³
ĠÚ©Ø§Ø± Ú¯Ø±ÙĪÙĩ
ĠØ§Ø¹ ØªÙħ
ĠØ§Ø¯ Ø¹
ĠØªØ¹ ÙĪÛĮ
ĠÙħÙĪ Ø«Ø±
ĠÙĤØ· Ø¹Ø§Øª
ĠØ±ÙĪØ² ÙĨØ§ÙħÙĩ
ĠØ¨ ÙĪÙħÛĮ
ĠØ¨ ÙĪØ´
ĠØ§Ø·ÙħÛĮÙĨ Ø§ÙĨ
ÙĪØ±ÛĮ Ùĩ
ĠØªÙĤ Ø±ÛĮ
Ø¯ Ø§ÛĮÛĮ
ĠÙħØ§ÙĦÛĮ Ø§ØªÛĮ
ĠØ®ÙĪØ´ Ø¨Ø®Øª
ĠØµÙģ ØŃÙĩ
ĠÛ¹ Ûµ
ĠØ§Ø±ØªÙĤ Ø§
ĠÙħØ² Ø§ÛĮ
ĠØ§ÙĨÚ¯ ÙĦÛĮØ³
ĠØ±Ùģ Ø§Ùĩ
ĠÙĦØº ÙĪ
ĠØ§Ùħ Ø¯Ø§Ø¯
Ø² ÙĦ
Ø¬ Ø§ÛĮÛĮ
ĠÙħÙĪ Ø³ÛĮ
ĠÙħØ¯ ÙĦ
Ø® Ùĩ
ĠØ¢ÛĮ ÛĮÙĨ
ĠØ¢ÙĨ ÚĨÙĩ
Ùĩ Ø²Ø§Ø±
ĠØ± ÙĨÚ¯
ĠØ§ÙĦ ÙħÙ¾
ĠØ¯ÙģØ§ Ø¹
ĠÙĨ Ú©Ø±Ø¯
ĠÙħÙħÙĨ ÙĪØ¹
ĠÙħØŃ Ø¯
ĠÙ¾ÙĨØ¬ Ùħ
ĠÙħØ¤ Ø³
ĠØ±ÙĪØŃ Ø§ÙĨÛĮ
ĠÚ©Ø±ÙĪÙĨ Ø§ÛĮÛĮ
ĠÙĩÙĪØ§Ù¾ ÛĮÙħ
ĠØ³ Ú©
ĠØª Ø²
ĠÙģ Ø±Ø¯ÛĮ
ĠØ° ÙĪØ¨
ĠØ¹Ø¨ ÙĪØ±
ÛĮÙĦ Ø§ÙĨ
ĠØ²ÙĨÚ¯ ÙĨÙĩ
ĠØªØ® ÙĦÙģ
ĠÙħØ§Ø²ÙĨØ¯ Ø±Ø§ÙĨ
Ù ©
ĠÙħÙĨØ§Ø³ Ø¨ÛĮ
ĠÙĨÙĩØ§ Ø¯ÙĩØ§ÛĮ
ĠØ¯ÛĮØ± ÙĪØ²
ĠØ§Ú©Øª Ø´
Ø² ÙĨÛĮ
ĠÚ©ÙĨ ÙĪÙĨ
ĠÛĮ Ø²Ø¯
ĠÚ©Ø§Ø±Ø´ÙĨ Ø§Ø³ÛĮ
ĠÙħÙĤØ§Ùħ Ø§Øª
ĠÛ¹ Û¶
ĠØª Ø¯Ø§
ĠØªØ¨ ØµØ±Ùĩ
ĠÙħØ´ ÙħÙĪÙĦ
ĠØ®Ø±ÛĮ Ø¯Ø§Ø±ÛĮ
ĠØªØ±Ø§ÙģÛĮ Ú©
ĠØ§ÙĨ Ø¨Ø§Ø±
ĠÙģØ± Ø³
ĠØ´ Ø´Ùħ
ĠÙ¾ÛĮ Ø§Ø¯Ùĩ
ĠÙħÙĪÙĤ Ø¹ÛĮØª
ÙĨ Ø§Ùħ
ĠÚĨ Ø§Ø±ÚĨ
ĠÙĪØ¸ Ø§ÛĮÙģ
ĠÙħØ¹ Ø§Ø¯ÙĨ
ĠÙĪØ²Ø§Ø±Øª Ø®Ø§ÙĨÙĩ
ĠØ´ Ø§Ùĩ
ĠÙħØ¹ ÙħÙĪÙĦ
ĠØ´ Ø®Øµ
ĠØ®ÙĪØ´Ø¨Ø®Øª Ø§ÙĨÙĩ
ĠØ¬Ùĩ Ø´
ĠØ° Ú©Ø±
ĠÙģØ± Ø§ÛĮ
ĠØ³ Ø§Ø¨ÙĤÙĩ
ĠÛ´ Û²
ĠÚ¯ÙĪ Ø´ÛĮ
ĠÙħØŃ ÙĦÛĮ
ĠÙħØ®Øª ÙĦ
ĠØ³Ø±Ø§Ø³ Ø±ÛĮ
Øª ÙĦ
ĠÙħØ¹ Ø¯ÙĨÛĮ
ĠØ¨Ø§ ÙģØª
ĠØ§Øª Ø®
ĠÙĤØ±Ø§Ø±Ø¯ Ø§Ø¯ÙĩØ§ÛĮ
ĠÙĩÙħ Ø§ÛĮØ´
ĠØ±ÙĪ Ø´ÙĨ
Ú¯ Ø§ÙĨÙĩ
ĠØª ÛĮ
ĠØ³ Ø¹ÛĮ
ĠØªÙĪÙħØ§ÙĨ ÛĮ
ĠÙħ Ú©Ø§ÙĨ
ĠÙĪ ØŃ
ĠØ§Ø³Øª Ø§ÙĨÛĮ
ĠÙĩÙħ Ú©Ø§Ø±Ø§ÙĨ
ĠØ¹Ø¯ Ø§ÙĦØª
ĠØ¯ Ùħ
Ø®ÛĮ Ø²
ĠØ¨Ø§ Ø¨
ĠØ§Øµ ÙĪÙĦ
ĠØ®Ø¨Ø±ÙĨÚ¯ Ø§Ø±Ø§ÙĨ
ĠØ¹Ùħ Ø±Ø§ÙĨÛĮ
ĠÙĪØ³ Ø§ÛĮÙĦ
ĠØ§ØªØ® Ø§Ø°
ÙħÙĦ ÙĦ
ĠÙħØŃØ¯ ÙĪØ¯Ùĩ
ĠÛĮÚ© ØµØ¯
ĠØ¯Ø§ÙĨØ´Ø¬ ÙĪÛĮØ§ÙĨ
ĠÙĨ Ø§ÙĨ
ĠÚ©ÙĪØ¯ Ú©
ĠÙħØ´ Ø§
ĠÙħÙĨØª ÙĤÙĦ
ĠÚ¯Ø°Ø§ Ø´ØªÙĩ
ĠØ§Ø¹ØªÙħ Ø§Ø¯
Ø§Ø± ØªÛĮ
ĠÙģ Ø§Ø±
ĠØ¨Ø²Ø± Ú¯ÛĮ
ĠØ§ÙģØ² ÙĪÙĨ
ĠØ¯Ø± ÙĪÙĨ
ĠÙĤ ÙĦ
ĠÙ¾ Ø§ÛĮØ´
ĠÚĺØ§Ù¾ ÙĨ
Ø¹ ÙĪØ¯
Ø¹Ùģ ÙĪÙĨÛĮ
ĠØ§ØŃØ³ Ø§Ø³
ĠÙĩÙħÛĮ Ø´Ùĩ
ĠØµ ÙħØª
ĠÙĪ ÙĨØ²
ĠÙħÙĤ Ø¯Ùħ
ĠÙħØŃÙħ Ø¯ÛĮ
ĠÙħØ« Ø§ÙĦ
ĠÙĤØ² ÙĪÛĮÙĨ
ÙĪ ÛĮØ±
ĠÙĪÙĨØ² ÙĪØ¦
ĠØ¶Ø¯ Ø¹ÙģÙĪÙĨÛĮ
ĠØ¬ Ø¯Ø§
ĠÙħØ¹ Ø§Ø¨Ø±
ĠÙ¾ÙĦ Ø§Ø³
ĠÙĦ Ø±
ĠÙħØ´Ùĩ Ø¯
ĠÚĨØ§Ø±ÚĨ ÙĪØ¨
ĠØªØ¨ ÙĦÛĮ
ĠÙħ Ø§Ø±
ĠÙħØ³Øª ÙħØ±
Ø¢Ùħ ÙĪØ²
ĠØ§ØŃØªÙħ Ø§ÙĦÛĮ
ĠØ¯Ø§Ø´Øª ÛĮÙħ
Ø¹ ÙĨÙĪØ§ÙĨ
ĠØªÙĦÙģ ÙĨ
ĠØŃ Ø§Ú©
ĠÚ©Ø³ Ø§ÙĨÛĮ
ĠØ¯Ø³Øª Ùĩ
ĠØ·ÙĪÙĦ Ø§ÙĨÛĮ
ĠØ§Ø³Øª Ø§Ø¯
ĠØ¬ Ø¨Ø±Ø§ÙĨ
ĠÙĩÙħ Ø¯Ø§ÙĨ
ĠØ¯Ø± ÙĪ
ĠÙĩÙĪ Ø§ÛĮ
ĠØ²ÙĨØ¬ Ø§ÙĨ
ĠØ¯Ø± ØŃ
ĠÚ¯Ø± Ø§ÙĨ
ĠÛ³ Û³
ĠÙĪÙĤ ÙĪØ¹
ĠÙģÛĮØ²ÛĮ Ú©ÛĮ
ĠÙĩØ± Ú¯ÙĪÙĨÙĩ
ĠØ§ÛĮÙĨØªØ± ÙĨØª
ĠÙħØª ÙģØ§ÙĪØª
ĠØ§Ùħ Ø¶Ø§ÛĮ
ĠØ±ÙĪÙĨ ÙĤ
ĠØ« Ø§Ø¨Øª
ĠØ±ÙĪØ¨ Ø±ÙĪ
ĠÙ¾Ø±ÙĪ Ø§Ø²
ĠØ¢ ÚĺØ§ÙĨØ³
ĠØ¯Ø§ ÙĪØ·
ĠÚ©Ø§Ø± Ø¨Ø±Ø§ÙĨ
Ø¬ ÛĮØª
ĠØ¨ÙĪØ´ ÙĩØ±
ĠÙ¾ Ø³Øª
ĠØ¢ÙĪØ± Ø¯Ùĩ
ĠØ§ÛĮ Ø§ÙĦØª
ĠÛ´ Û¸
ĠØ² Ùħ
Ø· ÛĮ
ĠÙĩÙħØ±Ø§Ùĩ ÛĮ
ÙĪÛĮ Ø²ÛĮ
ĠØ§ÙħÙĨÛĮØª ÛĮ
ĠÙĪÙĨØ²ÙĪØ¦ ÙĦØ§
ĠØ±ÙĪ Ø§ÙĨ
ĠÙģØ± Ø²
ĠØ°Ø® Ø§ÛĮØ±
ĠÙĤØ¨ ÙĦÛĮ
ĠÚ© ÙĦÛĮÙĩ
ĠÛ³ Û·
ĠØ¢Ø²Ùħ Ø§ÛĮØ´Ú¯Ø§Ùĩ
ĠÙģØ± ÙĪØ¯
ĠØ§Ø³ ÙĨØ§Ø¯
Ø±Ø§ Ø¶
Ø¬ Ø¯
ĠØŃØ³ ÛĮÙĨÛĮ
ĠØ¹ Ùģ
ĠØ¢ÙĨ Ú©Ùĩ
Ù ¡
ĠØ§ÙĤ ÙĦØ§Ùħ
ĠØ¯ Ùģ
ĠÛ¸ Û°Û°
Ú¯Ø±Ø¯ Ø¯
Ú© Ø±ÛĮ
ĠØ¯ÛĮ Ø¬ÛĮØª
ĠØ®ÙĪØ¯Ø±ÙĪ ÛĮ
ĠÚ©Ø§ÙĦ Ø§ÛĮ
ĠÚ© Ø¯
Ġ *
ĠØ¢ÙħÙĪØ² Ø§ÙĨ
ĠØªØ¨ÙĦÛĮ Øº
ĠÙħØ® Ø§Ø·
ĠØ³Ø± Ø§ÙĨ
ĠÙħ ÙĪØ§ÙĨ
ĠØªØ¨ Ø§Ø¯ÙĦ
Ø¹Ø¨ Ø§Ø³
ÛĮØ¯ Ø±ÙĪ
ĠØ§ÛĮ Ø¯Ùĩ
ĠÚ¯Ø°Ø§ Ø´Øª
ĠØ¨ÛĮ Ø³Øª
ĠÚĨÙĨØ¯ ÛĮÙĨ
ĠÙħÙĦ ÙĦ
ĠØ§Øµ ÙĨØ§
ĠÙ¾Ø§Ú© Ø³ØªØ§ÙĨ
ĠØ¹ÙĦÛĮØ± Ø¶Ø§
ĠÛ³ Û¸
ĠÙ¾ÙĨØ¬ Ø´ÙĨØ¨Ùĩ
ÛĮØ¯ ÙĨ
ĠØ¯ÙĦ Ø§ÛĮÙĦ
ĠÙĩØ± ÙħØ²
ĠÚ©Ø±Ø¯ Ø³ØªØ§ÙĨ
ĠÛ³ Û´
ĠØ¨ÙĨÛĮ Ø§Ø¯
ĠØªÙĦ ÙĪÛĮØ²ÛĮ
Ùħ ÛĮØ¯
ĠÙģ ÙĩØ±
Øº Ùĩ
ĠØ±Ø§ ØŃ
ĠÙĤØ·Ø¹ Ø§
ĠÚ©Ùħ ØªØ±ÛĮÙĨ
ĠØ¨ Ø³ØªØ±
ĠØ± ÙģØªÙĩ
ĠØªØ¯Ø§ ÙĪÙħ
ĠØªØ§Ú© Ø³ÛĮ
ĠÙģÙĪ ØªÛĮ
ĠÚ©ÛĮÙĦÙĪ Ú¯Ø±Ùħ
ĠØ¨Ø§Ø² Ø³Ø§Ø²ÛĮ
ĠÙħØ® Ø²ÙĨ
ĠÙĤ Ùħ
ĠØ¹ÙĦ Ùħ
ĠÙħÙĪØ³ÛĮ ÙĤÛĮ
ĠØ¨ÙĨÛĮ Ø§ÙĨ
Ø¨Ø± Ø²
ĠØ§ÙĨØªØ¸ Ø§ÙħÛĮ
ĠÙħÙĨ Øµ
ĠØ±Ø³ Ø§ÙĨØ¯
ĠÛ±Û´ Û°Û°
ĠÙ¾Ø´ØªÛĮ Ø¨Ø§ÙĨÛĮ
ĠØ§ØµÙĨØ§ Ùģ
ĠØªÙĩ Ø¯ÛĮØ¯
ÙĪ Ú©Ø§Ø±
ĠÙħ ÙĪØ±
ĠØ³Ø® ÙĨ
ĠÙħØ§ÙĦ Ú©
ĠÙĩÙĨ Ø±ÛĮ
ĠÛĮØ§Ø± Ø§ÙĨÙĩ
ĠØ¹ ÙĤ
ĠØ³Øª Ø§Ø±Ùĩ
ĠÙħØ¯Ø±Ø³ Ùĩ
ĠÙĨ Ø§Ø±
Ø®ÙĪØ§Ùĩ ÛĮÙħ
Â Ń
ĠØªÙĪ ÙĤ
ĠØ² ÙĨ
ĠØ§Ùħ Ø§Ø±Ø§Øª
Ú© Ø§Øª
ĠØ¹ÙĦ ÙĨÛĮ
ĠÙĪØ± ÙĪØ¯ÛĮ
ÙĪÙĦ Ø§ÙĨ
ĠØ§ÛĮÙĨØªØ± ÙĨØªÛĮ
ĠØªØ¹ÙĩØ¯ Ø§Øª
ĠØ´ÛĮØ± Ø§Ø²
Ùħ Ø¹
ĠÚ©ÙĨ ÙģØ±Ø§ÙĨØ³
ĠÙĩØ¯ Ø§ÛĮØª
ĠÙĤØ±ÙĨ Ø·
ĠÙĪØ§ØŃ Ø¯ÛĮ
ĠÚ© Ø§Ø¯Ø±
ĠÚ©ÙĪØ± Ùĩ
ĠÙ¾Ø±ÙĪ Ø§ÙĨÙĩ
ĠÛµ Ûµ
ĠÙħØ¹ Øª
ĠÛĮÚ© Ø¯ÛĮÚ¯Ø±
ĠØªÙħ Ø±Ú©
Ø§ Ø¬
ĠÛ´ Û´
ĠÙĨØ¬ Ø§Øª
ĠÙĤØ±ÙĨØ· ÛĮÙĨÙĩ
ĠØµØ§Ø¯Ø±Ú©ÙĨ ÙĨØ¯Ùĩ
ĠØ±ÙĪØ¯ Ø®Ø§ÙĨÙĩ
ĠØªØ´ Ø±ÛĮØŃ
Ø¯Ùĩ ÛĮÙħ
ĠÙĤØ· Ø¹Ùĩ
ĠÙģØ±Ø¯ Ø§
ĠØ¨Ø§ÙĦ Ø§ÛĮÛĮ
ĠÙĨØ´ Ø§ÙĨÛĮ
ĠØ§ÛĮØª Ø§ÙĦÛĮØ§
ĠØªØ² Ø±ÛĮÙĤ
ĠÛ· Ûµ
ĠØ¨Ø± Ø·Ø±Ùģ
ĠØªØ± Ø®ÛĮØµ
Øº Ùħ
Ø¢ ÙħØ¯
Ùħ Ø¯ÛĮ
ĠØ¯Ùĩ Ùħ
ĠØ±ÙĪØ³Øª Ø§ÛĮ
ĠØ¨Ø§ÙĦ Ø§Øª
ÙĤ Ø§ÙĨ
ĠÙ¾ ÙĪ
ĠÙĩ Ú©Øª
ĠØ¢ÙĨ Ø¬Ø§
Ø¢Ø¨ Ø§Ø¯
ĠÙħØ´Ø§ ØºÙĦ
ĠÙĪØ²ÛĮØ± Ø§ÙĨ
ĠØ§ØŃ ÙħØ¯
ĠØªÙĤØ±ÛĮ Ø¨Ø§
ĠØ¸ ÙĩØ±
ĠÙĨÙĪ Ø¢ÙĪØ±ÛĮ
Ø®ÙĪØ§Ùĩ ÙĨØ¯
ĠØ¯Ø±Ø¢Ùħ Ø¯ÙĩØ§ÛĮ
ĠØ´Ø¨ Ø§ÙĨÙĩ
ĠÙħØ³ Ø§ÙĦÙĩ
ĠÚ¯ ÛĮÙĦØ§ÙĨ
ĠÙħÙĪØ§ÙĨ Ø¹
ĠØªØ± Ø¬ÙħÙĩ
ĠØ§Ø¹ØªØ¨ Ø§Ø±Ø§Øª
ĠØªØ¨ Ø±ÛĮØ²
ÙģÛĮ Ùĩ
ĠØ§ÙĦ Ø²Ø§Ùħ
ĠÙħØ· ÙĦØ¨
ĠÙħØªÙĨ Ø§Ø³Ø¨
ĠØŃÚ© Ùħ
ĠÙħØ´ Ú©ÙĦÛĮ
ĠÙ¾Ø§ÛĮ Ø§ÙĨÙĩ
ĠØ¨Ø¹ Ø¶ÛĮ
ĠØ¬ Ø§
ĠØ®Ø³ Ø§Ø±Øª
ĠÙĤ Ø³
ĠØ±ÙĪÛĮØ¯ Ø§Ø¯
ĠÙħØ®ØªÙĦ ÙģÛĮ
ĠÙģÙĩØ± Ø³Øª
ĠØ¬Ø² Ø¦ÛĮ
ĠØ±Ø¶ ÙĪÛĮ
ĠØªÙħØ±Ú© Ø²
ĠØ§ÙĦ Ø¨Ø±Ø²
ĠØ¹ Ø²ÛĮ
ĠØŃØ§ÙĦ Ø§
Û± Û°
ĠØ¢ ÙĦØ§ÛĮ
Øª Ø®Øª
ĠÚ©Ø§Ø± Ú¯Ø±Ø§ÙĨ
ĠØ§Ø± ÙħÙĨØ³ØªØ§ÙĨ
Ø§Ø± Ø´
ĠØ¢ Ùģ
Ø¨Ø§ÙĦ Ùĩ
ĠØªÛĮØ± ÙħØ§Ùĩ
Ø¨ ÙĨ
âĢ ı
ĠØ®ÙĪØ§Ø³Øª Ø§Ø±
ĠØ³Ø± Ø·
Ø§ÙĪ Ù¾Ú©
ĠØ² Ø¨Ø§ÙĦÙĩ
ĠØ®Ø§Øµ ÛĮ
ĠÙĦØ° Ø§
ĠØ§ØŃ Øª
ĠØ¨Ø± Ø¢ÙĪØ±Ø¯
ĠÙ¾Ø§ÛĮ ØªØ®Øª
ĠØ§ÛĮ ÙĦØ§Ùħ
ĠÙħ Ø§Ø¯Ø±
ĠÙħØ³ Ø§Ø¨ÙĤÙĩ
ĠØ¹ ØµØ±
ĠØŃØ§ÙĦ Øª
ĠÙĪ Ø§Ø±ÛĮ
Ø± Ø¶
Ġ S
ĠÙĩ ÙĦ
ØªÙĪØ§ÙĨ Ø³Øª
ĠâĢ ı
ĠØ§Ø³Øª Ø¹
ĠØ¯Ø³ØªÛĮ Ø§Ø¨ÛĮ
ĠØ¨Ø§ÙĦ Ø§ØªØ±
ĠÙħØ® Ø§Ø²ÙĨ
ĠØ³Ø§ÙĦ Ùħ
ĠØªØµ ÙģÛĮÙĩ
ĠØ± ÛĮØ³
ĠÚ©Ø§Ø± Ú¯Ø§Ùĩ
Ø° ÛĮØ±ÛĮ
ÙħÛĮ Ø²
ĠÙħÙĪØ³ Ø³Ùĩ
ĠÚ©Ùĩ Ú©
ĠØ² ÙĪØ¯
ĠÚĨÛĮ Ø²ÛĮ
ĠØ³ ÛĮÙħØ§
ĠØ±ÙĪ Øº
ĠØŃ ÙħÙĦÙĩ
Øº Ø¯
ĠÙ¾ Ø§
ĠÚ© ÙĪÙĩ
ĠØª Ø§ÙĦ
Ø¨ÛĮ Ø§Øª
ĠÙĨ Ø¹
Ø¢ÙĨ ÙĦØ§ÛĮÙĨ
ĠÙħÛĮ Ø¹
ÙĦ Ø¨Ø§ÙĨ
Ø§Ø± Ùģ
ĠØ±ÙĪØ³ØªØ§ ÙĩØ§ÛĮ
ĠÙħØ³ØªÙĤ Ø±
Ø¨ Ø®Ø´
Ú© Ùħ
ĠØ³Ø§ÙĦ ÙĨ
ĠÚ¯Ø²Ø§Ø±Ø´ ÛĮ
Ú¯ ÙĪÛĮÛĮ
ÙĪ Ø§Ø²
ĠÙħÙĨ Ø¹
ĠÚ©Ùħ Ù¾
ĠÙħØ¨ ÙĨØ§ÛĮ
ĠØ¨Ø± ÙĨØ¯Ùĩ
ĠÙħØ´ØªØ±Ú© Ø§ÙĨ
ÙĪ Ú©Ø±
ĠÙħÙĪØ¶ÙĪØ¹ Ø§Øª
Ø¯ÛĮ Ø¯Ùĩ
Ú¯ÛĮØ± ÙĨØ¯
ĠÙħÛĮØ¹ Ø§ÙĨØ§Øª
ĠØ®ÙĪØ¯Ø±ÙĪ ÙĩØ§
ĠØŃØ¶ ÙĪØ±ÛĮ
ĠÙĪØ§ Ú¯Ø°Ø§Ø±
ĠØ´ ÛĮÙħÛĮ
ĠØ§ÛĮÙħ ÙĨ
ĠØ±Ø§ÛĮ Ú¯Ø§ÙĨ
ĠØµ ÙĦØ§ØŃ
ĠØªÙĪØ§ÙĨ ÙħÙĨØ¯ÛĮ
ØŃ Øµ
ĠÙĩØ±ÙħØ² Ú¯Ø§ÙĨ
ĠØ¢ ØªÛĮ
ĠØªÙĤ Ø¯
ĠÛ²Û°Û± Û¹
ĠØ¨Ø± Ø´Ùħ
ĠÚ©ÙĦØ§ÙĨ Ø´ÙĩØ±
ĠØ± ØŃ
Ú© Ø¯Ùĩ
ĠÙħØªØ®ØµØµ Ø§ÙĨ
Ø¨ ØªÛĮ
ĠÙħØ¹ ÛĮ
Ú©Ø±Ø¯ ÙĨØ¯
ĠÙĩÚ©Øª Ø§Ø±
Ø§Ùħ Øª
ĠØ§Ø¹Øª Ø±Ø§Ø¶
Ø³ ÛĮÙħ
Ø¬Ø§ÙĨ Ø¨Ùĩ
ĠØ± Úĺ
Ø³ Ø§ÙĨ
ĠØ¨Ø§ ÙĪØ±
ÙħØ¯ Øª
ĠØ¯ ÙĪÙĨ
ĠØ± Ø¶Ø§
Ø¢ÙģØ± ÛĮÙĨÛĮ
ĠÙĩØ± ÚĨÙĩ
ÙħØ¯ ÛĮØ±
ÚĨ Ø³ØªØ§ÙĨ
ĠÙħØ¬ Ø¯Ø¯
ĠØ¹ÙĦØ§ Ø¦Ùħ
ĠØ¢ Ø³Øª
ĠÛ¹ Û²
ĠÙħØ¤ Ø«Ø±
ĠØ§Ø¶ Ø·Ø±
ĠÚ© Ø¯Ø§Ùħ
ĠØ´ÙĨØ§ Ø®ØªÙĩ
ĠØ¬Ø§ÛĮ Ø²Ùĩ
ĠØ³Ø¹ ÛĮØ¯
ĠØ³ÛĮ Ø³ØªØ§ÙĨ
ĠØ³ÛĮ Ø§Ùĩ
ĠÛ¹ Û´
ĠØ§ÙĦÙħÙ¾ ÛĮÚ©
ĠÙħÙĪØ§Ø±Ø¯ ÛĮ
Ú¯ Ø²
ĠØ¬ Ø§ÛĮÛĮ
ĠÙħØµØ±Ùģ ÛĮ
ÙĦÛĮ Ùģ
ĠØ§ÙĦÚ©ØªØ±ÙĪÙĨÛĮ Ú©
ØºØ¯ ØºÙĩ
ĠÙĤØ¯ Ø±Ø¯
Ø¨ Ø¯
Ø§ÙĦ Øµ
e r
i n
ĠØ¢ Ú¯Ø§ÙĩÛĮ
ĠÙħ ÙĨØ¯
ĠÛ¹ Û³
ĠØ¯Ø¹ ÙĪØª
ĠØ®Ø¨Ø± Ø¢ÙĨÙĦØ§ÛĮÙĨ
ĠÙĨÙĤ Ø´Ùĩ
Ø¨ ÙĨÛĮ
ĠØ±Ø§ÙĨ ÙĨØ¯Ú¯Ø§ÙĨ
ĠØ§ ØªÙħØ§Ùħ
ĠØ¯ ØºØ¯ØºÙĩ
ÛĮÙĨ Ú¯ÛĮ
ĠØ¨Ø±Ø´Ùħ Ø±Ø¯
ĠØª ÙħØ§ÛĮ
ÙĪ ØŃ
Ø¯Ùĩ ÙħÛĮÙĨ
ĠØªÙĪØ§ÙĨ Ø§ÛĮÛĮ
ĠÛ´ Û³
ĠÙĤ Ø¶Ø§ÛĮÛĮ
ĠØ§Ø³Øª Ø±
ĠÙħØ±Ø¯ ÙħÛĮ
ĠØ±Úĺ ÛĮÙħ
ĠØ³Ùģ Ø§Ø±Ø´
ÙĪ Ø¬
Ú©Øª Ø±ÛĮ
ĠÙħØ´Ø§ÙĪØ± Ùĩ
ĠØ§ ÙĨØ¯ÛĮ
Ø±Ø§ ØŃ
ĠÙħØ®Ø§Ø¨ Ø±Ø§Øª
ĠØ¹ ÛĮÙĨ
ĠØ§ÙĨØªÙĤ Ø§Ø¯
Û± Û³
ĠÙģØ±Ø³ ÙĪØ¯Ùĩ
ĠØ§Ùħ ÙĦØ§Ú©
ĠØµ ÙĦØŃ
ĠØ³ Ø§Ø¨ÙĤ
ĠÙħ ÙĪÙĦ
ĠÙħÙĪ Ø¸
ĠØ§Ø·ÙĦØ§ Ø¹ÛĮ
ĠØ³ÙĨ ØªÛĮ
ĠØ§ÙħÛĮØ¯ÙĪØ§Ø± Ùħ
ĠØ¯Ø³Øª Ø§ÙĪØ±
Ø¹ÛĮ Ùģ
ĠØ¨Ø§ ÙĤ
ĠØ¨Ø± Ø¬
Û°Û° Û°
ĠØªØ¶ ÙħÛĮÙĨ
Ø§ Ú©ÙĨÙĪÙĨ
ĠØ§Ø¹ Ø²Ø§Ùħ
ĠÙħØ§ÙĨ Ø¹
ĠÚ¯ÙĦ Ø³ØªØ§ÙĨ
Ø§ÙĦ Ùħ
ĠØ§Ø³Øª Ø±Ø§Øª
ĠØ· ÙĪØ±ÛĮ
ĠØªØ¹ Ø§ÙĪÙĨ
ĠØªØ± ÙĪØ±ÛĮ
ĠØ² Ø¯Ùĩ
ĠÙ¾ÛĮØ´ ÛĮÙĨ
ĠØ§Ø±Ø¯ Ø¨ÛĮÙĦ
ĠØ±ÛĮØ³ Ú©
ĠØ³ Ø¯
ĠÙģ Ø³
ĠÙħØ³Ø§ÙģØ± Ø§ÙĨ
ĠØ¨Ø§ÙĨ ÙĪØ§ÙĨ
Ø§ÙĨ ÙĪÛĮÙĩ
ĠÙĦÙĪ Ø§Ø²Ùħ
ĠÚ©ÛĮ ÙģÛĮ
ĠÙħØ± Ø²ÛĮ
ĠÙħØª Ø±ÙĪ
ĠÙĪØ§Ø¨ Ø³ØªÙĩ
ĠØ¯Ø± Ú¯ÛĮØ±
ĠØ¯ÛĮ Ù¾
ĠÙĨÛĮØ³Øª ÙĨØ¯
ĠØ³ÙĦ ÙĪÙĦ
ĠØ§Ø± Ø§ÛĮÙĩ
ĠÙħØ´ Øº
Ø® ÛĮØ±
ĠØ§Ø± Øª
ĠÙĤÙĩØ± ÙħØ§ÙĨÛĮ
ĠØ§Ø³ØªØ±Ø§Øª ÚĺÛĮ
ĠØ® ÙĦØ§ÙĤ
ĠÛµ Û¶
ĠØ¹Ø¨ Ø§Ø³
ĠÙĨØ¯Ø§Ø± ÛĮÙħ
ĠÚ¯ Ø²ÛĮÙĨÙĩ
ĠÙħØªÙĤØ§Ø¶ ÛĮ
ĠÙĤØ³ ÙħØª
ĠØ¯ ÙĤØª
Ø§ÙĦ ØŃ
ĠØ¯ ÙħØ§ÛĮ
Ø²ÛĮ Ø³ØªÛĮ
ĠÙĤÙĩØ±ÙħØ§ÙĨ Ø§ÙĨ
ĠÙħØ·Ø§ÙĦ Ø¨Ø§Øª
ĠØ¨Ø¯ Ø§ÙĨ
ĠÙħØŃÙħ ÙĪÙĦÙĩ
ĠØ® Ø´
ĠÚ© Ø´Øª
ĠÙĩ ÙĦØ§ÙĦ
ĠØ¹Ùħ Ø±Ø§ÙĨ
Ġ I
ĠØ±ÙĪØº ÙĨ
ĠÙĪ Ø¬Ùĩ
ĠØ« Ø¨Ø§Øª
ĠÙħØ´Ú©ÙĦ Ø§ØªÛĮ
ĠØ¯Ø±ÛĮ Ø§ÛĮ
ĠØ³ ÙĨØ¬
ĠØŃÙĦ ÙĤÙĩ
ĠÙĨÙĤØ¯ ÛĮÙĨÚ¯ÛĮ
ĠÙ¾ ÙĪÙĦÛĮ
ĠØ² ÙĨØ¯Ùĩ
ĠØ§Ø±ØªØ¨Ø§Ø· ÛĮ
ĠØªÙĪÙĤ Ùģ
ĠÙĪ Ø§Ø³
ĠÛµ Û´
ĠÙĨ ÚĺØ§Ø¯
ĠÛ¶ Ûµ
ĠÙĤØ¯Ø±Ø¯ Ø§ÙĨÛĮ
Ø´ Ø§ÛĮÛĮ
ĠØºÛĮØ± Ùħ
ĠØ³ ÛĮØ±
ĠÙħØ± Øª
ĠÛ´ Û¹
ĠØ¯ÛĮØ¬ÛĮØª Ø§ÙĦ
ØºØ° ÛĮÙĩ
ĠØ§Ú©ØªØ´ Ø§Ùģ
ĠØ³Ø§ÛĮ Ù¾Ø§
ĠØ± Ø¯
ĠÙħØ§Ùħ ÙĪØ±ÛĮØª
ĠØªÚ©ÙĨ ÙĪÙĦÙĪÚĺÛĮ
ĠÙģØ±ÙĪØ´ Ú¯Ø§Ùĩ
ĠÙĪØ§Ø±ÛĮ Ø²
Ġ P
ĠØŃ Ø¬
Ø§ØªÛĮ Ú©
ĠÙ¾ÚĺÙĪÙĩØ´ Ú¯Ø§Ùĩ
ĠØ´Ú© Ø§ÛĮØª
ĠÙģØ±ÙĪØ¯ Ú¯Ø§Ùĩ
ĠØ³ ÙĪØ±ÛĮÙĩ
ĠÚ¯Ø° Ø§Ø±Ø§ÙĨ
ĠÙĨÙĪ Ø´ØªÙĩ
Ø¬ ÙĪØ§ÙĨ
ĠØ¯Ø± Ø®Øª
ĠØ¯ÛĮÙ¾ ÙĦÙħ
ĠØ§Ùģ Ø²Ø§Ø±
ĠØ¨Ú¯ÛĮØ± ÙĨØ¯
ĠØ§ÛĮÙĨ ÚĨ
ĠÛ´ Û¶
ĠÚĨ ÙĨØ§ÙĨ
ĠÙħ Ø§ÛĮ
ĠØ¨Ùĩ Ø§ÛĮ
ĠØ¬ Ø±ÛĮÙħ
ĠØ±ÙĪ Ø³
ĠÛĮ Ø§Ø²Ø¯ÙĩÙħ
ĠÙħ Ú¯
ĠÙħØ´Øº ÙĪÙĦ
ĠÙĩ Ø§Ø´
ĠÙĨÙĪ ÛĮÙĨ
ĠØ§ÙĦ Øª
ĠÛ³ Û¹
Ø§ØŃ Øª
ĠØ§ÙħÛĮØ¯ ÙĪØ§Ø±ÛĮ
ĠÙħØ±Ø§Ø¬ Ø¹
ĠØ¬Ø±ÛĮÙħ Ùĩ
ĠØ§ÛĮ Ø§Ùħ
ĠØ±ÙģØª ÙĨ
ĠÚ© Ùģ
Ø§Ø¯ Ø§
ĠÚĨ Ú©
ĠØ§Ø¨ØªÙĦØ§ Ø¡
ĠØ¯ÙĪÙĨ Ø§ÙĦØ¯
ĠØ³ÙĤ ÙĪØ·
ĠØ¨ÙĨØ¯Ø± Ø¹Ø¨Ø§Ø³
ĠÙħÙĩØ§Ø± Øª
ĠÙĪ Ø¨
Ø¨ Ø·
ĠØ®ÙĪØ§Ø³Øª Ùĩ
ĠÙĩÙĪØ§Ù¾ÛĮÙħ Ø§ÛĮÛĮ
ĠØ§Ø³ØªØ§ÙĨØ¯Ø§Ø± Ø¯ÙĩØ§ÛĮ
ĠÙħØ§Ø² Ø§Ø¯
ĠÚ©ÙĦ Ø§Ø³
ĠÙģØ±Ø§ÛĮ ÙĨØ¯
ĠÙĪ ÛĮØ¯
ĠØ§Ø¬ Ø§Ø±Ùĩ
ĠÛµ Û·
ĠØ§Ø´Øª Ø¨
ØªÙĪØ§ÙĨ ÛĮØ¯
ĠØªÚ© ÙĦÛĮÙģ
ĠÙĩØ§Ø´ ÙħÛĮ
Ø´ Ø§
ĠÙħØŃÙħ ÙĪØ¯
ĠØ¨ÙĦÙĪ ÚĨØ³ØªØ§ÙĨ
ĠØ² ÙĪØ¯ÛĮ
ĠØªØŃØµ ÛĮÙĦÛĮ
ĠØµØ§ØŃ Ø¨
ĠÙħØŃ ØªÙĪ
ĠØ±ÙĪØ³Øª Ø§ÙĩØ§
ĠØªÙĪÙĦÛĮØ¯ Ú©ÙĨÙĨØ¯Ùĩ
ĠØµØ±Ùģ Ø§
Ù ¢
ĠÛ±Û³Û¹ Û¸
Ø§ÛĮ Ø¨
ĠØ± Ø¯Ùĩ
Ø¨ Ø§Ø²
ĠØ¨ ÛĮØ¯
Ø¬ ÙĪ
ĠØ³Ø±Ø· Ø§ÙĨ
Ø§Ø® Ø±
ĠÛ±Ûµ Û°
ĠÙħÛĮ ÙĪÙĩ
ĠÙ¾Ø± Øª
ĠÚ©Ø§ÙĨ Ø§ÙĦ
ĠÙħØµÙĪØ¨ Ø§Øª
ĠØŃ ØªÙħØ§
ÙĩØ± Ùĩ
ĠÚĨ Ø§Ù¾
Ø² ÙĦÙĩ
ĠØŃ ÙħÛĮØ¯
ĠØ¯Ø§Ø± Ùħ
ĠØ¨Ø§ Ø¨Øª
ĠØªØ§Ø¨ Ø³ØªØ§ÙĨ
ĠÙ¾ ÙĪÛĮ
Ø§ÙĨ Ø²
Ø¹ Ø¯Ùĩ
Ø² Ø§ÙĨ
ĠÙĤØ¯ ÛĮÙħÛĮ
ĠØ± Ø§Ø¯ÛĮ
ĠØ® Ø§ÙĦÛĮ
ĠØ§Ø² Ø§ÛĮ
ĠÚ©ÙĨ Ùħ
ĠØªØŃØµ ÛĮÙĦ
ĠØª ØºØ°ÛĮÙĩ
ĠÚ©Ø´ ÛĮ
ĠÚ¯Ø° Ø±
ÙĪ Ú©
ĠØ¨Ø§ÙĦØ§Øª Ø±ÛĮÙĨ
ĠÙ¾Ø§ÛĮ Ø§ÙĨÛĮ
ØŃÛĮ ØŃ
ĠØ¯Ùĩ ÙĨØ¯Ùĩ
ĠØ±Ø¶ Ø§ÛĮØª
ĠÙģ Ø¶Ø§ÛĮÛĮ
ĠÚ¯ÙģØª ÙĨÛĮ
ĠÙĨÙĪ Ø§ÙħØ¨Ø±
ĠÚĺÙĪØ¦ ÙĨ
Ġ H
ĠÚ¯Ø° Ø´Øª
ÙħÙĨ Ø¸
ĠØ²ÛĮ Ø¨
ÙĤ Ø¯Ø±
ĠÛ´ Û·
Ú¯ÙĪ ÛĮÙĨØ¯
ĠØ¨Ùĩ Ø§Ø±
ĠÙĩÙħ Øª
ĠØ¨Ø§Ø´ ÛĮØ¯
ĠØ¯ÙĪØ± Ø¨ÛĮÙĨ
ĠÚ¯Ø±ÙĪÙĩ ÛĮ
ĠØŃÙħØ§ÛĮ ØªÛĮ
Ø¨ÙĨÛĮ Ø§ÙĨ
Ø³ ÛĮØ±
ĠØ¨Ùĩ Ø²ÛĮØ³ØªÛĮ
ĠÙĦØŃ Ø¸Ùĩ
ĠØ§ÛĮ Ø´Ø§ÙĨ
ĠÙħØ²Ø§ÛĮ Ø§ÛĮ
ĠØ§Ø³Øª Ø§Ø±Øª
ÙħÙĨØ¸ ÙĪØ±
ĠÛµ Û³
ĠØ§Ø³ØªÙĤ Ø±Ø§Ø±
Ø¹ ÙĦ
ÙħØ§ÙĨ Ùĩ
ĠØ§ÙĨ Ú¯ÛĮ
ĠÙ¾Ø³ ÙħØ§ÙĨØ¯
ĠÙĨØ¨ ÙĪØ¯Ùĩ
ÙĨ ÙħØ§ÛĮ
ĠÙĤ ÙĪÙĩ
ĠØªÙĪÙĦÛĮØ¯ Ø§Øª
ĠØªØ±Ú©ÛĮ Ø¨
Ø§Ø¯ Ø§Ø±Ø§ÙĨ
ÙĪÙĨ ÙĤÙĦ
ĠÛĮ ÙĪÙĨ
ĠÙħØŃÙħØ¯ Ø±Ø¶Ø§
ĠØ§Ø³ØªØ§ÙĨØ¯ Ø§Ø±ÛĮ
ĠÙħØª ÙĩÙħ
ĠÙĨØ³ Ø®Ùĩ
ĠØ§ ØªØµ
ĠØ® ÙĪØ±Ø´
ĠØ¯ Ø®
ĠØ³Ø§Ø®Øª ÙħØ§ÙĨÛĮ
ĠØ§Ú¯Ø± ÚĨÙĩ
ĠÙĨÙĪ Ø¹ÛĮ
ĠØ± Ø¯ÛĮ
ĠÚ©Ø±Ø¯ Ùħ
ĠÙħØ¯ Ø¹ÛĮ
ĠØ³Ø®Øª ÛĮ
Ú¯Ø° Ø§Ø±Ø¯
ĠØ§Ø¹ Ø·
ĠØ§Ø·ÙĦØ§Ø¹ Ø§ØªÛĮ
Ù¾ ÙĪ
ÙĦÛĮ Ùħ
ĠØ§Ø·ÙĦØ§Ø¹ÛĮ Ùĩ
ĠÙĨØ³ ÙĦ
ĠØ®ÙĪØ¯ Ø´
ÙĦÛĮ Ú©ÛĮ
ĠÙĤØ¨ ÙĪÙĦ
ĠØ¯Ùħ ÙĪÚ©Ø±
ĠÙħØ¹Øª Ø¨Ø±
Ø² ÙħÛĮÙĨ
ĠÙĨ ÙĪÛĮØ³
ĠÙĦ Ø§Ø±ÛĮ
ĠÙħØ¹ Ø±Ø¶
ÙĪ ÛĮÙħ
ĠØ§Ùĩ ÙĪØ§Ø²
Ø± Ø§Ø±ÛĮ
Ø§Ø¶ ÙĦ
Ø´Ø¯ ÛĮØ¯
Ø® Ø§Ø±
ĠØ³ÙĪÙħ ÛĮÙĨ
ĠÙĦÛĮ Ø³Øª
ĠÙĨØ¸ Ø§Ø±ØªÛĮ
ĠØªØ§ Ø®ÛĮØ±
ĠÚĨ ÛĮÙĨÛĮ
ĠØª Ø´Ø¯ÛĮØ¯
ĠØ³ Ù¾Ø±
ĠØ®Ø¯Ùħ Ø§ØªÛĮ
ĠÛĮØ§Ø¯ Ø´Ø¯Ùĩ
ĠØ¯ÙĪ ÚĨ
Ú¯Ø° Ø§Ø±Ø§ÙĨ
ĠØªØ³ Ø±ÛĮ
ĠØ´ÙĨØ§ Ø®Øª
ĠÙħÙĪØ¸ Ùģ
Ú©ÙĪ Ú©
ĠÙ¾ÛĮØ± Ø§Ùħ
ĠÙĪØ³ÛĮ ÙĦÙĩ
ĠÙħÙĨ Ø§ÙĤ
ĠÙħØŃ Ø§Ø³
Ø¢ÙħÙĪØ² Ø§ÙĨ
ĠÙħØ¹Ùħ Ø§Ø±ÛĮ
ÚĨ ÙĩØ§Ø±
ĠÙĩØ± ÚĨ
ĠØªØ¬ Ø¯ÛĮØ¯
ĠÙħØ¨Øª ÙĨÛĮ
ĠÙħÙĩ ÙĦØª
ĠØªÙĨ Ùģ
ĠÙĩÙĪ Ø§Ø¯Ø§Ø±Ø§ÙĨ
âĢĮ âĢĮ
Ø§Ø¯Ùĩ Ø§
ĠØ® Ø¯Ø§
ĠÙ £
ĠÙħØŃ Ú©
Ùħ Ø¦
ĠÛ´ Û±
ĠÙħØ³Øª ÙĨØ¯
ĠØŃ Ø²
ĠØ¨ÛĮ Ú©Ø§Ø±ÛĮ
ĠØªØ¯ Ø±ÛĮ
ĠÛ¸ Ûµ
ĠÙħØªÙĪ Ø¬Ùĩ
Ú¯ ÙĨ
ĠÚ¯ÛĮ Ø§Ùĩ
ĠØ§ÙĪ Ø§ÛĮÙĦ
ĠÙħÙĨ Ø²ÙĦ
Ġ M
Ø§Ø¨ Ø±ÛĮ
ĠØ¯Ø± Ú¯ÛĮØ±ÛĮ
ĠØ¹ Ø´
ĠØ¨Ø¯ ÛĮÙĨ
ĠØ´ ØªØ§Ø¨
Ùł Ùł
ĠØª Ú©Ø±
ĠÙĨÙģØª Ú©Ø´
ĠØ§ÙĪ Ø§Ø®Ø±
ĠÙħØŃØ§Ø³ Ø¨Ùĩ
ĠØ®ÙĪ Ø§Ø¨
ĠØªØ´ ÙĪÛĮ
ĠØ³ ÛĮÙħ
ĠÙĦÛĮ Ø¨ÛĮ
ĠØ¯Ø± Ø¯
ĠØ§Ø´ØªØ¨ Ø§Ùĩ
ĠØ° ÛĮ
ĠØ§ÛĮÙĨ Ø³Øª
ĠÙħÙĨØª Ø¸Ø±
ĠÙĨØ¹ ÙħØª
ĠÙĪ ÛĮØª
ĠØ² Ø¯
ĠÚ© Ø§Øª
Ù ¥
ĠØ¨Ùĩ Ø§Ø¯Ø§Ø±
ĠØ³ Ú©Ùĩ
ĠØ¬Ø²Ø¦ÛĮ Ø§Øª
ĠØ¢Ùģ Ø±ÛĮÙĤ
ĠØ¬Ø² ÙĪ
ĠØ± ØµØ¯
ĠÙģØ¶Ø§ ÙĩØ§ÛĮ
ÙģÛĮ Ùģ
ĠÙħØ· ÙħØ¦
ÙĦ Ø§Ø³
ĠÛµ Û²
ĠØ±Ø§Ùĩ ÛĮ
ĠØ±ÙĪ Ø¨Ùĩ
ĠØªÙĪØ§ÙĨ Ø³ØªÙĩ
ÙĪ Ø°
ĠØ¯ÙĦ Ø§Ø±ÛĮ
ĠÙģ Ø§ÙĤ
ĠØ¬Ø¯ ÙĪÙĦ
ØŃØ³ ÛĮÙĨ
ĠÙģØ§ÙĤ Ø¯
ĠÙģ Ø§Ø¶ÙĦ
ĠØªØµÙħÛĮÙħ Ø§Øª
ĠØ®ÙĪØ¯ Ø¯Ø§Ø±ÛĮ
ĠÙĤØ± Ùĩ
ĠÙ¾Ø²Ø´ Ú©
ĠØ§Ø³ÙģÙĨØ¯ ÙħØ§Ùĩ
ĠØ² ÙĦ
ĠÙħØŃ ÙĦÙĩ
ØªØ± Ùħ
Ø¬ ÙĪÛĮÛĮ
ĠØ§Ø¯ Ø§Ø±Ø§Øª
ĠØ¨Ø§Ø²Ú¯ Ø´Ø§ÛĮÛĮ
ĠÙĨÙħØ§ÛĮ ÙĨØ¯
ĠÙĤ Ø§Ø¯Ø±
ĠÙĨÙĪ Ø¬ÙĪØ§ÙĨ
ĠÚ©Ø§ÙĨ ÙĪÙĨ
ÙĪØ± ÙĩØ§ÛĮ
ĠÙĤ Ø§Ø±Ùĩ
ĠÙĨØ§ ØŃ
ĠÙĩÙĨØ± ÙħÙĨØ¯Ø§ÙĨ
ĠÙĨ Ø§Ø¨
Ù¾ Ø§Ø±
ĠØªØŃÙĤÛĮÙĤ Ø§ØªÛĮ
ĠÙħØ®Ø§ÙĦ Ùģ
ĠØ´ Ø§Ø¯
ĠØ§ØŃ ÙħØ±
ĠÚ¯ Ø§ÙĩÛĮ
ĠØ§Ø± ØªØ´
ĠØªÙĪØ§ÙĨ ÙħÙĨØ¯
Ø§Ø¶ ÛĮ
Ù £
ĠÙħÙĪÙĤ Ø¹
Ùĩ ÙĨÚ¯
Ø±ÙĪ Ùģ
ĠÙ¾ÛĮØ´ÙĨÙĩ Ø§Ø¯ÛĮ
ĠÙħØŃØªÙĪ Ø§ÛĮ
ĠØ¨Ø± ÙĨØ¯
ĠÚ¯Ø±ÙģØª ÙĨØ¯
Ø´ Ø§Ø¯
ĠÙħÙĤØ§ÙĪÙħ Øª
ĠØ±ÛĮ ÙĦÛĮ
ĠØ¯Ø§Ø¯ Ú¯Ø§Ùĩ
ĠÙĪØ§Ø³ Ø·Ùĩ
a n
ĠØ³Ù¾Ø± Ø¯Ùĩ
ĠÙ¾ÛĮØ´Ø± ÙģØªÙĩ
ĠØª ÙģØ§ÙĪØª
ĠØ´ÙĩØ±ÛĮÙĪØ± ÙħØ§Ùĩ
ĠØ§ÙĦ Ø¹
ĠØ¯ ÙħØ§
ĠÙħÙĪ Ø²Ùĩ
ĠØ¨ÙĨ Ú¯Ø§Ùĩ
ĠØ§ ØªÛĮ
ĠØ³Ø¨ Ø¯
ĠÙĤ ÙĪÛĮ
ĠÙħØª ØµÙĦ
ĠØ³Ùģ ÛĮØ±
ĠØ²Ùħ Ø³ØªØ§ÙĨ
ĠØ¨Ø±ÙĤ Ø±Ø§Ø±
ĠØ³ÙĨØ¬ Ø´
ĠØ§Ø¨ Ø¹
ĠÙĨØ§ØŃ ÛĮÙĩ
ĠØ® Ø§ÙĪØ±
ĠÙ¾ ÙħÙ¾
ĠÚ©Ø§ÙĦ Ø§ÙĩØ§
ĠØ±Ø§ÙĩÚ©Ø§Ø± ÙĩØ§ÛĮ
ĠÙ¾Ø±Ø³ Ø´
ĠÙĩÙĪØ§Ù¾ ÛĮÙħØ§
ĠÛ¶ Û´
ĠØ¨Ø±ÙĤ Ø±Ø§Ø±ÛĮ
Ø¬ÙħÙĩ ÙĪØ±ÛĮ
ĠØ¢Ø® Ø±
ĠØ¯Ø¨ÛĮØ± Ø®Ø§ÙĨÙĩ
Ø¹Ùĩ Ø¯Ùĩ
o n
ĠØ¨Ø± Ø²ÛĮ
Û± Ûµ
ĠÙħØ¬ Ø¨ÙĪØ±
ĠØ¨ Ø²
ĠØµ ØŃÛĮØŃ
ĠØ¯Ø§Ø± ÙĪÛĮÛĮ
ĠÚ©ÛĮÙĦÙĪÙħ ØªØ±ÛĮ
ĠÙĩØ±ÚĨ ÙĨØ¯
ĠÙħØ¹ÙħÙĪÙĦ Ø§
Ø¸ Ùħ
ĠÛµ Û¸
ĠØ´ÛĮØ± ÛĮÙĨ
ĠÙģØ§Ø¶ÙĦ Ø§Ø¨
ĠØ²ÙĦ Ø²ÙĦÙĩ
ĠØªÙĤ Ø³ÛĮÙħ
Ø³ Ø§Ø¨
ĠØªÙĪ Ø¦
ĠÙħØ§Ùĩ Ø§ÙĨÙĩ
Ø² Ø§ÛĮ
ĠØªØµ ÙĪÛĮØ±
ĠØ§ÙĨØªØ®Ø§Ø¨ Ø§ØªÛĮ
ĠÙħØ¤Ø³ Ø³Ùĩ
Ú©ÛĮ Ú©
ĠØ§ ÛĮØ³
Ø§Ø² Ú¯ÛĮ
ĠÙħØ³ Ø§ØŃØª
Ø§ ÙĤÛĮ
ĠÙģ ÙĨ
ĠØ§Ù¾ ÙĦÛĮÚ©ÛĮ
Øª Ø§ÙĨ
ĠØ³ Ø§Ø¯Ùĩ
ĠÙħØŃÙĪØ± ÙĩØ§ÛĮ
ĠÙģ ÛĮÙĨ
ĠØªØ® Ø±ÛĮØ¨
ĠØ§ Øº
Ùħ Ø§Ø±
ĠØ´ÛĮÙħÛĮ Ø§ÛĮÛĮ
ĠØ±ÙĪØ² ÙĩØ§
ĠØªØ¹ÙĪÛĮ Ø¶
ĠÙĦØ± Ø³ØªØ§ÙĨ
ĠØªØ³Ø±ÛĮ Ø¹
Ø§ÙĨØ¯ Ø§Ø²
ĠØ¬ Ø³
ĠØ¯Ø³ØªØ§ÙĪØ± Ø¯ÙĩØ§ÛĮ
ÙĨØ§ Ú©
ĠÙħØŃ ØªØ±Ùħ
ĠØ¢Ø² Ø§Ø¯ÛĮ
ĠÙĨÚ¯Ùĩ Ø¨Ø§ÙĨ
Øª ØŃ
ĠØ§Ø¹ Ø¶Ø§
ĠØ¢Ø³ Ùģ
ĠØ³Ø§ÙĨ ØªÛĮ
ĠÚĨ Ú¯ÙĪÙĨÙĩ
Øª Ø§ÙħØ¨Ø±
ĠØ¯ ÛĮÙĨ
Ø§Ø· Ø¹
ĠØ§Ø® Ø¨Ø§Ø±
ĠØªÙħØ§ÛĮ ÙĦ
ĠÚ©Ø§ Ø®
Ù ¨
ÙĪ Ø§Ø¨Ø·
ĠÙĪØ§ÙĤ Ø¹ÛĮØª
ÙĨ ÙģØª
ĠÙ¾ÛĮ ÙĪØ³Øª
ĠÛµ Û¹
ĠØ§Ø¨Ø¹ Ø§Ø¯
ĠØ¯ÛĮ Ø§Ø¨Øª
Ø¬Ø§ Ø¹
Ùģ Ø§ÛĮÛĮ
ĠÙĨ Ø§ÛĮØ¨
Ø¨Ø§ Ø´
ĠØ§ÙĦ Ø¬
Ø¨ ÙĦ
ĠØ¶ ÙĪØ§Ø¨Ø·
ĠÚ©ÙĪ ÛĮØª
Û± Û²
ĠØ§Ø· Ø±Ø§Ùģ
ĠØ§ Ø«
ĠØª Ø«
ĠØ¨Ø§ Ø¯
ĠÙĤ ÙĦØ¨
ĠØ¯Ø±ÙĪ Ø§Ø²Ùĩ
ĠØ¢Ø³Ùģ Ø§ÙĦØª
ĠÚ©Ø§Ø± ÙģØ±
Ú¯Ø± ÙģØª
ĠØ³Ø· ÙĪØŃ
ĠØ§Ù¾ÙĦÛĮÚ©ÛĮ Ø´ÙĨ
ĠÚĨ Ø§Ø¨
ĠØ¹Ø± Ø¨ÛĮ
ĠÙħØ¨ Ø§ØŃ
ĠØ¬ ÙĪÛĮ
ĠØ¨ÙĨ Ø§Ø¯Ø±
ĠÚ©Ø§Ø± Ø¨Ø±ÛĮ
ĠÙħØµ Ø§ØŃ
ĠÙħØ¨Ø§ØŃ Ø«
ĠÙĪØ§ Ø´
ĠØ¨Ø± Ø¯Ø§Ø´ØªÙĩ
ÙĩØ§ Ø³Øª
ĠÛ²Û°Û± Û¶
ĠÚ¯Ø° Ø§Ø±
ĠÙ¾ÛĮÙħØ§ÙĨ Ú©Ø§Ø±Ø§ÙĨ
ĠØ¢Ø¨Ø§Ø¯ Ø§ÙĨ
Ù¾ Ø§ÛĮ
ĠÚ© Ø§ÙħÛĮ
ĠØ¯ÛĮ ÙĪØ§ÙĨ
ĠØªÙģ Ú©ÛĮÚ©
ĠÙĨÙħ Ø§Ø¯
ÙħØŃ ÙħØ¯
ĠØ¯Ø³Øª Ø±Ø³
Ø§ Ú©ÛĮ
ĠÙĨ Ú¯Ø±Ø§ÙĨ
ĠØŃØ² Ø¨
ĠØªØ´ Ú©Ø±
ĠÚĨÙĨØ§ÙĨ ÚĨÙĩ
ĠØ§ÛĮÙĨØ³Øª Ø§Ú¯Ø±
ĠÛ¶ Û·
ĠØ§Ú©Øª Ø¨Ø±
Ø§ Ø¹
ĠØŃ Ø±Ùģ
ĠØ³Ù¾ ØªØ§ÙħØ¨Ø±
Ø´ Ø¹
ĠÙħÙĪØ³ ÙĪÛĮ
ĠÙħØ¯Ø§Ø± Ú©
ĠØ§Ø±Øª ÙģØ§
ĠØªØ® ÙĦÛĮÙĩ
ĠØªØ« Ø¨ÛĮØª
Ġ E
Ø§ Ø´Øª
ĠÚ¯ÙĪ Ø´Øª
ĠÚĺ Ø§ÙĨÙĪÛĮÙĩ
ĠÙħØ¹ ÙĨØ§ÛĮ
ĠØ§Ø±Ø§ Ø¶ÛĮ
ĠØ¢Ø±Ø§Ùħ Ø´
ĠØ²ÙħÛĮÙĨ ÛĮ
ĠØ¨ Ø®Øª
ĠÙĨÙħ ÙĪØ¯
ĠÙħÙĪÙĤ Øª
ĠØ³Ø§ Ø¹Ø§Øª
ĠØ¨Ø± ÙĪÙĨ
ĠÙĤ ÙĦÙħ
ĠÙħØŃ Ø§Ùģ
ĠÙģ Ú©Ø±ÛĮ
ĠØº ÙĦØ§Ùħ
ĠÙ¾ÛĮØ±Ø§Ùħ ÙĪÙĨ
ĠÙħØªØ¹ ÙĦÙĤ
ĠØ¯ÙĪÚĨ Ø±Ø®Ùĩ
ĠØ¢ Ø¦ÛĮÙĨ
ĠÙĤØ¶Ø§ Ø¦ÛĮ
Ø¬ Ø¹
ĠØ¨Ø®Ø´ ÙĨØ§ÙħÙĩ
ÙħÛĮ Ø§ÙĨÙĩ
ĠØ§ØŃØª Ø³Ø§Ø¨
ĠØ¹Ùħ ÙĪÙħ
ĠÙħØªØ¹ Ø¯Ø¯
ØªÙĪ Ø¬Ùĩ
ĠØµÙĦØ§ØŃ ÛĮØª
ĠØ§ØªØµ Ø§ÙĦ
ĠØ® Ø´Ú©
ĠÙ¾ÛĮ Ø´Øª
Ġ B
Ø§ÙĦ ÙħÙĦÙĦ
ĠØ±ÙĪ Ø²ÛĮ
ĠÙħØ´ Ú©ÙĪÚ©
ĠØ¯Ø± Ø³
ĠÛ²Û°Û± Û¸
ĠØ±ÙĪ Ø§ÙĨÛĮ
ĠÛ¶ Û³
ĠÙĨ Ø¨Ø§Ø´Ø¯
ĠØ±ÙĪØ² Ùĩ
ĠØŃØ§ Ú©ÛĮ
ĠÚĨØ±Ø§ Ú©Ùĩ
ĠÙħÙĤØ§ÙĪÙħ ØªÛĮ
Øº ÙĦÛĮ
ĠÙ¾Ø§ÛĮØ¯ Ø§Ø±ÛĮ
ĠØ¯ Ú©ÙĦ
Ùĩ Ø§Ùħ
Ø§ÙĨ Ø³ÛĮ
ĠØ¹ Ú©Ø³
ĠØ§ØŃØªÙħØ§ÙĦ Ø§
ĠÙĤÙĦ Ø¨ÛĮ
ĠÚĨ ÛĮØ²
ĠØ§ Ú©Ø³
ĠÙ¾ ÙĦØ§
ĠÙĨÙĤ Ø¯ÛĮ
Ú© Ø±ÙĪ
ĠØ®Ø§ÙĪØ± ÙħÛĮØ§ÙĨÙĩ
ĠÛ²Ûµ Û°
ĠØ§Ø¶Ø·Ø± Ø§Ø±ÛĮ
Ù¾ Ø³
Ø´ÙĨ Ø§Ø³
ĠØ³Ø§Ø²ÙħØ§ÙĨ ÛĮ
Ø· ÙģÛĮ
ĠÙħØ¯ÛĮØ±ÛĮØª ÛĮ
Ø³Øª Ú¯Ø§ÙĨ
Ø§Ø¨ ØªÛĮ
ĠÙĨØ¸ Ø±ÛĮ
ĠÛ· Û²
ĠÛ±Û² Û°
ÛĮ Ø§ÛĮ
ĠØ¢ÙĪØ±ÛĮ ÙĦ
Ø§ÙĨÛĮ Ø§ÙĨ
Ø¨ Ú©
ĠØªØ± Ø¨ÛĮØª
ĠØªÙħØ±ÛĮÙĨ Ø§Øª
ĠØ± Ùħ
ĠØŃØ¯Ø§Ú© Ø«Ø±ÛĮ
ĠÙħ ØµØ¯
ĠØ¯Ø§Ø¯ ÛĮÙħ
ÙĤÛĮ Ùĩ
ĠØ¬Ùħ Ø¹ÛĮ
ĠÙħØ±Ø¯Ø§Ø¯ ÙħØ§Ùĩ
Ø§Ùħ ÙĦÛĮ
ĠØ§Ø±Ø² Ø§ÙĨ
ĠØ§Ø¯Ø¹ Ø§
ĠÙħØ± Ø§Øª
ÙĪÙħ ÛĮØª
ĠÙħÙĨØª Ø®
Ø¨ÛĮ Ùĩ
ĠØ§Ø®Øª ÙĦØ§ÙĦ
ĠÙħØº Ø²
ĠØ§ÙĤØ¯Ø§Ùħ ÛĮ
ĠÙĪØ± ÙĤ
Ø³ Ø§
ĠØ¨ ÙĪØ±
ĠØ´ ØºÙĦ
ĠØ¹ ÙħØ§ÙĨ
Ø° Ú©Ø±
ĠØ±ÛĮ Ø§ÙĦÛĮ
ĠØ±Ø§ØŃ ØªÛĮ
Ø® Ø§ÙĨ
ÙĦÛĮ ÙĪÙĨ
ĠØ³Ø§Ø² ÙĨØ¯Ú¯Ø§ÙĨ
ĠØ¨ÛĮØ± ÙĪÙĨ
Ø¨Ø± ÙĨØ¯
ĠØ®Ø±ÙĪ Ø¬ÛĮ
ĠÙħØµØ§ØŃ Ø¨Ùĩ
ĠØ§ÙĦ ØŃ
ÙħØ² Ø¯
ĠØ¨ ÙĨØ¯Ùĩ
ÙĨØ¬ Ø§ÙĨ
ĠØª Ø®Øª
ĠØ¢ Ù¾
ĠÙ¾Ø§Ø± ÙĦ
ÛĮÚ© Ø´ÙĨØ¨Ùĩ
ÙĦ ÙĨ
ĠØ§ÙĨ Ø¹
ĠÙĩ ÛĮØ¯Ø±ÙĪ
Ø¦ ÙħÛĮ
Ø¨ ÙĨØ¯
Ġ D
ĠÙĨ ÙģØ¹
Ø§Ø² ÙĦ
ĠÙħÙĤ Ø·
ĠÙĩÙĪ ÛĮØª
ĠØ®ÙĪØ¯Ø±ÙĪ Ø³Ø§Ø²
ĠØ§Ø¨Øª Ø¯Ø§ÛĮÛĮ
ĠÛĮ ÙĪ
ĠÙ¾ Ùĩ
ĠØ¨Ø§Ø²ÙĨØ´ Ø³ØªÚ¯Ø§ÙĨ
a r
Â» ØĮ
ĠÙĩÙģØª Ùħ
ĠØ±Ø³ Ø§ÙĨ
ÙĨÚ¯ ØªÙĨ
ĠÙħØ´Øª Ø±ÛĮ
ĠØ³Ø± Ø®
Ø±Ø³ ÛĮØ¯
ĠÙĨ Ú©Ø§Øª
ĠÙħÙĪ Ø¨
ĠØ¬Ø§ÙĨ Ø¨Ùĩ
ĠÙħØŃØ³ ÙĨ
ĠØ§Ø³Ù¾ Ø§ÙĨÛĮØ§
ĠØ³Ø§Ø² ÙĨØ¯Ùĩ
Ø¯ÙĪ Ø´ÙĨØ¨Ùĩ
ĠÙ¾ Ø§Ø¯
ĠÚ©Ø§Ø± Ø¨Ø±
ĠØ§ÙĦ Ú¯ÙĪÛĮ
ĠÛ±Û³ Û¸
ĠÙ¾Ø²Ø´ Ú©Ø§ÙĨ
ĠØªØŃÙĪÙĦ Ø§Øª
ĠÚ©Ø§ÙĨ Ø§Ø¯Ø§
ĠØ¨Ø±Ø²ÛĮ ÙĦ
ĠÙĩÙħØ³ Ø§ÛĮÙĩ
ĠØ§ÙħØ§ Ú©ÙĨ
ĠÛ¶ Û¸
ĠÛ¸ Û´
ĠÙħØªØŃ Ø¯
ĠØ³ Ú©ÙĪ
ĠØ®ÙĪØ¯ Ø´Ø§ÙĨ
ĠØ§ØŃ ÛĮØ§ÛĮ
ĠÛ¶ Û²
ÙĪØ§ Ø¬
ÙħØ±Ú© Ø²
ĠØ±Ú© ÙĪØ±Ø¯
ĠØ§Ø² Ø¯
ĠÛ¸ Û·
ĠÙĪØ§Ø´ ÙĨÚ¯ØªÙĨ
ĠØ§ ÙĦÛĮ
Ø²ÛĮ Ú©
ĠÙħØª ÙĪÙĦÛĮ
ĠØªØ§Ø«ÛĮØ± Ú¯Ø°Ø§Ø±
ĠØ¯Ø§Ø±ÙĪ ÙĩØ§ÛĮ
ĠØ§Ø±Ø²Ø´ ÙħÙĨØ¯
ĠÙĩÙĪØ§ Ø´ÙĨØ§Ø³ÛĮ
ÛĮ Ø¨
Ø¯ Ø¯ÛĮ
ĠÙħÙģ ÛĮØ¯
ĠÙħØ®Ø§ÙĦ ÙģØª
ĠÛ¶ Û¶
ĠØ³ÙĦØ§Ùħ ØªÛĮ
ĠØª ÙĨÚ¯
ĠØ¯Ø± Ø®ØµÙĪØµ
ĠØ¨Ø± ÙĪØ¯
Ø´ ÛĮØ¯
ĠØ§ÙĤØ¯Ø§Ùħ Ø§ØªÛĮ
ĠÙĩ ØªÙĦ
ĠØªÙĦÙģ ÙĨÛĮ
ĠÙ¡Ù £
ÙħÛĮ ÙĤ
ĠÙħØ§Ùĩ ÛĮ
ĠØ¨Ø± Ùģ
ÙĤ Ø¯
ĠØ¯Ø§ ÙĪØ±ÛĮ
ĠØªØ® ÙģÛĮÙģ
ĠÚĨ ÙĩØ±Ùĩ
ĠØ¯Ø±ØŃ Ø§ÙĦÛĮ
ĠØ§ÙĨÚ¯ÛĮ Ø²Ùĩ
ĠØ¢ÙĦØ§ÛĮ ÙĨØ¯Ùĩ
ÙĪ Ø¹ÛĮ
ĠØªØ¹ Ø±ÙģÙĩ
ĠÙĩÙħØ§ÙĨ ÙĨØ¯
a l
ĠØ¹ÙĤ Ø¨
ĠØ¹Ùħ Ø±
ĠØ¶ Ø¹Ùģ
ĠØ¯Ùģ Ø§ØªØ±
Ú¯ Ø§Ø±ÛĮ
ĠØ± Ø³Øª
ÙĦÛĮ Ø³ÛĮ
ĠØ¯ Ø³
ĠÙ¾ Ø±Ùĩ
Ø§Ùĩ Ø±
ĠÛ¸ Û¶
ĠØ¯ÛĮÚ¯Ø± Ø§ÙĨ
ĠØ·Ø¨ÛĮ Ø¹Øª
ĠØ³Ø§ÙĦ ÛĮ
ĠÛ· Û´
a t
ĠÙĤÛĮÙħ ØªÛĮ
ĠÙħØªØ¹ Ø¯Ø¯ÛĮ
ĠØ±ÙĪÙĨ ÙħØ§ÛĮÛĮ
ĠÙĨÙħØ§ÛĮ ÙĨØ¯Ú¯ÛĮ
ĠÙģØ±ÙĪ Ø´ÛĮ
Û Ģ
ĠØº ÙĦ
ĠÙħÛĮØ² Ø¨Ø§ÙĨ
ĠØ´Ø¹ Ø§Ø±
ĠÙĪ Ø¹Ø¯Ùĩ
ĠÛ· Û·
ĠØ§ØµÙĦØ§ØŃ Ø§Øª
ĠØ² Ø¯ÙĨ
ĠÙĪ ÛĮÙĨ
ĠØ³ ÙĪØ²
ÙĨÚ¯ Ø±ÛĮ
ĠØ§Øº ÙĦØ¨
ĠØ¨ÙĪØ¯ ÛĮÙħ
ĠÙħØ³ Ú©ÙĪ
ĠÛ¸ Û²
ĠÛ¸ Û¸
ĠØ¹Ø±Ø§ ÙĤÛĮ
ĠÚ©Ùĩ Ú©ÛĮ
ĠÙ¾ÛĮÙħØ§ÙĨ Ú©Ø§Ø±
ĠØ® Ø²
ĠÙĪ ÙĦ
ĠÙħØŃ Ø§Ø³Ø¨
ĠØ§Ø¬ ÙĦØ§Ø³
ĠÛ¹ Û°Û°
ĠÙħØ¬ Ø±ÛĮ
ĠÛ· Û¶
ĠØ³Ø±Ø§ÙĨ Ø¬Ø§Ùħ
Ø¬ Ø§Ø±
ĠÙħ Ú©ÙĦ
ĠØ§ÙģØª Ø§Ø¯
ĠØ¯Ø± Ú©
ĠØ¯ÙħÙĪÚ©Ø± Ø§Øª
ĠØ§ØªÛĮ ÙĦÙĨ
Ú¯ Ø§Ø²
ĠÙħØ¹ Ø§Ùģ
ĠØªÙħ Ùĩ
ĠÛ²Û° Û²Û±
Ù¾Ø§Ø± ÚĨÙĩ
Ø³ ÙĪØ²
ÛĮ Ø§Ø¨ÛĮ
Ø¬ Ø§Øª
Ø§ Ø¦
ĠØ¨ Ù¾Ø±Ø¯Ø§Ø²
Ø§Ø· ÛĮ
ĠÙħ Ø¬Ùĩ
ĠØ¨Ø± Ø¹ÙĩØ¯Ùĩ
ĠØ³Ø® ÙĨØ§ÙĨ
ĠØ§ÙĨÚ¯ ÙĦÛĮØ³ÛĮ
ĠÙĪÛĮØ¯ Ø¦ÙĪ
ĠØ§ÙĦ Ùģ
ĠÙĨÙģ ÙĪØ°
ĠØ´ÙģØ§Ùģ ÛĮØª
Ùģ Ø§ÛĮ
Ø§ØŃ ÛĮ
ÙĩØ§ Ø¨
ĠØ§ÛĮ ÙģØ§
ĠØŃ ÙĤÛĮ
ĠØ§ÙĦ ÙĦÙĩ
ĠØªØ¨ÙĦÛĮØº Ø§Øª
ĠØ¨Ø± ÙĤÛĮ
ĠÙħØŃ Øª
ĠÙħØ³ ÙĪ
ĠØ´ÙĩØ± Ø¶Ø§
Ø® Ø§Øµ
ĠÙħØ² ÛĮØª
ĠØ¨ ÙĤÛĮÙĩ
ĠØª Ø§Ø²Ú¯ÛĮ
ĠØ¹Ø¨Ø¯ Ø§ÙĦ
ĠØ¢ Ú¯Ø§Ùĩ
ĠØ¢ÙĨ Ùģ
ĠØ¨Ø§Ø²ÛĮ Ø§ÙģØª
ĠØªÙħÙĩ ÛĮØ¯
Ú© Ø§Ùħ
ĠØ§ÛĮØ³ ÙĨØ§
ĠÙĤ Ø¯Ùħ
ĠÙģÛĮÙĨ Ø§ÙĦ
ĠØµ Ø¹ÙĪØ¯
ÙĪØ± Ø¯ÛĮ
ĠÙħØŃ Ø±ÙĪÙħ
Ø¨ Ø§Ø±ÛĮ
ĠØŃ Ø§Ùģ
ĠØ¨Ø§Ø± ÙĩØ§
ĠØ§ÙĦ Ø§ÙĨ
ĠØ¬Ø° Ø§Ø¨
ĠØ²ÙĪØ¯ ØªØ±
ĠØª Ø±Ø³
ĠØ¯Ø§ Ø³ØªØ§ÙĨ
ĠÛµ Û±
ĠÙĨÙĤ ÙĦÛĮÙĩ
ĠØªØ³ ÙĦÛĮ
ĠØ®ÙĪØ§ÙĨ Ø¯
ĠÙħ Ø§Ø±Ø³
ĠØ¶Ø± Ø¨Ùĩ
ĠØ§ÛĮÙĨØ³ØªØ§Ú¯Ø± Ø§Ùħ
ĠÚ©Ø§Ø± ÙĩØ§
ĠÙħØª ÙħØ±Ú©Ø²
Ø§ÙĦØ¯ ÛĮÙĨ
ĠØ§ÙĪ Ø¬
Ø§Ø³ ÙħÛĮ
Ù¾ Ø°ÛĮØ±ÛĮ
ĠØ¨Ø±Ø³ Ø§ÙĨ
ĠØ¯Ø³ Ø§ÙħØ¨Ø±
ĠÙĪØ§ØŃ Ø¯ÙĩØ§
ĠÙħØ¹ Ø¶
ĠØ·Ø¨ ÙĤÙĩ
ĠØ´ ØºÙĦÛĮ
ĠØ´ÙĪ ÛĮÙħ
ĠØ¢ Ø¯
ĠØ¶ Ø±ÛĮØ¨
Ù ¤
Ø± ÙģØª
ĠÚĨØ§Ø¨ ÙĩØ§Ø±
ĠÚ¯ ÙĨØ¯
ĠÚĨ Ø±Ø®Ùĩ
ĠØ¹Ø¨ Ø§Ø±Øª
Ø§ÛĮ Ø§ÙĨ
ĠØ±ÙĪ ÛĮÙĩ
ĠÛ¶ Û¹
Ù ¦
ĠØŃ Ø±ÛĮÙħ
ĠØªÚ©ÙħÛĮ ÙĦÛĮ
ĠØ§ÙĨ Øµ
Ø· Ø¨ÛĮ
ĠØªÙĨ ÙĪØ¹
Ø±Ø¨ Ø¹
Ø¯ Ø³ØªÛĮ
ĠØ§Ùħ Ø±ÛĮÚ©
ĠØµØ§ØŃ Ø¨Ø§ÙĨ
ĠØ§Ø³ØªØ® Ø¯Ø§Ùħ
Ø´ Ú©ÙĦ
Ø§ ÙĪÛĮ
ĠÙ¾ Ø±Ø§
ĠÙ¾ Ø¯Ø±
ĠØ¢ÙĨ ØªÛĮ
ĠØ§Ø±Ø¯ ÙĪ
ĠØ§Ú© Ø«Ø±
ĠØ¬ÙĦ Ø¨
ĠÚ¯ÙĪ Ø§ÙĩÛĮ
ĠÙħØ¬Ùĩ Ø²
ĠØ¨Ø§ Ø®Øª
ĠØŃØ§Ú© ÙħÛĮØª
ĠÙħØ·ÙħØ¦ ÙĨ
ĠØ¨Ø§ÙĦ Ø§Ø¯
ĠÛ²Û°Û± Ûµ
ĠØªÙħ Ø§Ø´
ĠØ±Ú© ÙĪØ¯
ĠØªÙĤØ¯ ÛĮØ±
ĠØª Ø¦
ĠÙĨØ¸Ø± Ø§Øª
ĠÙħØ³Øª ÙĤÙĦ
ĠØ¨Ø®Øª ÛĮØ§Ø±ÛĮ
ĠØ±Ø¦ÛĮØ³ Ùĩ
ĠØ¢ÙĦ ÙĪØ¯Ùĩ
ĠÙĦØ¨ Ø§Ø³
ĠØ® Ø²Ø±
ĠØ² Ø§ÛĮ
Ú¯ÙĪ ÛĮÙħ
ĠØ¬ ÙĪÛĮÛĮ
ĠØ¨ ØªÙĪØ§ÙĨ
ĠÙģ Ø¬Ø±
ĠÙģØ±ÙħØ§ÙĨ Ø¯Ùĩ
ĠØªØ³ÙĦÛĮ ØŃ
Ú© ÙĪÙĦ
ĠÙĨÙĪ Ø¨Øª
Ø§Ùģ Ø²
ĠØ§ÙĦØ¬ Ø²
Ú©ÙĦ Øª
ĠÛ±Û´ Û°
ĠÚ¯ ÙĪØ´
ĠØ²ÛĮ Ø§ÙĨ
ĠØ§Ùĩ Ø¯Ø§
ĠÙħØ§Ùħ ÙĪØ±Ø§ÙĨ
ĠØªÙĨ Ø´
ĠØ§Ø®ØªØµØ§Øµ ÛĮ
ĠØ³ÛĮÙĨ ÙħØ§
ĠØ¯ÛĮØ¯ Ú¯Ø§Ùĩ
ĠÙĪØ±Ø²Ø´ Ú¯Ø§Ùĩ
ĠØ§Ø³ØªØ± Ø§ÙĦÛĮØ§
ĠÙ¾Ø§Ø³Ø® Ú¯ÙĪÛĮÛĮ
ĠØ§ÙģØª Ø§Ø¯Ùĩ
ĠÛ²Û°Û± Û·
ĠØ§Ø¨Ø± Ø§Ùĩ
ĠØª ÙĨØ¯
ĠØ¢ Ø±Ø§
Ø§ÙĦÛĮ Ø³Øª
Ø§ØŃ ÙħØ¯
Ġ G
ĠØ¹ Ø±ÙĪ
ĠÙĨØ´ Ø§ÙĨÙĩ
ĠØ¨Ùĩ ØªØ±ÛĮ
ĠØ¶ Ø¹ÛĮÙģ
Ùģ Ø±ÙĪ
Ø¶ Ø§ÙĨ
ĠÙĪØ§Ø±Ø¯ Ø§ØªÛĮ
ĠÙĦ Ø§ÛĮÙĩ
ĠÙħØ±Ø¨ Ø¹
ĠÚ¯ÙĪ Ú¯Ø±Ø¯
ĠÙħÙĪØ¨ Ø§ÛĮÙĦ
ĠÙħØ¯ ÙĨØ¸Ø±
ĠØ§ØŃ ØªØ±
ĠÛ· Û¸
ĠØ§Ø´ Ø®Ø§Øµ
ĠØ§ ÚĨ
ĠØ§ØŃ ÙħØ¯ÛĮ
Ú©ÙĨ ÛĮØ¯
Ø¯Ø§ÙĨ ÙĨØ¯
ĠÚ©ÙĨ Ú¯Ø±
ĠÙģØ§Ø² ÙĩØ§ÛĮ
ĠÚ©Ø³ Ø±ÛĮ
ĠØ®Ø² Ø§ÙĨÙĩ
ĠØ´Ø¯ ÛĮÙħ
ĠÙĩØ³Øª Ùħ
ĠÙħÛĮØ² Ø¨Ø§ÙĨÛĮ
ĠØ³ ÙĦØ§ØŃ
ĠÛĮØ§Ø¯ Ø¢ÙĪØ±ÛĮ
ĠØ§Ø®ÛĮØ± Ø§
ĠØ¯Ø±ÛĮØ§ÙģØª ÛĮ
ĠØ³ÙĩØ§Ùħ Ø¯Ø§Ø±Ø§ÙĨ
ĠÙ¾Ø°ÛĮØ± ÙģØªÙĩ
ĠØ¹ Ø³ÙĦ
ĠÚ¯Ø§Ø² ÙĩØ§ÛĮ
ĠØ¨ØŃ Ø±Ø§ÙĨÛĮ
ĠØ®Ø±Ø¯Ø§Ø¯ ÙħØ§Ùĩ
ÙĪØ± Ú©
ĠØ¹Ùģ ÙĪÙĨÛĮ
ĠÙħ Ø³ÛĮ
ÛĮÙħ ÙĨ
ĠØ³ÙĪ Ø¡
ĠØ¨ Ø§Ø±Ø§ÙĨ
ĠÙĨØ§ÙĨ ÙĪ
Ø³Øª Ø±ÛĮ
ĠØ¨Ø±Ú¯ Ø´Øª
ĠØª ÛĮÙħÛĮ
ĠØ§Ø¹ ØªÙĤ
Ø¬ÙħÙĩ ÙĪØ±
ĠÙħØªØ±Ùħ Ø±Ø¨Ø¹
ĠØ´ Ø±ÛĮ
ĠÙģØ±Ø§ ÙĪØ§ÙĨÛĮ
ĠÙĪÛĮØª Ø§ÙħÛĮÙĨ
ĠÙģÙĤ Ø±Ùĩ
ĠØ¢Ø³Øª Ø§ÙĨÙĩ
ĠÙħØª Ø®
Ú¯ÛĮØ± Ø§ÙĨÙĩ
Ø¶Ø§ Ø¹
ĠØ±Ø§ÛĮ Ø²ÙĨÛĮ
ĠØ³Ú© ÙĪÛĮ
Ø§Ùģ Ø²Ø§Ø±
ĠØ¬Ø² ÛĮØ±Ùĩ
ĠÙ¾ ÙĦØ§Ú©
ÙĪÙĨ Ø²ÛĮ
ĠÙģØ±Ø¢ ÛĮÙĨ
ĠØ¯Ø§ÙĪØ· ÙĦØ¨
ĠÙħØŃØ§Ø³Ø¨ Ø§Øª
Ù §
Ø±Ø³ Ø§ÙĨ
ĠÚ©ÙĨÚ¯Ø± Ùĩ
Ø§Ùħ Ø§
i r
ĠÙĨÛĮ Ø§Ø²ÛĮ
ĠÛĮÚ© Ùħ
ĠØ§ÛĮÙĨ Ø¬Ø§
ĠØŃÚ© ÙĪÙħ
ÚĨÛĮ Ø¯Ùĩ
ĠØ¯Ùĩ ÛĮØ§Ø±ÛĮ
ĠØ¯Ø§ÙĨØ´Ú¯Ø§Ùĩ ÛĮ
Ø§Ùħ Ø¹
ĠØ§ÙĪ Ú©
ĠÛ· Û³
Ø±Ø§ Ú©
ĠÙħÚ¯ Ø§ÙĪ
ĠÙħ Ø§Ø¨
ĠØ¯ Ø®Øª
ĠØª Ø§Ø¨ÙĦ
ĠØ§ÙĨØ¯ ÙĪÙĨØ²ÛĮ
ĠÙħÚ© Ø²ÛĮÚ©
ĠØªÙĦÙĪÛĮØ²ÛĮ ÙĪÙĨ
ĠØ¬ Øº
ÙĨØ´ Ø§ÙĨÛĮ
ĠÚ©Ø´ÙĪØ± ÙĩØ§ÛĮÛĮ
ĠÙħØ³ ÙĦØŃ
ĠØ§ÙħØ±ÙĪØ² Ùĩ
ĠÙĩØ´Øª Ùħ
ĠØªØ´ÙĪÛĮ ÙĤ
Ùħ Ø§Øª
ĠÚ© Ø§Ø³Øª
Ø±Ø³ ÙĨØ¬ÛĮ
ĠØªØ¯ Ø§Ø¨
ĠØ¢ Ø¨Ø±
ĠÛ· Û¹
ĠØ¹ ÙĨØ§
ĠÙĩÙħ Ø¯
ĠÚ©ÛĮ Ø´
ĠØ¨ÙĪØ± Ø³ÛĮ
ĠØ¨ ÙĪÛĮÚĺÙĩ
ĠØª Ø±ÛĮ
ĠØ¯Ø± Ø³ØªÛĮ
ĠØ¨Ø± ÙĨØª
ØªÙħ ÙĨØ¯
ĠØª Ø±ÙĪÛĮ
ĠØ§ÙĨ Ø´Ø¹
ĠÛ²Û° Û²
ĠØ¢Ø´ ÙĨØ§
ĠÙħÙĩØ§ Ø¬Ø±
ĠØ´ Ø§Ø±
ĠÙģØ±Ø§ Ø®ÙĪØ§ÙĨ
ĠØ¨Ø§Ø²ÙĨØ´ Ø³ØªÚ¯ÛĮ
Ġ T
ĠØ±Ø¯ÛĮ Ùģ
ĠØ§Ø³Øª Ø«
ĠØ·Ø±Ùģ ÛĮ
ĠØ®ÙĪØ±Ø´ ÛĮØ¯ÛĮ
Ú¯ ÙģØª
Û± Û±
ÚĨÙĩØ§Ø± Ø´ÙĨØ¨Ùĩ
ÙĨÙĪ Ø¹ÛĮ
Ù¾Ø±Ø¯ Ø§Ø®Øª
ÙģÛĮ ÙĤ
ĠØ§Øª ÙĪÙħ
ĠØ¨Ø±Ø³ Ø§ÙĨØ¯
ĠÛ¸ Û¹
ĠÙ¾Øª Ø±ÙĪ
ĠØªØ´ Ú©ÙĦ
ĠØ¯Ø§ÙĪØ· ÙĦØ¨Ø§ÙĨ
ĠÚ©Ø§Ø± Ø¨Ø±Ø¯ÛĮ
ĠØ¯Ø§Ø± ÙĪÛĮ
ĠÙĤØ· Ø§Ø±
ĠÙħ Ø§Ø¯
ĠØ± Ø¬
ÙħÛĮ ÙĦ
ĠÙ¾ ÙĪØ³Øª
ĠÙħÙĤ ØµØ¯
Ú¯ÙĪÙĨ Ú¯ÛĮ
ĠØ³ Ø±Ø§
Ø§Ø³ Ø§Ø²ÛĮ
ĠÙģÙĨØ§ ÙĪØ±
ĠÚĨ Ú¯ÙĪÙĨÚ¯ÛĮ
ĠÙĨØ¸ Ø±Ø³ÙĨØ¬ÛĮ
ĠØ¢ÙħØ§Ø± ÙĩØ§ÛĮ
ĠÙħ Ú©Ø±
Ø§ ÙĪØ±Ø¯
ĠØ¨Ø®Ø´ ÙĩØ§ÛĮ
Ø§Øµ Ø±
ĠÙ¾ Ø§ÛĮÛĮ
ĠÙĨØ§Ùħ Ø²Ø¯
ĠØ§Ø³ØªØ® Ø±Ø§Ø¬
ĠÙģØ± Ø§Ø¨
ĠÙĨÙħØ§ÛĮ Ø¯
ĠÙ¾ÛĮ ÙĪÙĨØ¯
ĠØªØ®ÙĦÙģ Ø§Øª
ĠÙħÚ©ÙĦ Ùģ
ĠØ¯ Ø§Ø±ÛĮ
Ú¯Ùĩ ÛĮ
ĠØŃÙĤÛĮ ÙĤÛĮ
ÙĪÛĮ Ø³ÛĮ
ĠØ¶Ø± Ø±
ĠØ¯Ø´ ÙĪØ§Ø±
ĠÙģØ§Ø± Ø³ÛĮ
ĠØ¯Ø± Ø¬
ĠØªÙĨÙģ Ø³ÛĮ
ĠÙģØ± Ø§ØªØ±
ĠØ¹Ø²ÛĮ Ø²
ÙĨ ÚĺØ§Ø¯
ĠØªÙĦÙĪÛĮØ²ÛĮ ÙĪÙĨÛĮ
ĠØ´ ÛĮÙĦ
ĠÙħÙħÙĨÙĪØ¹ ÛĮØª
Ø¸ ÙħÛĮ
ÙĪØ· ÙĨØ§ÙĨ
ĠÙģØ± Ø´
ĠØ¸ Ø±ÛĮÙģ
ĠÙĨÙħ Ø§Ø¯ÙĩØ§ÛĮ
ĠÙ ¤
ĠØ® ÙĦ
ĠØ§ÙĪØ± ÚĺØ§ÙĨØ³
Ú© Ø§ÙĦ
Ø®ÙĪ Ø§ÙĨÛĮ
ÙĨØ´ ÛĮÙĨ
ĠÙĤØ·Ø¹ ÙĨØ§ÙħÙĩ
Ø¯ Ø±ÛĮ
ĠØ¨ Ú¯Ø°Ø§Ø±
ĠØ§ÙĨØ´Ø¹ Ø§Ø¨
ĠØªØµ Ø§ÙĪ
ĠÙħÙĪØ± Ø®
Ø¬ ÙĨ
ĠØ±Ø§Ùĩ Ø¯Ø§Ø±ÛĮ
ĠÙħÙĨØªØ® Ø¨
ĠÙħ Ø®ØµÙĪØµ
Ø¶ Ø±
ĠØ¬Øº Ø±Ø§ÙģÛĮ
ÙĤÛĮÙĤ Øª
ĠÙ¾ Ø¯ÛĮØ¯Ùĩ
ĠØ² ØŃ
ĠØ¨ ÙĦØ§Ùģ
ĠÙ¾Ø±Ø¯Ø§Ø®Øª Ùĩ
ĠØ§ Ú©ÙĪ
ĠØ² ÙĨØ¯
ĠÙĨ Ø§Ø³
ĠØ´ÙĨ Ø§Ø³ÛĮ
ĠØµØŃ ÙĨ
ĠÚ©ÙĦÛĮ Ø¯ÛĮ
ĠØ¯Ø§ Ø¦ÙħÛĮ
Ùħ Ø±ÛĮ
ĠØªÙĪØ± Ø¨ÛĮÙĨ
Ø§Ú© Ø³
ĠÙģØ³ Ø§Ø¯
Û± Û¶
Ø® ÙĪØ±Ø¯
ĠÙ¾ Ø¯Ø§Ùģ
ÙĪÛĮ ÙĪØ±Ú©
ĠØ¯ÙĪ Ø³ØªØ§ÙĨ
ĠØ¹ Øµ
ĠÙĦ ÙĨØ¯
Ø¯Ùĩ ÙĨØ¯Ùĩ
ĠØ§Ø¯ Ø¨ÛĮØ§Øª
ĠÙħØ± ÙĪØ±
ĠØ¨Ø§Ø² ÙĨÚ¯Ø±ÛĮ
ĠØ¨Ø§ÙĦ ÛĮÙĨÛĮ
ĠÚ©ØªØ§Ø¨ Ø®Ø§ÙĨÙĩ
ĠÙħØ§ÙĦÚ© ÛĮØª
ĠØ§Ø± Ø¬Ø§Ø¹
ĠØ³Ø± ÙĤØª
ĠØªØ± Ø§ÙĨØ²
ĠØ¨ÙĦØ§Ùģ Ø§ØµÙĦÙĩ
ĠØ´ Ø¹Ø¨
ØŃ ÙĦÛĮ
ĠÙĨÙĩØ§ Ø¯Ùĩ
ĠØ± Ú¯
ĠÙħØªØ® ÙĦÙģ
ĠØ§Ø¸ÙĩØ§Ø± Ø§Øª
ĠØ³ ÙĦÛĮ
ĠÙ¾ÛĮ ÚĨÛĮØ¯Ùĩ
ĠØ®ÙĪØ§Ùĩ Ø§ÙĨ
ĠØ§Ø¨Øª ÙĦØ§ÛĮ
ÙħØ§ Ø¹ÛĮ
ĠÙħØª Ø´Ú©ÙĦ
ĠØªØ¬ Ø§Ø±
ĠØ¬ÙĪ Ø§Ø¨
ĠØ§Ø¹ØªÙĤ Ø§Ø¯
ĠÙĤØ±Ø§Ø±Ø¯ Ø§Ø¯ÛĮ
ĠØ¨ Ø¯ÙĩØ¯
ĠÛĮÚ© Ù¾Ø§Ø±ÚĨÙĩ
ĠØŃØ¬ Øª
Ø§Ø± Ø§
ĠÙĪ Ø§ÙĦÛĮ
ĠÙĨ Ú©ÙĨÙĨØ¯
ĠØµ Ø¯Ø±
ĠØ¯ÙģØ§ Ø¹ÛĮ
ĠØ¨ Ø¨ÛĮÙĨ
ĠÙģØ± Ø§Ùħ
ÙĨÛĮ Ø§
ĠØ¢Ø³ÛĮ Ø§ÛĮÛĮ
ĠÙĨÙĩ Ùħ
ĠÙħØ¹ ÙĨØ§
ĠÙģØ± Ùħ
ĠØŃØ³Ø§Ø³ ÛĮØª
ĠÛ¸ Û³
ĠØ¨Ø± Ø¯ÙĨ
ĠÙħØª Ø¹ÙĩØ¯
ĠØ¹Ø¶ ÙĪÛĮØª
ĠØ¢Ø³ Ø§ÙĨ
ĠÚ©Ùħ ØªØ±ÛĮ
ĠØªØµ ÙĪØ±
ĠØ¨Ø§Ø± ÙĨØ¯Ú¯ÛĮ
ĠØ³Ø§ÙĦ ÙĩØ§ÛĮ
ĠØ¬ÙĨÚ¯ ÙĦ
ĠØ±Ùĩ Ø¨Ø±
o r
ĠØ´ Ø³Øª
ĠÙħØ¹ ÛĮØ§Ø±
ĠØ« Ø±ÙĪ
ĠØ¨Ùĩ Ø³Ø§Ø²ÛĮ
ÙĪÙĦ Øª
ĠÛĮØ§Ø¯ Ø¯Ø§Ø´Øª
Ø¢ ÙĩÙĨ
Û± Û¸
Ø¯ Ø§ÙĨØ¯
ĠØŃ Ø±ÛĮÙĤ
ĠØªÙĪ Øª
Ø§Ø¯ Ùģ
ĠÙ¾Ø±Ø³ ÙĨ
ĠÚ©Ø§ÙħÛĮ ÙĪÙĨ
Ø¬ Ø±ÛĮÙĩ
ĠØªØ±ÙĪÛĮ Ø¬
ĠÙĨ Ø§Ú©
ĠÙĨÛĮ ÙĪÛĮÙĪØ±Ú©
Ø¨ ÙĪØ¹
ĠØ§ÙĨ Ø¨
ĠØ§ØŃØªØ± Ø§Ùħ
. Â»
ĠÙ ©
ĠØ¨Ùĩ Ø´ØªÛĮ
ĠØ³ Ø§Ø±ÛĮ
ĠÙħÙĨ ØŃ
ĠØªÚ©Ø± Ø§Ø±
ÙĨ Ø§ÛĮÛĮ
ĠÙĨØ§ Ø®
ĠÙĨÛĮ Ø¬Ø±ÛĮÙĩ
ĠÙħØ¯ Ø±
ÙĤÛĮ Ø¨
Ø³ ÙĪÙĨ
ĠÙ¾ÚĺÙĪÙĩØ´ Ú¯Ø±Ø§ÙĨ
ĠØªÙĪ ÛĮ
ĠÙħØ¯ ØªÛĮ
ĠØŃØ§Ú© Ùħ
ĠÙĨ Ø§Ø¯Ø±
ĠØªØ¯ Ø¨ÛĮØ±
Ø§Ùĩ Ø¯
ĠÛ±Û³ Û·
ĠØªØ±Ú© ÙħÙĨØ³ØªØ§ÙĨ
ĠÚ©Ø§Ø± ÙĪÙĨ
ĠÙħØ³ Ø¯ÙĪØ¯
ĠÙ¾Ø± Ø³Øª
ĠØªØ¹ÙĪÛĮ ÙĤ
ĠØ§Ùĩ Ø¯Ø§ÛĮ
Ø¨Ø®Ø´ ÛĮ
ĠØ¯ ÙĨØ¯Ø§ÙĨ
Ø´ÛĮ Ø¯Ùĩ
ĠÙħØµ ÙĨÙĪØ¹ÛĮ
ĠØŃØ§ Ø¬ÛĮ
ĠÙĩÙħ ÙĪØ·ÙĨØ§ÙĨ
ĠØ¨ÛĮ ÚĺÙĨ
ĠØ¨Ú¯ÛĮØ± ÛĮÙħ
ĠÚ©Ø± Ø¬
Ú©Ø§Ø± Ú¯ÛĮØ±ÛĮ
ĠØŃØ§ Ø¦
ĠÙĨ ÙĪØ±ÛĮ
ĠÙħÙĪØ³ Ø³Ø§Øª
ĠÙ¾Ø¯Ø§Ùģ ÙĨØ¯
Ø¨ Ø§ÛĮ
ĠØ´ÙĨØ§ ÙĪØ±
Ø¨ Ø§Ø¨
ĠØ·Ø±ØŃ ÙĩØ§ÛĮ
ĠØ³ÙĪ Ø²ÛĮ
ĠØ±Ø¶ Ø§ÛĮÛĮ
ÙħØ§ÙĨ Øª
ĠÛ±Û± Û°
ÙĨ Ø¸
ÙĪ Ø§Øª
ĠØ² Ø±Ø¯
Ø±Ø§ Ø¦
ĠØ§ÙĤ Ø´Ø§Ø±
ĠØ¨ÙĦÙĨØ¯ ÙħØ¯Øª
Ø³ Ø¨
Ù¾ Ø§ÛĮÙĩ
ĠÙħÙĤØ· Ø¹
ĠØ§Ø± Ø´Ø§Ø¯
Û± Û´
ÛĮ Ùģ
ĠØ§ÙĪ Ø¶Ø§Ø¹
Ø± Ø§ØªÛĮ
ĠÙĩÙĨØ± ÙħÙĨØ¯
Ø¯ ÛĮÙĨÚ¯
ĠÙĨÙĪØ³ Ø§ÙĨ
ĠØ´Ø± Ø·
ĠÙĪ Ø²Ø´
Ø² Ø§ÙħÛĮ
ĠÙħØŃÚ© ÙĪÙħ
Ùħ Ø¨
ĠØ± ÙĩØ§
Ùģ Ø±ÙĪØ´
Ø§ÙĤ Ø¹
ĠØ®Ø·Ø± ÙĨØ§Ú©
ĠØ·Ø±Ùģ ÛĮÙĨ
Ø§ÛĮØ´ ÛĮ
ĠØ¬Ø§ÛĮÚ¯Ø²ÛĮÙĨ ÛĮ
ÛĮ ÛĮ
ĠØ® Ø§ÙĦØµ
ĠØ¨ Ø§ÛĮ
Ø§ÛĮ ÙĤ
Ú¯ ÛĮÙĦ
ĠÙĤØ¨ ÙĦØ§
ĠØ§Ø¨Ø²Ø§Ø± ÙĩØ§ÛĮ
ĠØ® ÙĦØ§
ĠØ§Ø³Øª ÙĨØ§Ø¯
Ø§Ø¯ Øª
ĠØ³Ø± Ø§ÙĨÙĩ
ĠÙħ Ø¸
ĠØ®ÙĪØ¯ Ú©
ÙĪÙĦ ÛĮÙĨ
ĠØ¨Ø´ Ø±
Ġ F
ĠÙħØŃ Ø±ÙĪ
ĠØ´Ø§ ØºÙĦ
Ø² ÛĮØ±
ĠØ§Ø²Ø¯ ÙĪØ§Ø¬
ĠÙħØ³ÛĮØ± ÙĩØ§ÛĮ
ĠØµØŃ ÙĨÙĩ
ÙħØŃ Ø§ÙĦ
ĠÙĪØ§ÙĦÛĮ Ø¨Ø§ÙĦ
ĠÙĨ Ø±ÙĪ
ĠÙĨÙģ Ø±ÛĮ
e n
ĠØ¯ Ø¨
Ø§ÙĦ ØªÛĮ
Ø§Ø¯ ÛĮÙĨ
ÙĪØ¯ Ø±
ĠØ· Ø§ÙĦ
ĠØ¨ÙĪ ÛĮØ±
ĠØ§ÙħØ±ÛĮÚ© Ø§
Ġ N
ĠØ³ ÛĮÙħØ§ÙĨ
ĠÚ¯ ÙĪÛĮ
ĠÙħØ¹ÛĮ Ø´ØªÛĮ
ĠØ¢ Ø±Ø§ÙĨ
ĠÚĨÙĩØ§Ø± ÙħØŃØ§ÙĦ
ĠÙħØ® Ø¯Ø±
ĠÙģØ±Ø² ÙĨØ¯Ø§ÙĨ
ĠØ§ Ø¨Ùĩ
ĠØ¢ Ø´ÙĨ
ĠØ³Ø§Ø² Ùĩ
ĠÙĨØ§ Ø¸Ø±
ĠØºÛĮØ± Ø¹
ĠÚĨÙĩØ§Ø± ÙħÛĮÙĨ
ĠØ° ÙĩÙĨ
ĠÙħÙĩÙĨØ¯ Ø³
ĠØ¬ Ø§Ø¨
Øº Ø±
ĠÙĨØ²Ø¯ÛĮ Ú©ÛĮ
ĠÙ¾ÛĮØ± ÙĪØ²
ĠÙĦÙĨØ¯ ÙĨ
ĠÙĨ ÙĪØ²
ĠÙħÙĨØ· ÙĤÛĮ
ĠØ¯Ø³Øª Ú¯ÛĮØ±
ĠÙĪØ§Ø¨ Ø³ØªÚ¯ÛĮ
Ø± Ø§Ø²
Ø¨ ÙĪØ¨
ĠØ§Ùħ ÙĪØ§ÙĦ
ÛĮÙħØ§ÙĨ Ø¯Ùĩ
ĠÙħØ±Ø² ÙĩØ§ÛĮ
Ú©ÛĮ Ùĩ
ĠÙħØµ Ø·ÙģÛĮ
ĠØ¨Ø§Ø± Ú¯ÛĮØ±ÛĮ
Ø§Ù¾ ÛĮ
ĠØŃ ÙĤÛĮÙĤØª
ĠØ¨Ø§ÙĤ ÛĮÙħØ§ÙĨØ¯Ùĩ
ÛĮØª Ø±ÛĮ
ĠØº ÙĨÛĮ
ĠÚ©Ø§Ùĩ Ø´ÛĮ
ÙĨ ÙħØ§ÛĮÛĮ
ĠØ§ÙĦ Ùħ
ĠØªØ¹ ÙĦÙĤ
ĠÙħØ± Ø¬Ø¹
ĠÚ©ÙĨ Ø³
ĠÙħÙĦ Ú©
ĠÙĨØŃ ÙĪÛĮ
ĠÙĨÙĪØ¬ÙĪØ§ÙĨ Ø§ÙĨ
ĠØ¨ Ø§Ø±Ø¯
ĠØ¢ Ø±Ø§ÛĮ
ĠÙģ Ø§ÛĮ
ĠØŃ ÛĮØ¯
ĠØ² Ø§Ùĩ
ĠÙħØ¯ Ø§ÙģØ¹
ĠØ§ÙĦ ÙħÙĦÙĦ
ĠØ§Ø¸ Ùĩ
ĠØŃØ§ ÙĪÛĮ
ĠÙħÚ¯Ø§ÙĪ Ø§Øª
ĠØ§Ùĩ ÙĦ
ĠÙĤØ¨ Ø§ÙĦ
Ø¨ Ø§Ùģ
Ø§ØŃ ÙĦ
ĠØ¬ Ø³Øª
ĠØ³Ø§ Ú©ÙĨØ§ÙĨ
ĠÙĨØ´Ø¯ ÙĨ
ĠÙ¾Ø±Ø³ÙĨ ÙĦ
ĠØ¨ Ø¯ÛĮ
ĠÙĤØ± Ø¨Ø§ÙĨÛĮ
ĠØªØ§Ú© Ø³ÛĮØ±
ĠØ®ÙĪØ¯Ø±ÙĪ Ø³Ø§Ø²ÛĮ
ĠØ³Ø§ ØŃÙĦÛĮ
ĠÙħØ®Ø§Ø· Ø¨Ø§ÙĨ
ĠØ¹ Ø¯Ùĩ
Ù¾ ÙĨØ¬
Ø¢ÙģØ± ÛĮÙĨ
ĠØ±ÛĮ Ø´Ùĩ
ĠØ²ÛĮ Ø³ØªÛĮ
ĠØ§Ø¹Ø· Ø§ÛĮ
ĠØŃØ§Ø¦ Ø²
ĠØŃ Ø§ÙħÙĦ
ĠØ¹Ùģ ÙĪÙĨØª
ĠØªØ§Ø¨ Ø¹Ùĩ
ĠØ´Ø§Ø± Úĺ
ĠÙĤ Ø¨ÛĮÙĦ
ĠÚĨÙĨØ¯ Ø§ÙĨ
ĠÙħØ§Ø¨ ÙĤÛĮ
ĠØ·Ø±ØŃ ÛĮ
ÙħØ¯ Ø§Ø¯
ĠÙħÙĨØ¸ Ø±
ĠØ¯ÙĨÛĮ Ø§ÛĮ
ĠÙ¾ÛĮØ´Øª Ø±
ĠÙħ ÙĦØ§ØŃ
ĠØ³ Ùħ
ÙģØ± Ùĩ
Ú©Øª ÙĪØ±
ĠÙĪØ±Ø²Ø´ Ú©Ø§Ø±Ø§ÙĨ
Ø§ ÙĪÙĨÛĮ
ÙĪ ÙĩØ§ÛĮ
ĠÙħØª Ø§ÙĨ
ĠÙĩÙħØ§ÙĨ Ø·ÙĪØ±
ĠÚ¯ Ø´Øª
ĠØªØ¯Ø§Ø¨ ÛĮØ±
ĠÙĨ ØªÙĪØ§ÙĨØ³Øª
ĠÚ¯ ÙĪÙĨØ§
e s
ÙģØ§ ÙĪØªÛĮ
ĠØ®Ø±ÛĮØ¯ Ø§Ø±Ø§ÙĨ
ĠØ§ØªÙģØ§ÙĤ Ø§Øª
ĠÙħØ¹ØªÙĤØ¯ ÙĨØ¯
ĠÙĨÙĤ Ø¶
ĠØªÙħÙĩÛĮØ¯ Ø§Øª
Û± Û·
ĠÙħØ´ Ø±ÙĪ
Ø´ Ø¨
ĠÚ© Ø±ÛĮ
ĠØ® ÙĨ
ĠÚ©Ùĩ Ú¯ÛĮÙĦ
ĠØ¢Ùħ Ø¯ÙĨ
ĠØ¯Ø§ ÙĪØ±
ĠÙĦ Ø§
ĠØªØ¨ Ø±ÛĮÚ©
ĠØ§Ø«Ø± Ø§Øª
ĠÙĤØ² Ø§ÙĤ
ĠÙ ¥
ĠØ® ÙĦØ§Ùģ
ĠÙĩÙħ Ú¯Ø§ÙĨÛĮ
ĠÙĨÛĮ Ø§
Ø¬ Ø§Ø±ÛĮ
ĠØ§Ø±ÙĪ ÙħÛĮÙĩ
ĠÙģØ±Øµ ØªÛĮ
Ø±Ø§ØŃ Øª
ĠØ¬ Ø±Ùħ
ĠØ¯Ø§ÙĨØ´ Ú©Ø¯Ùĩ
ĠÚ¯ÙĦ Ù¾Ø§ÛĮ
ĠÙģÛĮ ÙģØ§
ĠÛ²Û°Û± Û´
ĠØµ Ø¯Ø§ÛĮ
ĠÙ¾Ø§ÙĦØ§ÛĮØ´ ÛĮ
ĠÙ¡Ù£ Ù©
Ġ ÛĮÙħÙĨ
ĠØ¯Ø± Ø®Ø´
ĠØ¹ Ø§Ø¯ÙĦ
ĠÙħÙĪØ¶ ÙĪØ¹ÛĮ
Ø§Ø¯ Ø§Øª
ĠÙħØ¹ÙĦ ÙħØ§ÙĨ
ĠÚ©ÙĩÚ¯ÛĮÙĦ ÙĪÛĮÙĩ
ĠØªØ¹ Ø§ÙĪÙĨÛĮ
Ø³ØªÛĮ Ú©
ĠÚ¯ÙĪ Ú¯ÙĦ
ĠØ§ÙĪÚ© Ø±Ø§ÛĮÙĨ
ĠÙħØ¹ÙĦ ÙĪÙĦØ§ÙĨ
ĠÙħØ§ÙĨØ¯ ÙĨ
Øª Ø¨ÛĮ
ØŃ Ø¶
Ø§Ø¨ ÙĨØ¯
ĠØªÙĪØ³ Ø¹
ĠÙħØ±Ø¯ Ø§ÙĨ
ĠØŃÛĮ Ø§Øª
ĠÙĨÙĪ Ø§ØŃÛĮ
Ø§ÙģØª Ø¯
ĠÚĺÙĪØ¦ ÛĮÙĩ
ĠÚ©Ø§Ø± ÙħÙĨØ¯Ø§ÙĨ
ĠØ§ÙĤ Ø³
Ø¹ Ø§ØªÛĮ
ĠØ® ÙĦÙĤ
Ø§Ø³ ÙĦØ§Ùħ
ĠÙħØ³ Ø¹ÙĪØ¯
ĠØ± ÙħØ²
ĠÙĩÙĦ Ø¯ÛĮÙĨÚ¯
ĠØ¨ ØµÙĪØ±Øª
ĠØ¨ÛĮÙħØ§Ø± Ø³ØªØ§ÙĨÛĮ
ĠØ®Ø· Ø§Ø¨
ĠØ§ÙģØª Ø®Ø§Ø±
ĠØªØ¬Ø± Ø¨ÛĮØ§Øª
Ø§Ùĩ Ø±ÛĮ
ĠØ§ÙĨ Ùģ
ÛĮØ§ÙĨ Øª
ĠØ±Ø§ÙĨ ÙĨØ¯Ú¯ÛĮ
ĠÙħ ÛĮÙĨ
Ø¬ ÛĮÙĩ
ĠØ³ÛĮÙĨ ÙħØ§ÛĮÛĮ
ĠØ®Ø§ÙĨÙĪØ§Ø± ÙĩØ§ÛĮ
ĠØ§Ø³ ÙħØ§Ø¹ÛĮ
Øµ ÙĦÛĮ
ĠØ§Ø³Øª ÛĮ
ĠÙħØ§ÙĦ Ú©Ø§ÙĨ
ĠØ´Ø¹ Ø¨Ùĩ
ĠÙħØ¯ Ø§ÙĦ
ĠÙħØµ Ø§Ø±Ùģ
ĠÙģØ±Ø§ ÙĪØ§ÙĨ
ĠØ¨Ø§ÙĦØ§Ø¯ Ø³ØªÛĮ
ĠØªÙĪ Ù¾
ĠØ¯Ø§ ÙĪØ±Ø§ÙĨ
ĠØ¨ÙĪØ¯ Ùħ
ĠØ§ØŃ ÛĮØ§
ĠÙģØ¹Ø§ÙĦÛĮØª ÙĩØ§ÛĮ
ĠØ¯Ø¨ÛĮØ± Ú©ÙĦ
ĠØ±Ø³Øª ÙĪØ±Ø§ÙĨ
ĠÙħØ³ Ø¬Ø¯
ÙĪØ· Ùĩ
ĠÙģØ±Ø§Ø¨ ÙĪØ±Ø³
ĠÚ© Ø§Ø¨
ĠØ¨Ø± Ø§ÙĨ
ĠØ¯ÛĮ ÙĪØ§Ø±
ĠÙħØ´Ø§ÙĪØ± Ø§ÙĨ
ĠØ§Ø¨Ùĩ Ø§Ùħ
ĠÙħØ¬ Ø¯
ĠÙħØ±Ø§Øª Ø¨
i c
Ùħ Øµ
ĠØª Ø°Ú©Ø±
ĠÙģØ¹ ÙĦØ§
ĠØªÙĪØ§ÙģÙĤ ÙĨØ§ÙħÙĩ
ĠÚ©Ø§ ØºØ°
ĠÙħØ§ Ø¬
ÙĤØ§ÙĨ ÙĪÙĨÛĮ
ĠØ§ Ø°
ĠØ² ÙĨØ¯Ø§ÙĨ
Ø²Ø´ Ú©ÛĮ
ĠØ¯ÙĪ Ø§Ø²Ø¯ÙĩÙħ
ĠØ±ÛĮ Ø²Ø´
ĠÙħÙĪØ³ ÙĪÙħ
ĠÙĤØ²Ø§ÙĤ Ø³ØªØ§ÙĨ
ĠØ¬ Ø±Ø§ØŃÛĮ
ĠÙĤØ§ Ø¦Ùħ
ĠÙ¾Ø§Ø±Ú© ÛĮÙĨÚ¯
ĠÙħÙĨØ§Ø³ Ø¨Øª
ĠØ§Ø³ØªØ¹ ÙĦØ§Ùħ
ÙĪÙĦ ØªÛĮ
ĠØ° ÛĮÙĦ
ĠÙĨÚ©Ø±Ø¯ ÙĨ
ÙĨ ÙĩØ§
Ø±ÙĪ ÙĨØ¯
ÙģØ§ ÙĤÛĮ
ĠØ¬Ø§ÛĮÚ¯Ø§Ùĩ ÙĩØ§ÛĮ
ĠØ¬Ø§ÙĨ Ø¨ÛĮ
ĠØ± Ø´Øª
ĠØ¨Ø± Ø¯Ùĩ
ĠÙħØª Ø±ÛĮ
ĠØ§ÙģØ²Ø§ÛĮØ´ ÛĮ
ĠØ³Ø·ØŃ ÛĮ
ĠØªØ±Ø§ÙģÛĮ Ú©ÛĮ
ĠØªØµØ§ÙĪ ÛĮØ±
Ø¨Ø± Ú¯
ĠÙĨØ¯ Ø§Ø¯Ùĩ
ĠØ¯Ø§Ùħ ÙĨÙĩ
Ø§ Ø¬ÛĮ
ĠØªÙģ Ø±ÛĮØŃ
ĠØ§Øª ÙģØ§ÙĤÛĮ
ĠØ¢Ø´ÙĨ Ø§ÛĮÛĮ
ĠØ¨Ø± Ø¯Ø§Ø±
ĠÙ¾Ø±Ø¯ Ø§Ø²
ĠØ¬ Ø§ÙĦØ¨
ĠÙĤ ÙĪÙĦ
ĠÙ¾ÛĮØ´ Ø¨Ø±Ø¯
ĠØªØ¦ Ø§ØªØ±
ĠÙĨ Ø¯Ø§Ø¯
ĠØ´Ø§Ùĩ ÛĮÙĨ
ĠØ¢ ÙģØ±
ĠØ¬ Ø¹
ĠØ§ØŃ Ø±Ø§Ø²
ĠØ§Ø´Øª Ø±Ø§Ú©
ĠØ±Ø§ Ø³
ĠØºÛĮØ± Ùĩ
ĠØ§ÙĨØ¯ Ø§Ø²
ĠØ´Ø¹ Ø±
Ø±Ø¯ Ú¯ÛĮ
ĠÙħÙĨ Ø§Ø²ÙĦ
ĠØ¨Ø±Ø¬ Ø³ØªÙĩ
ĠØ§ÙĦØ¬Ø² Ø§ÛĮØ±
Ø§Ø±Ø¯ Ø§Ø´Øª
ĠÙħØªØŃ Ø¯Ø§ÙĨ
ĠØªØ±Ú©ÛĮ Ø¨ÛĮ
ĠØ§Øª ÙĩØ§Ùħ
ĠØªØ® Ùħ
ĠÙħÙĨØ¹ ÙĤØ¯
ĠØªÙĪØª Ø§ÙĦ
Ø³ÛĮ Ú©ÙĦØª
ĠØªØµ Ø§Ø¯Ùģ
ĠØ³ÙĪ Ø¦ÛĮØ³
ĠØ´ Ø¨ÛĮÙĩ
ĠØªØ¹ Ø²ÛĮØ±
ĠØµØ§Ø¯ ÙĤÛĮ
ĠÙħØªÙĨ ÙĪØ¹
Ø¯Ø± ØµØ¯
ĠÙ¾ÙĦ Øª
ĠÙģÙĪÙĦ Ø§Ø¯ÛĮ
ĠØ§Ø¸Ùĩ Ø§Ø±Ø¯Ø§Ø´Øª
ÙĪØ¦ ÛĮÙĦ
ĠÚ¯ÙĦÙ¾Ø§ÛĮ Ú¯Ø§ÙĨ
ĠØ§ÛĮÙĨ Ú¯ÙĪÙĨÙĩ
ĠØ¹ ÙħÛĮÙĤ
ĠØ³ÛĮÙĦ Ø§Ø¨
ĠØ¨ÛĮØ¯ Ú¯ÙĦ
ĠÙĪ ÙĨ
ĠØ· ÙĦØ¨
ĠÚ©Ø§Ø± Ø¢ÙģØ±ÛĮÙĨÛĮ
Ø¢ ÛĮÙĨØ¯
ĠØªØ± Ø¬ÛĮ
ĠØ§Øª ÙħÛĮ
Ø±ÛĮ Ø´
ĠØ§Øµ ÙĦØ§
ĠÙ¾ Ø§ÙĨØ¯
ĠØ¯Ø§Ø± Ø§
ĠØ³ÙģØ± ÙĩØ§ÛĮ
Ø§ÙĨØ³ÛĮ ÙĦ
ĠÙħØ¹Ø§Ùģ ÛĮØª
ĠÙħØµ Ø§ÙĦØŃ
ĠØºÛĮØ± ÙĤØ§ÙĨÙĪÙĨÛĮ
ĠÛ±Û¹ Û¹
ĠÙĩÙħØ§Ùĩ ÙĨÚ¯
ĠÙħÙģ Ø§Ø¯
ĠÚĨÛĮ Ø³Øª
ĠØ± Ø²
ÙĨ ØµØ±
ĠØ¨Ùĩ Ø§ÙĨÙĩ
ĠÙħØŃ ÙĪØ·Ùĩ
ĠÙħÙĪØ¶ Ø¹
ĠÚ¯Ø±Ø¯Ø´ Ú¯Ø±Ø§ÙĨ
ĠØµØ¯Ø§ ÙĪØ³
Ø¨Ø§Ø´ ÙĨØ¯
ĠØ¢Ø¯ Ø±Ø³
ĠÙ¾Ø§ÛĮÛĮ Ø²
ÙĦÛĮ ÙĦÛĮ
ĠÚ¯ Ø´
ĠÙħÛĮ Ú©Ø±ÙĪ
ĠÚ©Ø§Ø± Ø¨Ø±Ø¯
ĠØ¯Ø§Ø± ÛĮØ¯
ĠÙĨÙħ ÙĪØ¯Ùĩ
ĠÚ©Ø´Ø§ÙĪØ± Ø²Ø§ÙĨ
ĠØ³ÙĦ Ø·
ĠØª Ú©ÛĮÙĩ
ĠØ®Ø± Ùħ
ĠØ¨ Ú©
ĠØ¨ ÙĦÛĮØª
ĠÙģ Ø±ÛĮ
Ø¢ ÙĦØ§Øª
Ø³ Ø§ÙĨÛĮ
ĠÙĦ Ø§Ø³Øª
ĠØ³ÛĮ Ø§Ø±
ĠÙħØŃÙĦ Ø§Øª
ĠØ§Ø¯Ø¹ Ø§ÛĮ
Ùħ Ø¬Ùħ
ĠÙģØ± Ø§ÙĨØ³
ĠÙħØµ Ø±
ĠØ§ÛĮØ±Ø§ÙĨÛĮ Ø§ÙĨ
ĠØ´Ø®Øµ ÛĮØª
Ø« ÛĮ
ĠØ¬ÙĨ Ø³
Ø±Ø§Øª ÙĪØ±
ĠØ³Ø±ÛĮ Ø§ÙĦ
ĠØŃÛĮ ÙĪØ§ÙĨ
ĠØ¢ Ú¯ÙĩÛĮ
ĠØŃ Ø±
ĠØ´ÙĩØ±ÙĪ ÙĨØ¯ÛĮ
ĠØ§Ø¬Ø±Ø§ Ø³Øª
ĠØ± ØºÙħ
ĠÙħØ¯ Ø§Ø®
ĠØ¬ÙĨ Ø¨Ùĩ
ĠÙĨØ§Ø® Ø§ÙĦØµ
ĠØªØ¹Ø²ÛĮØ± Ø§Øª
ĠØ³Ø§Ø² ÙĪÚ©Ø§Ø±
ĠØ¢Ø² Ø§Ø¯Ø±
ĠÙĨ Ø§Øª
Ø§ÙĨØ¯ ÙĨ
ĠØªØ± Ø§Ø²
ĠÙħØ¯Ø± ÙĨ
Ø¨ ÙĤ
ĠÙ¾ Ø§Ø±ÛĮ
ĠØ¶ ÙħØ§ÙĨØª
ĠÙ¾Ø±Ø¯ ÛĮØ³
ĠÙĩÙħØ³ ÙĪ
ĠØ§Ùģ Ø³
ĠÙĪØ§ÙĤØ¹ Ø§
ĠØ²ÛĮØ¨ Ø§ÛĮÛĮ
ĠØ¨Ø± ÛĮØª
ĠÙĦ Ø·
ĠØ§Ø¹ÙĦØ§Ùħ ÛĮ
ĠØ§ÙĨØ¯ Ø§Ø®Øª
ĠØµØ§Ø¯Ø±Ú©ÙĨ ÙĨØ¯Ú¯Ø§ÙĨ
ĠØ¨ ÙħØ§ÙĨØ¯
ĠØ®ÙĪØ´ ØŃ
ĠØ¨ Ø¯ÙĩÙĨØ¯
ĠØ§Ø³ØªØ±Ø§ØªÚĺÛĮ Ú©
ĠÙħØ±Ø¨ÛĮ Ø§ÙĨ
ĠØªÙĪØ³Ø¹ ÙĩØ§
Ø¦ ÛĮÙĩ
ĠÛĮØ§ÙģØª ÙĨ
ĠØªØ¬ ÙħØ¹
Ø² Ø§Ø¯
ĠØ§Ø³Øª ÙħØ±
ĠÚ©Ø± ÛĮÙħÛĮ
Ø²ÛĮ Ø¯Ùĩ
ĠÙ¢ Ùł
ĠØ²Ø§Ùĩ Ø¯Ø§ÙĨ
Ùħ ÙĨÛĮ
ĠØªÙĪ Ø¬ÛĮÙĩ
ĠÙħØ¹ Ø±ÙĪÙģ
ĠÙ¾Øª Ø§ÙĨØ³ÛĮÙĦ
ĠØ±Ùĩ Ø¨Ø±ÛĮ
ĠØ´Ø§ÛĮ Ø³ØªÙĩ
ĠØ¨Ø± ÙĨØ¬
ĠÙħØ¤Ø³ Ø³Ø§Øª
ĠØ§Ø³ØªÙħØ± Ø§Ø±
ĠÛ¹ Û±
ĠØ« Ø§ÙĨÛĮÙĩ
ĠØ³Ø®ÙĨ Ø±Ø§ÙĨÛĮ
ĠÙĪ Ú¯ÙĪ
ĠÚ©ÙĨ Ú©ÙĪØ±
Ġ L
ĠÚ¯ Ø§ÙĨÙĩ
ĠØ§Ùħ Ø¯Ø§Ø¯ÛĮ
ĠØ¶ Ø±Ø¨
ĠØµØ¯Ø§ÙĪØ³ ÛĮÙħØ§
Ø± Ø²
ĠÙģ ÙĪØ±ÛĮ
Ø¶ ÙĪ
ĠØ§Ø± Ø³
ĠÚ¯ÙĪ Ø§Ùĩ
ĠØ±Ø§ØŃ Øª
ĠÙĨ Ú©ÙĨØ¯
ĠØ§Ø³Øª Ø±Ø³
ĠÙħÙĤ Ø§ÙĦÙĩ
ĠÙ¾ÙĨØ¬ Ø±Ùĩ
ĠØªØŃØ±ÛĮÙħ ÙĩØ§
ĠØ®Ø§ÙĨ Ùħ
ĠÙģÙĪØª Ø³Ø§ÙĦ
ÙĪ Ø§ÛĮ
ÙĤÛĮ Ø§Ø³
ĠÚ¯ÙħØ±Ú© ÛĮ
ĠØ´ÛĮ Ø´Ùĩ
ĠÚ©Ø± Ø¨ÙĨ
ĠØ± Ø¤
ĠØ¨Ø± Ø§Ø¨Ø±ÛĮ
ĠØŃÙħÙĦ Ø§Øª
ĠØ¯Ø±Ø®Øª Ø§ÙĨ
ÙĪ ÛĮØ±ÛĮ
ĠØ§ Ø±Ú©
ĠÙħÛĮ Ø¯
ĠÙĨÙĪØ± ÙĪØ²ÛĮ
ĠÙ¾Ø§ÙĨØ¯ ÙħÛĮ
ÙĤ Ø§Ùħ
ĠØ¬ØºØ±Ø§ÙģÛĮ Ø§ÛĮÛĮ
ĠØ´ÙĪØ± Ø§ÙĩØ§
ĠØ®ÙĪØ¯Ø±ÙĪØ³Ø§Ø² Ø§ÙĨ
Ġ R
ĠØ¨ Ø²ÙĨ
Ø³ Ø§ÛĮ
ĠÙģ Ø´Ø±
ĠØ¢Ùħ Ø§Ø±ÛĮ
Ø§ÙĦØ¹ Ø§Ø¯Ùĩ
ĠÙĨÙģ Ø³
Ùħ ÛĮÙħÛĮ
ĠØ±ÙĪ Ù¾
ĠÙħØ¹Ø§ÙħÙĦ Ø§ØªÛĮ
Ú¯Ø° Ø´Øª
ĠØ§Ú© Ø³ÛĮ
Ø®ÙĪØ§ÙĨ ÛĮØ¯
ĠÙģØ´Ø± Ø¯Ùĩ
ĠÙĪ Ø±ÛĮ
ĠÙĪ ØµÙĪÙĦ
Ø±ÙĪ Ø²ÛĮ
ĠÙħØ¯ Ø¯
ĠÚ¯Ø§Ø² ÙĪØ¦ÛĮÙĦ
ĠÙĪØ§ Ø¬Ø¯
ĠØµ ÙĩÛĮ
ĠØªØ¹ Ø§Ø¯ÙĦ
Ùĩ ÙħØ§ÙĨ
ĠÚ© ÙĪÙĦ
ĠØ· ÙĦ
ĠÙ¾Ø§Ø± Ø³ÛĮ
ĠØ¨ÙĪÛĮØ± Ø§ØŃÙħØ¯
ĠÚ©Ø§Ø± Ú¯Ø±
ĠØ³Ø± Ø²ÙħÛĮÙĨ
ĠØ¨Ø±Ø®ÙĪØ±Ø¯ Ø§Ø±ÛĮ
ĠÙħÙĪØªÙĪØ± Ø³ÛĮÚ©ÙĦØª
Ø¨ Ø§Ø²ÛĮ
Ø±Ø§ Ø³Øª
ÙĪÙħ Ùĩ
ĠÙ ¦
Ø³ Ú©
ĠÙĪ Ú©ÛĮÙĦ
ĠÙĩ Ø§Ø¯ÛĮ
ĠÚĨ Ø§ÛĮ
ĠØ³ÙĪ Ø§Ø±ÛĮ
ĠÛ±Û³ Û°
Ø¯Ø§ÙĨ Ùħ
ĠÙ¾ÛĮØ§Ùħ Ø¯ÙĩØ§ÛĮ
ĠØ±Ø§ÙĨ ÙĨØ¯Ùĩ
ĠÙģØ§Ø± Øº
ĠÚ¯ Ø§ÙĦ
ĠØªØ³ ÙĪÛĮÙĩ
ĠÙ¾Ø±Ùĩ ÛĮØ²
ĠÙĪ Ø§ÙĦ
ĠÙħØ¬ÙĪØ² ÙĩØ§ÛĮ
ĠØªÛĮÙħ Ø´
ĠØ¯Ø±ØŃ Ø§ÙĦ
ĠØªØ±ÙĪØ±ÛĮ Ø³ØªÛĮ
ĠÙħØ¨ Ø§Ø¯ÙĦ
ĠÚĺ ÙĨ
ĠØªÙĦ ÙĤÛĮ
ĠÙĨÛĮØ±ÙĪÚ¯Ø§Ùĩ ÛĮ
ĠÙĤØ¶Ø§ Ø¦ÛĮÙĩ
ĠÙĦØ§Ø³Øª ÛĮÚ©
Ø³ Ù¾
ĠÙħÛĮ Ø§Ø¯ÛĮÙĨ
ĠØ±ÙĤ Ø§Ø¨ØªÛĮ
Ø§Øª Ø§
ĠØ² Ø±
ĠØ³Ø± ÙħØ§
ĠØ¯ÛĮÙ¾ÙĦÙħ Ø§Ø³ÛĮ
Ø¬ Ø§Ø²
ĠØ¹ Ú©
ĠØ§ Ø¦Øª
Ø¨ ÙĪÙĦ
ĠØ³ Ø±Ø¯Ø§Ø±
Ø²Ø¯ Ø§ÛĮÛĮ
ĠØ¨Ø§Ø² Ù¾Ø±Ø¯Ø§Ø®Øª
ĠØ§Ø±Ø§ Ú©
ĠØ§ÙĦØ¹ Ø§Ø¯Ùĩ
ĠØ±ÙĪÙ¾ ÛĮÙĩ
Ø² ÙĨØ¯
ĠÙģ ÙĦØ§Øª
ĠØ¹Ùħ Ø¯
ĠÙĨÙĪØ± ÙĪØ²
ĠØŃÛĮ Ø§ØªÛĮ
ĠÙģØ±Ø² ÙĨØ¯
ĠÙħØŃØ±ÙĪ ÙħÛĮØª
ĠÙħØ¬Ø¯ Ø¯Ø§
Ġ /
ĠÙ¾ÚĺÙĪÙĩØ´ Ú©Ø¯Ùĩ
ĠÙĨ ÙĪØ¨
ĠÙĨ ÛĮÙħÛĮ
ĠÙħØ¹ ÛĮÙĨ
ĠØªØ¹Ø·ÛĮÙĦ Ø§Øª
ĠÙĨÙĪÛĮØ³ ÙĨØ¯Ùĩ
Ø¯ ÙĪÙĦØªÛĮ
ĠØ´ Ú©ÙĪ
ĠÙ¾ÙĨØ¬ ÙħÛĮÙĨ
ĠØ¢ÙĦ Ø§Øª
ĠØ¨ÙĨ Ø§Ø¨Ø±
ĠÙħØ¹ÙĦ ÙĪÙĦÛĮØª
ĠØµÙĩÛĮ ÙĪÙĨÛĮ
ĠØ´ Ú©Ø±
ÙĪ Ø³ØªÙĩ
ĠÚĨ ÙĤØ¯Ø±
ĠÙ¾ÛĮ Ú©
ĠØ§ÙĨØ¨ ÙĪÙĩ
ĠØ§Ø¨Øª Ú©Ø§Ø±
ĠØ´ÙĪØ±Ø§ ÙĩØ§ÛĮ
Ø³Ø§ÙĦ Ùĩ
ĠÙħØ¹ÛĮ Ø´Øª
âĢ ¬
ĠÙ¾ÛĮØ´ ÙĨÙĩØ§
ĠØªØ¹ Ø¯ÛĮÙĦ
ĠØ±Ø§Ùĩ Ø¨Ø±Ø¯
ĠØ¯Ùĩ ÛĮØ¯
ĠÙħØ³Ø§ Ø¹Ø¯
ĠÚ©ÙĦÛĮ Ø¯
ĠØŃÚ© Ø§ÛĮØª
ĠÙħØº Ø²ÛĮ
ĠØ¢Ø²ÙħØ§ÛĮØ´Ú¯Ø§Ùĩ ÛĮ
ĠØ²Ø§ÛĮ ÙĨØ¯Ùĩ
ÙĨØ¯ Ø¬
ĠØ®ÙĪØ¯ Ùħ
ÛĮÙĦ ÙĨ
ĠÙĨØ¯Ø§Ø´Øª ÙĨ
ÙħØ§ÙĨ ÙĨØ¯
ĠØ« ÙħØ±
ĠÙħ ÙĤÛĮØ§Ø³
Ø¨ Ø§ÙĤ
ĠÙħØ¯ Ø§ÙĪÙħ
ÙĦ Ø§ÙĨ
ĠÙħØ¬ ÛĮØ¯
ĠÙģÙĦ Ø²
ĠØ±Ø³Ø§ÙĨ Ø¯Ùĩ
ĠØ¹Ø³ÙĦ ÙĪÛĮÙĩ
ĠØª Ù¾
ĠØª ÙĨÛĮ
ĠØ³Ø± ÙĩÙĨÚ¯
ĠØ´ Ø§Ùħ
ĠÙ¾ Ø°ÛĮØ±ÛĮ
ĠÛĮ Ø®
ĠÙħØŃ Ø¨ÙĪØ¨
ÙģØ± Ùħ
ĠØ¹Ùħ ÙĦØ§
ÙħÛĮ Ø²ÛĮ
ĠØ¯ÛĮÙĨ Ø§Ø±
ĠØºÛĮØ±Ùħ Ø¬Ø§Ø²
ĠØµ ÛĮØ§ÙĨØª
ĠÙĦØ¨ ÙĨØ§ÙĨ
ĠÙħØ¨Ø§Ø¯ÙĦ Ø§Øª
ĠØ´ Ø±Ø¨
ĠÙħØ¨Ø§Ø± Ú©Ùĩ
ĠÙħØ¹Ùħ ÙĪÙĦÛĮ
ĠÚ©Ø§Øª Ø§ÙĦÛĮØ³Øª
Ø¹ Ø´
ĠÙĤ ÙĨØ¯
ĠØ¯ÙĪ Ø¬Ø§ÙĨØ¨Ùĩ
ĠÙ¾Ø³ Ø§Ø¨
Ø±Ø³ÛĮ Ø¯Ùĩ
ĠØ¯Ø± Ø¨
ĠÙħÙĨØ§Ø³Ø¨ Ø§Øª
ĠÙħ ÙĪÙĨ
ĠØŃ ÛĮÙĨ
ĠØ§Ø®ØªÛĮØ§Ø± Ø§Øª
ĠØ¨ÙĪ Ø³ØªØ§ÙĨ
ĠÙħØªØ§ÙĨ ÙĪÙĦ
ĠØ² Ø®
ĠÙħÙĨØ¸ Ùħ
ĠØ¯Ø® Ø§ÙĦØª
ĠÙħ ÙģÙĩ
Øµ Ø§Ø¨
ĠØªØµ ÙĪÛĮØ±ÛĮ
ĠÛĮØ§Ø¯ Ú¯ÛĮØ±ÛĮ
ĠØ¯Ø±Ø¢Ùħ Ø¯ÛĮ
ĠÙħØ¹ ÙĨÛĮ
ĠØ³ÙĨ ÙĨØ¯Ø¬
ĠÙĨ Ø§ÙħÛĮ
ĠÙĨÚ¯Ø± ÙģØªÙĩ
ÙĪ Ø§ÛĮÛĮ
ĠÙĩÙħ ØªÛĮ
Ø¨ ÙĪÙħ
ĠØ³ÙĪ Ù¾Ø±
ĠØªÙĪØ§ÙĨØ³Øª ÛĮÙħ
Ø±Ø¯ Ø§Ø¯
ĠØŃ Ø¯ÛĮ
ĠØ³Ø§ Ú©ÙĨ
ĠÚĨÙĨØ¯ ÛĮ
ĠÚ¯ Ø³Øª
ĠÙĤØ±Ø§Ø±Ø¯ Ø§Ø¯ÙĩØ§
ĠÚ© Ø§ÙħÙ¾
ĠØŃ Ø±ÛĮÙģ
Ø®ÙĪ Ø§ÙĩÙħ
ĠÙĨØ² Ø¯
ĠÙ¾Ø§Ø±ÙĦ ÙħØ§ÙĨ
Ø± Ø¬
ĠÙĨ Ø·
Ù¾ ÙĪØ´
ĠØ¢Ø²ÙħØ§ÛĮØ´ ÛĮ
ĠØ¬Ø¯Ø§ Ú¯Ø§ÙĨÙĩ
Ø³ ÙĪØ²ÛĮ
Ú¯ Ø³ØªØ±ÛĮ
ÛĮÙĨ Ø§
ĠØ¨Ø§Ø²Ø§Ø± ÛĮØ§Ø¨ÛĮ
Ùħ Ø³
ĠÙĪ Ø§Ø±
ĠØ¢ÙĨ Ø¬Ø§ÛĮÛĮ
ĠÙģØ± Ø§Ø±
Ø¯ Øª
ĠÚĨØ´Ùħ Ú¯ÛĮØ±ÛĮ
ĠÚ¯ÛĮ Ø§ÙĩÛĮ
ĠÙĤ ÙĪØª
ĠÙĩÙħÚ©Ø§Ø±ÛĮ ÙĩØ§ÛĮ
ĠØºÛĮØ±Ø¹ Ø¶ÙĪ
ĠÙĪÙĤ ÙģÙĩ
ÙĨ ÙĪÛĮØ³
ĠØ¬ Ø±Ø§ÛĮ
Øº ÛĮØ±
ĠÛ³ ÛµÛ°
ĠØ¯Ùĩ ÛĮ
ĠÙħØŃØ§Ùģ Ø¸Øª
ĠØ¯Ø§Ø¯ Ú¯Ø³ØªØ±ÛĮ
ĠØºØ±Ø¨ Ø§ÙĦ
ĠØªØ§ÙĦ Ø§Ø¨
ĠØ¨Ø±ÛĮØª Ø§ÙĨÛĮØ§
ĠØ° ÛĮØ±
ĠÙģØ±ÙħØ§ÙĨ Ø¯Ø§Ø±
ĠØ¢ÙĦØ§ÛĮ ÙĨØ¯Ú¯ÛĮ
ĠÙĨØ±ÙĪ Úĺ
ĠØ¢Ø²Ø§Ø¯Ø± Ø§Ùĩ
Ø§Ø¯ ÙĦÙĩ
ĠØ¯Ø³Øª ÙħØ²Ø¯
ĠÙħÙĨØ§ÙĤ ØµÙĩ
ĠÙĤ Ø§ÙĦÛĮ
ĠØºÛĮØ± Ø¯ÙĪÙĦØªÛĮ
ĠØ¨ ÚĨÙĩ
ĠÙĤ ÛĮØ±
ĠØ®ÙĪØ¯ ÙħØ§ÙĨ
Ú©ÛĮ ÙĪ
ĠØ¨Ø³Øª Ú¯ÛĮ
ÙģØ±ÙĪ Ø´ÛĮ
i t
ĠÙĪ Ø¬
ĠØµØ§Ø¯ ÙĤ
ĠØ®Ø´ Ú©ÛĮ
ĠØ°ÛĮØ± Ø¨Ø·
Ø§ Ø«Ø±
ĠÙħØŃ Ø¶
ĠØ§Ø³Ø§Ø³ ÙĨØ§ÙħÙĩ
ĠÚ© Ø§Ø¨ÙĦ
ĠØ§Ùħ ÛĮØ±ÛĮ
ÙħÙĦ Ú©
ĠÙħØ´Ø®Øµ Ø§Øª
ĠÙħØ·ÙĦ ÙĪØ¨ÛĮ
Øª ÙĪÙĨ
ĠÚ©Ø§Ø± Ú©Ø±Ø¯
ĠØ± ÙĤÛĮØ¨
Ø§ÙĦ ØŃÛĮ
ĠØ¨Ø± ØªØ±ÛĮ
ĠÙģ ÛĮØ±
ĠØªØŃ Ø±Ú©
Ø¹ ÙĪØ¯ÛĮ
Ø¸ ÛĮ
ĠÙħØ¬Ø§Ø² Ø§Øª
ĠÚ© Ø´ØªÙĩ
ĠØ¹ Ø¸ÛĮÙħ
ĠØ³ÙĪ Ø§ØŃÙĦ
ĠØ§Ø¨ÙĦØ§ ØºÛĮ
ĠØ±ÙĪØ³ Ø§ÛĮ
ĠÙħÙĨØŃ ØµØ±
ĠÙĩ ÙĨØ¯ÛĮ
ĠÙģ ÙĪØ±ÛĮØª
ĠØ¨Ø±Ø§ÛĮ ÙĨ
ÙĩØ± Ø§
ĠØ¹Ø± Ø¶
ÙĪØª ÛĮÙĨ
ĠØ®ÙĪØ± Ø§Ú©ÛĮ
ĠÙĪ Ø§ÙĦØ¯ÛĮÙĨ
Ú¯Ø± Ø§ÛĮÛĮ
ÙĨÛĮ Ø§Ø²
ĠÙĨØ§Ùħ Ø²
ĠØ®ÙĪØ± Ø¯Ùĩ
ĠØ§Ø±ØªÙģØ§ Ø¹
ĠØ§Ø¦Øª ÙĦØ§Ùģ
ĠÙģ ØµÙĦÛĮ
ĠØ´Ø¯ Ùħ
ĠØ´ÙĩØ±ÙĪ ÙĨØ¯
ĠÙĨÙĪØ³ Ø§ÙĨØ§Øª
ĠÙħÙĩØ§Ø¬Ø± Øª
ĠØª Ø¯Ø§Ø±
ĠÙĨ Ø®ÙĪØ§ÙĩÙĨØ¯
Ø· ÙĦ
ĠÙĤ ÛĮ
ĠÙħÙĩØ§ Ø¬Ùħ
Ø§ÙĦ Ø§ÙĨ
ĠØ§ÙĪ ÙĤ
ĠÙĤÛĮÙħØª ÙĩØ§ÛĮ
ĠÙ¾ÙĪÛĮ Ø´
ÙħØ¬Ùħ ÙĪØ¹Ùĩ
ĠÙĨ Ø´Øª
ĠØº Ø±
ĠÙħ Ø±ÛĮ
Ø« ÛĮØ±ÛĮ
ĠØªØŃ ÙħÛĮÙĦ
ĠÙ¾ÛĮØ§Ùħ Ú©
Ú© Ø´ÛĮ
ĠØ¬Ø¯ ÛĮØª
ĠØ¨ Ø·ÙĪØ±
ÛĮÙĨ Ø§ÙħÙĩ
ĠØ¨Ø§ ØªØ±ÛĮ
ĠØ§Ùģ Ú©Ø§Ø±
ĠÙħÙĪ Ø´
ĠÙħØŃ Ø±Ú©
ĠÚ¯ÙĨØ¯ Ùħ
ĠÚ© Ø§Ù¾
Ø¨ Ø³
Ø° Ø±
ĠØ§Ø³ Ø§Øª
ĠØ§Ú©Ø³ÛĮ ÚĺÙĨ
ĠØ§ÙĪ Øª
ĠØ§ØŃ Ú©Ø§Ùħ
ĠÙģØ±ÙĪ Ø®ØªÙĩ
ĠÙĩÙħØ¯ ÙĦÛĮ
ĠØŃ Ø§ÙħÛĮ
ĠØ³Ø§ÙĦ ÙħÙĨØ¯Ø§ÙĨ
Ú©Ø³ ÙĪØª
Ø´Ùĩ Ø±ÛĮ
ĠØ¬ÙĪ Ø§Ø¯
ĠÚ© Ø§ÙĨØ¯
Ú©Ø± Ø¯ÙĩØ§ÛĮ
ĠØ®Ø±ÛĮ Ø¯Ø§Ø±
ĠÙħØ« ÙĦØ§
ĠØªØ¯Ø±ÛĮ Ø¬
ĠØ§ØªÙĪØ¨ÙĪØ³ Ø±Ø§ÙĨÛĮ
ĠÚ¯ÙĪØ§Ùĩ ÛĮÙĨØ§ÙħÙĩ
ĠØ¨ Ø§ÙĨØ¯
ĠØ¬ÙĦ ÙĪÛĮ
ĠÙħÛĮØ¯ Ø§ÙĨÛĮ
ĠØ§ÙĤ Ø§ÙħØª
Û² Ûµ
ĠØ¹Ùħ ÙĤ
ĠÙħØµ Ø§Ùģ
ĠÚ¯ÛĮØ± ÙĨØ¯
ĠØ§Ø±ØªÙĤØ§ Ø¡
ĠØ¨Ø¯ ÙĨÛĮ
ĠÙĩ Ø±Ú©
ĠÙ¾ÛĮØ´ Ú©Ø³ÙĪØª
Ø±Ø³ Ø§ÙĨØ¯
ĠØ¯Ø§ Ø¹Ø´
ĠØ¨Ø³ÛĮ Ø¬
ĠØªÙģØ§ÙĩÙħ ÙĨØ§ÙħÙĩ
ØŃØ¶ ÙĪØ±ÛĮ
ĠØ² ÙĨÛĮ
Ø§Ù¾ ÙĪØ±
ĠØ¬Ø² Ø¡
ĠØªÙĪØµ ÛĮÙģ
ĠØ¹Ø¨Ø¯ Ø§ÙĦÙĦÙĩ
ĠÙħØ®Ø§Ø· Ø¨
ĠØ¨ Ø§Ø±ÛĮ
Ú¯ Ø§
ĠØ± Ø²Ùħ
ĠÛĮ Ø§Ø±ÛĮ
ÙĨÛĮ Ú©
ĠÛ±Û³Û¹ Û·
ĠØ´Ø±Ú©Øª ÛĮ
Ø¹ Ùħ
ĠØ§Ùħ ØªØŃ
ĠÙ¾Ø±Ø¯Ø§Ø®Øª ÛĮ
ĠÚ¯Ø±Ø¯ Ø¯
ĠØ¢Ø²Ø§Ø¯ Ø³Ø§Ø²ÛĮ
ĠØªØ±Ø¯ ÛĮØ¯
ĠØ§Ø³ØªØ« ÙĨØ§ÛĮÛĮ
ĠØªØ±Ø§ÙĨØ² ÛĮØª
ĠÚ¯Ø± Ø§Ø¯
ĠÚ¯ÙĪÙĨØ§ Ú¯ÙĪÙĨ
ĠÙħØªÙĤ Ø§Ø¨ÙĦ
ĠØ§Ù¾ ÛĮØ¯
ĠØ®ÙĦØ§ÙĤ ÛĮØª
ĠØªØ§Ú©Ø³ÛĮØ± Ø§ÙĨÛĮ
ĠÙħØ· Ø¨ÙĪØ¹
ĠØªØ§ÙĦ Ø§Ø±
Ù¾ÙĪ Ø´Ø§ÙĨ
ĠØ§Ø¨Ø±Ø§Ùĩ ÛĮÙħ
ĠØ¨ Øº
ĠÙĨ Ø±
ÙĤ Ø§ÛĮ
ĠÙħØ´ Ø¹ÙĦ
ĠØ²ÛĮ Ø¨Ø§
ĠØ¹ Ø¬ÛĮ
ĠØ§Ø³ Ú©ÙĨ
ĠÚ©ÙĦ Ùħ
ĠØªÙĤØ¯ ÛĮÙħ
ĠØªÙĪØ¦ ÛĮØªØ±
ĠØ¬Ø±Ø§ÛĮ Ùħ
ĠØ¨Ø§ Ú©ØªØ±ÛĮ
ĠÛ±Û¶ Û°
ĠØ¨Ø® Ø§Ø±
Ø¬ÙĪ Ø§Ø¯
ĠØ± Ø¦
ĠÚ©Ø§ Ø¸ÙħÛĮ
ĠÙģØ±Ø§ Ú¯ÛĮØ±
ĠØºØ±Ø¨Ø§ÙĦ Ú¯Ø±ÛĮ
ĠÙħØ§Ùĩ ÙĪØ§Ø±Ùĩ
ĠØ³Ú© ÙĪÙĨØª
ĠØ¹ÙħØ¯ ØªØ§
ĠØ«Ø±ÙĪ Øª
ĠØ¹ Ø·
Úĺ Ø§ÙĨØª
ĠÙ ¨
Ø³ Ø§Ø±
Ø´ ÙĪÛĮÛĮ
ĠØª Ø§Ø¨Ø¹
ĠØ§ÙĨ Ø¶
ĠØªÙĨ ÙĩØ§ÛĮÛĮ
ĠØ§Ø±Ø² Ø´ÛĮ
Ú©ÙĨ Ø¯Ùĩ
ĠØªØ± Ø´
ĠØ§Ø¨ Ø±ÛĮ
ĠØ¬Ø¯ Ø§ÛĮÛĮ
ĠÚĨØ´Ùħ Ú¯ÛĮØ±
ĠØ§ÙĨÙģ Ø¬Ø§Ø±
ĠØ¨Ø§ ØªÙĪØ¬Ùĩ
ĠÙĤ Ø§Ø³ÙħÛĮ
ĠÙĪ Ø®
ĠÙģ Ø±ÛĮØ¯
ĠØµ Ø§ÙĦØŃÛĮ
ĠØ¢Ø± Ø²
ĠØ§Ø³Ø§Øª ÛĮØ¯
ĠÙħØ± ÙħØª
ĠÚĨÙĩ ÙĦ
ĠØ±Ø§ÛĮ Ø§ÙĨÙĩ
ĠÙ¾Ø±ÙĪØª Ø¦ÛĮÙĨ
ĠØ§ÙĦØ²Ø§Ùħ Ø§Øª
ĠÚ¯ÛĮØ§Ùĩ Ø§ÙĨ
ĠØ± ÙĨØ¬
ĠØªÙĪ Ú©ÛĮÙĪ
ĠÙħÙĪ Ø´Ú©
Ø¯Ø§ÙĨ ÛĮÙħ
ĠØ§ÙĨØ¯ Ú©ÛĮ
âĢ ¦
Ø¨Ø± ÛĮÙħ
ĠÚ¯ÙĦ Ø®Ø§ÙĨÙĩ
ĠØµØŃ Øª
ĠØ¢ÙĪØ±Ø¯ ÙĨ
ĠÙģØ±Ø§Ùħ ÙĪØ´
ĠØ¬Ø§Ø¨ Ø¬Ø§ÛĮÛĮ
ĠØ§Ù¾ÛĮØ¯ ÙħÛĮ
ÙĪ Ø¶
Ø³ ÛĮØ¯
ĠØºÛĮØ± ØŃØ¶ÙĪØ±ÛĮ
ĠØ§Ø® ÙĦØ§ÙĤ
ĠØ¨Ùĩ Ú©ÛĮ
Ø¹ ÙħÙĦ
ĠØ²ÛĮØ± ÙħØ¬ÙħÙĪØ¹Ùĩ
ĠØ´ÛĮ Ø®
ĠØ±Ø³Ø§ÙĨØ¯ ÙĨ
ĠØªØ³ÙĦÛĮØŃ Ø§ØªÛĮ
Ø¯ ÙĦ
Ùħ ØªØ±
ĠØ¨ ÙĪÛĮ
Ø²ÛĮ Ùĩ
ĠÙ¾ÛĮØ´ Ú¯ÛĮØ±Ø§ÙĨÙĩ
ĠÙ¾Ø§ÛĮ Ø¨ÙĨØ¯ÛĮ
ĠØ¢ÙħØ±ÛĮÚ© Ø§ÛĮ
ĠØ±Ø§Ø¯ÛĮ ÙĪ
ĠØ¢Ø¨Ø± Ø³Ø§ÙĨÛĮ
ĠÚ© Ø§Ø±Ø¯
Ø¬ Ø§ÙĨÛĮ
ĠØ§ÙĨ ØŃØµ
ĠÛĮÚ© ÙĩØ²Ø§Ø±
ĠÚ¯Ø± Ø§ÙĨÛĮ
ĠÙħØ« Ø¨ØªÛĮ
ĠØ¢Ø± ÚĺØ§ÙĨØª
ĠØ° Ø±Ø§Øª
ĠÚ©Ø´ÛĮ Ø¯Ùĩ
ĠÙ¾Ø§Ø±ÛĮ Ø³
ĠØ± ÛĮÙĨÚ¯
Ø¯Ùĩ Ø§ÛĮÛĮ
ĠØ§ÙĦ Ú¯ÙĪ
ĠØ§Ø±Ø§ Ø¯Ùĩ
ĠØªØ¨ Ø¹Ø§Øª
ĠØ¢Ø³ ÙħØ§ÙĨ
ĠØª Ø§ÙĨ
Ø§Ùħ ÛĮØ¯
ĠÚ©Ø§Ø± Ú¯Ø²Ø§Ø±ÛĮ
ĠÙĩÙĨØ± ÙĩØ§ÛĮ
ĠÙĤØ¯Ø± ØªÙħÙĨØ¯
ĠØ® Ø§Øª
ÙĦØ§ ÙĤÛĮ
ĠØ´Ø¯ Ú¯Ø§ÙĨ
ĠØ§ÙĤ ÛĮØ§ÙĨ
ĠØ§Ø¬ ØªÙĨ
ĠØŃØ³Ø§Ø¨ Ø±Ø³ÛĮ
ĠÙĩØ± Ú¯Ø²
ĠØªØ± ÙħÛĮÙħ
ĠØ§Ø® Ø±Ø§Ø¬
ĠØ¨Ø±Ø® ÙĦØ§Ùģ
ĠØ¯Ø§Ø±ÙĪ Ø®Ø§ÙĨÙĩ
ĠØ¬Ø³ ÙħÛĮ
ĠØ¯Ø§Ø¯ Ø³ØªØ§ÙĨ
ĠØ¬Ø¯ÛĮØ¯ ØªØ±ÛĮÙĨ
ĠÙħÙĪØ§Ø¬Ùĩ Ùĩ
ĠØ´ ÙĦ
ĠÚĨ Ø±Ø¨ÛĮ
ĠØªØŃ ÙħÙĦ
ĠÙģØ± Ø³Øª
ĠØ§Ø¬ØªÙĨ Ø§Ø¨
ÙĦ ÙĪØ§ÙĨ
ĠÚĨÙĨØ¯ Ø§ÙĨÛĮ
ĠÙ¾Ø±ÙĪ Ù¾
ÙħØ¯ÛĮØ± Ø¹Ø§ÙħÙĦ
ĠÙģØ±Ø§ÙĨØ³ ÙĪÛĮ
Ø§ Ø´ÛĮ
ĠØ´Ùħ Ø´
ĠÛ±Û³ Ûµ
Ø±Ø¨ Ø®Ø´
ĠØ´Ø§ÛĮ Ø§ÙĨ
Ø¬ ÙĪÛĮØ§ÙĨ
Ú¯Ø± ÙģØªÙĩ
ĠØ§ÙĨØªØ®Ø§Ø¨ ÛĮ
ĠØ®ÙĪØ¯Ú© ÙģØ§ÛĮÛĮ
ÙĨÙģØª ÛĮ
Ø± ÙĨÚ¯
ĠÙħÙĪ Ø«Ø±ÛĮ
ĠÙ¾ÛĮ ÚĨ
ĠØ§Ø± ÙĤØ§Ùħ
ĠØ¨Ø§Ø²Ø§Ø± ÙĩØ§
Û³ Û±
ĠØ±Ø§Ùĩ ÙĨÙħØ§ÛĮÛĮ
ĠÙħØŃØª ÙĪØ§
Ġ ÛĮØ¯
Ú© ÛĮÙĨ
Ø§Øª Ùĩ
ĠÙħØ¨ Ø§Ø¯ÙĦÙĩ
ĠØ³Ùģ Ø§Ø±Øª
ĠØ§ÙĨÚ¯ ÙĦ
Ø¢ Ù¾
ĠØ§Øª Ø±ÛĮØ´
ĠØ¨Ø¯ ÙĨÙĩ
Ø³ Ø§Ø¨ÙĤÙĩ
ĠØ¯Ø± Ú¯Ø°Ø´Øª
ĠÙģ ÙĪØ±ÛĮÙĩ
Ú©ÙĨ ÛĮ
ĠÙ¾ÛĮØ´ÙĨÙĩØ§Ø¯ Ø§Øª
Ùģ ÙĪØ±
ĠÙħÛĮ Ø§ÙĨØ¯
ĠØ³Ø± Ù¾Ø§ÛĮÛĮ
Ø³ Ú©ÙĪ
ĠÛĮ ÙĪØ³
ĠÙĨØ³ Ø§Ø¬ÛĮ
ĠØºÛĮØ± ÙĨÙģØªÛĮ
ĠØ³Ø¨ Ø²ÛĮ
ĠÙĪØŃ Ø¯Øª
ĠÙĨØ§Ø± ÙĨØ¬ÛĮ
ĠØ§ÙĨØ¹ ÙĤ
ĠØ´ Ø±ÛĮÙģ
ĠÙ¾ ÙĪØªÛĮÙĨ
ĠØ§ÙĦØª ÙĩØ§Ø¨
ĠØ´ Ø¬
ĠØŃ Ø±Ø§Ø¬
ĠØªØ§ Ø«ÛĮØ±ÛĮ
ĠØ¯Ø§Ø´Øª Ùħ
ĠÚ¯ Ø±ÛĮ
ĠØ· ÙĦØ§ÛĮ
ĠØºÛĮØ± Ø¹Ø§ÙħÙĦ
ĠÙĨØŃ ÙĪ
ÙĤ ÛĮÙħ
ĠØ¨ÛĮ Ø§ÛĮØ¯
ĠØªØ±Ø§ Ú©ÙĨØ´
ĠØ§ ÙĪÛĮÙĦ
ĠØ¶ Ø¨Ø·
ĠØ¹ÙĦØ§ ÙĤ
ĠÙħØŃÙĪØ± ÛĮØª
ĠÙģÙĨØ§ÙĪØ± Ø§ÙĨÙĩ
ĠÙħ Ú¯Ø±
Ú¯Ø° Ø±Ø¯
ĠÙ¾ÙĦØª ÙģØ±Ùħ
ĠØ§Ùħ ÛĮÙĨ
ÙħÛĮ ÙĦÛĮ
Û´ Û°
Ø±Ø§Ø± ØªÛĮ
ĠØªÙĦÙģ Ø§Øª
ĠØŃÚ©ÙĪÙħ ØªÛĮ
ĠÙĨØ§Ø³ Ø§ÙĦÙħ
ĠØ§Ø±Ø³ Ø§ÙĦÛĮ
ĠØŃ Ø±Ø§Ø±ØªÛĮ
Ø¦ ÛĮØ¯
ĠÙħØ·Ø§ÙĦ Ø¨Ùĩ
ĠØªØ¶ Ø¹ÛĮÙģ
ĠØ³ Ø±Ú©
ĠØ¨Ø± ÙħÛĮ
ĠÚĨ ÙĪØ¨
ĠØ´Ø§ÙĨ Ø³
ÙĦ ÙĨØ¯
ĠØ¯Ø± ÛĮØ§ÙĨ
ĠØ§Ùħ Ø±ÛĮ
ĠØ§ÛĮÙĨ ÙĩØ§
ĠÙĤ Ø§Ø¶ÛĮ
ĠÙĤØ± Ø¹Ùĩ
ĠÙ¾Ø³ ÙħØ§ÙĨ
ĠÙĤØ· Ø¨
ĠØ§Ø¹ Ø¯Ø§Ø¯
ĠÙĨØ´ Ø±ÛĮÙĩ
ĠØ± Ø¨
ĠÙħØ³ ÙĦ
ĠÙħÙĦ Ø²Ùħ
ĠØ®ÙĪØ±Ø¯ Ú¯ÛĮ
ĠØ¬ Ø§Ø¨Ùĩ
ØªÛĮ Ú©
ĠÙ¾ÛĮ ÙĪØ³ØªÙĩ
ĠÙĨÙģØ± Ø§Øª
ĠØªØ§Ø«ÛĮØ± Ø§Øª
ĠØ®ÙĪØ±Ø¯ ÙĨ
Ù¾ ÙĦ
ĠØ¨Ø§Ø² Ø¢ÙģØ±ÛĮÙĨÛĮ
ĠÚ¯ÙħØ±Ú© Ø§Øª
ĠØ§ÙĨØ¶ Ø¨
Ø§Ø³ Ø·
ĠØªØŃÙĦÛĮÙĦ Ú¯Ø±Ø§ÙĨ
ĠØ¨Ø§Ø± Ø³ÙĦ
ĠØ§Ø« Ø¨Ø§Øª
ĠØ§ÙĨØ¹ÙĤ Ø§Ø¯
ĠØ§Ùĩ ØªÙħØ§Ùħ
ĠØ¨Ø±Ú¯ Ø²ÛĮØ¯Ùĩ
ĠÙħ ÙĨØ¯ÛĮ
Ø² Ø¯Ùĩ
ĠØ³ÙĪ Ø¦
ĠØ¢ÙĦ ÙħØ§ÙĨÛĮ
ĠØ±Ø§Ùĩ ÙĪØ±
ĠÙħÙĪ Ø§ÙĤØ¹
ĠØ±ÛĮ Ùĩ
ĠÙħØ¨ Ø§ÙĦ
ĠØ´Ú© Ø§ÛĮ
ĠÙħØ·ÙĦ Ø¹
ĠÙ¾ÙĨ Ø§Ùĩ
ĠØ§ ÙĪÙĨ
ĠÙħÛĮ Ø§ÙĨÙĩ
ĠØ±ÙĪ Ø§ÙĦ
ĠÙħØ¬ ÙĦÙĩ
ĠØ¬ÙĩØ§ÙĨ Ú¯ÛĮØ±ÛĮ
ĠØ³Ø§ÙĦÛĮ Ø§ÙĨÙĩ
ĠÙĨ ØªÙĪØ§ÙĨ
ĠØ¨Ø§ ÙħØ¯Ø§Ø¯
ĠØ² Ø§Ú¯Ø±
ĠØ¯Ø³Øª Ú©Ø´
ĠÚ©ÙĦ Ø§Ùĩ
ĠØªÙĪØ§ÙĨÙħÙĨØ¯ Ø³Ø§Ø²ÛĮ
ĠØ¨Øº Ø¯Ø§Ø¯
ĠÙĤ Ùĩ
ĠÙħÚ©Ø± Ø±
l e
Ùģ Ø¯Ø±
ĠÙħÙĨØµ ÙĪØ¨
ĠØŃÙħÛĮØ¯ Ø±Ø¶Ø§
ĠÙ¾ ÛĮÙħ
ĠØ§Ø³Øª Ø®ÙĪØ§ÙĨ
ĠØ¹ ÙĦØ§Ùħ
ĠÚ©Ø§Ø± ÙĨØ§ÙħÙĩ
ĠØ¯Ùģ ÙĨ
ĠØ¨ Ú¯Ø°Ø§Ø±Ø¯
ĠØ´ Ø±ÛĮÚ©
ĠØ³ Ø§ÛĮÙĩ
ĠØ³ÙĦ ÙħØ§ÙĨ
ĠÙ¾Ø§Ø±Ø³ÛĮ Ø§ÙĨ
ĠÙĩ Ø§ÛĮ
ĠØ§Ø¨ÙĦØ§Øº ÛĮÙĩ
ĠØ§Ú©ØªØ´ Ø§ÙģÛĮ
ĠÚ©ÙĪÙĩ Ø³ØªØ§ÙĨÛĮ
ĠÙħØ¯ Ø±Ú©
ĠØ¯Ø§ÙĨØ´ ÙħÙĨØ¯Ø§ÙĨ
ĠØ³ÙĨÚ¯ Ø§Ù¾ÙĪØ±
Ø± ÙĩØ§ÛĮ
ĠÚ©Ø§Ø± Ø¢ÙħØ¯
ĠÙĨØ´Ø³Øª ÛĮ
ĠØªØ¨ÙĦÛĮØº Ø§ØªÛĮ
ÂŃ âĢĮ
ÙĪ Ø¬ÙĪØ¯
ĠØ¨Ø± Ø§Ø¯Ø±
ĠØ§Ø³ Ú©Ø§ÙĨ
Ø¢ ÙħÛĮØ²
ĠØ§Ø®ØªÙĦØ§Ùģ Ø§Øª
ĠÙħØ³ØªÙĨØ¯ Ø§Øª
ÙģØ¯Ø± Ø§Ø³ÛĮÙĪÙĨ
ÙĪÛĮ Ø²
ĠÙħÚ© Ø§Øª
ĠØ±ÙĪÛĮØ¯ Ø§Ø¯ÙĩØ§ÛĮ
Ø¯ Ø³Øª
ÙĩØ§ÛĮ Ø´
ĠÙħØ¨ Ø§Ø¯ÛĮ
ĠÙħØ´Ø®Øµ ÛĮ
ĠÙħØ§ÙĦ Ø²ÛĮ
ĠÙĩÙĦ ÙĨØ¯
i on
Ø® ÙĪØ¯
ĠØ¢ ÙħÛĮØ²
ĠÙĤ Ø´Ùħ
Ø¢ ÛĮ
ĠÙĨØ´ Ø±
ĠÙħØ¹Ø§ÙĪÙĨ Ø§ÙĨ
ĠØ¨ÙĦ ÙĪØ§Ø±
ĠÙ¾Úĺ ÙĪ
Ġ O
ÙĪ ØªØ±
Ø§Ùħ Ø¯
ĠÙĨÛĮ Ú©
ĠØ³ÙĪ Ø§ÙĦØ§Øª
ĠØ¨Ùĩ Ø±
ĠÚ¯ ÙĨ
ĠÚ¯ÙģØª ÙĨØ¯
ĠØªØ¬Ø§Ø± Ø¨
ĠØ¯Ø± Ú¯Ø§Ùĩ
Û² Û´
ĠÙģØ±ÙĪØ´ ÙĨØ¯Ú¯Ø§ÙĨ
ĠØ§ÙĨØ¯ Ú©
Ø§Ø¯ ÙħÛĮ
ĠÙģØ± Ø¹ÛĮ
ĠØ¨Ø±Ø³ ÛĮÙħ
ĠØ¨ ÛĮØª
ĠØ¹ Ø³
ĠÙģØ±Ø¢ÛĮÙĨ Ø¯ÙĩØ§ÛĮ
r o
ĠÙ §
ĠÙĤ ØªÙĦ
Ú¯ÙĪÛĮ ÛĮÙħ
ĠØ®Ø³ Ø§Ø±Ø§Øª
ĠÚ¯Ø´ Ø§ÛĮØ´
ĠÚ©Ø§ÙĦ Ø§ÛĮÛĮ
ÙĪÙĦ Ø§
ĠÚ©ÙĨ ÙģØ¯Ø±Ø§Ø³ÛĮÙĪÙĨ
ĠØ§Ø¹ ØªÛĮ
ĠØªÙģ Ú©Ø±
ĠØ§Ú©Ø³ ÛĮØ¯
ĠÙĤØ§ÙĦÛĮ Ø¨Ø§Ùģ
ĠØ´Ø¬ Ø±ÛĮØ§ÙĨ
ĠØ³ÙĨ Ø§Ø±ÛĮ
ĠØ§Ø±Ø¯ ÙĪÛĮ
ĠØ¯Ø§ÙĨØ´Ø¬ ÙĪ
ĠÙĨÙħ Ú©
ĠÙħØ³Ø¦ÙĪÙĦ ÛĮÙĨ
ĠØ´Ø§Ùħ Ú¯Ø§Ùĩ
ĠØ§Ùĩ Ø§ÙĦÛĮ
ĠØª Ø¨ÛĮ
ĠØ§Ø« Ø±Ø¨Ø®Ø´
ĠØªÙģØ±ÛĮØŃ ÛĮ
ĠØ±Ø¤ Ø³Ø§ÛĮ
ĠØ§Ø¯ Ø§Ùħ
ĠÛ¶ Û±
ĠØŃÛĮÙĪØ§ÙĨ Ø§Øª
Ø§Ú© ØªÙĪØ±
ĠØ§ÙĤØ³ Ø§Ø·
ĠØµÙĩÛĮÙĪÙĨÛĮ Ø³ØªÛĮ
ĠØ§ÙĨÚ¯ÙĦ Ø³ØªØ§ÙĨ
Ø® Ø§ÙĨÛĮ
ĠÙħØ§Ùĩ ÛĮØª
ÙĨÙĪ Ø´Øª
ĠÙ¾Ø±Ø§ Ú©ÙĨØ¯Ùĩ
Ù¾ Ø±ÙĪÙħ
Ø± Ø¹
ĠØ§Ù¾ ÙĦ
ĠÚ© ÛĮØª
ĠÙĨ Ø±Ø³ÛĮØ¯Ùĩ
ĠÙĤ Ø´Ø±
ĠØ§ÙĦ Ø¯
ĠØ¨ ÙĦÛĮ
ĠÚ¯Ø§Ø² Ù¾Ø±ÙĪÙħ
ĠÙģØ¯Ø± Ø§ÙĦ
ĠÙħØ¹Ø¶ ÙĦ
ĠØªØ±ÛĮ ÙĦÛĮÙĪÙĨ
ĠØ´Ø±Ú©Øª ÙĩØ§
ĠÙĨØ³ Ø¨ÛĮ
ĠØ¯Ø§ÙĨØ´Ø¬ ÙĪÛĮÛĮ
ÙģÛĮ Ø¹ÛĮ
ĠÙģØ±ÙħØ§ÙĨ Ø¯Ø§Ø±ÛĮ
ĠØªØ±ÙĪØ±ÛĮ Ø³Ùħ
ĠØ§Ø¹ØªÛĮ Ø§Ø¯
Ø§Ø¯ Ø§ÙĨ
ĠÙ¾ÛĮ Ú¯ÛĮØ±
ĠØ§ÙĨØª ÙĩØ§ÛĮ
ĠÛ±Û¸ Û°
ĠØ´Ú©ÙĪ ÙģØ§ÛĮÛĮ
ÙħÛĮ ÙĦÛĮÙĪÙĨ
ĠÙĨØ¨ÙĪØ¯ ÙĨ
ĠÙģØ±ÙħØ§ÙĨ Ø¯ÙĩÛĮ
ĠØ¢Ø¨ÛĮ Ø§Ø±ÛĮ
ĠÚ©Ø§Ø± Ø¢
Ú¯Ø° Ø±
ĠØ± Ø´
ĠØ® ÙĦÛĮÙĦ
ĠØ¢ Ú©
ĠØ§Øµ ØºØ±
ĠÙĨÙģØ± Ùĩ
ĠÚ©ÙĪØª Ø§ÙĩÛĮ
ĠØªÙħØ§Ø´ Ø§
ĠÙĨÙĩØ§ Ø¯ÙĩØ§
ĠÙĩÙħØ³ Ø±
ĠÙħØ±Øª Ø¶ÛĮ
ĠØ§Ø¯Ø§Ùħ ÙĩØ§
Ø´ ÙĪ
ĠÙħØ§Ùĩ Ø´ÙĩØ±
ÙĪØ± Ø¯Ùĩ
ĠÚ¯ Ø±ÙĪ
ĠØ§ÛĮ Ø²
ĠØ¨Ø§Ø² Ø¯Ø§Ø´Øª
ĠÙĩÙģØª Ú¯ÛĮ
ĠÙĨØ¯Ø§Ø´Øª ÙĨØ¯
ĠÙĩ Ø¬
ĠØ§Øµ ÙĪÙĦÛĮ
ĠØ¹Ø¨ Ø§Ø³ÛĮ
ĠØ¬ÙĪ Ø§ÙħØ¹
ĠØªØ´Ø®ÛĮØµ ÛĮ
ĠØ¬ Ø¹Ùģ
Û¹ Û¹
ÙĪ Ø´ÛĮ
Ø§ÙĦÛĮ Ø§ÛĮÛĮ
ĠÚ¯Ø± Ú¯Ø§ÙĨ
Ø§ÛĮ ÙĦÛĮ
ĠÙĩÙħ Ú¯ÛĮ
ĠØ§Ø³ Ø§ÙħÛĮ
ĠÙ¾Ø± Ø®
ĠØ¯Ø§Ø±ÙĪ ÙĩØ§
ĠØ§Ø±ØªÙģØ§ Ø¹Ø§Øª
ÙģØª Ø¯
ĠØ±ÛĮ Ø²
ĠÙģÛĮ Ø¨Ø±
ĠÙĩÙĨÚ¯ Ø§ÙħÛĮ
ÙĦ ÙĪØª
ĠØª ÙħÙĦÚ©
ÚĨ ÛĮÙĨ
ĠÚ©Ø§Ø± Ø®Ø§ÙĨ
ĠØ§ÙĤ ÙĦÛĮÙħ
ĠØ§ÙĨØ¯ÛĮ Ø´Ùĩ
Ø§ÙģØ² Ø§ÛĮØ¯
Ø¨ÛĮ Ø§
ĠØ´Ø§ Ø¹
ĠÙĨ ÛĮØª
ĠÙĨ Ú¯Ø§ÙĩÛĮ
ĠØ¢Ø³Øª Ø§Ø±Ø§
ĠÙĨ Ø§ØµØ±
ĠÙĪØ§ Ú¯ÙĨ
ĠØ¨ Ø¯ÙĩÛĮÙħ
ĠØ² Ø§
ĠÙħØ¯ ÙĨÛĮ
ĠØ¨ØŃ Ø±ÛĮÙĨ
ĠÙĩØ¯Ùģ ÙħÙĨØ¯
ĠØ¢ÙģØ±ÛĮÙĤ Ø§
Ø¨Ø§ÛĮ Ø³Øª
ĠÚĨ Ø§ÙĤÛĮ
ĠØ§ÙĦ ÙĨØµØ±
ĠÙĨØ§Ùħ ÙĨ
ĠØ§Ù¾ Ø±Ø§ØªÙĪØ±
ĠØ±ØŃ ÙħØ§ÙĨÛĮ
ĠØ®Ø´ ÙĪÙĨØª
Ø§Ø¯ Ø±ÛĮ
ĠØ¨Ø±Ø³Ø§ÙĨ ÛĮÙħ
ĠÚ©Ø´ ÛĮØ¯
ĠÚ©Ø§Ø± Ø§ÛĮÛĮ
ĠÙħØ§ÙĨ ÙĪØ±
ĠØµ Ø¹ÙĪØ¯ÛĮ
ĠØ§Ùģ ÙĤ
ĠØ§ÙĪ Ø§Ø³Ø·
ĠØ§Ø³ØªØ§Ø±Øª Ø§Ù¾
ĠØ¨Ø§Ø±Ø³ÙĦ ÙĪÙĨØ§
Ø§ÙĨ Ú¯
ĠØ´ Ø§ØªØ§
ĠØ¬ Ø§Ø³
ĠØµ ÙĪØªÛĮ
ĠÙģØ± Ø¶
ĠØªØ³ Ø§ÙĪÛĮ
ĠØªØ±Ø§ Ú©ØªÙĪØ±
ĠØ¨ Ú¯ÙĪÛĮÙħ
ĠÙĨ Ú¯Ø§Ø±
Ø¨Ùĩ Ùĩ
ÙĪÛĮ ÚĨ
ĠÙħØª ÙģØ§ÙĪØªÛĮ
ĠÚ©Ø±ÙĪÙĨ Ø§ÛĮ
ĠØ¨ÙĦ ÙĪÙħ
Ø¢Ø¨ Ø§Ø¯ÛĮ
ĠÙĪØ³ Ø¹Øª
ÙĦ Ø¯
Ø´ ÙĪÛĮÙħ
Ø· ÙĦØ¨
ĠÙħÙĨ ÙĪ
ĠØ±Ø§Ùĩ Ø¨Ø±ÛĮ
ÙģÛĮ ÙĤÛĮ
ĠÙ¾Ø±ÙĪØ§Ø² ÙĩØ§ÛĮ
ĠØ¨ ÙĪØª
ĠØ´ ÙĨÛĮ
ĠØ¢Ø° Ø±ÛĮ
ĠØªØ¬Ø¯ÛĮØ¯ Ù¾Ø°ÛĮØ±
ÙħØµ Ø±Ùģ
Ø² ÙĦÛĮ
ĠØ¨Ø§ Øª
ĠØŃ Ø¨ÛĮ
ĠØ±ÙĪ Ø¯Ùĩ
ĠÙħØ¹ ÙĦÙħ
ĠÙĨØ® Ø¨
ĠØ¢ÙģØ±ÛĮÙĤ Ø§ÛĮ
ĠØŃØ¯ÙĪØ¯ ÛĮ
ĠØ¨ ÙĦØ§
ĠØ³ÛĮØ§Ø³Øª Ú¯Ø°Ø§Ø±ÛĮ
ĠØ±Ø¦ Ø§ÙĦ
s t
ĠØ§Ø³Øª Ø±Ø§ØŃØª
ĠØ§ØµÙģÙĩ Ø§ÙĨÛĮ
ĠØ´Ú© ÙĦÛĮ
ĠØ¢Ø´ Ú©Ø§Ø±
ĠÙĨ Ø§Ø¯ÛĮ
Ø¬ Ø§ÛĮ
ĠØ§Ø³ Ùħ
ĠÙĤØ± Ø¶
ĠØ³ÙĪ Ø§Ø±
ĠØ³Ù¾ Ø±ÛĮ
ĠØ§Ú© Ø¨Ø±
ĠØ¢Ø±Ø§Ùħ Ø³ØªØ§ÙĨ
ĠÙħÙĨØ§ÙĤ Ø´Ùĩ
ĠØ¨ Ø®ÙĪØ§ÙĨÛĮØ¯
ĠØªØµ ÙħÛĮÙħÛĮ
ĠÙħÙĤ Øª
ĠØ§ÙĨØ¨Ø§Ø± ÙĩØ§ÛĮ
ÙĨ ÙĪÛĮ
ĠØ¹ Ø§Ùħ
ĠØ±Ø³ÛĮØ¯ ÙĨØ¯
ĠØ´Ø§ Ø®Ùĩ
ĠØ¨Ø±Ø³ ÙĨØ¯
ĠØ¯Ø®Øª Ø±
ĠØ§Ø² Ø¨Ú©
ĠÙħÙĪ Ø¹Ø¯
ĠØ¯Ø§Ø± Ø§ÙĨ
ĠØªØºÛĮ ÛĮØ±ÛĮ
ĠØ±Ùģ Ø³
ĠØªØ±Ø¬ÛĮ ØŃ
ĠØ¨ÙĦÛĮ Ø·
ÙĪ Ù¾Ø±
ĠÙģ Ø¶
ĠÙ¾ÛĮ Ø§ÙħÛĮ
ĠØªØŃ Ø±ÛĮÚ©
ĠÙĨØ´ Ø§Ø·
ÙĤ Ø§Ø¨ÙĦ
ĠØ§ÙĪ ÙĦÛĮ
ĠØ¹ ÙĨ
ĠÚ©Ø§Ø± Ú¯Ø±ÛĮ
Û² Û²
ĠØ±ÛĮ Ø§Ø¶
ĠØ§ÛĮÙħ ÛĮØ¯Ø±ÙĪ
ĠØ²Ø§Ú¯Ø± Ø³
Ø§Ø² Ø¯ÙĩÙħÛĮÙĨ
ĠØ§ÙĦØŃ Ø§ÙĤ
ĠØ¨ Ø¯Ùĩ
ĠÛĮ ÛĮ
ĠÙħÙģÙĩ ÙĪÙħ
ĠÚ©Ø§Ø±Ø®Ø§ÙĨ Ø¬Ø§Øª
ÙĪ Ù¾
ĠØ¨Ø¯Ø§ÙĨ ÙĨØ¯
ĠØŃØ§Ùģ Ø¸
ĠØªØ¨ÛĮ ÛĮÙĨ
Ø¬ Øª
ĠÙģØ± Ø¢ÙĪØ±
Ú©Ø± Ø§ÙĨ
Ø³Ø§Ø² Ø¯
ĠÙħÙĨØ¯ Ø±Ø¬
Ùĩ ÙĨÛĮ
ĠÙħ ÙĦØ§ÙĤ
Ø¯ÛĮ Ùĩ
ĠÙĨÙĤ Ø´ÛĮ
ĠØ³ÙĪ Ø§Ø¨ÙĤ
ĠØ¸ Ø§ÙĩØ±
ĠÙĤØ¯ ÛĮÙħ
ĠÙħ Ø±ÙĪ
ÙĤ ÙĪÙĩ
ĠØ¢ÙĦ ÙĪÙħ
ĠØªÛĮØ± Ø§ÙĨ
ĠØªØ¹Ø§ÙħÙĦ Ø§Øª
ĠÙģ Ø§Ú©ØªÙĪØ±
ĠØ¯Ø§ Ø¦Ùħ
ĠØ®Ø§Ùħ ÙĪØ´
ĠÙĨÚ¯Ùĩ Ø¯Ø§Ø´Øª
ĠØ§Ø±Ø¯ Ú©
ĠÙģ ÙĪØ±
ĠÙħØ·Ø§ÙĦ Ø¹Ø§ØªÛĮ
ĠÙģØ±ÙĩÙĨÚ¯ÛĮ Ø§ÙĨ
ĠØªØ±Ú©ÛĮ Ø¨Ø§Øª
ĠÙ¾ ÙĪÙĨØ¯
ĠÚ¯ Ø§Ùĩ
ĠØ§ØŃ ØªÛĮ
ĠÛ±Û³ Û¶
ĠÙħÚ© ÙħÙĦ
ĠÚ© ÙĪØ´
Ú¯ Ø§Ùħ
Ø§ÙĦ ÙħØ§ÙĨÙĩ
ĠÚ¯ ÚĨ
ĠØ§Ùħ Øª
ĠÙħÙĪ Ø§Ø²
ĠØ§ÙĨØªØ¸ Ø§Ø±Ø§Øª
ĠÙ¾ÛĮØ± ÙĪ
ĠØ§Ø±Ú© Ø§ÙĨ
ĠØ¯Ø±ÛĮØ§ÙĨ ÙĪØ±Ø¯ÛĮ
Ø§ Úĺ
Ø§Ùģ ÙĤÛĮ
ĠÙĨÙħØ§ÛĮØ´ Ú¯Ø±
Ø²ÙħÛĮÙĨ ÛĮ
ĠØ¹ÙĦØ§Ùħ Øª
ĠÙĪ Ø§ÙĨØª
ÙħØ§ÙĨ Ø¯Ùĩ
ĠÚĨ Ø±Ø®
ĠÙħØ¹ Ø§ÛĮ
ĠØ±ÛĮ Ø§Ø¶ÛĮ
ĠÙħÛĮÙĦ Ú¯Ø±Ø¯
ĠÙ¾Ø°ÛĮØ± ÙģØª
ĠÙ¾ Ú©ÙĨ
ĠØªÙĪ Ø§ÙģÙĤÛĮ
ĠØªØºÛĮÛĮØ± Ø§ØªÛĮ
ĠÙħØ³ÙĪ ÙĪÙĦØ§ÙĨ
ĠØªÙĪØ³Ø¹ÙĩØ§ ÙģØªÙĩ
ĠÙħ ØºØ§Ø²
Ø§ÛĮ ÙĨØ¯
Ùģ ÙĦ
ĠØ± ÛĮÙĦ
ĠØ³Ø± ÙĨÙĪØ´Øª
ĠÙ¾Ø§ÛĮ ÙĦÙĪØª
Ø¨Ø§ Øº
ĠÙģØ±ÛĮØ¯ ÙĪÙĨ
ĠÚ¯ ÛĮØªÛĮ
ĠØ§Ø³ ÙĨ
ĠÛ±Û· Û°
ĠØŃØ§Ùģ Ø¸Ùĩ
Ø³ ÙĪÛĮ
ĠØ¨ Ø¨Ø±Ø¯
ĠØ³ ÙĨØ¬ÛĮ
ĠØ§Øª Ø§ÙĨ
ĠÙĨÛĮ ÙĪØ²
ĠØ¨Ø²Ø± Ú¯Ø±
ĠÙģÙĦ Ø²ÛĮ
ÙħÛĮ Ø¹
ĠÙħÙĦØ§ØŃ Ø¸Ùĩ
ĠØ² ÙĪØ¬
ĠÙħØª ØºÛĮØ±
ĠÚ¯Ø±ÙģØª ÛĮÙħ
ĠØªÙĦ ÙģÛĮÙĤ
ĠØ´Ø´ ÙħÛĮÙĨ
ĠÙħØ®Ø§Ø¨ Ø±Ø§ØªÛĮ
S E
ĠØ§ÙģØª Ø®
ĠÙħØºØ§Ø² Ùĩ
ĠØ¯Ø± Ø§ÛĮÙĨ
Ø§ÙĦÛĮ Ùģ
ĠÙĨØµ Ø±
ĠØ¨Ø³ Ø²Ø§ÛĮÛĮ
ĠÙħØªØŃØ¯Ø§ÙĨ Ø´
ÙĪÙ¾Ø± ÙĪØ±Ø´
Ø§Ø± Ø³ØªØ§ÙĨ
Ú¯ Ø±Ø¯ÛĮ
ÛĮØ¯ Ú¯ÛĮ
Û² Û·
ĠØ¯Ø±ÛĮØ§ ÚĨÙĩ
ĠØªÙĪ Ø§Ø²ÙĨ
ĠØ§ÙĦ Ùĩ
ĠÚ©Ùħ Ø§ÙĦ
ĠÙħØ³Øª ÙħØ±ÛĮ
ĠØ¬Ø§ÙĨ Ø¨
ĠØ¨ÙĩØ¨ÙĪØ¯ ÛĮ
ĠÙĦØ± Ø²Ùĩ
ĠÙ¾ÛĮÙĪØ³Øª ÙĨ
ĠØ¨ÙĦÙĪÙħ Ø¨Ø±Ú¯
ĠØ§Ø¬ Ø¨Ø§Ø±ÛĮ
ĠØ¨ÙĦ ÚĺÛĮ
ĠØ¹ÙĨØ§ ØµØ±
Ø§ÙĨ ÙĪ
ĠØ³ Ø§Ø±
ĠØ§Ø³ ÛĮØ¯
ĠÙĨØ§ Ú¯Ùĩ
ĠØ¯Ø´ ÙħÙĨ
ĠÙħØ¯Ø§Ø® ÙĦÙĩ
ĠÚ¯Ø§Ø² Ø³ÙĪØ²
ĠØµÙĨ Ùģ
ĠØ¨Ø³ Ú©
Ġ W
ĠØ¨ ÙĪÙħ
ĠØ¬ ÙĪØ±
ĠÙħØ§ Ø³Øª
ĠÙħØº Ø§ÛĮØ±
ĠÚ¯Ø°Ø§Ø´Øª ÙĨ
ĠØ¢ÙĨÙģ ÙĦÙĪØ§ÙĨ
ĠØ¯Ùĩ Ø§ÙĨ
ĠÙ¾Ø§Ø³Ø® Ú¯ÙĪÛĮ
ĠØ¨Ø± Ùĩ
ĠØµÙĨØ¯ ÙĦÛĮ
ĠÙģÛĮÙĦ ØªØ±
e t
ĠØ§ÛĮØ±Ø§ÙĨ Ø³ÙĦ
ĠÙħØª Ø§Ø«Ø±
ĠØ§ÙĦ Ú©ØªØ±ÛĮ
ĠÙģØ´Ø§Ø± ÙĩØ§ÛĮ
ĠÙħÛĮØ± Ø²Ø§ÛĮÛĮ
ĠÙĨÙĪØ¨ Ø®Øª
ĠØ§ÙĪÙĤ Ø§Øª
ÙĦÛĮ Ú©
ĠØ¯ÙĪ Ú¯Ø§ÙĨÙĩ
ĠØ³Ø§Ø¹Øª Ùĩ
ĠØ·ÛĮ Ùģ
ĠÚ©ÙĨØ³ Ø±Ø³ÛĮ
Ø·Ø¨ÛĮ Ø¹ÛĮ
ĠØ±ÙģØ³ ÙĨØ¬Ø§ÙĨ
ĠÙĨ Ø§ÙĤ
ĠØ¢ Øº
ĠØ¯ ÙģØ¹
ĠÙħÙĪØ±Ø¯ ÙĨÛĮØ§Ø²
Ø§Ø¶ Ø¹
ĠØ³Ø§Ø®Øª Ø§Ø±ÛĮ
ĠÙħØ·Ø§ÙĦ Ø¨
ĠÙĨØ§Ø¯Ø± Ø³Øª
ĠÙħØ¹Ø§ÛĮ ÙĨÙĩ
ĠØ® ÙĪÛĮ
ĠÙĩØ³Øª ÛĮØ¯
ĠØ¢Ø²Ø§Ø¯ Ú¯Ø§ÙĨ
ĠØ±Ùħ Ø¶Ø§ÙĨ
ĠØ§Ø²Ø¨Ú© Ø³ØªØ§ÙĨ
ĠÚ¯Ø± Ø¯ÙĩÙħ
ĠØ³ÛĮÙĨ ÙħØ§ÛĮ
ØŃØ³ Ø§Ø¨
ĠÙĪØ¬ ÙĪÙĩ
Øµ Ø±ÛĮ
ĠØ§ÙĨ Ø¨Ø§
ĠØ§Øµ Ø·
ĠÙħØ¨ Ø¯Ø§
ĠÙ¾Ø± ØªØ§Ø¨
ĠÚ©Ø§Ø±ÙģØ± ÙħØ§
ĠÙ¾Ø§Ø±ÙĦ ÙħØ§ÙĨÛĮ
ĠØ®ÙĨ Ú©
Ø¬ Ø³ØªØ§ÙĨ
ĠØªÙĪ ÙĤÛĮ
ĠØ§Ø¸ÙĩØ§Ø± Ú©Ø±Ø¯
ĠØ¹Ø¬ÛĮ Ø¨
ĠÙĨØ®Ø¨ Ú¯Ø§ÙĨ
ĠÙħÙĦØ§ÙĤ Ø§Øª
ĠØµ Ø¯Ùħ
Ú¯ÛĮ Ø²
Ø±Ø³ ÙĪØ±
Ø§Ø³Øª ÙģØ§Ø¯Ùĩ
ĠØ¸ Ø§ÙĦÙħØ§ÙĨÙĩ
ĠØ¨Ø§ÙĦ ÙĤÙĪÙĩ
ĠØ²ØŃ ÙħØ§Øª
ÛĮ Ø§Ø¯
ĠÚ© Ø§ÙĦÛĮ
ĠÛ· Û±
ØºÛĮ Ø¨
ĠÚ¯Ø±Ø¯ ÛĮØ¯
ĠØ¬Ø¹Ùģ Ø±ÛĮ
ĠØ³ ÙħÛĮØ±
ĠØ¨Ø§ Ø¯ÛĮ
Ø¬ ÙħÙĦÙĩ
ĠØªØ¹ ÙĦÛĮ
ĠÙħÙĩ ÛĮØ§
ĠØ§Ø®Øª ÙĦ
ĠØ¹Ø´ Ø§ÛĮØ±
ĠÙĨØ§Ø¯ÛĮ Ø¯Ùĩ
ĠØ¨Ø³Ú© ØªØ¨Ø§ÙĦ
Ø¹ Ø§ÙĨ
ÙĤ Ø§ÙĨÛĮ
ĠÙĤØ± Ø¢ÙĨ
ĠØ§ÙĦ Ú©Ø³
ĠØ§ÙĦ Ø²Ø§ÙħÛĮ
Û² Û³
ĠØ¯ÙĪØ³Øª Ø§ÙĨÙĩ
ĠÚ©ÙĦØ§ÙĨØ´ÙĩØ± ÙĩØ§
ĠÙĩÛĮØ¯Ø±ÙĪ Ú©Ø±
Ø³ ÙĪ
ĠØ± Ø§ÙĨØ¯
ĠØµØ§Ø¯ Ø±Ùĩ
Ø§ Ø¡
Ø³ ÛĮÙĨ
ĠÚ©Ø§Ø± Ø¢ÙģØ±ÛĮÙĨ
ĠØªØ±Ø§ Ú©Ùħ
ĠØ® ÙĪÙĨÛĮ
ĠÙĨØ´ ÙĪÙĨØ¯
ÙĨØ¯Ùĩ Ø§ÛĮ
ĠØ¨ÛĮØ§ÙĨ Ú¯Ø±
ĠØ¨Ø¯ ÙĦ
ĠØ¯ÛĮØ¯ ÙĨ
ĠÙĨØªÙĪØ§ÙĨ Ø³ØªÙĩ
Ù¾ Ø±Ø³
ĠØ§Ø³Ù¾ ÙĪØª
ĠØ¯ Ø´Øª
Ø¨Ø§ÙĨ Ú©ÛĮ
ĠØ§ÙĨØµ Ø§Ø±ÛĮ
Ø¢ ÙĪÛĮ
ĠØ¹Ø§Ø¯ÙĦ Ø§ÙĨÙĩ
Ú© Ø³ÛĮ
ĠÚ¯ÙģØª Ùħ
Ú¯Ø± Ø§Ø¯
ĠØ¢Ø¨ Ø®ÛĮØ²
ĠØ±ÙĪØŃ ÛĮÙĩ
ĠØ¬ Ø§Ø°
ĠÙħÙĨØµ ÙĪØ±ÛĮ
Ú¯Ø±ÙģØª Ú¯ÛĮ
ĠÙĨÙĤ Øµ
ĠÙĨØ§ Ù¾
Ù¾Ø±Ø¯Ø§Ø² Ø¯
ĠÙ¾ ÙĪØ±Øª
Ø¬Ùħ Ø¹Ùĩ
ĠØ³ Ø¦ÙĪ
ĠÙĩ Ø¯Ø±
ÙĪÙĦ Ø¯
Ø¦ ÙĦÛĮ
ĠØ§Ø¯ Ø¨ÛĮ
ĠØ³ÛĮÙĨ Ø§
ĠØ³ Ø¬
ÙĪØ§ÙĨ Ùĩ
ĠØ¨Ø¹Ø¯ Ø§Ø²
ĠØ´ÙĨØ§Ø®Øª ÛĮ
ĠØ¨Ø² ÙĨØ¯
Ø§ÛĮ Ø²
ĠÙĤ ÛĮØ¯
ĠØ¯ÙĪ ØŃÙĩ
ĠÙħØ´ ÙĪØ±Øª
ĠØ§ÙĦ Ø§Ø³ÙĦØ§Ùħ
ĠØ±ÙĤ ÙħÛĮ
ĠØ§Ø³ØªØ®Ø¯Ø§Ùħ ÛĮ
ĠÙĤÙĩ ÙĪÙĩ
ÙĨ Ø³
ĠÙĨ Ø®ÙĪØ§ÙĩÛĮÙħ
ĠØ³Ø§ÙĦ Ø§Ø±ÛĮ
ÙĨÚ¯ Ø§Ùħ
ĠÙħØµØ¯ ÙĪÙħ
ĠØ¯ Ø§ÙħÙ¾
ĠÙģ ÛĮØ³
ĠØ¹ Ø²
ĠÙĨÙĤ Ø§Ø´ÛĮ
ĠØ¨Ø§Ø´ Ùħ
ĠØºÛĮØ± ÙĤØ§Ø¨ÙĦ
ĠØ§Ø® ÙĦØ§ÙĤÛĮ
ĠØ² ÙĩØ±Ø§
ĠØ§Ø³ Ø¯
ĠÙĤØ¨ ÙĪÙĦÛĮ
ĠØ®Ø§ÙĨÙĪ Ø§Ø¯Ú¯ÛĮ
ĠØªØ¹ÙĦÛĮ ÙĤ
Ø· ÙĪØ±ÛĮ
ĠØ¯Ø³Øª Ú¯ÛĮØ±ÛĮ
ĠÙĪØ²Ø§Ø± ØªÛĮ
ĠÙ¾Ø§Ú© Ø³Ø§Ø²ÛĮ
ÙħÙĩ Ø¯ÛĮ
ĠØ¨ Ø®ÙĪØ§ÙĩØ¯
ĠÙĦ Ùĩ
ĠÙĩ Ø¯ÛĮÙĩ
ĠØ§Ø´ ØºØ§ÙĦ
ĠÙħÙĨØ§Ø· ÙĤÛĮ
ĠÚĨØ±Ø§ Øº
ÙģØ±Ùĩ ÙĨÚ¯ÛĮ
Ùħ ØŃÛĮ
ĠØŃ Ø§Ø¯
Ø§ÙĨØ¯ Ø±
ĠÚ©ÙĪ ÚĨÙĩ
ĠØ±ÙģØªØ§Ø± ÙĩØ§ÛĮ
ĠÙĨØ· ÙĨØ²
ĠØ§Ø³Ù¾ÙĪØª ÙĨÛĮÚ©
] [
ĠÙħÙĨ Ø´Ø§
ĠÚ©Ø§Ø± ÙħØ²Ø¯
ĠØ· Ø±Ø§ØŃ
ĠØ¯Ø³Øª Ø§ÙĪØ±Ø¯
ĠØ§ÙĪ Ø¨
ĠØ²ÛĮØ± Ø²ÙħÛĮÙĨÛĮ
ĠÙĩÙħØ³ Ø§ÛĮ
ĠØ¨Ø¯ÛĮ ÙĩÛĮ
ĠØ·ÙĦ Ø§ÛĮÛĮ
ĠØª Ú¯Ø²
ĠÙħÙĪ Ø§Ø¶Ø¹
ĠÙĦ ÛĮÙĨ
ĠØºÙĦØ§Ùħ Ø±Ø¶Ø§
ĠØª Ø·Ø¨ÛĮ
ÙĪØ³ Ø§Ø²ÛĮ
ĠØ¢Ø¨ Ø§Ø¯ÛĮ
ĠØŃØ³ Ø¨
ĠØ¢ÙħØ§Ø± ÙĩØ§
ÙħØŃ ÙħØ¯ÛĮ
ĠØ§Ø² Ø¬ÙħÙĦÙĩ
ĠØªØ§ Ø¦ÛĮØ¯
ĠÙģØ± Ø§Ø³
ĠÙĨØ§ Ø´
Ø§Øª ÙĪØ±
ĠÚ©Ø§Ø± Ú¯Ø²Ø§Ø±
ĠØ§Ø± Ú¯Ø§ÙĨ
ĠÙħÙĤ ÙĪÙĦÙĩ
ĠØªØ± ØºÛĮØ¨
ĠÙ¾Ø±Ø¯Ø§Ø®Øª ÙĨØ¯
ĠØ®ÛĮØ§Ø¨ Ø§ÙĨÛĮ
ĠØªØ¯Ø§Ø± Ú©
e l
ĠÙĩ ÙĪØ±
ĠÚĨ Ø·ÙĪØ±
ĠÚ©Ø± ÛĮÙħ
ĠØ§Ø¸ÙĩØ§Ø± ÙĨØ¸Ø±
ĠØ³ÛĮØ§Ø³Øª ÙĩØ§ÛĮ
ĠØ¨Ø§Ø± Ú¯Ø°Ø§Ø±ÛĮ
ĠØ¨Ø´ Ø±ÛĮ
ĠÚ©Ø§ Ø´Øª
ĠØ¹ÙĦÛĮØ± ØºÙħ
ĠØºØ°Ø§ ÙĩØ§ÛĮ
ĠÙħØ§Ø± ÙĪÙĨ
ÙħØ§Ø± Ú©
ĠÚ©Ø§Ø±ÙģØ± ÙħØ§ÛĮ
ĠØ¬ Ø¨ÙĩÙĩ
ĠÙĨØ¸ Ùħ
ĠØªØŃ Ø±
Û´ Ûµ
Ø® Ø§Ùħ
ĠØ§ÛĮ ÙģØ§ÛĮ
Ø®Ø§Ø± Ø¬Ùĩ
Ú© ÙĪÙĩ
ĠØ¯Ø³ØªÙĪØ± Ø¹ÙħÙĦ
ÙģØ¹ Ø§ÙĨ
ĠØ§ØªØŃ Ø§Ø¯
ĠØªÚ¯Ø² Ø§Ø³
Ú© Ø§ÙĨÛĮ
ĠÚ©Ø´ÙĪØ± Ø´
ĠÙģØ± Ø¢ÙĪØ±ÛĮ
ĠÛ´ ÛµÛ°
ĠØ§Øª Ú©Ø§
ĠØ¨Ø¹ ÛĮØ¯
ĠØ§Ø±Ø² ÙĩØ§ÛĮ
ĠØ¨ÙĦÙĪ Ú©
ĠØ¨Ø² ÙĪØ¯ÛĮ
ĠÚ©ÙĦÙħ Ø¨ÛĮØ§
ĠØ§Ø±Ø¯Ú© Ø§ÙĨÛĮØ§ÙĨ
ĠÙħØ± Ø§Ø¯ÛĮ
ĠÙĩÙĪØ´ÙħÙĨØ¯ Ø³Ø§Ø²ÛĮ
ĠØ¨ Ú©Ø§Ø±
ĠØ² Ø§Ø±
ĠÂ ·
ĠØ¢Ø±Ø§Ùħ Ú©ÙĪ
Ø§Ùĩ Øª
ĠÙģ ØªØŃ
ĠÚ©Ø± Ø§ÛĮÙĩ
ĠÚ¯Ø± Ø¬Ø³ØªØ§ÙĨ
Ø³ØªÛĮ Ú©ÛĮ
ĠÚĺ ÙĨØªÛĮ
ĠØ§ÙģØ²Ø§Ø± ÛĮ
Ø³ ÙĨØ¬ÛĮ
ĠØ¯ Ø§ÙĨÙĩ
ĠØ¯Ø± Ø³ÛĮ
Ø¯ÛĮ Ø¯ÙĩØ§ÛĮ
ĠØ¨Ù¾Ø±Ø¯Ø§Ø² ÙĨØ¯
ĠØ¨ Ø¨Ø±ÛĮÙħ
ĠØ¨Ø± Ø¢ÙĪØ±Ø¯Ùĩ
ĠÙĨØ§Ùħ Ú¯Ø°Ø§Ø±ÛĮ
ĠÛ±Û³Û¹ Ûµ
ĠØªÙĪÙĤÛĮ Ùģ
ÙĦ Ø²Ùħ
ĠÙħØ³Øª ÙĦØ²Ùħ
ĠØ¨Ø§Ø®Øª Ú¯Ø§ÙĨ
ĠÙħÙĨ Ø´
ĠØ®Ø· Ø±Ø§Øª
ØŃØ³ ÙĨÙĩ
ĠÙ¾ Ø§ÙĨØ²
Û² Û¸
ĠÙ¾ Ø³ØªÛĮ
ĠØ¹ ÛĮØ¯
Øº Ø§Ùħ
ĠÙħÙĩ ÙħØ§ÙĨ
ĠÙĩÙģØª ÙħÛĮÙĨ
ĠØ§ØµØ· ÙĦØ§ØŃ
ĠØª Ø§Ø±
Ø¸ ÙĩØ±
ĠØ§Øµ Ø±Ø§Ø±
ĠÙĨØ³Ø¨Øª Ø§
ĠÙħØ³Ø§ Ø¦ÙĦÛĮ
ĠØ§Ø¹Ø· Ø§
ĠØ¨Ø±Ø³Ø§ÙĨ ÙĨØ¯
Ùħ ÙĪÙĨ
ĠØª Ø±Ùĩ
Ù¾Ø°ÛĮØ± Ø¯
ĠÙħØ´ ÙĪÙĤ
ĠØªØŃØ±ÛĮÙħ ÙĩØ§ÛĮ
ÙħØ§ Ø¹
ĠØ¢ÙĤØ§ÛĮ Ø§ÙĨ
ĠÙĪØ³ÛĮ Ø¹
Ø³ Ø§ÛĮØª
ĠØ§ÙĦ Ú©Øª
ĠØµÙĨ ÙĪÙģ
ĠØ±Ø§Ùĩ Ø¨Ø±
Ú©Ø±Ø¯ ÛĮÙħ
ĠØ³ÙĨÚ¯ ÛĮÙĨÛĮ
ØŃØ³ ÙĨ
ĠØ³Ø§ÛĮ Ø¨Ø±ÛĮ
ĠØ³Ø±Ø§ Øº
ĠØªØµØ§Ø¯Ùģ Ø§Øª
ĠØ³ÙħÛĮØ± Ùħ
Ú¯ ÙĩØ§ÛĮ
ĠØ¹ Ø²Ùħ
Ù¾ Ø²Ø´Ú©ÛĮ
ĠØ§Ú© Ø«Ø±ÛĮ
ĠØ®ÙĪØ§ÙĨ Ø³Ø§Ø±
ĠØ®ÙĪØ±Ø´ ÛĮØ¯
ĠØ±ÙĪ ØŃÛĮ
ĠØ§ÛĮØ± Ø§Ø¯
Û² Û¶
ĠÙ¾Ø§Ø¯ Ø§Ø´
ĠÙĨ Ø§Ùĩ
ĠØ±Ø³ ÙĪÙĦ
ĠÙħØ² Ø¨ÙĪØ±
ĠØ®Ø¯Ø§ ÙĪÙĨØ¯
Ø´ ÛĮØ±
ĠØ¢ ÙĩÙĨÚ¯
ĠØº Ø±ÙģÙĩ
Ø®ÙĪØ§Ùĩ ÛĮ
ĠØ´ÙħØ§Ø± Ø´
in g
Ø² ÙĪØ¯ÛĮ
ĠØ¨Ø¹ ÙĨÙĪØ§ÙĨ
ĠÙħØ¹Ø¶ ÙĦØ§Øª
ÛĮØ± Ø§ÙĨÛĮ
ĠÙħØ§ÙĨØ¯ Ú¯Ø§Ø±
ĠÙ¾ÙĪÛĮ Ø§
Ú© Ø³ÛĮÙĪÙĨ
ĠØ´ Ø§ÛĮØ¹
ĠØŃ Ø±Ø§Ø³Øª
Ø¸ ØªÛĮ
Ú¯Ø± Ø§ÙĨÛĮ
ĠÙĨØ¯Ø§Ø± Ùħ
ĠÚ©ÙħÙ¾ ÛĮÙĨ
ĠØ¢Ø±ÚĺØ§ÙĨØª ÛĮÙĨ
ĠÙĪ Ú©
ÙĪØ± Ùĩ
ĠØ² Ø§Ø¯
ĠØ§Ø³ Ú©ÙĦ
ĠØ³Ø± Ø¨Ø§Ø²
ĠØªØ¬ Ø²ÛĮÙĩ
ĠÙģÙĤ Ø±
ĠÙĦØ¨ ÙĨÛĮ
ĠÙĨ ÙĪÛĮØ³ÛĮ
ĠÛĮÚ© Ø³Ø§ÙĨ
ĠÛ¸ Û±
ĠÙħØŃÙħØ¯ Ø¬ÙĪØ§Ø¯
ĠÙ¾ÙĨ Ø§ÙĦØªÛĮ
N G
ĠØ± Ø§Ùħ
ÙĩØ§ÛĮ Ø´Ø§ÙĨ
ĠØ±ÙĪ Ø§ÛĮØª
ĠÙħØŃ ÙĪØ±ÛĮ
ĠÚ©ÙĨ Ú¯
ĠÙ¾ÛĮØ´ Ø±ÙĪ
ĠÚ©Ùħ Ú©ÛĮ
ĠØ²ÛĮØ± Ø¨ÙĨ
ĠØ§Ø¶Ø§Ùģ ÛĮ
ĠØ¯ÛĮÙ¾ÙĦÙħ Ø§ØªÛĮÚ©
ĠØ¯ ÙĪØ²
ĠØ± Ø¨ÛĮ
ĠØ¨ÛĮ Ø§ÙĪØ±
ÙĪØ· ÛĮ
ĠØ³Ø§ ØŃÙĦ
ĠØªØ¨ Ø¹ÛĮ
ĠØ´ÙĨØ§Ø³ ÙĨØ§ÙħÙĩ
a c
ĠØ¯ Ú©ØªØ±ÛĮ
ĠÚ© Ø§Ùģ
ĠØª Ø§ÛĮÙĦ
ĠØ®ÙĪ Ø§Øµ
ĠØªÙĤ ÙĦØ¨
ĠÙĨØ¬ Ùģ
ĠØ¹Ø´ ÙĤ
ÙħØŃÛĮ Ø·ÛĮ
ĠØ§Ú©Ø«Ø±ÛĮ Øª
o m
ĠØ´ Ø±Ú©
ĠÙħÛĮ Ø³Ø±
ĠÙģ ÛĮÙĦÛĮ
ĠÙħÙĨ ÙĪØ·
ĠÙĦ ÛĮØ±
ĠØ´ÙĨÛĮ Ø¯Ùĩ
ĠØ§ÙĦÚ©ØªØ±ÛĮ Ú©ÛĮ
ĠØ¯ ÛĮÙħ
ĠÚ© Ø¬Ø§
Ùģ ÙĪÙĨ
Ø¢Ùħ Ø¯ÛĮ
ĠØºÙĦ Ø·
ĠÙħØ¹ÛĮØ§Ø± ÙĩØ§ÛĮ
ĠÙħØ¨Ø§ÙĦ Øº
ĠÙ¾ ÙĨÙĩ
ĠÙĩØ²Ø§Ø± Ø§ÙĨ
ĠØ¯Ø´ ÙĪØ§Ø±ÛĮ
ĠØ§Ø¶Ø·Ø± Ø§Ø¨
ÛĮ Ø¯Ùĩ
Ùģ Ø§Ø±Ø³
ĠØ¢ ÙģØª
ĠØ§Ø´ Ú©Ø§ÙĦ
ĠÙħØŃÙĦ ÙĪÙĦ
ĠØ¹ÙĤ Ø¯
ĠÙħØ³ Ùħ
ĠÛ±Û¹ Û·
ĠØ§ÙĨØ³ ÙĪÙĦÛĮÙĨ
ĠÛĮÙĪÙĨ Ø§ÙĨ
ĠØ¬Ø¹ ÙģØ±
ĠØ¨ÛĮ Ø³ØªÙħ
ĠØ³ÛĮ Ø§Ø±Ùĩ
ĠØ¨ Ø®ÙĪØ§ÙĩÛĮÙħ
Ø³ Ø§Ùħ
Ø¨ ÙĪ
Ø¨ ÙĪÚ©
ĠØª ÙĪÙĨ
ĠÚ¯ Ø§ÙħÛĮ
ĠÛĮÚ© Ø³Ø§ÙĦ
ĠÙĪØ² ÙĨÙĩ
ĠØ¹Ø²ÛĮ Ø²Ø§ÙĨ
ĠØµ Ø±Ø§ÙģÛĮ
ÙĪÛĮ ÛĮÙĦ
Ø¨ÛĮ Ø§ÙĨ
ĠØº Ùģ
Ø§Ú© Ø§ÙĨ
ĠÙĩÙĪØ§Ù¾ÛĮÙħ Ø§ÛĮ
ĠÙ¾ÙĪ Ø´Ø§ÙĨ
ĠÚ©Ø´Øª ÛĮØ±Ø§ÙĨÛĮ
ĠØ§Ø³Øª ØŃ
ĠÙĨØ§ Ø¬Ø§
ĠØ¨ Ø¨Ø±ÙĨØ¯
ĠØ®ÙĪØ¯ Ú©Ø§Ø±
ĠØ±Ø³ Ø§ÙĦØª
ĠÙħÙĪØ¬ÙĪØ¯ ÛĮ
ĠÙ¾ÙĦØ§Ø³ ÙħØ§
ĠØªÙĨÙģ Ø³
ĠØ¢Ú© Ø§Ø¯ÙħÛĮ
Ø® ÙĪØ±
ĠÙĤ Ø¶
ĠØ¢ Ø¯Ùħ
Ø· Ø§Ø±
Û¸ Û°
ÛĮÙĨÛĮ Ú©
ĠØ¨ÙĦ Ø§Ø±
Ø± Øª
ĠÚ©ÙĦØ§ÙĨ ØªØ±ÛĮ
ĠØ´Ú©Ø§ÛĮ Ø§Øª
ĠØªÙĪØ§ÙĨ Ø¨Ø®Ø´ÛĮ
ĠÙħØªÙĪ Ø§ÙĦÛĮ
Ø®ÙĪØ¯ Ø±ÙĪ
ĠØ¨Ø²Ø±Ú¯Ø± Ø§Ùĩ
Ú© ØªÛĮ
ĠØ³ÛĮ Ø²
ĠÙĨÙĪ Ø§Ú©
ĠÙģØ±Ùĩ Ø§Ø¯
ĠÚ©Ø§Ø³Øª Ùĩ
ĠØ¨Ú¯Ø°Ø§Ø± ÙĨØ¯
ĠÙĤÛĮ Ø§Ø³
ĠØ¢ÙĨÙģÙĦÙĪØ§ÙĨ Ø²Ø§
ĠØ¨Ø± Ù¾Ø§ÛĮÙĩ
ĠÙģ ÙĦØ³
ĠÙĨÙĤ Ø±Ùĩ
ĠØ´Ùħ Ø§Ø±ÛĮ
Ø¯ Ø§Ø±Ø¯
ĠÙħ ÙħØª
ĠÙ¾Ø§ÛĮ Ø¨ÙĨØ¯
ĠØ§ÙĪØ¨ Ø§ÙħØ§
ĠØ® Ø¯
ĠØ¶ Ø§ÛĮ
ĠØŃØ¨ÛĮ Ø¨
ĠÚ© Ø±ÙĪ
Ø±ÛĮ Ø§ÙĦ
Ø³ÛĮ Ø³ØªÙħ
ĠÙħØ¹ ØªØ±
ĠØ§Ø³ Ú©
Ø§ÙĤ Ø¨
ĠÙĦÙĪ Ø§ÛĮ
ĠØ¹Øµ Ø¨ÛĮ
Ùħ Ø±Ùĩ
ĠØ¯Ø± Ø§Ø²
ĠØªØµ Ø¯ÛĮ
ĠØ¬ÙħØ¹ÛĮØª ÛĮ
ĠØ§ Ø´ÛĮ
ĠÚĨ Ø§Ø±Ùĩ
ĠØ§ ÙħØ§ÙĨ
ĠØª ÙħÛĮØ²
ĠÙĤ Ø§Ø·Ø¹
ĠÙħÙĤ Ø§Ø·Ø¹
ĠÙħÙĤØ¯Ùħ Ø§ØªÛĮ
ĠØ¬Ø°Ø§Ø¨ ÛĮØª
ĠØ¨Ø±Ø§ÙĨ Ú©ÙĪ
ĠÙĨØ§ÙħÙĨ Ø§Ø³Ø¨
ĠÙĪ Ø¨ÛĮÙĨ
Ø¨ Ø§Ø¯
ĠØ¨ÛĮ ÙģØªØ¯
Ø§Ø±Øª ÙħØ§ÙĨ
ĠØ¨Ø±Ø® Ø·
ĠØ¨Ø±Ø®ÙĪØ±Ø¯Ø§Ø± ÙĨØ¯
ĠØ±Ùģ Ø§ÙĩÛĮ
ĠØ®ÙĪØ§ÙĨ Ø¯ÙĨ
ĠÙĨ Ú©
ĠØ¢ ÛĮØ¯
ĠØ³Ø§ÙĦ Ú¯ÛĮ
Ø¨ ÛĮÙĨØ¯
ĠØ§Ø³ Ø±Ø§Ø¦
ĠØ§ÛĮ Ú©Ø³
ĠØ±Ùĩ Ø¨Ø±Ø§ÙĨ
ĠÙ¾Ø±Ø¯Ø§Ø² Ø´
ĠØ³ÙĪØ¦ Ø¯
ĠØ¢Ø¨Ø®ÛĮØ² Ø¯Ø§Ø±ÛĮ
ĠØ§ ØªØ¨
ĠÙħ ÛĮÙĨÛĮ
ĠØ´ ÙĪÛĮØ¯
Ø® Ø±Ùĩ
ĠØ®ØµÙĪØµ Ø§
ĠÙĨØ² ÙĪÙĦÛĮ
ĠØ²ÛĮØ±Ø¨ÙĨ Ø§ÛĮÛĮ
Ø§Ø¯ ÛĮÙħ
Ø§Ø¨ Ø§ÙĨ
ĠØªÙĪØ§ÙĨØ³Øª ÙĨØ¯
Ġ V
Ø³ ÙĪÙħ
ÙĤ Ø§
ĠÛĮÚ© Ø¬Ø§ÙĨØ¨Ùĩ
Ø¢ ÙĨØ²
Ø§Ùģ ÙĦ
Ú©ÛĮ Ùģ
ĠÙ¾Ø³ Ø±
ĠÙģØ±Ø§ Ú©Ø³ÛĮÙĪÙĨ
ĠØŃÛĮØ¯ Ø±ÛĮ
ĠÚ©Ø§ÙħÙ¾ ÛĮ
ĠØ¨ Ú©Ø§Ø±Ú¯ÛĮØ±ÛĮ
Ø´ Ø§Ø±ÛĮ
ĠÙħØ¹ Ø¸Ùħ
ĠÙĩÙĪ Ø¢ÙĪÛĮ
ĠÚ©Ø³ Ø±
ĠØªÙģ Øµ
Ø³Ø§Ø² Ø§ÙĨ
ĠÙħÙĪØ§ÙģÙĤØª ÙĨØ§ÙħÙĩ
ĠÙħÙĩØ§ Ø¬
ĠÙħØ²Ø§ÛĮ Ø¯Ùĩ
ĠÙģÙĦØ² Ø§Øª
ĠÙģØ±Ø¢ÙĪØ± Ø´
ÚĨ Ø§ÙĦ
ĠÙħØ³ ÛĮØ±ÛĮ
ĠØ§ÙħÙĪØ± Ø®Ø§Ø±Ø¬Ùĩ
ĠÛ±Û² Ûµ
ĠØ®Ø± Ø¯Ùĩ
r e
Øª ÛĮÙĨ
ĠØ¬ ÙĪØ´
ĠØµ Ø¨Ø±
ĠÙħØ¬ Ø§ÙħØ¹
Û² Û¹
ĠØªØ¬Ø± Ø¨ÛĮ
ĠÙ¡ Ùł
ĠØ§Ø° Ø¹Ø§ÙĨ
ĠÙģØ± ÙĨÚ¯ÛĮ
ĠØŃÛĮ Ø«
o l
ĠØ¨ Ùħ
Ø³ ÙĪØ±
ĠÙħÙĪ Ú©ÙĪÙĦ
ĠØ§Ø´ Ú©
ĠØ¯ÛĮØ¯Ø§Ø± ÙĩØ§ÛĮ
ĠÙħØ² ÙħÙĨ
ĠÙĨØ¯Ø§Ø´Øª ÛĮÙħ
ĠØ§ÙħØ¯Ø§Ø¯ Ø±Ø³Ø§ÙĨÛĮ
ÙĪÛĮØ± ÙĪØ³
ĠÚ©Ø´Øª Ø§Ø±
ĠØ¹ ÛĮ
ĠÙħØ³ Ø¤
ĠÙĨÛĮØ³Øª ÛĮÙħ
ĠØ¬ÙħÙĩÙĪØ±ÛĮ Ø®ÙĪØ§Ùĩ
ĠØ¢Ø³ÛĮ Ø§ÛĮ
ĠÙħØµØ¯ ÙĪÙħÛĮØª
ĠØ§Ø®ØªÙĦ Ø§ÙĦØ§Øª
ĠØªØ·Ø¨ÛĮ ÙĤ
Ø² Ø§Ø¨
ĠØ¯Ø± Ùĩ
ÙĪØ§ÙĨ Ø¯ÙĪ
ĠØ¯Ø§Ø± ÙĨØ¯Ùĩ
ĠÙ¾Ø±Ø® Ø·Ø±
ĠØ§ØªØ¨ Ø§Ø¹
ĠØ¯ Ø²
Ùģ Ø±Ø¯
ĠÙĩÙħ Ø¬
ĠØ³Øª Ø¯
Ù¾ÙĨØ¬ Ø´ÙĨØ¨Ùĩ
Ú© Ø¯
Ø§Ø± Ø¶
ĠÚ© ÛĮØ³
Ø® Ø±
ØªÙħ ÙĨØ¯ÛĮ
ĠØ¨ÙĦØ§Ø± ÙĪØ³
ĠØ§ÙĤ ÙĦÛĮ
ĠØ¯Ùĩ Ú©
ĠØ³Øª Ø§Ø¯ÛĮ
ĠØ³Ø±ÛĮØ¹ ØªØ±
ĠÙħØ³Ø§Ø¹Ø¯ Øª
ĠØ¢ÙĦÙĪÙħ ÛĮÙĨÛĮ
ĠØ¬Ø§Ø° Ø¨Ùĩ
ĠØ¨Ø¹Ø¯Ø§Ø² Ø¸ÙĩØ±
ĠØ® Ø³ØªÚ¯ÛĮ
ĠØ¹ Ø¸
ÙĦÙĪ Ø¢ÙĨØ²
ĠÙģØ±Ø¢ÛĮÙĨ Ø¯ÛĮ
ĠØ¨Ø§Ø±Ø¯ Ø§Ø±ÛĮ
Ø³Øª ÛĮØª
ĠØ³ Ø§Ø¯Ø§Øª
Ù¾ ÛĮÙĨ
ĠÙ¾Ø³ ÙĨØ¯
Ø®ÙĪ Ø´
ĠØ§Ø«Ø± Ú¯Ø°Ø§Ø±
ĠÚ© Øª
ÙĪÙĨ Ú¯
ĠÙĨÙĩØ§ÛĮØª Ø§
ĠØ¨Ùĩ Ø§Ø¯
ĠØµ Ø§ÙĦØŃ
ĠØªØ§ Ø¬
ĠØ³ÛĮ Ú¯Ø§Ø±
ĠØ¨Ø§Ø² Ø¯ÙĩÛĮ
ĠØ´Ø§ÙĨ Ú¯ÙĩØ§ÛĮ
ĠÙģØ±Ø¯ ÙĪØ³ÛĮ
Ø¦ÛĮ Ø³ÛĮ
ĠÙ¾ÙħÙ¾ Ø¦ÙĪ
âĢĮ ØĮ
ĠÙħØŃ Ø±
ĠØ¬ÙĨ Ø¨
ĠØ¬Ø§ÙĨ Ø´ÛĮÙĨ
ĠÙĤØ§ Ø¦ÙĦ
ĠØ²ÛĮØ±Ø³Ø§Ø®Øª ÛĮ
Ø³ÙĦ ÙħÛĮÙĨ
ĠÙĪØŃ ÛĮØ¯
ĠØªØ§Ø¨ÙĦ ÙĪ
a m
ĠØ¯ ÙĪØ¯
ĠØ§Ø³ØªØ§ÙĨ ÙĩØ§ÛĮ
ĠØ³Ùĩ ÙĪÙĦØª
ĠØ§ÙĨØªÙĤØ§ÙĦ Ø§Øª
ĠØ§ØŃØª Ú©Ø§Ø±
ĠØªØ§ÛĮÙĦ ÙĨØ¯
ĠØ´Ùĩ Ø±Ø¯
ĠÚ¯Ø§Ø² ÙĪÛĮÛĮÙĦ
ĠØªØ¹ Ø§ÙĦÛĮ
ĠØªØŃÙĦÛĮÙĦ Ú¯Ø±
Ø³ Ø§Ø±Ø§ÙĨ
Ø§Øª ÛĮÙĨ
ĠØ§Ùħ Ø´Ø¨
Ù¾ Ø±ÙĪ
ĠÙħØ¹ Ø§ØµØ±
ĠØ¨Ø¯ Ø³Øª
ĠØ§Ø¨ ÙĪØ§ÙĦ
ĠØŃÙĪ Ø¶Ùĩ
ĠØ¢ÙĨÙģ ÙĦÙĪØ¢ÙĨØ²
ĠØ¹Ø±ÙĪ ÙĤÛĮ
ĠÙ¾Ø±ÙĪÙ¾ ÛĮÙĦÙĨ
Ùħ ÙĦÛĮ
ĠØ§Ø² Ø³ÙĪÛĮ
ĠÛ· ÛµÛ°
ĠÙħØ¨ÙĦ ØºÛĮ
ĠÙ¾ÙĦØ§ Ø³ØªÛĮÚ©
Ùħ ØªÛĮ
ÙĦ ÛĮÙĨ
ĠØ¯ ÙĪÛĮ
ĠØªÙĪ ÙģÛĮÙĤ
ĠØ§ÙĨ Ø³ØªÛĮØª
ĠØµ Ø¯ÙĩØ§
ĠØ¯ Ø§ÙħÛĮ
Ø¬ Ø¨
ĠÛĮ ÙĪØ±
ĠØ§ÙĤ Øª
ĠØ§ÙĦ Ú©ÙĦ
ĠØ¸ Ùĩ
ĠÙħÙĪØ¶ÙĪØ¹ Ø§ØªÛĮ
ĠØ° ÙĩÙĨÛĮ
Ø®ÙĪØ§Ùĩ ÛĮØ¯
ĠØ¯ÙģØªØ± ÚĨÙĩ
ĠØ¯Ø´ ÙħÙĨØ§ÙĨ
ĠØ¨Ø§Ø¨ Ø§ÛĮÛĮ
ĠØ¨Ø§ÙĤ Ø±ÛĮ
ĠØ§ØªÙĪÙħ Ø§ØªÛĮÚ©
ĠØ²ØŃ ÙħØª
a s
ĠÙĩ Ø§Ø³Øª
ĠÙħÙĨ Ø³
ĠØ§Ø³ ÙħÛĮ
Ú¯ÛĮØ± Ø§ÙĨ
ĠØ§ØŃ Ø²Ø§Ø¨
ĠØªØ³ÙĦÛĮØŃ Ø§Øª
ĠÚ¯Ø± Ùĩ
ĠØ¨Ø§Ø² Ø±Ø³Ø§ÙĨ
ĠÙħØ® ÙģÛĮ
Ø¢Ùħ ÙĪØ²ÛĮ
ĠÙħØ´Ùĩ ÙĪØ±
ĠØ®ÙĪØ¯Ø±ÙĪÛĮ ÛĮ
ĠØŃ Ùħ
ĠÛĮ Ø§Ø¨
Ú¯ÙĪ Ø³Øª
ĠÙĨÛĮØ±ÙĪ ÙĩØ§
ĠÙ¾Ø§ÙĦØ§ÛĮØ´Ú¯Ø§Ùĩ ÛĮ
Ø¬ Ø§Ø³Øª
Ø´Ø¯ ÙĨ
ĠØº Ø§ÙģÙĦ
ÙģØ¹ Ø§ÙĦ
Ø§Ø´ ÙĤ
ĠØ±Ùĩ Ú¯ÛĮØ±ÛĮ
ĠÙħØ§Ø¬ Ø±Ø§
ĠØ¨ÛĮØ± Ø¬
ĠÙĦØ° Øª
ĠÙģÛĮØ± ÙĪØ²
Ø³Øª ÙħÛĮ
ĠØ³ÛĮØ± Ø¬Ø§ÙĨ
ĠØ§ÙĤØ¯Ø§Ùħ ÙĩØ§ÛĮ
ĠØ³ÙĪ Ø§Ø¯
ĠØ¨Ú¯ÛĮØ± ÛĮØ¯
Ø± ØºÙħ
ĠØ¬ Ø²ÛĮ
Ø¸ Ø§Øª
ĠÙħÙĪ Ø§Ø²ÛĮ
ĠÚ©Ø§Ø± Ú¯ÛĮØ±ÛĮ
Ø§ÙĦÛĮ Ø²
ĠØ¨Ø§Ø²ÛĮ Ú¯Ø±Ø§ÙĨ
ĠØ§ÙĨØªØ®Ø§Ø¨ ÛĮÙĩ
Ġ p
Ú© Ø¨ÛĮØ±
ĠÙħØ¬ ØªØ¨ÛĮ
ĠØº Ø±ÛĮØ¨
ĠÛ±Û°Û° Û°
ĠÚ¯ÚĨ Ø³Ø§Ø±Ø§ÙĨ
ĠØ¯ ÛĮÙĨÛĮ
ĠØ±ØŃ ÛĮÙħÛĮ
ĠÚ©Ø§Ø±ÙģØ±ÙħØ§ÛĮ Ø§ÙĨ
ÙĪ Ú¯
Ùģ Ø±ÛĮ
ĠÙ¾ Ø§ÙĨ
ĠØŃ ÙģØ±
Ø¢ Ø±
ØªÙĪØ§ÙĨ Ùħ
ĠØ§Ø³ÙħØ§Ø¹ÛĮ ÙĦÛĮ
ĠØ¨Ø± ØªØ±ÛĮÙĨ
ĠÚ©Ø± Ø¨
ĠÙħÙĤ Ø§Ø¯
ĠØ³ÙĪ Ø§ÙĦÛĮ
ĠØ§ÛĮØª Ø§ÙĦÛĮØ§ÛĮÛĮ
Ø¨ÙĦ ÙĨØ¯
Ùĩ Ø±ÛĮ
Ø±ÙĪ Ø¨ÛĮ
ĠØ§Ø¯ ØºØ§Ùħ
Ø±Ø³ ÙĨØ¯
ĠØ¨Ø²Ø±Ú¯ Ø³Ø§ÙĦ
ĠØ§ÙĨØ¯ Ø±ÙĪ
ĠÙħØ¹ÙĦ ÙĪÙĦ
ĠØ¨ Ú¯ÙĪÛĮÛĮÙħ
ĠÙĪ Øµ
ĠØ® ÙħÛĮÙĨ
ĠÙĨØ§ Ø´ÙĨ
Ú©Ø±Ø¯ ÙĨ
ĠÚ¯ÙĦ ÙĪ
ĠØ¨Ø§Ø²Ø± Ú¯Ø§ÙĨ
ĠÙ¢Ùł Ù¡
F C
Ġ U
ĠÛĮ Ø§Ø³
ĠÚ©Ø§ ÙĪØ´
ĠØ¨ÛĮØ±Ø¬ ÙĨØ¯
ĠÚ©ÙĨ ØªÙĪØ±
ĠØ¯ÙĪ Ø³ØªÛĮ
ĠØ³Ø§Ø² Ø§ÙĨ
ĠÚ¯Ø± ÚĨÙĩ
ĠÚ©Ùħ Ø§Ú©Ø§ÙĨ
ĠÛ²Û° Û¶
ĠØ§ÙħÛĮØ± Ú©Ø¨ÛĮØ±
ĠØ²ÛĮØ¨ Ø§Ø³Ø§Ø²ÛĮ
ĠÙħØ³ Ø§ÛĮÙĦ
Ø³ÙĪÙĨ Ú¯
ĠÙĩ Ø§Ùģ
ĠÙĤ Ø±Ø§
ĠØ¯ÙĪ Ø´
ĠØ¨Ø§Ø²ÛĮ Ú¯Ø±
ĠÛ±Û³ Û´
ĠÚ¯Ø±Ø¯ ÙĨ
ĠØ¹ÙĪ Ø¶
ĠØ¯ÙĪØ³Øª Ø¯Ø§Ø±
ĠØ³ÙĦØ· Ø§ÙĨÛĮ
ĠØ¨ÙĦÚĺÛĮ Ú©
ĠÚ© Ø±ÛĮØ¯
Ù¾ ÙĪÙĦ
ĠÙĦ ÛĮØªØ±ÛĮ
Ø« ÙĨÛĮ
ĠØ¹ÙĦ ÙĦ
ĠØºÛĮØ± Ø§ÙĪÙ¾Ú©
ĠÛ±Û± Û±
ĠÙ¾ÙĨ ÙĦ
ĠÙĤØ¯Ùħ Øª
ĠØ·Ø§ÙĦ Ø¨Ø§ÙĨ
ĠØ¢ Ø±ÛĮ
Ø¸ Ø±Ø§ÙĨ
ĠØ¨Ø§Ø²Ø§Ø± ÚĨÙĩ
ĠÙħÛĮÙĦ Ø§Ø¯
ĠÛ±Û³Û¹ Û¶
ĠØ±ÙĪØ¨ ÙĦ
ĠØ¹ÙĨØ§ ÙĪÛĮÙĨ
ĠØ§ÙĨØ¶Ø¨ Ø§Ø·ÛĮ
ĠÙĪØ¨ÛĮÙĨ Ø§Ø±
ĠØ¨Ø± ÙĪÙĨØ¯
ĠØ¬ Ø±
ĠÚ©Ùħ Ø±Ø¨
ĠØ§ÙĪØ± Ùĩ
ĠØ§ÙģØ³ Ø±Ø¯Ú¯ÛĮ
Ø´ÙĨ Ø¯Ùĩ
ĠÛ±Û± Ûµ
ĠØªØ§Ø«ÛĮØ± Ú¯Ø°Ø§Ø±ÛĮ
ĠØ§ÙĪÙĨ Ø³
i s
ĠØª Ø¹Ùĩ
ĠÙģ Ø§ÛĮÙĦ
ĠÚ©Ø± Ø³ÛĮ
ĠÙģØ± Ø§Ø²
ĠÙĩÛĮ Ø¬Ø§ÙĨ
ĠÙĪÛĮØ± ÙĪØ³ÛĮ
ĠØ®ÛĮØ± ÛĮÙĩ
ĠÙħÙĤØ¯Ùħ Ø§Øª
ĠÙħØ±Øª ÙģØ¹
Ùħ Ø¬
Ùħ Ø§ÙĦ
ĠÚ¯ ÙĦØ§ÛĮ
ĠÙĨÙĪ Ø¢ÙĪØ±
ĠÛ²Û³ Û°
ĠÙ¾ÛĮØ´ÙĨÙĩØ§ Ø¯ÙĩØ§ÛĮ
ĠØ§ ÙĦØ§
ĠØ¯ Ø§ÛĮ
ĠØ´ Ø§ÙĨÙĩ
ĠÙ¾ÛĮ Ú©Ø§ÙĨ
ĠØ¢Ùħ ÙĪ
ĠÙħÙĩÙĨØ¯ Ø³Ø§ÙĨ
ĠØ¯Ø§Ùħ ÙĨ
ĠÙĪØŃ Ø´
ĠØ§Ú©ÙĪ Ø³ÛĮØ³ØªÙħ
ĠØ²ÙĨØ¯ Ø§ÙĨÛĮØ§ÙĨ
ĠØ²Ø® Ùħ
ĠØªÙģØµ ÛĮÙĦÛĮ
ĠØ´ÙĩØ±Ø¯ Ø§Ø±Ø§ÙĨ
ĠÛĮÚ© Ø¨Ø§Ø±
ĠÙħØ¬ Ø§Ø±ÛĮ
ĠÙĪØ² Ø±Ø§ÛĮ
ĠØ¯Ø±ÙĪ Øº
ĠØ§Ø¨Ø±Ø§Ùĩ ÛĮÙħÛĮ
ĠÙĦÙĪØ§ÛĮ ØŃ
c h
ĠØ± Ø¬Ø§ÛĮÛĮ
ĠØ³ ÙĪØ±
ĠØ³ Ú©ØªÙĩ
ĠØ³ÛĮ Ø¨
ĠØ³Ø§Ùħ Ø³ÙĪÙĨÚ¯
ĠÙħ Ø§ÛĮÙĦ
Ø²ÛĮ Ø³Øª
ĠÙ¾Ø§Ø± ÚĨÙĩ
ĠÙħÙĦ Ú©ÛĮ
ĠÚ©ÙĦÛĮ Ø§Øª
ĠØ§ÙĦÚ©ØªØ± Ø§ÙĦ
ĠÙĨÚ©Ø±Ø¯ ÙĨØ¯
ĠØ±ÙĪØ´ÙĨ Ø§ÛĮÛĮ
ĠØŃÚ©ÙĪÙħ Øª
ĠØ¯Ø¨ ÙĦÛĮ
ĠØ§Ø³ÙħØ§Ø¹ÛĮ ÙĦ
ĠØ´ Ø±Ø§Ø¦
ĠØªÙĪ ÙĦØ¯
ĠÙħØ¹ ÙĨÙĪÛĮ
ĠÙĨÙĪ Ø§Ø²
ĠØ®Ø§Ø± Ú©
ĠÚ¯ÛĮ Ú¯
ĠØ¨Ù¾Ø±Ø¯Ø§Ø² Ø¯
ĠÙ¾ÙĨÙĩ Ø§ÙĨ
ĠÚĨ Ù¾
ĠØ§Ø± Ùħ
ĠØ³Ø± Ùħ
ĠÛ¶ ÛµÛ°
ĠØªØ¬ ÙĪÛĮØ²
ÛĮØ§ ÙģØª
Ø§ØŃ ØªÛĮ
Ø§ÙģØ²Ø§Ø± ÛĮ
ĠÙ¡Ù£Ù© Ù©
ĠØªÚ© ÙĪØ§ÙĨØ¯ÙĪ
ÛĮ Ú©ÛĮ
ĠÚ¯ÙģØª Ú¯ÙĪÛĮ
ÙĨÚ¯ Ø§Ø±ÛĮ
ĠÚ©Ø§ ÙĪÙĩ
ĠØªÚ©ÙĨ ÛĮÚ©
ĠØªØ¶ÙħÛĮÙĨ ÛĮ
ĠØ³Ú©ÙĪ ÙĩØ§ÛĮ
Ø¨Ø§ÙĤ Ø±
ĠØ§Ø«Ø±Ø¨Ø®Ø´ ÛĮ
Ġ m
ĠØ¨Ø§ Ø³ØªØ§ÙĨ
ĠÙĤ ÙĨ
ĠØ¯Ùĩ ÙĨØ¯Ú¯Ø§ÙĨ
ĠØ³ÙĪ ÙĤ
ĠØ¨Ø§ÙĨÚ© ÙĩØ§ÛĮ
Ø±Ø¨ Ø·
ĠØ¢Ø± ÙħØ§ÙĨ
ĠØªØ³ ÙĦÛĮØª
ĠÙģØ±ÙĪ Ø´ÙĨØ¯Ùĩ
ĠØ¯ ÙĦÛĮÙĦÛĮ
ĠØ³ ÙħÙĨ
ĠØªÙĪ Ú©ÙĦÛĮ
ĠÙĤØ¶Ø§ ÙĪØª
ĠØ¨Ø¯Ø§ÙĨ ÛĮÙħ
ĠÙħØ§Ø¯ Ø±ÛĮØ¯
Ú© ÙĪØ³
ĠÚ¯ Ø²
ĠÛ² Û²Û°
ĠÚ©Ø§Ø± ÙĪØ§ÙĨ
Ø¯Ø§ÙĨ Ø³Øª
ĠÙħØ® Ø±Ø¨
ĠØªÙĪØ¶ÛĮØŃ Ø§Øª
ĠÚĺØ§Ù¾ ÙĨÛĮ
ĠØ¨ Øª
Ù¾ ÙĨØ§
ÙĪØ¯Ùĩ Ø§ÛĮ
ĠØ¯ÛĮØ¬ÛĮØª Ø§ÙĦÛĮ
ĠÙĦØ· Ùģ
ĠÙ¾Ø³ÙħØ§ÙĨ Ø¯ÙĩØ§ÛĮ
ĠØ¬Ø²ÛĮ ÛĮ
ĠÛĮ Ø§Ø¨ÙĨØ¯
ĠÙħÙĨ Ùģ
ĠØ±Ø§Ùĩ ÙĨÙħØ§ÛĮ
ĠØ¨Ø§Ø± Ø³Ø§
ĠØ±ÙĪÛĮ Ú©Ø±Ø¯ÙĩØ§ÛĮ
ĠØ§ÙĤØªØµØ§Ø¯ Ø¯Ø§ÙĨ
Ø¨ÙĪØ± Ú¯
Ø´ Ø±Ú©Øª
ĠØ³ ÙĪÙĦ
ĠØ¬ Ø¹ÙĦÛĮ
ĠØ§Ø³ ÙĦ
ĠØ¯ÙĪØ± Ú©Ø§Ø±ÛĮ
ĠÚĺ Ø¦ÙĪ
ĠÛĮØ§Ø¯Ø¯Ø§Ø´Øª ÛĮ
ĠØ§Ø³Ú©ÙĦ Ùĩ
Ø¨ Ø§ÛĮÛĮ
ĠØ³ Ú¯
ĠÚ¯ ÙĨØ¬
ĠØ¨Ø± Ú©ÙĨ
ĠØ§ÙĦ ÙĩØ§Ùħ
ĠØ¯Ø±ØµØ¯ Ø¯
ĠÙĨÛĮÙħ Ú©Øª
ĠØªØ® ÙħÛĮÙĨ
ĠÙ¾Ø§Ø³Ø® Ú¯ÙĪ
Ø¨ÛĮÙĨ ÛĮÙħ
ĠØ§Ø´ØªØºØ§ÙĦ Ø²Ø§ÛĮÛĮ
ĠÙħØ±Ø§Øª Ø¹
ĠØ®ÙĦØ§ ØµÙĩ
ĠØ§ÙĨØŃØµ Ø§Ø±
ĠÙħØ³Ùħ ÙĪÙħÛĮØª
ÙĪ Ú©Ø³
ĠØ´ Ú©Ø§Ø±
ĠØ§Ø¹ Ø²Ø§ÙħÛĮ
ĠØªÙĤ ÙĦÛĮÙĦ
ĠÙħØ´ØªØ±Ú© ÛĮ
ĠÙĪØ§Ú©Ø³ ÛĮÙĨ
ĠÙħØ¨Ø§Ø± Ú©
ĠØ¯Ø±Ø®Ø´ Ø§ÙĨ
ĠÚ©Ø§ÙĨØ¯ ÛĮØ¯
ĠØ¬ ÙĩØ±
ÚĨ ÛĮØ§ÙĨ
ĠØ² Ø¯Ø§ÛĮÛĮ
Ø§Ø· ÙħÙĩ
Û¶ Û°
ĠØ§Ø³ØªØ§ÙĨØ¯Ø§Ø± Ø¯ÙĩØ§
ÙĨ ÙĪÛĮØ³ÛĮ
ĠØ±Ø§ Ø¶ÛĮ
ĠØ² Ø§Ø¦
ĠØ§Ùħ ÛĮÙĨÛĮ
Û³ Ûµ
ĠØ¬ÙĪ Ø§ÛĮØ²
ÙĨØ´ ÛĮÙĨÛĮ
ĠØ·Ø¨ÛĮØ¹Øª Ø§
ĠØ¨Ø§Ø±Ø¯ Ø§Ø±
T F
Ø± ÙĩØ§
ĠÙĪ ØµÙĦ
ĠÙħÙĤ Ø¯Ø§Ø±ÛĮ
ĠØ§Ú© Ø¨Ø±ÛĮ
ĠØ¨ÙĨØ¯Ùĩ Ø§ÛĮ
ĠÙħÙĨØµ ÙĪØ±
ĠØ¨Ø¯Ø§ÙĨ ÛĮØ¯
ĠØªØ¯Ø±ÛĮ Ø¬ÛĮ
ĠØ¢ÙģØ± ÛĮÙĨ
ĠØ§ÙĦÚ©Ø³ Ø§ÙĨØ¯Ø±
Ú© Ø´Ø¯
ĠØ§ÛĮØ± ÙĦØ§ÛĮÙĨ
ĠÙ¡Ù ¢
ĠØ¨ ÙħØ¨
ĠÙĤ ÙĪØ·ÛĮ
Ø° Ø¨
ĠÙħÙĪ Øª
ĠÚ¯Ø§Ø² Ø·Ø¨ÛĮØ¹ÛĮ
ĠØ¨Ø§ÙĦØ§ Ø³Øª
ØªØ§ Ø¬
ĠØ¨Ø±Ú¯ Ø²
ĠØ®ÙĪØ´ØŃ Ø§ÙĦ
ĠÚ©Ø§Ù¾ ÛĮØª
Ø¯ ÙĦÛĮÙĦ
ĠÙħÛĮ Ø§ÙĨÛĮ
ÙĪÙĦ Ø§ÛĮ
ĠØªØµ Ø±Ùģ
ĠÛ±Û¹ Û¸
ĠØ´Ú© Ø§Ùģ
ĠØ¨Ø§ Ø®ØªÙĩ
ĠØ¨Ø± Ú¯Ùĩ
ĠØ´Ùĩ Ø¯Ø§ÛĮ
ĠØ¨Ø¯ ØªØ±ÛĮÙĨ
ĠØ¢ÙĦ Ø¨ÙĪÙħ
ĠØ±ÙĪÙĨ Ø§ÙĦØ¯
ĠØª ÙĪØ±ÛĮ
ĠØ± Ø§ÛĮØ¬
ĠØ¨Ø§Ø² Ø±Ø³
ĠØ±ÙĪØ²Ø§ÙĨÙĩ Ú©
ĠÛ²Û´ Û°
ĠÛ²Û°Û² Û²
ÙħÛĮÙĦÛĮ Ø§Ø±Ø¯
ĠØ¹ ÙĤÙĦ
ĠØ³Ø¨Ø² ÙĪØ§Ø±
ĠÙģÛĮØ²ÛĮ Ú©
ĠÙĪØ§Ú©Ø³ÛĮÙĨ Ø§Ø³ÛĮÙĪÙĨ
ĠØªÙĪ Ø§Ø¨Ø¹
ĠÙĨØ§ ÚĨØ§Ø±
ĠÙĩÙĪØ§ ÙĪÛĮ
ĠØ¨ ÙħØ§ÙĨÙĨØ¯
Ø³ Ø±Ø§ÛĮ
ĠØ¨Ø§ Ú©ÙĪ
ĠÙ¾ Ø§Ø´
ĠÙħÙĨØ· Ø¨ÙĤ
ĠÙĩØ¯Ùģ ÙħÙĨØ¯ÛĮ
Ø¬ÙĨ ÙĪØ¨ÛĮ
ĠØ¢ÙĦÙĪÙħÛĮÙĨÛĮ ÙĪÙħ
ÙĤ ÙĪÙĦ
ĠØ¨ÛĮ Ú©Ø§Ø±
Ø§Ø¯Ùĩ Ø§ÛĮÛĮ
ĠÙĨÙĩ Ø§ÙĦ
ĠÚ¯ÙĦ Ø²ÙĨÛĮ
ĠØºØ° Ø§ÛĮ
ĠØ§ÙĨÚ¯ Ø´Øª
ĠØ¯ÙĤÛĮ ÙĤÛĮ
ĠØ±Ø¨ÛĮ Ø¹ÛĮ
Ø§ÛĮ Ø±ÛĮ
ĠÙĩ ÙĪØ§ÙĨ
Ø§Ùħ ÙĨ
Øµ ÙĪØ±
Ø· Ø§Ùģ
ĠÙħØ¹ Ø·
ĠØºÛĮØ± Ø¶Ø±
ĠØ¨ÙĨÛĮ Ø§Ø¯ÛĮ
ĠØ¯ÙĤÛĮÙĤ Ø§
ĠÙĨØ§Ú¯Ùĩ Ø§ÙĨÛĮ
Ø³ ÙħÙĩ
ĠÚĨ Ø±
ÙĪÙĤ Ø¹
ĠÙĨÙħØ§ÛĮØ´ ÛĮ
ĠØ¢Ø±Ø² ÙĪÛĮ
i l
ÙĪ Ø¸
ĠÙĩ Ø§
Ø§Ø² Ø¯Ùĩ
ĠÙĤ Ø³Ùħ
ÙģØ± Ø§Ø¯ÛĮ
ÙħÙĨ Øª
ĠÙĨÙĩ ÙħÛĮÙĨ
ĠØ·Ø±Ùģ Ø¯Ø§Ø±Ø§ÙĨ
ĠÙħØªØŃ ÙħÙĦ
ĠH SE
Ù¾Ø³ ÙĨØ¯
ĠØ¨Ø¨ÛĮÙĨ ÛĮÙħ
ĠØ® Ø§Ø·
ĠØªØ¹ ÙħÛĮÙĤ
ĠÙ¾Ø± ÙħØµØ±Ùģ
ĠÛ±Ûµ Û°Û°
ĠÙĨØµ Ùģ
ĠØ¹ÙĪ Ø§ÙħÙĦÛĮ
ĠØŃÙģØ§ Ø¸ØªÛĮ
ĠØ§ØªÙĪÙħ Ø¨ÛĮÙĦ
ĠÙħ ÙĦØ§Ú©
ĠÙĦ Ù¾
ĠÙģØ± ÙħÙĪÙĦ
Ø§Ø³ÛĮ Ø§
ĠØªÙĩ ÙĪÛĮÙĩ
Ø§Ø¯ÛĮÙħ ÛĮØ±
ĠÙĪ ÛĮØ¯ÛĮ
Ø³Øª ÙĤÛĮÙħ
ĠØ¬ Ø§ÙĨÛĮ
Ø³ÛĮ ÙĦÛĮ
ĠÙħØ¬ Ø³ÙħÙĩ
Ø´Ø¯ ÙĨØ¯
ĠØ¯Ø§ÙĨ Ø³ØªÙĩ
ĠØ¯Ø§ÙĨ ÙħØ§Ø±Ú©
ĠÙħÙĩ Ø¯
ĠÚ©ÙĦ ÛĮÙĨÛĮÚ©
ĠÙ¾Ø± Ø§ÛĮØ¯
ĠØ¹Ø¨ Ø§Ø±ØªÛĮ
ĠØ´ÙĪ Ø§ÙĩØ¯
ĠÙħØª ÙĩÙħØ§ÙĨ
ĠÙĤÛĮÙħØª ÙĩØ§
ĠØ§Ø¨ Ø·
ĠØªÙĤØ±ÛĮ Ø¨ÛĮ
ĠÛĮÙĪÙĨ Ø³Ú©ÙĪ
ĠÙħØ®Ø§ÙĦÙģ Ø§ÙĨ
ĠØ¨ Ø®ØµÙĪØµ
ĠÙħØ¬ Ø±
ĠØ§ÙĨØªØ´Ø§Ø± Ø§Øª
ĠØ±ÙĪØ³ØªØ§ÛĮÛĮ Ø§ÙĨ
ĠØ§ÙĨØ¯ÛĮ Ø´ÛĮØ¯Ùĩ
ĠÙģØ³ Ø®
ĠØ±Ø§Ø¯ÛĮ ÙĪÛĮÛĮ
ØªÙĪØ¬Ùĩ ÛĮ
ĠØªÙ¾ Ùĩ
ĠÚ©Ø§ÙĦÛĮ ÙģØ±
Ø§Ø± ÙĪ
ĠØ¹ Ø§ÙħÙĦÛĮ
ĠÚ¯Ø³Øª Ø±Ùĩ
ÙĨ Ø§ÙĦ
Ú¯ Ø±Ø§
ĠØ¯Ø³Øª ÛĮØ§Ø±
ĠØ§ÙĦ ÙĩÛĮ
ĠØ³ ÛĮÙĨÙĩ
ĠÚ¯ ÙĪØ¯Ø±
ĠØ¨Ø§Ø± Ø´ÛĮ
ĠØªØ´ Ø±ÛĮÙģ
ÙħØ§Ùĩ Ùĩ
ĠÙĨØ§Ú© Ø§Ø±
ĠØ§ Ú©Ø±Ø§ÙĨ
ĠÙ¾Ø± ÙĨØ¯Ú¯Ø§ÙĨ
ĠÙħØ® ÙĦ
Ù¾Ø±Ø¯Ø§Ø² ÙĨØ¯
ĠÙ¾Ùĩ ÙĨÙĩ
ĠØ¯Ø± ÙĨØ¸Ø±
Ø±Ø§ Ø¹
ĠÚ©Ø±ÙĪÙĨØ§ ÙĪÛĮØ±ÙĪØ³
ĠØ« Ø§ÙĨÙĪÛĮÙĩ
ĠØ¯Ø§Ø±ÙĨØ¯ Ú¯Ø§ÙĨ
ĠÛ±Û° Û¹
Ø²ÙĨ ÙĨØ¯
ĠÙĪÙĦ Ø§Ø¯ÛĮÙħÛĮØ±
ÙĪÙĦ Ø§Øª
ĠÙĪØ§ ÚĺÙĩ
ĠØº ÛĮ
ĠØ®Ø³ Ø±ÙĪÛĮ
ĠØ¨Ø§ÙĦØ§Øª Ø±ÛĮ
ĠÚ©Ø±ÛĮ Ø³Øª
ĠÚ©Ø§Ø¨ ÛĮÙĨÙĩ
ĠØ¹Ø³ Ú¯Ø±ÛĮ
e d
Ø§ ÙĪØ²
ĠÙ¾ ÙĩÙĨ
ĠØ±ÙĪØ² Ø¢ÙħØ¯
ĠÙĨÙĪ Ø§Ø±
ĠÙĨØ§Ùħ Ø´
ĠÚ©ÛĮÙģ Ø±ÛĮ
ĠØªÙĦ Ø®
ĠØ¯Ø±Ø¢ÙħØ¯ Ø²Ø§ÛĮÛĮ
ĠÙħØ§Ùħ ÙĪØ±
ĠØ§ÙĤÙĦÛĮ ÙħÛĮ
ĠØ¹Ø¸ ÛĮÙħÛĮ
Ġ ÛĮÙĨ
ĠØ³ ÙħÛĮ
ĠØªØ§ Ù¾
ĠÛ±Û° Ûµ
ĠØªØ¯Ø±ÛĮ Ø³
Ø§ÙħÛĮØ¯ ÙĨÛĮ
Ùħ Ø§Ø±ÛĮ
ĠØ³ ÙĪÙĨ
ĠØ¢ Ú¯ÙĪØ³Øª
ĠØ¬ ÙĨÚ¯ÛĮ
ĠÚ©Ø§Ø± ÙĩØ§ÛĮÛĮ
ĠÙ¾Ø± ÚĨ
ĠØ¸Ø±ÙģÛĮØª ÙĩØ§ÛĮ
ĠÙħØ¹ØªÙĤ Ø¯Ùħ
ĠÚ©ÙĨØ³Ø±Ø³ÛĮ ÙĪÙħ
ĠØ¨Ø§ ÙĪØ¬ÙĪØ¯
ĠØ¨Ø§Ø² Ú¯Ø±Ø¯Ø¯
ĠØ±ÙģØª ÙĨØ¯
ĠØ¹ÙĨ Ø§ÛĮØª
Ø§Ø² ÙĨØ¯
ĠØ§ÙĨ ÙģØ±Ø§Ø¯ÛĮ
Ù¾ Ø§ÙĦ
ĠØ¨Ø¯ ØªØ±
ĠÙħØ®Øª Øµ
ĠÙħØ¤ Ø«Ø±ÛĮ
ĠØ¢Ø´ Ø§ÙħÛĮØ¯ÙĨÛĮ
ĠÙħÚ©Ø§ÙĨÛĮ Ø²Ùħ
Ø§ÙĨ Ø¯ÛĮ
Ø· Ø±ÛĮ
ĠØŃ ÙĪØ§
ÙĪÛĮ ÙĦÛĮ
ĠØ³Ø± Ø±Ø³ÛĮØ¯
ĠÚ¯Ø± Ø§ÛĮØ´
ĠØ¨Ø¹ Ø¶Ø§
ĠÙ¾ÙĨØ¬ Ø§Ùĩ
ØŃÛĮ ÛĮ
ĠÚ©ÙĨØªØ± ÙĦÛĮ
ĠÙĨØ¬ ÙģÛĮ
ĠÚ©ÙħÙ¾ Ø±Ø³ÙĪØ±
Ù¾Ø³ ÙĪÙĦ
ĠÙĪØ® ÛĮÙħ
ĠØ¨Ùĩ Ø´Øª
ĠØŃ ØµÙĪÙĦ
Ú¯Ø± ÙħÛĮ
Ø¶Ø§ÛĮ ØªÛĮ
ĠØ§ØµÙĦØ§ØŃ ÛĮ
ĠÙĨÛĮÙħ Ø§
ĠÚ©ÙĪÚĨ Ú©ÛĮ
ĠØ¨Ø±Ø¯ Ø§Ø±Ø¯
ĠØ¨Ø§Ø²ÙĨØ´ Ø³ØªÙĩ
ĠØ§ÙĨØ¹ Ø·Ø§Ùģ
ĠØ¹Ú© Ø§Ø³ÛĮ
ĠÙĦÙĩ Ø³ØªØ§ÙĨ
ĠØ§Ø³Ø±Ø§Ø¦ ÛĮÙĦ
ĠÙĨÙģØª Ø®ÛĮØ²
ĠØªÙĤ Ø§Ø·Ø¹
ĠÙħØ´Ø§Ø± Ú©ØªÛĮ
ĠÙĨÚ¯Ø± Ø´
ĠØ¸Ùĩ ÙĪØ±
Ú© ÙĪÙĦÛĮ
ĠÙĨ Ú©ÙĨÛĮØ¯
ĠÙģ Ø§Ø¬
ÙĩØ§ Ø¨ÛĮ
ĠÚ©Ø§Ø± Ø§ØªÙĩ
ĠÙħÙĤ Ø§ÙĦØ§Øª
ĠØªØ¬ ÙħÛĮØ¹
ĠØ¬Ø¯ Ø§Ø³Ø§Ø²ÛĮ
ĠØªØŃØµÛĮÙĦ Ø§Øª
ĠÚ© Ø¨Ø¯
ĠØ§Ø³Øª Ø¹Ùģ
Ù¾ ÙĨ
ĠØ§ÙĦ Ø³
ĠØº Ø¨Ø§Ø±
ĠØ³ÛĮ Ú©ÙĦ
ĠÙģØ±ÙĪ ÙĨØ¯
ĠÙĨÙĪÛĮØ³ ÙĨØ¯Ú¯Ø§ÙĨ
ĠÙĨØ§Ù¾ Ø§ÛĮØ¯
ĠÙģØ§Ø¬ Ø¹Ùĩ
Ù ī
Ø± Ø¦ÛĮØ³
ĠÚ¯ ÙĪØ³
Ø§Øª Ø³
ĠÙħÙĨ ÚĨ
ĠØ±Ø¬ Ø¨ÛĮ
ĠØªØŃØ± ÛĮÙħÛĮ
ĠØ¢ÙĨÙģÙĦÙĪØ¢ÙĨØ² Ø§
ĠØ´Ø±Ø§Ø¦ Ø·
ĠØ´ ÙĪÙħ
ĠÚ¯Ø±ÙģØª Ø§Ø±
ĠÙħØ² Ø§ØŃ
ĠÙħÙĪÙĦ Ø¯
ĠØ¨Ø§ÛĮ Ø³ØªÛĮ
ĠÚ¯Ø±Ø¯ÙĩÙħ Ø§ÛĮÛĮ
ĠØ§Ø³ Ùģ
ĠØ§Ø³ Ø±Ø¹
ĠÙĨØ¸Ø§ÙħÛĮ Ø§ÙĨ
ĠØ´Ø±Ú© Ø§ÛĮ
ĠÙĩØ´Øª ÙħÛĮÙĨ
ĠØ®ÛĮØ± ÛĮÙĨ
ĠÙħØ´Ø±ÙĪ Ø·
ĠØ§ÙĤÛĮØ§ÙĨ ÙĪØ³
ĠØ¨ ÙĪÙĦÛĮ
ĠÙħ Ø§Ø¯ÛĮ
ĠÚ© Ø±Ú©
Ø¹ Ø§ÙĦÛĮ
ĠØ´ Ú¯ÙģØª
ĠØ¨Ø± Ø´
ĠØ±ÙĪØ² ÙħØ±Ùĩ
ĠØªØ¨ Ø¹
ĠØªÙĦ Ùħ
ĠÙħ ÙħØ§ÙĨ
ĠÚ¯ ÙĪØ§Ø±
Ø±Ø§ ÙĤ
Ø§Ùģ Ø±ÛĮ
ĠÛµ ÛµÛ°
ĠØ²ÛĮØ± Ø¨
ĠÙĨÙħ Ú©ÛĮ
Ùħ Ùħ
ĠØ³ Ø¤
ĠØ¨Ø± Ù¾Ø§ÛĮÛĮ
ĠØ§ÙĤ Ø¨Ø§ÙĦ
ĠØ§ÛĮØ±Ø§ÙĨ Ø´ÙĩØ±
ÙģØ± Ø§ÙĨ
ĠØ¬ÙĦ Ø³
ĠÚ©ÙĦ ÙĨÚ¯
ĠØªØ§ÛĮÛĮØ¯ ÛĮÙĩ
ĠØªÙĪØ¶ÛĮØŃ Ø§ØªÛĮ
ĠÙħØ§Ø¯Ø± Ø§ÙĨ
ĠÙ¾ÙĦØ§ Ø³ØªÛĮÚ©ÛĮ
ĠØ§ÙĨØ³ØªÛĮØª ÙĪ
ĠÙ¾Ø±ÙĪ Ùģ
ĠÙħØŃÙħØ¯ Ø¨Ø§ÙĤØ±
ĠÙħØªÙĪØ³ Ø·Ùĩ
ĠØºÛĮØ±Ùħ Ø³ØªÙĤÛĮÙħ
ĠØ§Ø³Øª Ø¹Ø¯
ĠØ¯Ø§ Øº
ĠØ§ÙĨØª ØµØ§Ø¨
Ø§Ø¯Ø± Ø§ÙĨ
ĠØ´ÙĪ Ú©
ĠØ§Ø¹ØªØ±Ø§Ø¶ Ø§Øª
ĠØ³Ø¨Ø²ÛĮ Ø¬Ø§Øª
Ù¾ Ø§Ø±Ø³
ĠÙ¾Ø± Ø¯Ùĩ
ĠØ³ÙĪØ¯ Ø¢ÙĪØ±ÛĮ
ĠØªØ§ÛĮ ÙħØ²
ĠÙĪØ³ÛĮ Ø¹ÛĮ
at ion
ĠÙħ ÙħÛĮØ²ÛĮ
ĠØ¯ ÙĩØ§
ĠØ´Ø¯ ÛĮØ¯ÛĮ
ĠÚ©ÙĦ ÙħÙĩ
ĠÛ±Û¹ Û°
ĠÚ©Ø§ Ø´
ĠØ§ÙĨØ³ Ø¬Ø§Ùħ
ĠØ¢Ø¨Ø§ÙĨ ÙħØ§Ùĩ
Ø§ÙĨØª Ø²
ĠÙħØ§Ø± Ø§Ø¯
ĠÙĩØ§Ùģ Ø¨Ú©
ĠØ± Ø·
ØŃ ÙĤ
ĠØ§ÙĨ ØŃ
ĠØ¢ÙĨ Ú¯
ĠØ®ÙĪØ§Ùĩ Ùħ
Ø§Ø®Øª Ú¯Ø§ÙĨ
ĠÙħØ® Ø§Ø·Ø±
ĠÙ¾Ø§ÙĦØ§ÛĮØ´Ú¯Ø§Ùĩ ÙĩØ§ÛĮ
ĠØ§ØŃØ³ Ø§ÙĨ
ĠØªØ±Ø³ ÛĮÙħ
P C
ĠØ± Ø§Ø¯
ĠÙģ Ø§ÙĦ
ĠØ¬ ÙĨØ§
ĠÚ¯Ø± ÙħÛĮ
ĠÛ²Û°Û± Û³
Ú¯Ø±Ø¯ ÙĨØ¯
ĠÙĨØ§Ø± Ø¶Ø§ÛĮØªÛĮ
ĠÙĤØ¶Ø§ÛĮÛĮ Ùĩ
ĠÙĪÛĮØ¯ Ø¦
ĠØ± Ø¦ÛĮØ³ÛĮ
ĠÙ¾Ø± Ø±ÙĨÚ¯
ĠØªØ§Ø³ Ùģ
ĠÙ¾ÛĮÚĨ ÛĮØ¯Ú¯ÛĮ
ĠØ§ÙĦØ¯ ÛĮÙĨ
ĠÚ©Ø§ÙħÙ¾ÛĮ ÙĪØªØ±
Øª Ø¹
Ø¨ Ø§ØªÛĮ
ĠÙĨØ§ Ù¾Ø°ÛĮØ±
ĠØ¢ÙħÙĪØ²Ø´ Ú¯Ø§Ùĩ
ĠØ§ÙĪØ± Ø§Ø³ÛĮØ§
ĠØ®Ø§ÙĨÙĪØ§Ø± ÙĩØ§
ĠÙħØ§Ø±Ø§Ø¯ ÙĪÙĨØ§
Ġ K
Ø¨ Ø¯ÛĮ
ĠØ® Ø§Ú©ÛĮ
ĠØ³Ø± ÚĨ
ĠØ³ÛĮ Ø³ØªÙħÛĮ
ĠÙħØªØ¹ Ø§Ø¯ÙĦ
ĠÙħÚ©Ø§ÙĨÛĮ Ø³Ùħ
ĠØ¯ÙħØ§ ÙĪÙĨØ¯
Ú© Ø¨
ĠØ³ÛĮ Ú¯ÙĨ
ĠØªØ¬ ÙĦÛĮÙĦ
Ù¾Ø§ Ø´ÛĮ
ĠÙħØ°Ø§Ú© Ø±Ø§ØªÛĮ
ĠÙħØ´ÙħÙĪÙĦ Ø§ÙĨ
ĠØ§ÙĦØŃ Ø§ÙĤÛĮ
ĠØ´Ø±ÛĮ Ø¹ØªÛĮ
ĠØ§Ø¯Ø§ÙħÙĩØ§ Ø¨Ø¯
ĠØªÙĦÙħ Ø¨Ùĩ
Ùħ ÙĪ
ĠØ¨ ØµØ±Ùĩ
Ú¯ ÙĪÙĨÛĮ
ĠØ¢ ÙĦÛĮ
ĠÙģ Ø³ÛĮÙĦÛĮ
Ø±Ú© Ø§Ø±Ø§ÙĨ
ĠÙħØª ÙĪÙĦØ¯
ĠØ¨Ø®Ø´ ÛĮØ¯ÙĨ
ĠÙ¾ÛĮØ± ÙĪÛĮ
ĠÙĪØ§Ø± Ø¯Ùĩ
ĠØ´ Ø§Ø¯ÛĮ
ÚĨ ÛĮÙĨÚ¯
ĠÙĩÙħ ÙĪØ§Ø±
ĠÙħØª Ø±Ø§
ĠØªÙĪØ§ÙģÙĤ Ø§Øª
ĠØŃØ±Ú©Øª ÛĮ
ĠØªØ±ÙĪØ±ÛĮ Ø³Øª
ĠØ¯Ø® Ø§ÙĨÛĮ
ĠÚ¯ÙĪØ¯Ø± Ø²ÛĮ
ĠÙģØ±Ø¯ ÛĮØ³
ĠÚ©Ùģ Ø´
ĠÙģÙĦØ³ ÙģÙĩ
ĠØ¯ÙĩØ§ ÙĤØ§ÙĨ
ĠÙ¾ Ø¯ÛĮØ¯
ĠØ² Ø±ÛĮÙĨ
ĠØ§Ø· ÙģØ§ÛĮ
Ø§Ú© Ø±
ĠÙħØ³Ø§ÙģØ± Øª
ĠØªÙĨÚ¯ Ùĩ
Ú©ÛĮÙģ ÛĮØª
ĠØ§ ÛĮØ¯
Ø³ ÙĨ
ĠÙĨ Ú©ÙĨÛĮÙħ
ĠÙģ ØµÙĪÙĦ
ĠÙĩÛĮÚĨ Ú¯ÙĪÙĨÙĩ
ĠÙħØ±ØŃ ÙĪÙħ
ĠÙ¾Ø´Øª ÙĪØ§ÙĨÙĩ
ĠÙ¾ÙĦÛĮ ÙħØ±
ĠØ¨ÙĨÛĮØ§Ø¯ ÛĮÙĨ
ÙĪ Ú¯ÙĪÛĮ
ĠØ´Ø¯Ùĩ Ø§
Ø´Ø¯ Ú¯Ø§ÙĨ
ĠØ¯Ø§Ø¯ Ùħ
ĠÙĨÛĮØ§Ø² ÙĩØ§
ĠØ¢ÙĪØ± ÙĨØ¯
ĠØ§Ø³ØªØ¹ ÙģØ§
ĠØ¹ÛĮ Ø³ÛĮ
ĠØ´ Ø¨Ùĩ
ĠØ¨ÛĮ Ø§ÙĪØ±Ø¯
ĠØ³Ø± Ø´Ø§Ø±
ĠÚ©ÙĦ Ø§Ø³ÛĮ
ĠÙħÛĮØ¯Ø§ÙĨ ÙĩØ§ÛĮ
ĠÙĨÚ¯Ø± ÙģØª
ĠÙħÚ©Ø§ÙĨÛĮ Ú©ÛĮ
ÛĮÙĨ ÙĪ
ÚĨ ÙĨÛĮÙĨ
ĠØªØ§ Ø¬ÛĮ
Ø±Ø§ Ù¾ÛĮ
ĠØ¨Ø§ÙĨÚ© ÙĩØ§
ĠÚ¯ÛĮØ± ÙĨØ¯Ùĩ
ĠÛ³Û¶ Û°
ĠØ¶Ø§ÛĮ Ø¹Ø§Øª
Ø³ ÙĦÛĮ
ĠÙ¾ Ùħ
ĠØ±ÙĪ Ø§ÙĨÙĩ
ĠÙĦ ÙĨØ¬Ø§ÙĨ
ĠØ¯ÛĮ Ø§Ø¨ØªÛĮ
ĠØªÙĨ Ø§Ø³Ø¨
Ú©Ø§Ø± Ø§
Ø§ÛĮØ± ÙĨ
ĠÚ©ÛĮØ³ Ùĩ
ĠÚ©Ø±ÛĮØ¯ ÙĪØ±
ĠÙħÙħØ§ÙĨ Ø¹Øª
ĠÙĪ Ø§ÙĨ
ĠØ¯Ø± ÙĨ
ĠØ´ ÙĦÙĪ
ĠÛĮ Ø§Ø¨ÛĮ
ĠØ· Ø§ÙĩØ±ÛĮ
ĠØ§Ø³ ØŃ
ĠÙħÙĤØ§Ùħ ÙĩØ§ÛĮ
ĠØ±Ø§ÙĨ Øª
ÙħØŃ ÙĪØ±
ĠØ³Ú© ÙĪØª
ĠØ´Ø§Ùĩ Ø±ÙĪØ¯
ĠÛ´Û² Û°Û°
ĠÙħØªØ®ÙĦÙģ Ø§ÙĨ
ĠÙĨØ§ÙħØ² Ø¯ÙĩØ§ÛĮ
ĠÙĩÙħØ³Ø§ÛĮ Ú¯Ø§ÙĨ
ĠÙħÙĤØ§Ø¯ ÛĮØ±
ĠØ¨Ø± ÚĨ
ĠØ¯Ø§Ø± ÙĪØ³Ø§Ø²ÛĮ
Ø¬Ø§Ùħ Ø¯
ĠÚ©ÛĮ Ø§ÙĨ
Ù ª
ĠØª ÙĤÛĮ
ĠØ³ Ø±ÙģÙĩ
Ø§Ø² ÙĪÙĨ
ĠÙ¾ÛĮ Ú¯Ø±Ø§ÙĨÛĮ
ĠØ¯Ø§Ø¯ Ø±Ø³ÛĮ
ĠØªØ¬ Ùħ
ĠØ¯ÙĦ Ø§ÙĦØ§ÙĨ
ĠÙĩÙģØª Ø§Ø¯
âĢĮ ÂŃ
ĠÙĩ Ø§ÛĮØ´
ĠÙ¾ ÙĦÙĩ
ĠØ±ÙĪ Ø´ÛĮ
ĠØ§ÙģØ² Ø§ÛĮÛĮ
Û¹ Û¸
ĠØ¬ÙĦ Ø¯
ĠÙĩÙĪ Ø´ÛĮ
ĠØ¨Ø´ Ø§Ø±
ĠØ¨Ø® Ø´Ø¯
ĠÙĤÙĦ Ø¹Ùĩ
ĠÚ©Ø§ÙĦÛĮÙģØ± ÙĨÛĮØ§
I S
ĠÙħ Ø¶
ĠØ± Ø¨Ø§Øª
ĠÚ¯ Ø§ÙĪ
ĠØŃÙĦ Ø§ÙĦ
ĠØŃÙĪ Ø§ÙĦÙĩ
ĠÙħÙĪÙĦ ÙģÙĩ
ĠØªØ¨Ø¹ÛĮ Ø¶
Ġ âĢİ
ĠÙģ Ø§Ø·ÙħÙĩ
ĠØ±Ø³ ÙĪØ¨
Ø¶Ø§ ØŃ
ĠÙħØ¯Ø¯ Ø¬ÙĪÛĮØ§ÙĨ
ĠÙĨ Ø§Ø²ÙĦ
ĠØ¯ÙĪ Ø³Ø§ÙĦ
ĠØªØ¬ Ø§ÙĪØ²
ĠØ¨ÙĨ Ø§ÛĮ
ĠÙ¾Ø± Ø§ÙĨØªØ²
ĠÙħØŃØµÙĪÙĦ Ø§ØªÛĮ
ĠÚ¯Ø±Ø¯Ø´ Ú¯Ø±
ĠØ¢ÙģØ± ÛĮÙĨÛĮ
ĠØ³ ÙĪØ§ÙĨ
ĠÙħÙĩ Ø±Ø¯Ø§Ø¯
ĠØªÚ© Ø°
ĠØ§Ø¹Øª Ø±Ø§Ùģ
ĠØ³ÙĦÛĮ ÙĤÙĩ
ĠØŃÙĪØ§ Ø´ÛĮ
ĠÚ¯ Ø±Ø§ÙģÛĮ
ĠÙħØ³ Ø§ÙģØ±ÛĮ
ÙĨØ§ ØµØ±
ĠØ±Ø³ÛĮØ¯ ÛĮÙħ
ĠØºÙĦ Ø¨Ùĩ
ĠØ¯Ø§ÙĪØ·ÙĦØ¨ Ø§ÙĨÙĩ
ĠÙ¾Ø±Ø³Øª Ø§Ø±Ø§ÙĨ
ĠÙĤØ±Ø¨Ø§ÙĨÛĮ Ø§ÙĨ
ĠØŃØ§ Ø¬
ĠÙĪØ±Ø²Ø´ Ú©Ø§Ø±
ĠÙħØŃØ¯ÙĪØ¯ÛĮØª ÛĮ
ĠA FC
ĠÙ¾ÛĮÙħ Ø§ÛĮØ´
ĠØ´ Ø¬Ø§
ĠØ³ ÙĨØ§
ĠØ¢ ÙĨØ¯
ĠØ¬Ùħ Ø´ÛĮØ¯
ĠØ¬ÙĨ Ø§Ø¨
ĠØ³ÙĪÛĮ ÛĮ
ĠÙ¾ÚĺÙĪÙĩØ´ Ú¯Ø±
ĠØ±Ø¯ÛĮ Ø§Ø¨ÛĮ
ĠØ¨Ø²ÙĨ ÙĨØ¯
ĠØ±Ø§ÙĨØ¯ ÙħØ§ÙĨ
ĠØ´ Ø¬Ø§Ø¹
ĠØ± ÙħØ§ÙĨ
Ø±ÛĮ Øª
Ø¶ ÙĦ
ĠØªÙĪ Ùħ
Û· Û°
ĠØ³Ø§Ø®Øª ÙĨ
ĠØªÚ© Ø§ÙĦÛĮÙģ
ĠÛĮØ§ÙģØª ÙĨØ¯
ĠØ¯Ø§ÙĨØ´Ø¬ ÙĪÛĮ
ĠØ¯Ø®Øª Ø±Ø§ÙĨ
ĠØ§ÙģØªØ® Ø§Ø±ÛĮ
ĠØ¬ÙĪØ± Ø¬
ÙĪ Ø¨Øª
ĠØ¯Ø± Ùħ
ØŃ Ø§Øª
ĠÚ¯ ÙĪÛĮÛĮ
ĠØ· ØºÛĮ
ĠØ« Ø§ÙĦ
ĠØ¨Ø§ÙĨÚ© Ø¯Ø§Ø±ÛĮ
ĠØªÙĦ ÙģÛĮÙĤÛĮ
ĠØ²Ùħ Ø³ØªØ§ÙĨÛĮ
ĠØŃØ§Ú©ÙħÛĮØª ÛĮ
ĠÚ©Ø§Ù¾ÛĮØª Ø§ÙĨ
ĠÙħØ¹Ø· ÙĪÙģ
ĠØªØ§Ø¬ÛĮ Ú©
ĠÙħÛĮ ÙĩÙħØ§ÙĨ
Ø· ÙĦØ¨Ø§ÙĨ
ĠØ§ÙĨ ÙĤ
ÙĪØ² ÛĮØ±
ĠÚ©Ø§ÙĦØ§ ÙĩØ§ÛĮÛĮ
ĠØªØ§ÙĨ Ú©Ø±
ĠÙĤØ±Ø§ Ø¦Øª
ÙĪ Ú¯Ø±Ùħ
Ùģ ÙĪÙĦ
ĠÙħØ¬ Ø§ÙĪØ±
ĠØ¢Ø¨ Ú¯Ø±ÙģØªÚ¯ÛĮ
ĠØ§Ø® Ø·Ø§Ø±
ĠÙħØ¹ÙĦ ÙĤ
ĠØ§Ø³ØªØ¹Ùģ Ø§ÛĮ
ĠÙĨ Ø¨Ø§Ø´ÙĨØ¯
ĠØ¬ ÙĪÙĦØ§ÛĮ
Ú©Ø±Ø¯ Ùħ
ĠÙĨØ´Ø§ÙĨ Ú¯Ø±
ĠØªÙĪØ§ÙĨ ÛĮØ±
ĠØ³Øª ÙĪÙĨ
ĠØ±Ø¹ Ø¯
ĠØ¨ÛĮØ± ÙĪÙĨÛĮ
ÙĪÚ©Ø§Ø± ÙĩØ§ÛĮ
ĠØ¨Ø± ÙĪÛĮÙħ
ĠØ² ØºØ§ÙĦ
ĠÚ¯Ø± Ø§ÙħÛĮ
Ø¨Ø§ÙĨ Ø§ÙĨ
ĠÙģØ±Ø³Øª Ø§Ø¯Ùĩ
ĠØ³ Ø±Ùģ
ØŃ Ø§Ø¨
ĠÙģ ÙĦØ§ØŃ
ĠØ¹ ÙĤÛĮ
ĠÙĩÙħ Ú¯Ø§ÙĨ
ĠÙĩÙħ Ú©Ø§Ø±
ĠØ² Ø±Ø§
ĠÙħØ¹ Ø¯Ùĩ
ĠÛ±Û³Û¹ Û´
ĠØ³ÙģØ± Ùĩ
ĠÛ²Û· Û°
ĠØ¨ ÙĨÚ¯
ØŃ Ø§ÙĨ
ĠØ¬ Øª
ĠÚ©Ø§Ø± ÙħÙĨØ¯
ĠÙĪØ§Ø±Ø¯ Ú©ÙĨÙĨØ¯Ú¯Ø§ÙĨ
ĠØªØ³ÙĩÛĮÙĦ Ø§ØªÛĮ
ĠÙ¾Ø°ÛĮØ± Ø§ÛĮÛĮ
ĠÙģÙĤ Ø¯Ø§ÙĨ
ĠÙħØ¨ÙĦ ÙħØ§ÙĨ
ĠÙħØ§Ø± Ú©
ÙĨØ¸ ÛĮØ±
ĠÛĮÙĪØ³ ÙģÛĮ
ĠØºÛĮØ±Ø¶Ø± ÙĪØ±ÛĮ
Ø§ÙĨ Ø´
ĠÚ© ÙĪØ¨
Ø±Ú© Ø§Øª
ĠÚĨ Ø±Ø¨
ĠÙĪÛĮØ¯Ø¦ÙĪ Ú©ÙĨ
i d
ÙĨ Ú¯Ø±
Ø¨ Ø®
ĠØ´ ÙģÛĮØ¹ÛĮ
ĠÚ¯ ÙħØ§ÙĨÙĩ
ĠØ§Ø³ Ø¨ÙĤ
ĠØŃØ³ Ú¯Ø±
ĠÙħØŃÙħØ¯ Ø¹ÙĦÛĮ
ĠÙģØ±Ø§ ÙĪØ±Ø¯Ùĩ
ĠØªÚ©Ø° ÛĮØ¨
ĠØ§Ø² Ø¯ÛĮ
ĠÙĦ Ø¬
ĠÙħØ¹ ØªÙħ
Ø§Ùģ Ø²Ø§ÛĮÛĮ
ĠØ¯Ø§ÙĨ Ø§
ĠØªÙĪØ± ÙħÛĮ
ĠØ¬Ø³Øª Ø¬ÙĪ
ĠÚ¯ÛĮÚ¯ Ø§Ø¨
ĠÙħØ®Ø§Ø·Ø± Ø§Øª
Ø± Ø¯Ùĩ
ĠÙħ ÙĦØ§ÛĮ
Ø´ Ú¯ÛĮ
Ú¯ Ø²Ø§Ø±Ø´
ĠÙĨ Ø§Øµ
ĠÙĨ Ø§Ø±Ø³
ĠØ´ Ø·Ø±
ĠÙĤ Ø§Ø³Ùħ
ĠØ§ÙĦ Ú©
ĠÙħØªÙĪÙĦÛĮ Ø§ÙĨ
ĠØªØ´Ø±ÛĮÙģ Ø§Øª
ĠØ³ÙĪØ§ÙĨ ØŃ
ĠØ§Ø²Ø¯ÛĮ Ø§Ø¯
ÙĦ Ø±
ÙĩØ± Ø§ÙĨÛĮ
ĠÙ¾ÛĮ Ø§Ù¾ÛĮ
Û´ Û´
ĠØ¬ÙĦØ³ Ø§ØªÛĮ
ÙĨ ÙħØ§
Ùħ ÙĪØ³
ĠÙħ Ø¶Ø§
ĠØŃ ØªÙħ
ĠÛĮ Ø§Ø²Ø¯ÙĩÙħÛĮÙĨ
ĠÚ©Ø§Ø± Ø´
ĠØ§Øµ ØŃØ§Ø¨
ĠØ¯Ø³ØªÚ¯Ø§Ùĩ ÙĩØ§ÛĮ
ĠØ³ÙĪØ®Øª Ú¯ÛĮØ±ÛĮ
ĠØ§Ø±Ø² ÙĨØ¯Ùĩ
ĠÛ²Û°Û° Û°
ĠØ§Ø³ØªØ¹ Ø¯Ø§Ø¯
ĠÙĪÙĨ ÙĤÙĦ
ĠÙħØ³ÙĦ ÙħØ§ÙĨ
Ġ t
ĠØ¨ ØªÙĨ
ĠØ² ÙĪØ¯Ùĩ
ĠÙħØ¹ ÙĪÙĤ
ĠÙħØ¹ Ú©ÙĪØ³
ĠØ§ÙħØªÛĮØ§Ø² Ø§Øª
ĠÙĤØ³Ùħ ØªÛĮ
ĠØ³ÛĮÚ¯ÙĨ Ø§ÙĦ
Ġ s
ĠÙĤ Ø¨Ø±
ĠØ· ÙĪÙģ
ĠÚĨ ÙħÙĨ
Û¹ Ûµ
ÛĮØ§ ÙģØªÙĩ
ĠÙĨÙħ Ø§Ø²
Ú¯Ø°Ø§Ø± ÙĨØ¯
ĠØ´Ø§ÛĮ Ø¹Ùĩ
ĠØ´Ø±ÛĮ ÙģÛĮ
ĠØŃ Ø¨Ø³
ĠØ§ÙĨ Ø·
ĠØµÙĨØ¹Øª Ú¯Ø±Ø§ÙĨ
ÙĨØ§ÙĨ Ø³
ĠÙĨÙĩØ§Ø¯ ÛĮÙĨÙĩ
ĠÚ©ÙħÙ¾ Ø§ÙĨÛĮ
ĠØ§Ø³ØªÛĮ Ø¶Ø§ØŃ
ĠÛĮØ¯ Ú©ÛĮ
ĠÙĪ Ø¯ÛĮ
Ø§Ø¯ ÙĦÛĮ
ĠÙĪØ§ Ø¶
ĠØ¹Ø´ Ø§ÛĮØ±ÛĮ
ĠØ¨Ø±Ø¯Ø§Ø± ÛĮÙħ
ĠÚ© ÙĦØ§Ùħ
ĠØ¨Ø§ Ú©
Ø¬ ÙĪÛĮ
Ø¶ Ø¹Ùģ
ĠÛĮ ØŃÛĮÛĮ
ĠØ¯ÛĮ Ø³Ù¾
Ø§ÙĤ Øµ
ĠØ´ÙĨ ÙĪØ§ÛĮÛĮ
ĠØ¯ÙĪØ±Ùĩ Ú©
ĠÛ±Û² Û´
ĠÙ¾ÙĪØ´ Ø§Ú©
ĠÙħØ±Ø² ÙĩØ§
ĠØ®Ø§Øª ÙħÙĩ
ĠØ¯Ø§ÙħÙ¾ Ø²Ø´Ú©ÛĮ
Ø¨Ø± Øª
ĠÚ©ÙĪ Ø«Ø±
ĠØ®Ø± Ø¬
ĠÛ²Û¸ Û°
ĠÙħÛĮØ§ÙĨØ¯ ÙĪ
ĠØ´Ø§Ø¹ Ø±
Ø§ÙĨ ÙĪÛĮ
Ø¨ ÛĮØªÛĮ
ĠØ¢ Ùĩ
ĠØ¢Ùħ ÙĪØ²ÛĮ
ĠØ¬ÙĨ Ø§Ø¨Ø¹
ĠÙģØ±Ø§ÙĨ Ú©
ĠÙĦØ§ ÙĪØ§ÙĨ
ĠØŃØ± Ø§Ø±Øª
ĠØ²ÙĪØ¯Ùĩ ÙĨÚ¯Ø§Ùħ
ĠØ¬ÙĨØ§Ø¨Ø¹ Ø§ÙĦÛĮ
ĠÙĨÙĪ Ø§ÙĤØµ
ĠØ´Ø§ÙĨ Ø²
ĠØ³ÛĮØ± Ø§Ùģ
ĠÙ¾ÛĮØ´Øª Ø§Ø²
ĠØ® Ø±Ø³
Ø§Ùĩ Ø±Ø§
ĠØ² ÛĮÙĨ
ĠØ¨Ø§Ø² Ø¯Ùĩ
ĠÙħØ³Øª Ø¶Ø¹Ùģ
ĠÙģÙĪ ØªØ¨
ĠØ®Ø³ Ø±ÙĪ
ĠÙħØ§ÙĨØ¯ Ú¯Ø§Ø±ÛĮ
ÙĪÙĨØª ÙĪØ³
ĠÙħÚ©Ø§ÙĨÛĮ Ø²Ùĩ
ĠÚ© Ù¾Ø³ÙĪÙĦ
Ø¹ Ú©Ø³
ĠÙħØ¹ Øµ
ĠØ³Ø§Ø² Ú¯Ø§Ø±ÛĮ
Û¹ Û¶
ĠØ° ÛĮÙĨ
ĠØ§Ø±Ø²Ø´ ÙħÙĨØ¯ÛĮ
ĠÙģØ±Ø¢ ÛĮÙĨØ¯Ùĩ
ĠÙħØ¹ÙĦ ÙĪÙħ
ĠØ±Ø§ÙĩØ¨Ø± Ø¯ÙĩØ§ÛĮ
ĠØ®Ø§Ø· Ø±Ùĩ
ĠÙħØ¶Ø§ Ø¹Ùģ
ÙĤ ÙĦÛĮ
ĠØŃ Ø±Ú©Ø§Øª
ÙĨØ§ Ù¾Ø°ÛĮØ±
ĠØ§Ø¬ ÙħØ§Ø¹
ĠØ´Ø§ Ú©ÛĮ
ĠØ¨Ø§Ø²ÛĮÚ©ÙĨ ÛĮ
ĠØ¨Ø±ÙĨØ¯Ùĩ Ø§ÛĮ
ĠØ§Ø³ÙĨ Ù¾
ĠØ¨ Ø´ÙĪØ¯
ĠØ² ÙĪØ±
ĠÚ¯Ø²Ø§Ø±Ø´ Ø§Øª
ĠØ¯ÛĮ Ø²ÙĦ
ĠÙħØ³Øª Ø¹Ø¯
ĠØ§Ø³ØªØ± Ø§ÙħØ§
ĠØ´Ø·Ø± ÙĨØ¬
ĠØ² Ø§ÙĦÛĮ
ĠÙħÙĤ Ø§
Ø±Ø³ ÙħÛĮ
Ø´Ùħ Ø§Ø±
ĠÙħØ¹ØªÙĤØ¯ ÛĮÙħ
ĠÙħØ§ÛĮ Ú©
ĠÙĨÙĪØ² Ø§Ø¯
ĠÚ¯Ø§ÙĦ ÙĪØ§ÙĨÛĮ
ĠÙĩØ±Ú© Ø¯Ø§Ùħ
ĠÙĨ Ø¯ÙĩØ¯
ĠØ± Ø¶Ø§ÛĮ
Ø§Ùħ ØªÛĮ
ĠØ±Ø§ Ø¬Ø¹
Ø¦ ÙĪÙĦ
Ø¢ ÙĦ
ĠØ§ÛĮÙĨÚ©Ùĩ Ú©ÛĮ
ĠØ¨Ø§Ø² Ø¯Ø§Ø±
ĠÛĮØ§ÙģØª Ú¯Ø§ÙĨ
ĠÙĦØ§ÛĮ Ø±ÙĪØ¨ÛĮ
ĠÙĨØ¨ÙĪØ¯ ÙĨØ¯
ĠØ¯Ø±Ø¢Ùħ Ø¯ÙĩØ§
ĠØ¨ÛĮØ¯ Ø¨ÙĦÙĨØ¯
ĠØ¨Ú¯Ø°Ø§Ø± ÛĮÙħ
ÙĪ Ø§Ø³
ØŃ Ø§ÙĦ
ĠÙĨÛĮ Ø§ÙģØª
ĠØ¸ Ø§ÙĩØ±Ø§
ĠØ¢ÙĨÙĩØ§ Ø³Øª
ĠØªØ¨ ÙĦØª
ĠÙĤØ§ÙĨ Ø¹
Ø³Ù¾ Ø§Ø±ÛĮ
ĠÙĩÙħØ¬ ÙĪØ§Ø±
ĠÙħÙĨØ³ Ø¬Ùħ
ĠØ«Ø§ÙĦ Ø«
ĠÚ¯Ø§ÙĦÙĪØ§ÙĨÛĮ Ø²Ùĩ
ĠØ¨ÛĮ Ø§ÛĮÙĨØ¯
ĠÙģØ± Ø§Ùĩ
ĠÚ©Ùħ Ø±
ĠÙĨÙĪ Ø´
ĠØ¢Ø²ÙħØ§ÛĮØ´ Ø§Øª
ĠÚĨØ§ÙĦ ÙĪØ³
âĢı âĢĮ
ĠÙ¾ÙĦØ§ Ø³Øª
ĠØ¬Ø²ÛĮÛĮ Ø§Øª
ĠÚ© ØªØ¨ÛĮ
ĠØ®Ø· Ø§
ĠØ·Ø¨ Ø§Ø·
ĠÚ©Ø§ Ø¸Ùħ
ĠØ¨ÙĪ Ø¬ÙĪØ¯
ĠØ®ÙĨ Ø«ÛĮ
ĠÙĨ Ø§Ø¯Ø±ÛĮ
ĠØ¨Ø¯ ÙĪ
ĠÙĦÙĪ Ú©
ĠØ´ÙĩØ±Ú© Ø±Ø¯
ĠØ¬Ø³ ÙħØ§ÙĨÛĮ
ĠØ±Ø² Ø±ÙĪ
ĠØ§Ø³Øª Ùģ
ĠÙħØ¨ ØŃ
Ø§ÙħÛĮ Ú©
ĠØ·ÛĮ ÙĪØ±
ĠØ¢ÛĮ ÙģÙĪÙĨ
ĠØ®ÙĪØ§ÙĨ Ø¯Ùĩ
ĠÙ¾ÙĦÛĮ ÙħØ±ÛĮ
ĠÙħÙĪØ± Ø¯ÛĮ
ĠØªÚ©Ø± ÛĮÙħ
ĠÛĮØ® ÚĨØ§ÙĦ
ĠØ¬Ø§Ø³ Ú©
ĠØ¨Ø± Ø¢ÙĪØ±
Ø§Øª ØŃ
ĠÙĨØ´ ÛĮÙĨÛĮ
ĠÙĦÛĮ ÙĪØ±
ĠÚ©Ø§Ø± Ú¯Ø§ÙĩÛĮ
ĠØ§Ø¹ ØªØµ
ĠØ§ÙĨØ¨Ø§Ø± ÙĩØ§
ØŃ Ø±
ĠØ¯ÙĦ Ø§ÛĮÙĦÛĮ
ĠØºÛĮØ± ÙģØ¹Ø§ÙĦ
ĠØ¨Ø§Ø± Ø²
Ú¯ÙĪÛĮ Ø§ÙĨ
ØªØ§ Úĺ
u r
ĠÙģ ØªØ§
ĠØ· Ø§Ø±
Ø§ÙĨÛĮ Ø§ÛĮÛĮ
ĠÚĨ Ø´
ĠØ§Ø³ Ú©ÙĪ
ĠØ±Ø³ ÙĪÙĦÛĮ
Ø¯Ø§Ø¯ ÙĨØ¯
ĠÛ±Û± Û²
ĠØ¹ÙħÙĦÚ©Ø±Ø¯ ÛĮ
ĠØ®ÙĪØ§ÙĨ ÙĨØ¯Ùĩ
ĠÙ¾Ø´ØªÛĮ Ø¨Ø§ÙĨ
ĠÙģØ§ÛĮ ÙĨØ§ÙĨØ³
ĠØ±ÙĪÙĨØ§ÙĦØ¯ ÙĪ
ÙĪ ÙĪØ¯
ĠØ§Ø³Øª ØŃØµ
ĠØ®ÙĪØ§Ùĩ ÛĮØ¯
ĠÚ©Ùħ Ø¨
ĠÙħØµ ÙĦØŃ
ĠØªÙħ Ø¯ÙĨ
ÙħØ¯ Ø§Ø±ÛĮ
ĠÛ±Û³ Û³
ĠÙħØ³Ø§ÙģØ± Ø¨Ø±ÛĮ
ĠØ´Ø¹ Ø±ÛĮ
ĠÙ£ Ùł
ĠÙħØ·Ø¨ÙĪØ¹ Ø§Øª
ĠØ§Ø¨Ø· Ø§ÙĦ
Ø³ Ø±ÛĮ
Ø³ Ø§Ø±ÛĮ
ĠØ§Ø³Øª Ø±ÛĮÙħ
ÚĨ ÙĪÙĨÛĮ
ĠÙħÙĨ Ø§Ø¸
ĠØ¬Ùħ Ø§ÙĦÛĮ
ĠØ´Ú© Ø³ØªÙĩ
Ù¾ÛĮ ÙĪÙĨØ¯
ĠØ³Ø±Ø· Ø§ÙĨÛĮ
ĠØªØ§Ø¨ÙĦ ÙĪÙĩØ§ÛĮ
ĠÚ¯ÙĦØ§ÛĮ Ùĩ
ĠØ³ ÙĦÙģ
ĠÙĩ Ø±ÛĮÚ©
ÙĪØª Ø±Ø§Ù¾ÛĮ
Ø¢ÙĪØ± ÙĨØ¯
ĠØ¨ÙĩÚ© Ø¯ÛĮÚ¯Ø±
ĠØ³Ø®ÙĨ Ø§ÙĨÛĮ
ĠØ±Ø¬ ÙĪØ¹
ĠØ¨Ø²Ø±Ú¯Ø³Ø§ÙĦ Ø§ÙĨ
ĠØ¨Ø±ÚĨ Ø³Ø¨
a d
Ø§ ÙĪØ§
Ø¯ ÛĮØ±
ĠØ¨ Ø®ÙĪØ§ÙĩÙĨØ¯
ĠÙĩ Ù¾
ĠÙģ Ùĩ
ÙĨØ§ Ø¹
ĠØªÙĤ ÙĪÛĮÙħ
ĠØ³ÙĪØ¯ Ø§ÙĨ
ĠÙĨÛĮØ±ÙĪÚ¯Ø§Ùĩ ÙĩØ§
ĠÙ¡Ù ¡
ĠÚ©Ø§Ø¨ ÛĮÙĨ
ĠØ±Ø²Ùħ Ø§ÛĮØ´
ĠÚĺÙĨØªÛĮ Ú©ÛĮ
ĠÙĨ ÙĪØ±Ø¯
ĠÙħØŃ Ú©Ùħ
ĠØ´ÛĮØ± ÙĩØ§ÛĮ
ĠÙħØŃÙħ ÙĪØ¯ÛĮ
ĠØ§ÙħØªÛĮ Ø§Ø²ÛĮ
ĠØ§Ø¨Ø²Ø§Ø± ÛĮ
ĠÙħÙĩØ§ Ø¨Ø§Ø¯
ĠÙ¾Ùĩ Ù¾
ĠØ³ÙĦÛĮ ÙħÛĮ
Ø¨ ÙĩØ§
Ø§Ø¯ ÙĪØ±
ĠØ¢Ùħ Ø§Ø²ÙĪÙĨ
ĠØ¬Ùħ Ø§ÙĦ
ĠØªØ§Ø¨ Ø´
ĠÙĩÙħÛĮ Ø´Ú¯ÛĮ
ĠØªØ´ÙĪÛĮ ÙĤÛĮ
ÙĨØ´ÛĮÙĨ Ø§ÙĨ
ĠØ§ÙĨØ¯Ø§Ø®Øª Ùĩ
ĠØ§ÙĦÚ¯ÙĪ ÙĩØ§ÛĮ
Øº Ø§ÙĦÛĮ
Ûµ Û°Û°
ĠØ¨Ø§Ø²Ø§Ø± ÛĮ
ĠÛ±Û² Û¸
ĠØ§ØµÙĦØ§ØŃ ÛĮÙĩ
ĠÛ±Û³Û¹ Û²
ĠØ±ÙĪØ´ ÙĨÛĮ
ĠÚĨØ´Ùħ Ùĩ
ĠØ³Ø±Ù¾Ø± Ø³ØªÛĮ
ĠÙħØ®Ø§Ø· Ø±Ùĩ
ĠØªØ±Ø§ÙĨØ² ÛĮØªÛĮ
ĠØ²Ø® ÙħÛĮ
ĠÙħÛĮØ§ÙĨØ¯ÙĪ Ø¢Ø¨
ĠØ§Ø³ØªØ±Ø§ÙħØ§ ÚĨÙĪÙĨÛĮ
) .
Ø¯ Ø§ÙĦ
Ú¯ÛĮØ± ÛĮÙħ
Ø¨Ø§Ø² Ø§Ø±
ĠØ®ÙħÛĮÙĨ ÛĮ
Ø¬ ÙħÛĮ
ĠÙĤ Ùģ
ĠØ² Ø¹
ĠØ³Ø§ÙĦ ÛĮØ§ÙĨ
ĠØºÛĮØ± Ø±Ø³ÙħÛĮ
ĠÙĨÙĩ Ø¶
ĠØ®Ø± Ø§Ø¨
ĠÙĨÛĮØ±ÙĪÚ¯Ø§Ùĩ ÙĩØ§ÛĮ
ĠØ®ÛĮØ± Ø§ÙĨ
ĠÙ¾ÙĦÛĮ Ø³ÛĮ
ÙĪØªÛĮ Ú©
ĠØºÙĦØ§Ùħ ÛĮ
ĠÚ©Ø§ØºØ° ÛĮ
ĠÙĪÛĮØ¯Ø¦ ÙĪÛĮÛĮ
ĠØªØ§Ø¬ÛĮÚ© Ø³ØªØ§ÙĨ
Ú© ÛĮÙħ
ĠÙĨ ÙĪØ¯
Ø±Ø¯ ÙĨ
ĠØ¹ Ø±Ùģ
ĠØ³Ø± ÙĪØ±
ĠÚ¯Ø± Ø§ÛĮÛĮ
ĠÙĨØ¸ Ø±ÛĮÙĩ
ĠÙħÙĨØ·ÙĤÙĩ Ú©
ĠÙĪØ± Ø´Ú©
ĠØ¬Ø§ÛĮÚ¯Ø§Ùĩ ÛĮ
ĠØ§ÙĨØªÙĤØ§Ø¯ Ø§Øª
ÙĪ ÙģÛĮ
ĠØ³ ÙģØªÙĩ
Ø§Ø¨ Ø±Ø§Ùĩ
Ø¦ ÛĮÙĨÛĮ
ĠØ§ÙĦ ÙħØ§ÙĨ
ĠØ¬ÙĦ Ø§ÙĦ
ÙħØ§Ùĩ Ø§
ĠØ®Ø§Ø·Ø± Ø§Øª
ĠØ¯Ø³ØªÙĪØ± Ø§Øª
ĠÛ±Û¹ Û¶
ĠÛ²Û°Û° Û¸
ĠÚ¯Ø±Ùħ Ø§ÛĮØ´ÛĮ
ĠÙĩÙħØª Ø§ÛĮ
ĠØ²Ø§ÛĮ ÙħØ§ÙĨ
ĠÙħØ·Ø¨ÙĪØ¹ Ø§ØªÛĮ
Ø§ Ø³ØªØ§ÙĨ
ĠØ¯ ÙĪØ±ÛĮ
Ø¨ Ø³Øª
ĠØ¢ Ø²Ø§Ø±
ĠØ· ÙĦØ¨Ø§ÙĨ
ĠØªØŃ ÙĪÛĮÙĦÛĮ
ĠÙĪØ² ÙĨÛĮ
ĠÙĨÙħ Ø±Ùĩ
ĠØ¨ÛĮÙħØ§Ø± Ø§ÙĨÛĮ
ĠÛ²Û°Û± Û±
ĠÛ²Û² Û³Û±
ĠÙģØ±Ø§ÛĮ ÙĨØ¯ÙĩØ§ÛĮ
Ø¨Ø® Ø´Ø¯
ĠØ·Ø¨Ø§Ø· Ø¨Ø§ÛĮÛĮ
Ø³ ÙĪØ§Ø±ÛĮ
ĠÙĪ Ùģ
Ø¨ ÙĪØ±ÛĮ
ĠØ® ÛĮØ²
ĠØ§ÛĮÙĨ Ú©
ĠÙģ Øª
ĠØ¹ Ø§Ø¯Øª
ĠØ±Ø³ ÙħÛĮØª
ÙĪØ³Øª Ø§ÙĨÙĩ
ĠÙħØ§ÛĮ Ø¹Ø§Øª
ĠØ¨Ø±Ú¯Ø² ÛĮØ¯
ĠÙħÙĤØ§ ØµØ¯
Ø§ ÙĪØ±Øª
Ø¨ Ø³ØªÚ¯ÛĮ
ØŃ Ø¯ÙĪØ¯
Ø§Øª ÙĦ
ĠÙħÙĪ ÙħÙĨÛĮ
ĠÛĮÚ© ÙħÛĮÙĨ
ÙĪØ¹ ÙĦÛĮ
ĠØ§ØŃ ÙĪØ§ÙĦ
ĠÙĨØ§ Ø§Ùħ
ĠÛ²Û°Û± Û²
ĠØ§ÙĦÙħÙ¾ ÛĮØ§Ø¯
Ø²Ø§ÛĮ ÙħØ±
ĠØ±Ø· ÙĪØ¨Øª
ĠØ§Ø³ØŃ Ø§ÙĤ
Ø³ ÙĨÚ¯
Ø³ÛĮ ÙĦÙĪ
ÙĪÙĨÛĮ Ú©
ĠÙ¾Ø± ÙĨØ¯Ùĩ
ĠØ§Ø³ØªØ§Ø¯ Ø§ÙĨ
Ø®ÙĪØ±Ø¯ Ú¯ÛĮ
ĠØ¯ÛĮÙħ Ø§Ùĩ
ĠØ¬ÙĨØ¨ Ø´
ĠØ§Ø±Ùħ ØºØ§ÙĨ
ĠÙģØ±Ø§Ùĩ Ø§ÙĨÛĮ
ĠÙħØ¨ØŃ Ø«
ĠÙħ ÙģØª
ĠÙĤ ØµÙĩ
Ø§Ø³ Ø¯
ĠØ¢ÙĨ Ú©Ø§Ø±Ø§
ĠÚ©Ø´ ÛĮØ¯ÙĨ
ĠØ¨ÛĮÙĨ Ø¯
ĠØ±Ø§Ùĩ Ú©Ø§Ø±ÛĮ
ĠØ´ÛĮ ÙģØª
ĠØ¬ÙĨÚ¯ ÙĦÛĮ
ĠØ³ÛĮØ¯ Ø§ÙĦ
ĠØªÙĩØ¯ÛĮØ¯ Ø§Øª
ĠØ§ÙĨØ¯ÛĮ Ø´ÛĮ
ĠÙ¾ÛĮØ´Ú©Ø³ÙĪØª Ø§ÙĨ
ĠÙĨØ± Ø®ÛĮ
ĠÚ©Ø§Ùģ Ùĩ
ĠØ¹ÙĤÛĮ Ø¯Ùĩ
ĠØ¨ÛĮ ÙĦ
ĠÛ³ Û²Û°
ĠÙħÙģ Ø§Ùĩ
ĠØ§ÙĨØ· Ø¨Ø§ÙĤ
ĠØº Ùħ
ĠØ¬Ùħ Ø´
ĠØ¢ÙĦ Ø²Ø§ÛĮÙħØ±
ĠÙħØŃÙħØ¯ ØŃØ³ÛĮÙĨ
ĠÙĨÙħØ§ÛĮØ´Ú¯Ø§Ùĩ ÛĮ
ĠØ±ÙĪØ§ÙĨ Ø´ÙĨØ§Ø³ÛĮ
ĠÚ©ÙĦØ§Ùĩ Ø¨Ø±Ø¯Ø§Ø±ÛĮ
Ø§ Ø¹Øª
Ùĩ ÛĮÙĨ
ĠÙĨ Ø§Ø²
Ø¯Ø§ Ø¹
ĠØ§Ø¬ Ø²Ø§ÛĮ
Û¹ Û°
ĠÙ¾Ø±ÙĪ ÛĮØ²
ĠØ®Ø±Ùħ Ø´ÙĩØ±
Ø³ Ø±Ø§
Ø® Ø±ÛĮØ¯
ÙĪØ¯ ÙĪ
ĠÙħÙĪ Ø§ØµÙĦ
ĠØ§Ø³Ø§Ø³ Ø§
ĠØ´ÛĮØ± ÛĮÙĨÛĮ
ĠØ´ÙĪ ÛĮÙĨØ¯Ùĩ
ĠØ±ÙĪØ³ ÙĨÙģØª
ĠØ¯ ÙĨØ§
ĠÚ¯ ÙĪØ±
ĠÛĮ Ú¯Ø§ÙĨ
ĠØ¢ÙĨ Ø§ÙĦÛĮØ²
ĠÙĦ Ø§ØªÛĮÙĨ
ĠÚ¯Ø± Ø§Ùħ
ĠØ¯Ùĩ ÙĤØ§ÙĨÛĮ
ĠÙĨØ¸Ø± Ùħ
ĠÛ±Û¹ Ûµ
ĠÙħÙĪØ§ØµÙĦ Ø§ØªÛĮ
ĠØŃ Ø§ÙħØ¯
ĠÙĤ Ø±ÛĮØ¨
Ú©ÛĮ Ù¾
ĠØ³Ø§Ø²ÙħØ§ÙĨ Ø¯ÙĩÛĮ
Ø¯Ø§ÙĨ ÛĮØ¯
ĠØ´ÛĮ Ø¨
ĠÙ¾ÙĨ Ø³ÛĮÙĦÙĪ
ĠØ¨Ø§ÙĤ Ø±
ĠØ¢ÙģØ±ÛĮÙĤ Ø§ÛĮÛĮ
ĠÙĦÛĮÙĪØ± Ù¾ÙĪÙĦ
ĠØ§ ÛĮÙĦ
Ú© Ø§Ø±Øª
ÙĦÛĮ ÙĪÙħ
ĠÙĪÛĮ ÙĦ
ĠØªØŃ ÙĪÙĦÛĮ
ÙĪØ³ Ø§Ø²
ĠØ¯Ùĩ ÙħÛĮÙĨ
ĠÛ±Û° Û³
ĠÛ±Û´ Û·
ĠÚ©Ø§Ùħ ÙĦÛĮ
ĠÙħØ§ÛĮ Ú©Ø±ÙĪ
h e
Ø´ ÙĪÛĮØ¯
ĠÙħØ¬ Ø§ÙĪØ±Øª
ĠÛ±Û° Û´
ĠØªØ³ ÙĦÛĮÙħ
ĠØ±Ø§ÙĩÚ©Ø§Ø± ÙĩØ§ÛĮÛĮ
ĠÚ¯Ø³Øª Ø±Ø¯Ú¯ÛĮ
ĠÙĦÛĮÙĨ Ú©
ĠÙħØ®ÙĦ ÙĪØ·
ĠÙħØµÙĦØŃ Øª
ĠØ³ÛĮØ¯Ø§ÙĦ Ø´Ùĩ
u s
ĠÚ© ÙĦØ§
ĠÚ¯ Ø§Ø±Ø¯
Ø±ÙĪ ÙĦ
Ù¾ Ø²
ĠØ³Ø§Ø² Ú¯Ø§Ø±
ĠØ±ÙĪØ² Ø§ÙģØ²
ĠÚ©ÙĪØ¯ Ú©ÛĮ
ĠØ¨Ø§Ø¨ Ú©
ĠÙĦØ§Ø±ÛĮ Ø¬Ø§ÙĨÛĮ
ĠØºÙĦ Ø¸Øª
ĠØ¬ÙĩØ± ÙħÛĮ
ĠÙĨ Ø´ØªÛĮ
ĠØ±Ø³ ÙħØ§
ĠÙĨØ§ Ø¸Ø±Ø§ÙĨ
ĠØ³Øª Ø§Ø±
ĠØ²ÛĮØ±Ø³Ø§Ø®Øª ÙĩØ§ÛĮ
ĠØ³Ø§Ø®ØªØ§Ø± ÙĩØ§ÛĮ
ĠØ¯ÙĨØ¯Ø§ÙĨ Ù¾Ø²Ø´Ú©ÛĮ
ĠØ¨ÙĦØ§ Ø¹
ĠØ§ÙħØª Ø¯Ø§Ø¯
ĠØ®ÙĪÛĮ Ø´
ĠØ¨Ø§ Ø¨ÛĮØ§ÙĨ
ĠÚ©Ùĩ ÙĨ
ĠØµ ÛĮ
ĠØªØ¹ Ø§Ø±Ø¶
ĠØ´Ùħ Ø³
ĠØ²ÙħØ§ÙĨ Ø¨ÙĨØ¯ÛĮ
ĠÛ¸ ÛµÛ°
ĠØ¯Ø±ÛĮØ§ÙģØª ÙĨØ¯
ĠÛ±Ûµ Û±
ĠÙħØ±Ø§Ø¬ Ø¹Ø§Øª
ĠÙħÙĤØ± ÙĪÙĨ
ĠØ¨Ø§ÙĦØ§ Ø®Ø±Ùĩ
ĠÙĨÙĪØ´Øª ÙĨ
ÙħØ¹ Ø§Ø¯ÙĦ
ĠÚ¯ÙĨØ¯ Ø²Ø¯Ø§ÛĮÛĮ
ĠØ§ÙĨØµ Ø±Ø§Ùģ
ĠØ·ÙĪÙģ Ø§ÙĨ
ĠØ±Ø¶Ø§ÛĮ ØªÙħÙĨØ¯ÛĮ
o f
ĠÙħ Ù¾ÙĨØ§
ĠØ³ ÙĨØ¯ÛĮ
ĠÙģ ÙĩÙħ
ĠØ¹ÙĦ ÙĪÛĮ
ĠØªÙĦØ§ Ø´ÛĮ
ĠØ±ÙģØª Ø§Ø±ÛĮ
ĠÙħØªÙĨ ÙĪØ¹ÛĮ
ÙģØ±ÙĪØ´ ÙĨØ¯
ĠØ¨ ÙĦÙĩ
ĠØ³Ø§Ø² Ø¯
ĠÙĨØ¨ Ø±Ø¯
ĠÛ²Û¶ Û°
ĠÚ¯ÙĨ Ø¨Ø¯
ĠØ·Ø±Ø§ØŃ Ø§ÙĨ
ĠÙħØ³ØªØ¶Ø¹Ùģ Ø§ÙĨ
Ùħ Ø®
ÙĦ Ø¨ÛĮ
ĠÚ© Ø§Ø³
Ø§ÙĦ ÙħÙ¾
Øµ ÙĦØ§ØŃ
ĠØ±ÙĪ ÙĨØ¯ÛĮ
ĠØ§Ø¹ Ø¸Ùħ
ĠØ®Ø· ÛĮ
ĠÙĨÛĮØ§Ø² ÙħÙĨØ¯ÛĮ
ĠØ´Ø§ÛĮ Ø¹Ø§Øª
ĠÙħØªÙĪ ÙģÛĮ
ĠÙģØ±Ø¢ÛĮÙĨØ¯Ùĩ Ø§
ĠØ³ ÙĪØ±ÛĮ
ĠØ§ÛĮÙĨ ÚĨÛĮ
ĠÙħÙĨ Ø¬
ĠØ§ÛĮ ÙĪØ§ÙĨ
ÙĪØª Ø³
ÛĮØ· Ùĩ
ĠØŃØ³Ø§Ø¨ Ø¯Ø§Ø±ÛĮ
ĠØ³ÙĦÛĮ ÙħØ§ÙĨ
ĠÙ¾Ø±Ø³Øª Ø§Ø±ÛĮ
ĠØ§ÙĨØ¯Ø±ÙĪ ÛĮØ¯
ĠØ§Ø³ØªØŃØµ Ø§ÙĦ
ĠØ¨Ø§ Ú©ÛĮÙģÛĮØª
Ø§Ùĩ Ø¯Ùĩ
ĠÙĤ ÙĦÛĮ
ĠØ¯Ø³Øª ÙĪØ±ÛĮ
ĠÙħØ³Øª Ø«ÙĨÛĮ
ĠØ§Ø«Ø± Ú¯Ø°Ø§Ø±ÛĮ
ĠØ®Ø§Øµ ÛĮØª
ĠÚ©Ø´Ø§ÙĪØ± Ø²
ĠÙ¡Ù ©
ĠØ¯ÛĮÙ¾ÙĦÙħ Ø§Øª
ĠÙħÙĤØ· Ø¹ÛĮ
ĠÙħØ¸ ÙĦ
Ø§ÛĮ Ø±Ø§ÙĨ
ĠÙģ Ø§Ø´
ĠØŃ ÛĮØ·Ùĩ
ĠÙĪØ§ Ø¹
ĠÙħØ¨ ÙĨØ§
ĠÚĨÙĩØ§Ø± ÚĨ
ĠÛ±Û° Û¸
ĠÙĩÙħÛĮÙĨ Ø·ÙĪØ±
ĠÙĨÙĩ Ø§Ø¯ÛĮ
Ú©ÛĮÙĦ ÙĪÚ¯Ø±Ùħ
ĠØ®ÛĮ Ø§ÙĦ
ĠØ¨Ø³ØªØ± ÙĩØ§ÛĮ
ĠÙ¾ÙĨØ³ÛĮÙĦÙĪ Ø§ÙĨÛĮØ§
Ø± Ú¯
ÙĨ Ø§ÙĨÛĮ
ĠØ¯ Ù¾
ĠÙĨ Ø±Ø³ÛĮØ¯
ÛĮÙħ Ùĩ
Ø±ÙĪ ÚĺÙĨ
ĠØ§Ø³ØªØ§ÙĨ Ø¨ÙĪÙĦ
ĠÚ¯Ø±ÙģØª Ùħ
ĠÚ¯Ø±Ø¯ ÛĮØ¯Ùĩ
ĠØŃØ§ÙĦÛĮ Ø³Øª
ĠØ§ÙħÛĮØ± ØŃØ³ÛĮÙĨ
ĠØ¢Ù¾ Ø§Ø±ØªÙħØ§ÙĨ
ĠÙĨØ§ÙĨÙĪ Ø§ÛĮÛĮ
ĠÙħÛĮØ§ÙĨØ¯ Ø´Øª
ĠØ³Ø¬ Ø§Ø¯ÛĮ
o p
Ø§Ø² Ø§Ø¯Ùĩ
ĠÙħÙĨ Ø§Øª
ĠØªØ¹ Ø¨ÛĮÙĩ
ĠØ° Ø§ØªÛĮ
ĠÛ±Û³Û¹ Û³
ĠÚ©ØªØ§Ø¨ Ø®ÙĪØ§ÙĨÛĮ
ĠØªÛĮØ± Ø§ÙĨØ¯Ø§Ø²ÛĮ
ĠÛ²Û± Û°
ĠØ¨ÙĪ Ú©
ĠØ±Ú¯ Ø¨Ø§Ø±
ĠØ§Ø³Ú©ÙĨ Ø§Ø³
ĠØ§ÙĤÛĮØ§ÙĨ ÙĪØ³ÛĮ
ĠØ§ÙĨØ¨Ø§ Ø´ØªÙĩ
ĠÚ©ÙĦØ§Ø³ÛĮ Ú©
ĠÙħÙĨØ§Ø¸ Ø±Ùĩ
ĠØ¯Ø± ÙĩÙħ
ĠÙħØ¹ Ø§ÙĩØ¯Ùĩ
ĠØ§Øµ Ø§ÙĦØª
ĠØ¬Ø§ÙĨ ÙħØ§ÛĮÛĮ
ĠØ¨Ø³Øª ÙĨ
Ø¹ÙĦ ÛĮØ±
ÙĨÙħØ§ÛĮ Ø¯
ĠØ§Ø¨ÙĩØ§Ùħ Ø§Øª
Ø± Ø§ÙĦ
Ø¨ Ø³ØªÙĩ
Ø§Ø³ Ø±
ĠÚ©Ø§Ø± Ø§
ĠØ¬ÙĨ Ø§ÛĮØª
ĠØ³ÙĪØ¯ Ø§
ĠØ§Ø±Ø¯ ÙĨ
ĠÙħØ±Ø§Ø¬Ø¹ Ø§ÙĨ
ĠÙħØ§ÙĩÛĮ Ø§ÙĨÙĩ
ĠØ²ÙĨØ¯ Ø§ÙĨÛĮ
ĠØ¨Ø¨ÛĮÙĨ ÙĨØ¯
ĠÙħÙĪØ´ Ú©ÛĮ
ĠØ®Ø±Ø³ ÙĨØ¯ÛĮ
ĠØ¹ Ø§Ø¨
ĠØ§Ùģ Ø±Ø§
ĠÙĪÛĮ ÙĦÙħ
ĠÙĦ Ú©Ùĩ
ĠØ¯Ø³ØªÙĪØ± Ú©Ø§Ø±
ĠÙ¾ÙĦ ÙħØ¨
ĠÛĮØ§Ø¯Ø¢ÙĪØ± Ø´Ø¯
ĠØ§ÙĤØª Ø¯Ø§Ø±
ĠØ²Ø¹ ÙģØ±Ø§ÙĨ
Ø¹ Ø¨ÛĮ
Ø§ÙĦ Ø§Ø³ÙĦØ§Ùħ
ĠÙĨÙħØ§ÛĮ Ø§ÙĨ
ĠÛ±Û° Û±
ĠÙ¾Ø±Ø³ Ø´ÛĮ
ĠÙ¾Ø°ÛĮØ± Ø¯
ĠØ¬ÙĪ Ø§ÙĩØ±
ĠØ§ÙģØªØªØ§ØŃ ÛĮÙĩ
ĠØ³Ø±Ø® Ù¾ÙĪØ´Ø§ÙĨ
ĠØ¨ÙĦØ§Ø¹ ÙĪØ¶
ĠØ® Ø´Ùħ
ĠØ¯Ø³ØªÚ¯Ø§Ùĩ ÛĮ
ĠØ¨Ø§Ø´Ú¯Ø§Ùĩ ÛĮ
ĠØªØ¹ÙħÛĮØ± Ø§ØªÛĮ
ĠØ¨Ø§Øº Ø¨
ĠØ¨Ø® Ø§Ø±ÛĮ
ĠÙħØªÙĪ Ø§Ø²ÙĨ
ÙĤØ§ÛĮ ÙĤÛĮ
ĠØ¨ ÙĪØ¹ÙĦÛĮ
Ø³ ÙħÛĮ
Ùģ Ú©Ø±ÛĮ
ĠØ³ ÙħÛĮÙĨ
ÙĪØ± Ø§
Ø® Ø§ÙĦ
ÙģØª Ú¯ÛĮ
ĠØªÙĤ Ø·
ĠÙ¡Ù §
ĠÙħÙĨØ¹ Ú©Ø³
ĠÙĨØ§Ø¨ ÛĮÙĨ
ĠÚ¯ÙĪÛĮ Ø§
ĠØ¹ÙĦØ§ÙĤ ÙħÙĨØ¯
ĠØ§Ø³ØªØŃ Ú©Ø§Ùħ
Ùģ Ø¶ÙĦ
ĠØµ Ø§Ùģ
Ù¾ Øª
ØªØ± ÙĩØ§ÛĮ
ĠÙ¾ÛĮ Ú©Ø±
ĠÙħØ¹ Ø¯ÙĪØ¯
ĠØ³Ø± Ú¯ÛĮØ±ÛĮ
ĠÙĪÛĮØ¯Ø¦ÙĪÚ©ÙĨ ÙģØ±Ø§ÙĨØ³
Ø¹ÙĦÛĮØ± Ø¶Ø§
ĠÙħ ÙĪØ¯ÛĮ
ĠØ´ ÙĪØ±ÛĮ
ØŃ Ø§Ùģ
ĠØ¨Ø± ÙĨØ²
ĠÙĤ ÙĪØ§
Ø®Øª ÙĨ
Ù¾ ÛĮÙħ
ĠØ¢ÙĨ ÙĤØ¯Ø±
ĠÙĨÛĮ ÙĦ
ĠØ¨Ø±Ø¯Ø§Ø´Øª ÙĨ
ĠÙĪØŃ Ø´Øª
ĠØ§ØŃØ³Ø§Ø³ Ø§Øª
ĠØ¬Ø¹ Ø¨Ùĩ
ĠÙħÚ©Ø§Øª Ø¨Ø§Øª
ĠÚ©Ø§Ø±Ø¢ÙģØ±ÛĮÙĨ Ø§ÙĨ
ĠÙĨÙĩØ¶ Øª
ĠØ±ÙĪØ²Ø§ÙģØ² ÙĪÙĨ
ĠØ¯ ÙĤØ§ÛĮÙĤÛĮ
Ø§ÛĮ Ø¯ÛĮ
ĠÙħØ± ØªØ¨Ùĩ
ĠØªÙĩ Ø§ØªØ±
ĠÙĩÙĪØ§Ù¾ÛĮÙħØ§ ÙĩØ§ÛĮ
ĠÚ©Ø§Ø±Ø¨Ø± Ø¯ÙĩØ§ÛĮ
ĠØ³ÙĪØ¡ Ø§Ø³ØªÙģØ§Ø¯Ùĩ
ĠØªØ§Ø¨ÙĦ ÙĪÛĮ
ĠÙħØ¹ÙĨØ§ Ø³Øª
ĠÙħÙĦØ§ØŃ Ø¸Ø§Øª
Ø¨ÙĪÙĦ Ø§ÙĨØ³
ĠØ³Ø¦ÙĪ Ø§ÙĦ
ĠÙĨÙĪØ¢ÙĪØ± Ø§ÙĨÙĩ
ĠØ¢ÙĨÚ¯ ÙĪÙĦØ§
ĠÙĪÛĮÙĦÙħ ÙĪØªØ³
ĠØµ Ø±Ø¨
ĠÙĨÛĮ Ø§Ùħ
ĠÙħØŃ Øµ
ĠØ¯ÙĪ Ø§Ùħ
ĠÙ¾Ø±ÙĪ Ø³Ùĩ
Ø§ÙĨØ³ ÙĪØ±
ĠÚ©Ø§ÙĨ ØªÛĮÙĨ
ĠØ´Ø§ÛĮ Ø§ÙĨÛĮ
ĠØ¬ÙħØ´ ÛĮØ¯ÛĮ
Ø´ Ø§ÛĮ
ĠØ® Ø§ÙĨÛĮ
ĠÚ¯Ø± ÙħØ§
ĠÛ±Û³ Û²
ĠÙħØ´Øª ÙħÙĦ
ĠÙħØŃØ¯ÙĪØ¯ ÛĮ
ĠØ¬ÛĮ Ø¨
ĠØ¬ÙĨÚ¯ ÙĨØ¯Ùĩ
ĠØ¯Ø±Ø¢Ùħ Ø¯Ùĩ
ĠØ§ÙĦØ¬Ø² ÛĮØ±Ùĩ
ĠØªÙĨØ¯ Ú¯ÙĪÛĮØ§ÙĨ
ĠØªÙĪÙĨ ÙĦ
ĠØ¯Ø®Ø§ÙĨÛĮ Ø§Øª
o v
ĠÙħ ÙĩØ±Ø§ÙĨ
ĠÙħÛĮÙĦÛĮÙĪÙĨ ÛĮ
Ú©ÙĦ Ø§ÛĮ
ĠØ·Ø±ØŃ ÙĩØ§
ĠØ§ØŃ Øµ
ĠÙĨØ³ Ø¨
ĠØ³ÙĨ ÙĪØ§Øª
ÙĪØ¦ ÙĦ
ĠØ¬ÙĪ Ø§ÙĨÛĮ
ĠØªØ³ ÙħÙĩ
ĠÙĨØ§Ø¨ ÙĪØ¯ÛĮ
ĠØªÙĪØ¦ ÛĮØª
ĠØ§ Ø¯ÛĮ
ĠÙĪ Ø§Ø¯Ø§Ø±
Ø§ÙĦ ØŃØ³ÙĨÙĩ
ĠØ¹ ÛĮØ§Ø±
ÛĮØªØ± Ø§ÙĨÙĩ
ĠØ¹Ø¶ ÙĦØ§Øª
ĠÙĪØŃ Ø´ÛĮ
ĠÙĨØªÙĪØ§ÙĨØ³Øª ÙĨØ¯
ĠÙĩÛĮØ¯Ø±ÙĪÚ©Ø± Ø¨ÙĪØ±ÛĮ
ĠØ¯ÙĪÛĮ Ø³Øª
ĠÙĪØ§Ø¶ ØŃ
Ø§ÙĦ Ø³
ĠÚ¯ Ùħ
ĠØ¨Ø± ÙĨ
ĠÙĨÙĤ Ø§ÙĩØª
ĠØ¬ÙĦ Ø§ÙĦÛĮ
ÙħØ± Ø§ÙĨÛĮ
ĠØŃØ° ÙģÛĮ
ĠÙħØ±Ø§ÙĤ Ø¨
ĠÚ©Ø§ÙĨØ¯ ÛĮØ¯Ø§
ĠØ§ÙħØªØŃ Ø§ÙĨØ§Øª
P S
ĠØ§ ÙĩØ±
ĠÙħ ÙĨØ¯Ø§ÙĨ
ĠØ³ ÙĦØ³
ĠØ¢ Ø±Ø¯
ĠØ§ÙĨ Ú©Ø§Ø±
ĠÙħØ¯ ÛĮØªØ±Ø§ÙĨÙĩ
ĠØº ÙĪÙĦ
ĠÙħØµ ÙĪÙĨ
ĠØ¨Ø¯ ÙĦÛĮÙĦ
ĠÙĨÙĪ ÛĮØ¯
ĠØ¨ÛĮØ´ ÛĮÙĨÙĩ
Ú©Ø³ Ø§ÙĦÛĮ
ĠØ´ÙĨØ§Ø³ Ùĩ
ĠÚ©Ø§Ø±ÙģØ± ÙħØ§ÛĮÛĮ
ĠØ¨ Ø¬ÙĨ
ĠØ¯ Ø¨ÛĮ
ĠÙĨÛĮ Ú©ÙĪ
ĠÙĨØ´ Ø³ØªÙĩ
ĠØ¨Ø§Ø² Ø¨ÛĮÙĨÛĮ
ĠØªØ± Ø§ÙĨØ³
ĠÙ¾Ø°ÛĮØ± Ùĩ
ĠØºØ± Ø§ÙħØª
ĠÙĨØ§Ø±Ø³ Ø§ÛĮÛĮ
ÙĨ Ùħ
ÙĦ Ø³ÛĮ
ĠÙ¾ Ø§Øª
ĠÙĩÙħ Ú¯Ø§Ùħ
ĠØ· ÙĦØ§ÙĤ
ĠÚ©ÙĨ Ø§Ø±Ùĩ
ĠØ´ÙĩØ± Øª
ĠÛĮÙĪØ³ Ùģ
ĠØ±Ø´ Ø¯ÛĮ
ĠÙħØªØ±Ø§ Úĺ
Ùĩ Ø§ÙĦ
ÙĪ Ø§Ùħ
Ùħ Ø±Ø¯
ĠØª Ø¸
Øµ Ø¨
ĠØŃ ÙĪÙħÙĩ
ĠØ¹ Ø§ÛĮÙĤ
ĠØªÙĪ ÙĩÛĮÙĨ
ĠØ§Ø¹ ØµØ§Ø¨
ĠØ¹ÙĦÛĮ Ø²Ø§Ø¯Ùĩ
ĠÚ¯Ø°Ø§Ø´Øª ÙĨØ¯
ĠØ¯Ø§ÛĮ Ø±Ùĩ
ĠØ§ Ú©ÛĮÙ¾
Ø§ÙĨ Ø§ÙĨ
ĠÚ© Ø§Ø¯
ĠØ¨Ùĩ Ø²Ø§Ø¯
ĠØ§Ùħ ÙĪØ§Ø¬
ÙĪØ§ÙĨ Ø³ÛĮÙĪÙĨ
ĠÚ©Ø± ÙħÛĮ
ĠØ¢Ùħ Ø¨ÙĪÙĦØ§ÙĨØ³
ĠÙĪØ§ Ú¯ÛĮØ±
ĠØ³Ø§ Ø¹ØªÛĮ
ĠØŃØ§ÙĦÛĮ Ú©Ùĩ
ĠØ§Ø¯Ø¹Ø§ ÙĩØ§ÛĮ
ĠÚ©Ø§Ø±Ú¯Ø²Ø§Ø± Ø§ÙĨ
ÙĨ Ø±
Ø³ Ø§ÙģØª
ÚĨ ÛĮØ²
ĠØ´ÙĨ ÛĮØ¯
ĠØ¬ÙĪ Ø¬Ùĩ
ĠÙ¾ÛĮÙħØ§ÙĨ Ú©Ø§Ø±ÛĮ
ĠÙģØ±Ø³ ÙĪØ¯Ú¯ÛĮ
ĠØªÛĮ Ù¾
ĠØ¨Ø§ÙĦØ§Ø¯ Ø³Øª
ĠØªÙĪÛĮ ÛĮØªØ±
ÙĦ ÙģÙĩ
Ø¨ ÙĪØ³
ĠØ¯Ø± Ø¨Ø±
ĠØ§Ø± Ø¨Ø¹
ÙģØ± Ø§ÙĨØ³ÛĮ
ĠÙħÙĦ Ø²ÙĪÙħ
ĠØªÙģ Ø³ÛĮØ±
ĠØ®Ø´ Ú©Ø³Ø§ÙĦÛĮ
ĠÚ¯Ø°Ø± Ú¯Ø§Ùĩ
ĠÙħØ³ÙĪ ÙĪÙĦ
ĠÙģÙĪØ± ÛĮØªÛĮ
ĠÙģÛĮÙĦÛĮ Ù¾ÛĮÙĨ
Ø´ ÙĪÛĮ
ĠÙĨ ØªÙĪØ§ÙĨØ¯
ĠÚ©ÙĨ ÙĪØ§ÙĨØ³ÛĮÙĪÙĨ
ĠÙħØ± ÛĮÙħ
ĠØ¬ÙĦ ÙĪÙĩ
ĠÙ¾Ø±Ø¯Ø§Ø®Øª ÙĨ
ĠØ¨ÙĪ Ø³ÛĮ
ĠÙ¾ÛĮÙĪÙĨØ¯ ÛĮ
ĠØªÙħØ§Ø´Ø§ Ú¯Ø±Ø§ÙĨ
ĠÙħØ¹ØªØ± Ø¶Ø§ÙĨ
ĠÙĪØ¯ÛĮ Ø¹Ùĩ
ĠØªÙĤØ· ÛĮØ±
e c
ÙĨ Ø¹
ĠÙħ ÙħÙĦ
Ø§Ø± Ú¯
ĠØª ÛĮØªØ±
Ø® ÙĦ
ĠÙ¾ Ø²
ĠØ§ÙĨ Ø²ÙĦÛĮ
ĠÚ¯ÙģØª ÙĨ
Øº Ø±ÛĮ
ĠÙĦ ÙħØ³
ÙģØ± Ø³Øª
ĠÙħØ± Ø®ØµÛĮ
ĠØ±ÙĪÛĮ Ø§Ø±
ĠÙħÙĨØª ÙĤ
ĠØ³Ø®Øª Ú¯ÛĮØ±Ø§ÙĨÙĩ
ĠØ³Ù¾ ÙĩØ±
ĠØªØ±Ø§ Ø´Ùĩ
ØŃØ³ ÛĮÙĨÛĮ
ĠØ¯ Úĺ
ĠÙĩ Ùģ
ĠÛĮ ÙĪØ§ÙĨ
ĠÚĨ Ø³Ø¨
ĠÙħØ¹ Ø§Ø±
ĠÙħØ¬ Ø²Ø§
ĠØªØ¹ Ø¬Ø¨
ĠÙĪØ§Ø±Ø¯ Ú©ÙĨÙĨØ¯Ùĩ
ĠÙĦØ§Ø²Ùħ Ùĩ
ĠÙ¾Ø§Ø± Ø§ÙĦÙħÙ¾
ĠÙħØ¤ ÙĦÙģÙĩ
ĠØªÙħØ§Ø´ Ø§ÛĮ
ĠØ¨ ÙĤØ§ÛĮ
ĠØª ÙĩØ§
ĠÙĩÙħ Ø¨Ø³ØªÚ¯ÛĮ
Ø§ØŃ ÙĦÛĮ
ĠÙĨØ±Ùħ Ø§ÙĦ
ĠØ¢ÙħØ¯ ÙĨØ¯
ĠØ¹Ø¨Ø§Ø±Øª ÙĨØ¯
ĠØ¹ÙĦØ§ÙĤ ÙħÙĨØ¯Ø§ÙĨ
ĠÙħÙģØ§Ùĩ ÛĮÙħ
A R
Ùĩ ÙģØª
Ø§Ùĩ ÙĨ
Ø§Øª Ú©ÙĦÛĮ
ĠÚĨ Ø§ÙĤ
Ú¯Ø± Ø§ÛĮØ§ÙĨ
Û² Û°Û°
ĠØ±ÛĮ Ø®ØªÙĩ
ĠØ¸ Ø±ÙĪÙģ
ĠØ§ÙģØª Ø§Ø¯ÙĨ
Ø¬Ø± Ø¨Ùĩ
ĠÙħØ¬ÙħÙĪØ¹ Ø§
ĠØ³Ø±ÙħØ§ Ø®ÙĪØ±Ø¯Ú¯ÛĮ
ĠÙĩÙĪØ§ÙĨ ÙĪØ±Ø¯ÛĮ
ĠØ§Ø±Ø¨Ø¹ ÛĮÙĨ
ĠØ¨ ØµØ±ÛĮ
ÙĦ ÙĪØ¯
ĠØ¯ ÙĤ
ĠÚ© Ø«ÛĮØ±
ĠÙĩÙĪ Ø§Ø¯Ø§Ø±
ĠØ³Øª Ø§Ø±ÛĮ
ĠÙħØ´ØªØ±Ú© ÛĮÙĨ
Ø¨ÛĮÙĨ ÙĨØ¯
ĠØªÙĦ Ú¯Ø±
ĠÙ¾Ø±Øª ØºØ§ÙĦ
ĠÙĨØ§Øª ÙĪØ§ÙĨÛĮ
ĠØŃØ§ÙħÛĮ Ø§ÙĨ
ĠØ¨Ø§Ø²Ø±Ú¯Ø§ÙĨ Ø§ÙĨ
ĠØ¨Ø¬ÙĨ ÙĪØ±Ø¯
Ø§ÙĨ Ú¯ÛĮØ²
Ùģ ÙĪÛĮ
Ø¹ ÛĮØ¯
ĠØ¹ Ø§Ø±
ĠØªÙĪ Ø§Ùħ
Ø®Øª Ú¯Ø§ÙĨ
ĠØ¨ÛĮ ÙĪÙĦÙĪÚĺÛĮ
Ø¯ÛĮ Ø¯ÙĩØ§
ÙĨØ§ ÙĩØ§ÛĮ
ĠØ§ÙĦ Ú¯
ĠØªØŃ Ú©ÛĮÙħ
ĠØªØ± Ø¨ØªÛĮ
ĠØ·ÛĮ Ø¨
ÛĮØ¯Ø§ Ø´Øª
ĠØ¨ÙĨØ¯ Ø±ÛĮ
ĠÛ±Û· Ûµ
ĠØŃÚ© ÙħØ±Ø§ÙĨÛĮ
ĠÙħÛĮÚ©Ø±ÙĪ Ø¨ÛĮ
ĠÙĪ Ø§ÙĦÙħ
ĠÙ¾ Ø±Ùģ
Ø§Ùĩ Ø±Ø§Øª
ĠØ¬ ÙĨØ¬
ĠØ±Ø§ Ú©Ø¯
ÙħÛĮ Ø§ÙĨ
ĠÙħÙĪ Ø§Ø¯ÛĮ
ĠØ¢Ùħ ÙĪÙĨÛĮ
ĠÙħØ§Ùĩ ÙĩØ§ÛĮ
ĠÛ±Û° Û¶
Ø®ÙĪØ§Ø³Øª Ùĩ
ĠØŃÙĪ Ø§ÙĦÛĮ
ĠÚ©ÙĪØ± ÙĪØ´
ĠÙ¾ÙĪÛĮ Ø§ÛĮÛĮ
ĠÙħØŃÚ© ÙĪÙħÛĮØª
ĠÙħØŃØ± ÙħØ§ÙĨÙĩ
ĠØ¯ÛĮØ³Ù¾ ÚĨÛĮÙĨÚ¯
ĠØ¨Ø§ØºØ¨ Ø§Ø¯Ø±Ø§ÙĨ
ĠØ³ÙħÛĮÙĨ Ø§Ø±
ĠØ±ÙĪÛĮØ§Ø± ÙĪÛĮÛĮ
ÙĨ ÙģØ¹Ø§ÙĨ
Ø´ ÙĨØ§
ĠØ¨Ø§ Ùħ
Ø§Ø¯ Ø´Ø¯Ùĩ
ĠØ¬ ÛĮØ±
ĠÙħØ³ ÙĦÙħ
ĠØ³Ø± Ø§ÛĮØª
ĠØªØ¹ ÙĦÛĮÙħ
Û¹ Û·
ĠÙħØµ ÙħÙħ
ĠØ´ÙĪØ± ÙĪÛĮ
ĠØªØ§Ø¨ Ø³ØªØ§ÙĨÛĮ
ĠØ¨Ø§Ø²ÛĮÚ©ÙĨ Ø§ÙĨÛĮ
ĠÙ¡Ù£Ù© Ù¨
ĠÙĨÚ¯Ø§Ø± Ø´
ĠÙģØ±Ø§Ø³ Ø§ØŃÙĦÛĮ
ĠÚ¯Ø±Ø§Ùħ ÛĮØ¯Ø§Ø´Øª
ĠØ³ÙĦØ³ ÙĦÙĩ
ĠØ¨ÙĪØ³ÛĮ ÙĦÙĩ
ĠØ¨ ÙħØ§ÙĨ
ĠØ³ Ø§Ø¯Ú¯ÛĮ
ĠØ¢ ÙĪØ§Ø²
Øº Ø§ÙĨÛĮ
ĠÚ©ÙĨØ¯ ÛĮ
ĠØ¢Ø¨ ÙĩØ§ÛĮ
ĠØ¨Ø´ Ø±Ø¯
ĠØµØ¯ Ø¯
ĠÙĩÙħØ³ Ø§ÙĨ
ĠØ§ÙħØªØŃ Ø§ÙĨ
Øª Ø§Ùħ
Ùģ ÙĪØ±Ø¯
ĠØª ÛĮÚ©
ĠØ³ ÙĩØ±
ĠÚ¯ ÙħØ§ÙĨ
ĠØ¬ Ø§ÙĨØ³
ÛĮØ¯ Ø§ÙĨ
ĠØ² Ø§ÛĮÛĮ
ĠØ² Ø§Ø¨ÙĦ
ĠÚ©ÙĨ Ø³Ø±
ĠÙħØª Ø§Ø¨
ĠÛ±Û° Û·
ĠÙģÙĨØ§ÙĪØ±ÛĮ ÙĩØ§ÛĮ
ĠÙĦØ¨ÙĨÛĮ Ø§Øª
ĠØª ÙĩØ±Ø§ÙĨÛĮ
ĠÙħØ¹ Ø§Ø±Ùģ
Ø¨Ø± Ø§ÛĮ
ĠØ´ÙĩØ± ÙĩØ§ÛĮÛĮ
ĠØ¯Ø§Ø¯ Ø³ØªØ§ÙĨÛĮ
ĠÙħØªØ¹ Ø§Ø±Ùģ
ĠØ¢ÙĤ Ø§
ĠÙĨÙħÙĪØ¯ ÙĨ
Ø·ÙĦØ¨ Ø¯
ĠÙħÙĨØªÙĤ Ø¯Ø§ÙĨ
Ø³ Ø±Ùĩ
ĠØª ÙģØ§ÙĪØªÛĮ
ĠØ¯Ø± Ø§Ùħ
Ø® ÙĪÙĨ
ĠÚ¯ Ø±ÛĮØ¯
ĠØ§Ø³Øª Ø§Ø¯ÛĮ
ĠØ§Ø± Ø¬
ĠØ¯ÛĮ ÙĪØ§Ø±Ùĩ
ĠØ§Øª ÙĦØ§Ùģ
ĠØ¬Ø§ÛĮÚ¯Ø§Ùĩ ÙĩØ§
ĠÙĨÛĮÙħ Ø§ÛĮÛĮ
ĠÙĨÙħÙĪØ¯ Ø§Ø±
ĠØ§Ø³ØªØ¹Ø¯ Ø§Ø¯ÙĩØ§ÛĮ
ĠÙħØ§ÛĮÚ©Ø±ÙĪ Ø³Ø§ÙģØª
Ø· ØŃ
ĠØ¹ Ø°Ø±
Ø§Ø³ Ø¨ÛĮ
ĠÙĨÙĪ Ø´ÛĮØ¯
ĠÛ²Û°Û± Û°
ĠØ§ØªÙģØ§ÙĤ Ø§ØªÛĮ
ĠØ§Ø³ØªØ§ÙĨØ¯Ø§Ø±Ø¯ Ø³Ø§Ø²ÛĮ
N A
ĠØ¨ ÙĪØ¦
Ø¨ Ø±Ø¯Ø§Ø±
ĠØª Ø§ÛĮØ±
ĠÚ¯ Ø²ÛĮÙĨ
ĠØ±Ø§ Ø³ØªÛĮ
ĠÙĤ ÙĪØ§Ø¹
ĠØµ Ø¯ÛĮ
ĠØ³Ø§ÙĦ Ø¬Ø§Ø±ÛĮ
ĠØº Ø§ÙĦØ¨
ĠØº Ø¯ÛĮØ±
ĠÛ³ Û³Û°
ĠÙĨØ´ ÛĮÙĨ
ĠÙĪØ§ØŃ Ø¯Ùĩ
ĠÙĪÛĮØ± Ø§ÛĮØ´
ĠØ¯Ø±ÛĮ ÚĨÙĩ
ĠØªÛĮ Ø¨Ø§
ĠÙħØ§ÛĮ ØŃ
ĠØ§ÙĤØ§ÙħØª Ú¯Ø§Ùĩ
Ùħ ÙĤ
ĠØ³ ÛĮØªÛĮ
ØŃ Ø§Ø¯
ĠØ¢ Ø¬Ø±
ĠÙħÛĮ Ø«
ĠØ®ÙĪØ§Ùĩ Ø´
ĠØ³Ùĩ Ø§ÙħÛĮ
ĠÙĤØ· Ø±ÛĮ
ĠØ¨Ø´ ÙħØ§Ø±
ĠÚ©ÙĪ ÛĮÙĨ
ĠØ³ÙĩØ§Ùħ Ø¯Ø§Ø±
ĠÙħØ² Ø¯
ĠØ§ÛĮØ³Øª Ø§Ø¯Ùĩ
ĠØ¹ÙĪ Ø§ÙĤØ¨
ĠÙĦÙĪ ØŃ
ĠØ¢ÙĪØ±Ø¯ ÙĨØ¯
ĠÙ¾Ø±ÙĪØ§Ø² ÙĩØ§
ĠÙ¾ÙĪ Ø³ØªØ±
ĠØ¹Ø²ÛĮ Ø²ÛĮ
ĠI S
ĠØ§ÙĦØª ØŃØµ
ĠØ§Ú©Ø³ ÙĪÙĨ
ĠÚ¯Ø§ÙĦ Ø±ÛĮ
ĠÚĨØ± Ø®Ø´
ĠÙĪ Ø³Øª
ĠØ± Ø§Ø²ÛĮ
ĠØ§Ø³Øª ÙĪØ§Ø±
ĠØŃ Ø§Øª
Ûµ Ûµ
Û³ Û³
ĠØ¯Ùĩ ÙĦÛĮ
ĠØªØ± Ø¨ÛĮØªÛĮ
ĠÙħØ¨ Ø§ÙĨÛĮ
ĠÚ¯ÙĪ Ø¬Ùĩ
ĠØµÙģ ØŃØ§Øª
ĠÙħØ±Øº Ø¯Ø§Ø±ÛĮ
ĠØ³Ø§ÙĨ ØŃÙĩ
ĠÙħØ§Ø± Ú©Øª
ĠÙħØŃÙħÙĪØ¯ Ø²Ø§Ø¯Ùĩ
ĠØ¨ÙĩØ§Ø± Ø³ØªØ§ÙĨ
ĠØ¯Ø® ÛĮÙĦ
ĠÙĩÛĮØ¯Ø±ÙĪ ÚĺÙĨ
ĠÙĨØ§Ø³ Ø§
ĠØªÙĨÛĮ Ø³
ĠÚ¯ÛĮÚ¯Ø§Ø¨ Ø§ÛĮØª
ĠÙħØ§ÛĮØŃ ØªØ§Ø¬
Ġ c
Ø¯ Ùģ
ĠØ® Ùħ
ĠÚ¯ ÙĦÛĮ
ÙĪØ¯Ùĩ Ø§
Ø®ÙĪ Ø§Ø±
ĠØ¨ÙĦ Øº
ĠØ¢Ø± Ø§ÛĮØ´ÛĮ
ĠÙĩÙĪØ´ÙħÙĨØ¯ Ø§ÙĨÙĩ
ĠÙħÙĤØ¯Ùħ Ùĩ
ĠØ¯Ø±ÙĪ Ø§ÙĤØ¹
ĠØ§Ø´ØªØ¨Ø§Ùĩ Ø§Øª
ÙģØ±ÙĪ Ø´Ø¯
ĠÙħÙĨØµÙĪØ±ÛĮ Ø§ÙĨ
ĠØµØ±Ø¨ Ø³ØªØ§ÙĨ
Ú© Ø§Ø¨
Ø§Ùĩ ÙĪ
ĠØ¹ Ø§Ø´ÙĤ
ĠØ±ÙĪ Ú©Ø´
ĠÙħØŃ Ø§Ú©
ĠÙħØª Ú©ÛĮ
ĠØ¯ÙĪØ± ÙĨÙħØ§ÛĮ
ĠØªÙĤ Ø¯Ùħ
ĠÙħØ¹Ø§ÙĪÙĨ ÛĮÙĨ
ĠÙĨØ§Ùħ Ø·ÙĦ
ĠØ³ÛĮØ§Ø³Øª ÛĮ
ĠÛ±Û± Û¸
ĠÙħÙĨØ¸ÙĪØ± Ùĩ
ĠÙ¾ÙĨ Ø¬Ùĩ
ĠØ¨Ø±Ú©ÙĨ Ø§Ø±ÛĮ
Ø§ Ú¯ÙĪÙĨ
ĠÙĪ Ú©ÙĦØ§ÛĮ
Ùģ ÛĮÙĨ
Ø¯Ùĩ ÙĨØ¯Ú¯Ø§ÙĨ
ÙĪØ¯ Ø§ÙĨÛĮ
ĠØ§Ø± Ø¨Ø§Ø¨
ĠÚ¯Ø±ÙģØª Ú¯ÛĮ
ĠÙ¡Ù ¥
ĠØ¯Ø±Ø¬Ùĩ Ú©
ĠÙħÚ©Ø§ÙĨÛĮ Ú©
Ø²Ø§ÛĮ ÙĨØ¯Ùĩ
ĠØªØ§Ø± ÙĨÙħØ§ÛĮ
ĠØ³Ø¤ Ø§ÙĦ
M S
ĠÙħ Ø²Ø§Ø±
ĠØ¨Ùĩ Ø§
ĠÙ¾ Ø±Ú©
ĠÙ¾ Ú©ÛĮ
ÛĮØª ÙĪØ±
ĠØ¢ÙĨ Øª
ĠØ®ÙĪ Ø´Ùĩ
ĠØ§ÙĨØ¯ Ø§Ùħ
Ø¨Ø§Ø² Ø§ÙĨ
ĠÙħØ§Ø¬ Ø±Ø§ÛĮ
ĠÙħØ¯Ø§Ø® ÙĦØ§Øª
ĠÙħÙĪØ§Ø² ÛĮÙĨ
ĠØ¯ÙĪØ³Ø§ÙĦ Ø§ÙĨÙĩ
ĠÙĨÙĪØ´ÛĮØ¯ ÙĨÛĮ
Øª Ú©
Ú© Ø§ÛĮ
ĠØ± ÙģÛĮØ¹ÛĮ
ĠÙħØ· ÙĩØ±ÛĮ
ĠÙħÛĮØ§ÙĨ Ø¬ÛĮ
ĠØ§ÙħÚ©Ø§ÙĨ Ø§ØªÛĮ
ĠÙ¾Ø§Ø± Ø§Ùħ
ĠØ¹Ø¯ Ø¯ÛĮ
ĠØ®ÙĦØ§ÙĤ Ø§ÙĨÙĩ
ĠÙħÙĤØª Ø¶ÛĮ
ĠÛĮÙĪØ± ÙĪÛĮÛĮ
ĠÙĪØ§ÙĦÙħ Ø³ÙĦÙħÛĮÙĨ
ĠØ¨Ø´Ø±Ø¯ ÙĪØ³ØªØ§ÙĨÙĩ
ĠØ¨ Ù¾Ø°ÛĮØ±
ĠØª ÙĨØ§
ĠÙģ Ø²Ø§ÛĮÙĨØ¯Ùĩ
Ø´Ø¯ Øª
ĠØ³ÛĮ Ùģ
ĠÙĤØ¨ ÙĪØ¶
ĠÙħØ±Øª Ú©Ø¨
ĠÛ±Û´Û° Û´
Ú© Ø¯Ø§Ùħ
ÙĦ Ø§Ø¯
ĠÙĪ Ø·
Ø´Øª Ø±
ĠØµ ÙħÛĮÙħ
ĠØ³Ø§ÙĦ Ú¯Ø±Ø¯
Ø®ÙĪ Ø¨ÛĮ
ĠØ« Ø§ÙĨÙĪÛĮ
ĠÛ±Û² Û·
ĠØ¨Ø§ÙĪØ± ÙĨØ¯
ĠÙĨÙħØ§ÛĮÙĨØ¯ Ú¯Ø§ÙĨÛĮ
ÙĨØ¸ Ø§ÙħÛĮ
ĠØ¨Ø±Ø¯Ø§Ø± ÙĨØ¯
ÙĪØ¸ Ø¨ÛĮ
ĠÙ¾Ø±ÚĨ Ùħ
ĠÙĪØ§Ø¹ Ø¸ÛĮ
ĠØ³ ÙĦØ¨
ĠØ¨Ø± Ù¾Ø§
ĠÙģ Ø±ÛĮØ¨
Ø° ÛĮ
ĠØ¢ÙĨ ØªÙĨ
ĠÙĦ ÛĮØ³
ĠÙĤØ± Ø¶Ùĩ
ÙħØ¯ Ø§Ø±
ĠÛ²Û° Û³Û°
ĠØ´ÙĩØ±ÛĮ Ùĩ
ĠØ±ÙĪÛĮÚ©Ø±Ø¯ ÛĮ
ĠÙħÙĨØµ ÙģØ§ÙĨÙĩ
ÙĪÚ©Ø§Ø± ÙĩØ§
ĠØ¨Ú© Ø´Ø¯
ĠÙĪÚ© Ø§ÙĦØª
Ú© Ø§Ø³
ĠÙħ Ú©Øª
ĠÙĪ Ùĩ
ĠØ® Ø³ØªÙĩ
ØŃ ÙħÛĮØ¯
ØªØ± Ùĩ
ĠØªØ± ÙħÛĮÙĨ
Ú©Ø± ÙĪÙĨ
ĠÙĤØ§ Ø¹Ø¯Ùĩ
ĠÙĤØ¯ Ø±ÛĮ
ĠØ³ÛĮØ² Ø¯ÙĩÙħÛĮÙĨ
ĠÙħ Ø¶Ø±
ĠÙ¾ Ø§Ø³Øª
ÙģØª ÛĮ
ĠÙ¾ÛĮØ´ Ø®ÙĪØ§ÙĨ
ĠØªØ± Ø¨Øª
ĠÙĨØ§ Ø¦
ĠÙħÙĩØ± Ùĩ
ĠØ§Ø¨ ÙĪØ¸Ø¨ÛĮ
ĠØ¨ÙĨØ§ ÙĩØ§ÛĮ
ĠÙĨØ§Ø¨ ÙĪØ¯
en t
ĠÙĨÛĮØ§Ùħ Ø¯Ùĩ
ĠÙĨ Ú¯ÛĮØ±Ø¯
ÚĨ Ø±
Ú¯Ø± Ø§ÛĮ
ĠÙħØ´ ÙĪØ±ØªÛĮ
ĠØ¨Ø§Ø² Ø¯ÛĮØ¯ÙĩØ§ÛĮ
ĠØ³ÙĪ Ø¢Ù¾
Ø§Ú© ÙĪ
Ø§ÛĮØª Ø¯
ĠØ¹Ø¨ ÙĪØ±ÛĮ
ĠÙħØ±ÙĪ Ø¬ÛĮ
Ùħ ÙĩØ±
ĠÙĪ Øª
ĠØ¯Ø± ÙĪÙĨÛĮ
ĠØ§ÛĮÙĨ Ø¬Ø§Ø³Øª
Ù¾ Ùĩ
Û´ Û¸
ĠØ§ÛĮÙħ ÛĮÙĦ
ĠØ¨Ø§Ø²ÛĮ Ø§Ø¨ÛĮ
ĠÙĨØ§ ÙĪØ¯Ø§ÙĨÛĮ
ĠØ¬ÙĨ Ø³ÛĮ
ĠÙħØ³Ø§ Ø¬Ø¯
ĠÛ±Û² Û±
ĠÙĩÙħØ§ÙĨ Ú¯ÙĪÙĨÙĩ
ĠØªØ§ÛĮ ÙĪØ§ÙĨ
Ø§Ù¾ÛĮ Ú©Ø³
ĠØ§Ø±Ø²Ø´ÛĮ Ø§Ø¨ÛĮ
ĠÙĤØ¶ ÛĮÙĩ
ĠØ¬Ø§ÙĨØ³ ÙĪÙĨ
o t
ÛĮ Ø¹
ĠØ¨Ø§ Ø³ØªØ§ÙĨÛĮ
ĠØ¨Ø§Ø² ØªØ§Ø¨
Ø¯Ø± ØµØ¯ÛĮ
ĠØªÙģ ØŃØµ
ĠÙĨØ§Ø± Ø§ØŃØªÛĮ
ĠÙ¾ÙĪ Ø´ÛĮØ¯Ùĩ
ĠØ³Ø§ÙĨØªÛĮ Ú¯Ø±Ø§Ø¯
ĠØ¹Ø±ÙĪ ÙĤ
ĠØ´Ø±ÛĮ Ø¹Øª
ĠØ¯Ø¨ÙĦÛĮ ÙĪ
ĠØ¬ÛĮØ± ÙģØª
ĠÙħØªØ§Ø¨ ÙĪÙĦÛĮ
ÙĨ Ø§Ø³
ĠÙĨ Ú©Ø§
ĠÙĨØ¸ Ø§ÙģØª
ÙĪÙĩ Ø§ÙĨ
ĠØ¯Ø±Ø¢ ÙĪØ±Ø¯
Ø¬Ø§ÙĨ Ø¨
ĠØ§ÙĨØŃØµ Ø§Ø±ÛĮ
ĠØ´ÙĦÙĪ Øº
ĠØ¢ ØŃØ§Ø¯
ÛĮØª Ø§
ĠÙĨÛĮ ÙģØª
ĠÙħÙĤ ØµØ±
ĠØ±ÙĤ Ø¨Ø§ÛĮ
ĠÙģØ±ØµØª ÙĩØ§ÛĮ
ĠÙģÛĮØ²ÛĮ ÙĪØªØ±Ø§Ù¾ÛĮ
ØªÙĪØ§ÙĨØ³Øª ÛĮÙħ
ĠÚ¯Ø°Ø± Ø§ÙĨØ¯ÙĨ
ĠÚ©ÙĪÙĦ Ø±
ĠØ¢Ø±ÛĮ Ø§
C R
Ø§ ÚĨ
Ø± ÙĤ
ĠÙĨ Ø¯ÙĩÙĨØ¯
ĠØ± Ø§Ø²
ĠØ¯ÛĮ ÙĦÛĮ
ĠØ§ÙĨØ¬Ø§Ùħ ÛĮØ¯
ĠØ´Ùħ Ø³ÛĮ
ĠØ§Ø®Øª Ø±Ø§Ø¹
ĠØ´ÙĨ ÛĮØ¯ÙĨ
ĠÛ±Ûµ Ûµ
ĠÙ¾ÛĮØ± Ø§ÙĩÙĨ
ĠÙħØŃØ³ ÙĪØ³
ĠØªÙĪØ¦ ÛĮØªØ±ÛĮ
ĠÚ¯ÙĪØ´ Ùĩ
ĠØ§ØŃØªÛĮ Ø§Ø·
ĠØ¢Øº Ø§Ø¬
ĠØ¨ÛĮØ§ÙĪØ± ÙĨØ¯
ĠØ´Ø¬Ø§ Ø¹ÛĮ
e m
ĠØ³Ø± Ø§ÙħÛĮÚ©
ĠÙģØ±Ø§ Ú¯ÛĮØ±ÛĮ
ĠÙ¡Ù ¤
ĠÙĨØ§Ø± Ø§ØŃØª
Ø¶Ø± Ø±
ĠÛĮØ§Ø¨ ÛĮÙħ
ĠØ¬ÙĨØ§ ØŃ
ĠØ¨ÙĨÚ¯ ÙĦØ§Ø¯
ĠÚĨÙĩØ§Ø±ÚĨ ÙĪØ¨
ĠÙħÙĦØ²ÙĪÙħ Ø§Øª
ĠÙ¾Ú©ÛĮ Ø¬
. .
âĢĮ âĢİ
ĠØ¯Ø± ÙĪØ³
ĠØ´ÙĩØ± Ø³ØªØ§ÙĨÛĮ
ĠÙ¾ÛĮØ´ ÛĮÙĨÙĩ
ĠÛ´ Û²Û°
Ø±ÙĪØ² Ø±Ø³Ø§ÙĨÛĮ
ĠÚ©Ø§ Ø´ÛĮ
ĠÙħØ´Ø§Ø¨Ùĩ ÛĮ
ĠØ§Ø³Ù¾ Ø§ÙĨÛĮØ§ÛĮÛĮ
ĠÙĨØ´Ø¯ ÙĨØ¯
ĠÙ¢ ÙłÙł
ĠÙĤÙĦ ÙħØ¯Ø§Ø¯
ĠØªØ±Ø¬ÛĮ ØŃÛĮ
ĠØ¨Ø±Ùĩ Ùĩ
ĠÙĨØ§Ø´ Ø±Ø§ÙĨ
Ġ J
Øª Ø§ÛĮ
Ø§ÙĨ Ø¯Ùĩ
ĠØ® Ø¨Ø±Ø¯
ØŃ Ø§Ùħ
ÛĮØ± ÙĪ
ĠÙħØ¬ Ø§Ø±Ø³ØªØ§ÙĨ
ĠÙħÙĤ Øµ
ĠØ¶ Ø®
Ú¯Ø° Ø§Ø´Øª
ĠÙĨÛĮØ³Øª Ùħ
ĠØ¨ÙĦ Ø§ØªÚ©ÙĦÛĮ
ĠØªÚ© Ø«ÛĮØ±
ĠØ§Ø³ØªØ§ÙĨØ¯ Ø§Ø±Ø§ÙĨ
ĠØ¯Ø±Ø®ÙĪØ§Ø³Øª ÛĮ
ĠØ´Ø§ÛĮ Ø³ØªÚ¯ÛĮ
ĠØªÙħÙĩÛĮØ¯ Ø§ØªÛĮ
ÙģØ±ÙĪØ´ Ø§ÙĨ
ĠØ¨Ø¯Ùĩ Ú©Ø§Ø±
ĠÙħÙĨØ´ ÙĪØ±
Ø§ÙĨØ¯ÛĮ Ø´ÛĮ
Ø³ÙĦÛĮ ÙħØ§ÙĨ
ĠÙĨØ§Ø¦ Ø¨
ÙĦ Ø·
Ø¨ ÛĮØ±ÛĮ
ĠØ³ ÙĨÚ¯ÛĮ
ĠØµ Ø¨Ø§
ĠØ¨ÛĮ Ø§Ø¨Ø§ÙĨ
ĠÙħØ¹ Ø¨Ø±
ÙĨØ§ Ú©ÛĮ
Ø´ÛĮ Ø§ÙĨ
ĠØ¸ Ø§ÙĩØ±ÛĮ
ĠÙħÛĮÙĦ Ø§ÙĨ
ĠÙħÙĩØ§Ø± ØªÛĮ
ĠØ¨Ø® Ø§Ø·Ø±
ĠÙģÙĦ ÙĪØ±
ĠØ§ÙĨØŃ Ø±Ø§Ùģ
ĠÙħØ¹Ø§Ø± ÙģÙĩ
ĠÚ©ÙĨØ³Ø± Øª
ÙĪ Ø§ÛĮØ§ÙĨ
Ø§Øª ÛĮØª
ĠÙĤ ÙģÙĦ
ĠØ¨Ø±Ø§ÛĮ Ø´
ĠÙĦ ÛĮÙħ
ĠØ¯Ø³Øª Ø¨Ø§Ùģ
ĠÙħØ¬ ÛĮØ¯ÛĮ
ĠØ³Ø§Ø² ÙĩØ§ÛĮ
ĠÙħØª ÙħØ§ÛĮ
ĠØ³ÙĪÛĮ Ø§
ĠÙĨØµ ÛĮØ¨
ĠØ§Ú©ÙĪ Ø§Ø¯ÙĪØ±
ĠÙĤÙĪØ§Ø¹ Ø¯
A S
Ø§ ÙĪÙĦ
ĠÙĨ Ø§ÛĮ
ĠØ¨Ø§ Ø¨Ø§
ĠØ¢ ÙĪØ§Ø±
ĠØªÙĪ Ø¯Ùĩ
ĠÙħØª ÙĨØ§
ĠÙħÙĪØ±Ø¯ ÙĨØ¸Ø±
ĠØ³Ø§ ÙĪÙĩ
ĠÙĤØ¨ Ø§Ø¯ÛĮ
ĠÙĨØ´Ø³Øª ÙĨ
Ø´Ùħ Ø§Ø±ÛĮ
ØªÙĤ Ø§ÙĦ
ĠÙħØ³ØªÙĤ ÛĮÙħØ§
ĠØ³Ø§ÛĮ Ø²
ĠØ§ÙĨÙĤÙĦ Ø§Ø¨ÛĮ
ØªÙĪØ§ÙĨØ³Øª ÙĨØ¯
ĠÙħÚ¯ Ø§Ù¾ÛĮÚ©Ø³
Ø§ÙĨØ¯Ø§Ø² Ø¯
ĠØ§ÙĤÛĮØ§ÙĨÙĪØ³ÛĮ Ùĩ
ĠÙĨ Ú¯
ĠÚ¯ ÙĩØ±
Ø§Ø² Ø¯
ĠØŃ Ø¨Ø§Ø¨
ĠÙħÛĮÙĦÛĮ ÙħØªØ±
ĠØªØ¹ ÙĤÛĮØ¨
ĠØªØŃ ÙĦÛĮÙĦÛĮ
ĠÚĨÙĩØ§Ø± Ø¯ÙĩÙħÛĮÙĨ
ĠØ¨Ø§Øº Ø§Øª
ĠØ¨ÙĦÙĨØ¯ Ù¾Ø§ÛĮÙĩ
ĠØ¯ÙħÙĪÚ©Ø± Ø§Ø³ÛĮ
ĠØ²Ø±Ø§ Ø¹ÛĮ
ĠØ¨Ø±Ú¯Ø²ÛĮØ¯ Ú¯Ø§ÙĨ
u n
ĠÙĩØ²Ø§Ø± ÙĪ
ĠÙħÙĤ ÛĮÙħ
Û³ Û·
ĠÙģØ±Ø§ Øº
ĠØ¨Ø§Ø²Ú¯ Ø´ØªÙĩ
ĠI n
ĠØ¹ÙħÙĪÙħ Ø§
ĠØ¢Ø¨Ø± Ø§Ùĩ
ĠØŃÛĮØ¯ Ø±
ĠØ¢ÙģØª Ø§Ø¨
o g
ĠÙħ Ø§Ø±ÛĮ
ĠØª Ø§Øª
ĠØ± ÙĩÙĨ
ÙĤ Ø§ÙĤ
ĠÙ¾ÛĮØ´ ÛĮ
ĠØ§ÙĦ Ø²
ĠØ®Ø¨Ø± ÙĩØ§ÛĮ
Ø±ÙĪØ² ÙĨØ§ÙħÙĩ
ĠØ¢Ø± Ø´
ĠÙħØªØ¹ Ø§ÙĦ
ĠÙħØ³Ø§ÙģØ± ØªÛĮ
ĠÙģØ±ÙĪ Ù¾Ø§Ø´ÛĮ
Ø¢Ùħ Ø¯Ùĩ
ĠÛ³Û¸ Û°
ĠÙħØ·ÙħØ¦ ÙĨØ§
ĠØ±ÙĩØ§ Ø³Ø§Ø²ÛĮ
ĠÙģØ§ÛĮ Ø²Ø±
ĠØ·ØºÛĮ Ø§ÙĨÛĮ
ĠØ¨Ø±Ø¢ÙĪØ± Ø¯ÙĩØ§ÛĮ
ĠÙħØŃØµ ÙĪÙĦÛĮ
ĠÙĪ Ø«ÛĮ
ĠØª ÙĨÚ¯ÛĮ
ĠÚ¯ ÙĪØ¯
ĠØ§Ø³Øª Ø¯
ĠÙħÛĮ Ú©
ĠÛĮÚ© Ø³Ø±ÛĮ
ĠÚ©Ø§Ø± Ø²Ø§Ø±
ÙĨØ§ Ø®ØªÙĩ
ĠÙĨØ´ Ø±ÛĮ
ĠÙħÙĨØ· ÙĤ
ÙĪØª Ø§
ĠÙĩÙħÚ©Ø§Ø±ÛĮ ÙĩØ§
ĠÚ©ÛĮÙĦÙĪ ÙĪØ§Øª
ĠØŃÙĪ Ø¶
ĠØªÙħØ§ÛĮ ÙĦÛĮ
ĠÙħÙĪØ¸ ÙģÙĨØ¯
ĠÛĮÙĪ ÙĪÙĨØªÙĪØ³
ĠÙħØ§Ø¯ ÙĪØ±ÙĪ
ĠÙĨÚ© Ø§ØªÛĮ
Ø¯ ÙĪÙħ
ĠØ± ÙĩØ§ÛĮÛĮ
ĠØ¬ ÙĨÛĮÙĨ
Ø±ÛĮ Ø³
ĠØ§Ø³ Ø¨
ÙĪØ±ÛĮ Ø§
ĠØº ÙĦØ§Øª
ĠÙħØµ Ø§Ø¯ÛĮ
ĠÙħÙĪØªÙĪØ± ÙĩØ§ÛĮ
ĠI C
ĠØ§ÙĨÚ¯ÛĮ Ø²
ÙħØŃÙħØ¯ Ø±Ø¶Ø§
ĠØ³ØªØ§Ø± Ú¯Ø§ÙĨ
ĠÙ¾Ø§Ø±Ø§ÙĦÙħÙ¾ ÛĮÚ©
ĠØ¹Ø§Ø± Ø¶Ùĩ
ĠØ¢ÙħÙĪÙĨÛĮ Ø§Ú©
ĠØ¨ Ú©Ø´
ĠØ³ ÙħÙ¾
ĠØ¨Ø§ Ø¯Ø§Ùħ
ĠÙ¾ ÙĨØª
ĠÙĪÛĮ Ø³
ĠØ³Ø§ÙĦ ÙħÙĨØ¯
Ø²ÛĮ Ø§ÙĨ
ĠØ®ÙĪØ¯ ØªØ§ÙĨ
ĠØ¨Ø§Ø² ÙĩÙħ
Ø§Øµ Ø±Ùĩ
ĠØªÙĤ ÙĦØ¨ÛĮ
ĠØºÛĮØ± ÙĨØ¸Ø§ÙħÛĮ
ĠØ®Ø§Ùħ ÙĪØ´ÛĮ
ĠÛ±Û± Û´
ĠÙħØ±Ø¨ÛĮ Ú¯Ø±ÛĮ
ĠØ§ÙĦØª ÙĩØ§Ø¨ÛĮ
ĠÙħØ³ÙĪ ÙĪÙĦÛĮØª
ĠÙħØ³Ø¬Ø¯ Ø³ÙĦÛĮÙħØ§ÙĨ
Ø± ÛĮÙĨÛĮ
ÙĦ Ø§ÙĨØ¯
Ø´ Ø§ÙĩÛĮ
ĠØ¯Ø± ÙĩØ§ÛĮ
ĠØ± ÙĨÚ¯ÛĮ
Øµ Øª
ĠÙħØŃ Ùģ
ĠÛ²Û° Û·
ĠÛ±Û³ Û±
ĠØ¨Ø±Ú¯ Ø´ØªÛĮ
ĠØ²Ùħ Ø±Ùĩ
ĠØªØ¬Ø¯ÛĮØ¯ ÙĨØ¸Ø±
ĠÙħÚ©Ø§Øª Ø¨Ùĩ
ĠØ²Ø§ ÙĪÛĮÙĩ
i v
Ùħ ÙĪÙĤØ¹
ĠØ³ Ø¯ÙĩØ§ÛĮ
ĠØ¨Ø± Ú¯Ø±Ø¯Ø¯
ĠÛĮ Ø§Ø±Ø§ÙĨ
ĠØµ Ø±Ø§ØŃØª
Ù¾ Ø§Ø±ÚĨ
ĠÙħØŃ Ø§ØµØ±Ùĩ
ĠÙħÛĮÙĦÛĮ Ø§Ø±
ĠÙħØ± Ø®Øµ
ĠØ±Ø³ ÙĨ
ĠÙħØ¨ Ø¯ÙĦ
ĠØ§Ø¬ØªÙħØ§ Ø¹
ĠØªÙĩ Ø¯ÛĮØ¯ÙĩØ§ÛĮ
ĠÙĨØ¹ ÙħØªÛĮ
ĠÙĩÙĪØ± ÙħÙĪÙĨ
ĠÙĨØ§Ú©Ø§Ø± Ø¢ÙħØ¯
ĠØ®Ø¨Ø±Ø¯ Ø§Ø¯
ĠØª Ø§Ùħ
ĠØ¨Ø§ Ùĩ
ĠØ· Ø±Ø²
ĠØ¨ÛĮ Ùĩ
ĠØ§ÛĮØ± Ø§Ø¯Ø§Øª
ĠÙħØ¬ Ø±ÙĪ
ĠÙħØª Ø¶Ø±Ø±
ĠÚ©Ùħ ÛĮÙĨÙĩ
ĠØ§Ø´ Ø±Ùģ
ĠØ¨ÛĮÙĨ Ø§ÛĮÛĮ
ĠÚĺ ÙĪØ±
ĠC O
ĠØªÙĪÙĤ Ø¹
ĠÙħØŃØ¨ÙĪØ¨ ÛĮØª
ĠÚ©Ø§Ø±Ø¢ Ú¯Ø§Ùĩ
Ġ i
Ø® Ø¨Ø±
ĠØ§Ø³Øª ÙĨ
ĠØµ Ø±ÛĮØŃ
ĠØ· Ø¹Ùħ
ĠÙħØ¬ Ø±ÛĮØ§ÙĨ
ĠÙ¾Ø±ÙĪ Ø§Ø²ÛĮ
Ú¯Ø° Ø±Ø§ÙĨ
ĠØ¯ÛĮØ¯ Ø§Ø±ÛĮ
ĠÙĨØ§Ø´ÙĨ ÙĪØ§ÛĮØ§ÙĨ
a b
Ø¹ Ø§Ø±
ĠØ± Ú©ÙĨ
ÙĤ Ø§ÛĮÛĮ
ĠØ¨Ø± ÙĪØ¬
Ø±ÛĮ Ø´ÛĮ
ĠÙĩÙħ ÙģÚ©Ø±ÛĮ
ĠØ§ÙĨ ÛĮÙħÛĮ
ĠÙħØª Ø°Ú©Ø±
Û¶ Ûµ
ĠØ¢Ø± Øª
ĠÙģÙĤ ÛĮØ±
ĠØ¹Ø±Ø§ÙĤ ÚĨÛĮ
ĠÛ´Û° Ûµ
ĠØ§ÙĨØ¨Ø§ Ø´Øª
ĠØ²Ø§Ø± Ø¹
ĠØ°ÛĮÙĨ ÙģØ¹Ø§ÙĨ
Ġ Q
ĠØ§ÛĮÙĨ Ø¬Ø§ÙĨØ¨
ĠÙĤ ÙĪØ§ÛĮ
Ø§Ø¨ Ø¹ÛĮ
ĠÙħØª Ø±ÙĪÛĮ
ĠØ¶ Ø§ÙħÙĨ
ĠØ®Ø±ÛĮ Ø¯ÙĩØ§ÛĮ
ĠÙħØ³Øª Ø§Ø¬
ĠÙħØ§Ø³ Ùĩ
ĠÙħØ´Ùĩ ÙĪØ¯
ĠØ´Ùģ Ø§ÙĩÛĮ
ĠÙħÙĪØ§Ø² Ø§Øª
ĠØªØ±ÙħÛĮÙĨ Ø§ÙĦ
ĠØ¨ÙĨÚ¯ÙĦØ§Ø¯ Ø´
/ âĢı
ÙĨ ÙĤ
ÙĪ Ø³ØªØ§ÙĨ
Ø² ÙħØ§ÛĮÛĮ
Ø´ ÙĪØ±
ĠØµ ÛĮØ¯
ĠÙĪÛĮ ÙĦØ§
ĠÙħØ¯ Ø§Ùħ
ĠØ´Ùĩ Ø§Ø¯Øª
ĠØ³Ùĩ ÙħÛĮ
ĠÙĨØ¨ Ø´ÛĮ
ĠÙħØ¹Ùħ Ø§Ø±Ø§ÙĨ
ĠØªØ¨Ø§Ø¯ÙĦ Ø§Øª
ĠØªØ¦ ÙĪØ±ÛĮ
ĠÚ©Ø§Ø³Øª ÛĮ
ĠÙĪØ«ÛĮ ÙĤÙĩ
o s
Ġ X
Ùĩ Ø¯ÛĮ
Ø³ Ø¹ÛĮØ¯
Ø±ÛĮ Ø¨ÛĮ
Ø§Ø¨ ÛĮÙĨ
ĠÙħÙĨ Ø§Ø¨Ø¹ÛĮ
ĠÙ¾ÛĮ Ø³Øª
ĠÙħØµ Ø¯Ø§
ĠØ¶ ÙĦ
ÙĪØ¨ Ø±ÛĮ
ĠØ§Ø±ÙĪ ÙĨØ¯Ø§ÙĨ
ĠØ³ÛĮÙĨ ÙħØ§ÙĩØ§
ĠÙħØªØ®ØµØµ ÛĮÙĨ
ĠÙ¡Ù ¨
ĠØªÙĨØ¯ ÛĮØ³
ĠÙĨØ§Ù¾Ø§ÛĮØ¯ Ø§Ø±
ĠØ§ÛĮØ¯ Ø²
ĠØ¢ØºØ§Ø¬ Ø§Ø±ÛĮ
ÙĦ Ú©
Ø´ ÛĮÙĨÛĮ
ĠÙ¾ Ø¯
ĠØ¨Ø±Ø§ÛĮ Ø´Ø§ÙĨ
ÙĨÛĮ Ùĩ
ĠØ´Ùĩ Ø¯Ø§
ĠÚ¯Ø±ÙĪÙĩ ÙĩØ§ÛĮ
ĠÛ±Û± Û·
ĠÚ©Ø§ ÙĪÛĮØ§ÙĨ
ĠØ§ÛĮØ³ØªÚ¯Ø§Ùĩ ÙĩØ§ÛĮ
ÙħØŃ Ùħ
ĠØ§Ø³ØªØ® Ø±
ĠÙħØ²Ø§ÛĮ Ø§
ĠÛ´Û¸ Û°
ĠÙģØ±Ø² Ø§Ø¯
ĠØ²ÛĮØ¨ Ø§ÛĮ
ĠØ¹Ø¨Ø¯Ø§ÙĦ ÙĨØ§ØµØ±
ĠØ¨ÙĪÛĮ ÛĮÙĨ
u t
Ùĩ Ø§ÙĨ
Ùģ Ø§ÙĦ
ĠÙ¾ÛĮØ´ Ø±Ø§ÙĨ
ĠØ±ÛĮ ÙĪÛĮ
ĠØ®Ø· Ø§ÛĮ
ĠØ¬ÙĩØ§ÙĨ Ù¾ÙĪØ±
ĠØ¬Ø² Ø§ÛĮØ±
ĠÙĩÙħÛĮ Ø§Ø±ÛĮ
Ø´Ø§ Ø¡
ĠÙĤØ¨Ø± Ø³
Ù¾Ø§Ø±ÚĨ Ú¯ÛĮ
ĠÙħ Ø§Ø¨Ùĩ
ÙĨØ¯ Ø±
ÛĮØ¯ ÙĨØ¯
ĠØ®Ø¯Ùħ Ùĩ
ĠÙ¾Ø± ÙĪØ±
ĠØ¯ÛĮØ¯ Ú¯Ø§ÙĨ
ĠÛ±Û¹ Û´
Ø§ÙĦØª ØŃØµ
ĠÙħØ§Ø² ÙĪØª
ĠÙħØ³ÛĮ ÙĦ
ĠØºØ± ÙĤ
ĠÙ¾Ø§ÙĨØ² Ø¯ÙĩÙħ
ĠÙĩÙ¾ Ø§ØªÛĮØª
ĠÙĤÙģ Ø³Ùĩ
ĠÙħØµØ§Ø¯ÛĮ ÙĤ
ĠØ¨ Ø¨ÛĮÙĨØ¯
Ø¨ ÙĨØ¯Ø§ÙĨ
ÙĦÛĮ ØªÛĮ
Ø±Ø¯ Ø¯
ĠØªÙĪ ÙģÛĮÙĤÛĮ
ĠØ² Ø§ÙĨÙĪ
ĠÚ©Ø§Ø± Ø¢ÙħØ¯ÛĮ
ĠØ®ÙĪ Ø§Ø±
Ø±Ø³ Ø§Ø²ÛĮ
ÙħÙĨ Ø·
ĠØ³Ø§ Ø¹Ø§ØªÛĮ
ĠÙĨØ´Ø§ÙĨ Ø§ÙĨ
ĠØªØµÙħÛĮÙħ Ø§ØªÛĮ
ĠØ³Ù¾ Ø§Ø³
ĠØ´ÙĨØ§ ÙĪØ±ÙĩØ§ÛĮ
Ù¾Ø±Ø¯Ø§Ø² ÛĮÙħ
ĠØ³Ø±Ø¯ Ø³ÛĮØ±
ĠÙħØ¹Øª Ø§Ø¯Ø§ÙĨ
ĠØ§Ø¨Ø±ÛĮ Ø´Ùħ
ÙĤÛĮÙħ Øª
ĠØ§Ø´ÛĮ Ø§
ÙĤ ÛĮÙĨ
ĠÚ©Ø±Ø¯ ÛĮØ¯
ĠÚĨ Ø§Ø¯Ø±
ĠÙĦ ÙĤ
ÙĪØ±Ø¯ Ø§ÙĨ
ĠÙĨÙĪ Ù¾Ø§
ĠÛ±Û° Û²
ĠÛ²Û°Û° Û¹
ĠØ³Ø±ÛĮ ÙĦØ§ÙĨ
ĠÙĤØ§ Ø¹Ø¯
ĠØ¨Ø§Ø²Ø¯ÛĮØ¯ Ú©ÙĨÙĨØ¯Ú¯Ø§ÙĨ
ĠØ¨Ú¯ÛĮØ± Ø§ÙĨ
ĠØ¨ÛĮØ± ÙĪØª
ĠÛĮØ§Ø³ ÙĪØ¬
ĠØ¯Ø± Øµ
ĠØ³ Ø§Ø³
ĠØ® Ø§ÙĦØ¯
ĠØ¹ Ø§Ø¨Ø¯
Ø®Øª ÛĮ
ĠÚ©Ø´ ÙĨØ¯Ùĩ
ĠØºÛĮØ± Ø¨Ø§ÙĨÚ©ÛĮ
ĠÙħØ§ÙĨ ÛĮØªÙĪØ±
ĠØ¯ÙĪØ±Ùĩ Ø§Ø¯
Ø·ÙĪØ± Ùĩ
ĠÙĨØ§Øª ÙĪ
> >
ÙĪ ÚĨ
Ùģ Ø§ÙĨ
ĠØ± Ø¨Ø·
Ø§Ùħ ÛĮØ±
ĠØ³Ø± Ú¯
ĠØ¯Ùĩ ÙĤØ§ÙĨ
ĠØªØ± Ø§Ø¨Ø±ÛĮ
ĠÛ±Û´ Ûµ
ĠÙĨØ§Ú© Ø§ÙħÛĮ
ĠÙĨÛĮØª Ø±ÙĪÚĺÙĨ
ĠØ´ÙĪØ±ÛĮ Ø¬Ùĩ
ĠØ³ Ø¯ÙĩØ§
ĠØ® ØªÙħ
ĠØ® Ø¯Ø§Ø¯
ĠØ¨ÛĮ Ø§Øª
ÙĨÚ¯ Ø§Ø±
ĠÙħØ³Ø¦ ÙĪÙĦÛĮ
ĠØ³ÙĨ Ø³ÙĪØ±
ĠØ³ÙģØ± ÙĩØ§
ĠØ¢Ø³ Ø§ÛĮØ´
ĠØ±Ø§Ø¨ Ø·
Ù£ Ùł
ĠØ§ÙĦÙģ Ø§ÙĦØŃ
ĠØ«Ø±ÙĪ ØªÙħÙĨØ¯
ĠØ³Ø±Ø¨Ø§Ø² Ø§ÙĨ
ĠÙĨØ§Ø¨ÛĮÙĨ Ø§ÛĮØ§ÙĨ
A TF
Ø¯ ÙĪØ±
Ø§Ø± Ú©ÛĮ
ĠØ¨Ùĩ Ùħ
ĠÚ©Ø´ ÙģÛĮ
ĠØ§ÛĮØ± Ø¬
ĠÙħØ¬ Ø±Ø¨
Û· Ûµ
ĠØ®ÙĪØ¯Ø±ÙĪ ÙĩØ§ÛĮÛĮ
ĠØ¨Ø§Ø± Ú©
ĠÙ¾Ø§ÙĦØ§ÛĮØ´Ú¯Ø§Ùĩ ÙĩØ§
ĠÚ©Ø§Ø±Ú¯Ø±ÙĪÙĩ ÛĮ
ĠØ§Ø²Ø¯ ØŃØ§Ùħ
ĠÙ¾ØªØ±ÙĪ Ù¾Ø§Ø±Ø³
Ú© Ø¨Ø§Ø±
Ø³Øª Ø±ÙĪÙĦ
Ø¬ Ø²
ĠÙĩ Ø§Ø¨
ÙĪÙĨ Ø²
ĠØ¯ÛĮ Ø§Ø¨
ĠÙ¾ÛĮØ´ Ú¯Ø§Ùħ
ĠØ§Ø¸ÙĩØ§Ø± ÙĨØ§ÙħÙĩ
ĠØ®Ø· Ø±ÛĮ
Ú©ÙĪ Ù¾
ĠØ´Ú© Ø³ØªÚ¯ÛĮ
ĠÙĤØ±Ø§Ø±Ø¯Ø§Ø¯ Ø´
ĠÛ²Û² Ûµ
ĠØ§ÙĨØ¯ÛĮ Ø´
ĠØ±Ø¬ Ø¨
ĠØ¨Ø¨ÛĮÙĨ ÛĮØ¯
ĠÙ¾Ø±Ø¯Ø§Ø² ÙĨØ¯Ùĩ
ĠØ²Ø± ÙĨØ¯ÛĮ
ĠÙħØºØ§ÛĮØ± Øª
ĠÚ©Ø´ØªØ§Ø± Ú¯Ø§Ùĩ
ĠÙĨØ´Ø±ÛĮ Ø§Øª
ĠÙħ ÙĪØ¯
ĠØ¯ Ø§ÛĮØ±
ĠØ¯ Ù¾ÙĪ
ĠØ´ ÙĪØª
ĠÙ¾ Ø±ÛĮ
ĠÙĨÛĮ Ø´
ĠØ§Ø³ Ø·ÙĪØ±Ùĩ
Ø´ÙĪØ¯ Ú¯ÛĮ
Ø§ÙĤ Ø¨Ø§
ĠÙĤØ¨ Ø¶
ĠØ§Ø±ÙĪ ÙĨØ¯
ĠÙħØªØ¹ Ø§ÙĤØ¨Ø§
ĠØ§ØµÙĪÙĦ Ú¯Ø±Ø§ÛĮØ§ÙĨ
ĠÙħÙħØª Ø§Ø²
ĠÙĪØ±Ø´Ú© Ø³ØªÚ¯ÛĮ
ĠØ§ ØªÙħ
Ù¾ Ø²Ø´
ĠØ¢ÙĨ ÙĩØ§ÛĮÛĮ
ĠØ³Ø± Ú¯Ø±ÙħÛĮ
ĠØ³Ø§Ø²ÙħØ§ÙĨ ÙĩØ§ÛĮ
Ø¯Ùħ ÙĩØ¯ÛĮ
Ú¯Ø° Ø´ØªÙĩ
ĠØ§Ø¨ Ø¯Ø§Ø¹
ĠÚ©ÙĪÙĩ ÙĨ
in e
ĠØ§Ø±Ø¯ÙĪ ØºØ§ÙĨ
ĠÙ¾ØªØ±ÙĪ ÙĦÛĮÙĪÙħ
ĠÙħØ¯Ø§ÙģØ¹ Ø§ÙĨ
ĠØ®ÙĪØ´ØŃ Ø§ÙĦÙħ
ĠØ§ÙĨÛĮÙħÛĮ Ø´ÙĨ
Ø¯Ùĩ ÛĮØ¯
Ø¶ Ø§ÙĨÛĮ
ĠÙĨÙģØª Ú¯Ø§Ø²
ĠØ§ÙĦ ÙĤØ§
ĠÚ¯Ø± ÙħØ§ÛĮ
ĠÛ¹ ÛµÛ°
ĠØ§Ø®Øª ØªØ§Ùħ
Ú¯ÙĪ Ø§Ø±
ĠØ´ÛĮ ÙĦÛĮ
ĠØ³ÙĪØ®Øª ÛĮ
Ø±Ø§Øª ÙĪØ±ÙĩØ§ÛĮ
ĠÂ Ń
ĠÛ±Û² Û°Û°
ĠØ§ÙĩÙħÛĮØª ÛĮ
ĠØªØ±Ø¯ Ø¯ÙĩØ§ÛĮ
ĠÙĪÛĮØª ÙĨØ§Ùħ
ĠØªØ¹Ùĩ Ø¯ÙĩØ§ÛĮ
ĠØ§Ø³ØªØ¯ ÙĦØ§ÙĦ
T I
ĠØª Ø§ÙħÙĦ
ĠØ¨Ø± ÙĦÛĮÙĨ
ĠØ§Ø¯ ÙĪØ§Øª
ĠÙħØ±Ø§ ÙĪØ¯
ĠØ¬Ø§Ùħ Ø¹ÛĮ
ĠØŃÚ© ÛĮÙħ
ĠØ¢Ø³ Ø§ÙĨÛĮ
ĠÛ³Û´ Û°
ĠÙĨÛĮØ§ ÙģØªÙĩ
ĠÙ¾Ø³ÙħØ§ÙĨ Ø¯ÙĩØ§
ĠÙ¾ÙĩÙĨ Ø§ÛĮ
ĠØ¯ÙĤ Ø§ÛĮÙĤ
ĠØ¨ÙĦØº Ø§Ø±Ø³ØªØ§ÙĨ
e i
ÙĪ Ø§ØªÛĮ
ĠØ§ Ø«Ø±ÛĮ
ĠØ¨ Ø¨ÙĨØ¯
ĠØ¯ Ø§ÛĮÛĮ
âĢĮ .
ĠØ± Ø³ØªÙĩ
Ø¬ ÛĮÙĨ
ĠÙ¾ ØªØ±
ĠÙĤ Ø´
ĠØ¢ÙĨ Ø§Øª
Ø¨Ø§ Ø¹
ĠÙħØ³Ø§ ÙĪÛĮ
ĠÛ±Û± Û¶
ĠÙħÙĪÙĤ ØªÛĮ
ĠÙĦØ§ÛĮ ÙĨ
ĠØ§ØªÙĩØ§Ùħ Ø§Øª
ĠØ¹Ø°Ø± Ø®ÙĪØ§ÙĩÛĮ
ĠØ³Ø±ÛĮÙĦØ§ÙĨ Ú©Ø§
Ø§ Ø¦ÙĪ
ØŃ ÛĮØ¯
ĠÙģ Ø¯Ø§
ĠØ¬ Ø±Ø§
ĠØ¹ ÙĨØµØ±
ĠØ§ÙĤ Ø§ÙħØªÛĮ
ĠØ§ÙĦ ØŃØ³ÙĨÙĩ
ĠÙħØ§ Ø´Ùĩ
ĠØ° ÙĪØ§ÙĦ
ĠÙĦÙĪ Ú©Ø³
ĠØ¢ÙĤ Ø§ÛĮÛĮ
ĠC NG
ĠÙħØ®ØµÙĪØµ Ø§
ĠÚ©ÙħØ±Ø¨ ÙĨØ¯
ĠØ¨ÙĪÙĦÛĮ ÙĪÛĮ
ĠØ¨Ø§Ø²Ø¯Ø§Ø± ÙĨØ¯Ùĩ
ĠØŃØ§Øª ÙħÛĮ
Ġ of
ÛĮ Ø§Ø¨ÙĨØ¯
Ø¯ Ú©ØªØ±
ĠØ¯ Ø§ÙĦ
ĠØ´ ØµØª
ĠØ± Ø§ÙħÛĮÙĨ
ĠØ§Ø³Øª ÛĮÙĨ
ĠÙģ Ø¶Ø§ÙĨ
Ù¾ ÛĮØ±
ÙĪÙĦÛĮ Ø¯
ĠÙħØ§ÙĨ Ø¹ÛĮ
ĠØ¯ÛĮØ¯ Ùħ
Ù¾Ø§ Úĺ
an d
ĠØ¬Ø§Ø¨ Ø¬Ø§
ĠØ³Ø§Ø²ÙĪÚ©Ø§Ø± ÙĩØ§ÛĮ
ĠÙĨØ§Ø´ ÙĨØ§Ø®ØªÙĩ
ĠØ§Ø¨ÙĪØ§ÙĦ ÙģØ¶ÙĦ
ĠÙģØ±Ø§Øº Øª
ÛĮ ÙĪÙĨ
ĠØ¨ Ú¯ÙĪÛĮØ¯
ĠØ¨ Ø´ÙĨØ§Ø³
Ø¹ Ø§
ĠØ± Ú©ÙĪØ±
Øµ ÛĮ
Ø§Ø¯ Ø¢ÙĪØ±
Ø¦ ÙĪÙĨ
ĠØ¨ÛĮ Ú¯ÛĮ
ĠØ®ÙĪ Ø´ÙĨ
ĠÚĨÙĨØ¯ Ø¬Ø§ÙĨØ¨Ùĩ
ĠÙģØ±ÙĪØ´ ÙĨØ¯Ú¯ÛĮ
ĠÙģØ±ÙĪØ´ Ú¯Ø§ÙĩÛĮ
ĠÙĩÛĮÚĨ Ú¯Ø§Ùĩ
ĠÛ±Û² Û³
ĠØ³Ø¹ Ø§Ø¯Øª
ĠØ¯Ø¨ ÛĮØ±ÛĮ
ÙĨÙĪÛĮØ³ Ø¯
ĠØ§ÙĨØ¶Ø¨ Ø§Ø·
ĠÙħÙĪØª ÙĪØ±ÛĮ
ĠØ²ÛĮØ±Ø¨ ÙĨØ§ÛĮ
ĠØ³Ø±Ùģ ØµÙĦ
ĠÙħØ±Ø§ÙĪØ¯ Ø§Øª
E C
E D
Ú© Ø§ÛĮÛĮ
Ø³ Ú©ÛĮ
ĠÙħ Ø§ÛĮÙĩ
ĠÙ¾ Ø§Ù¾
ĠØ« Ø¨ØªÛĮ
ĠØ§Ø® Ø¨Ø§Ø±ÛĮ
ĠØ§Ø¬ØªÙħØ§ Ø¹Ø§Øª
ĠÙħÙĨØª ÙģÛĮ
ĠÙĪØ¶Ø¹ÛĮØª ÛĮ
ĠÚ¯Ø±Ø¯ Ø¢ÙĪØ±ÛĮ
ĠØŃØ³Ø§Ø¨ Ø±Ø³
ĠØ¬Ø³Øª Ø¬ÙĪÛĮ
I D
ĠØ§Ø³Øª Ø±ÛĮØª
ÙĪÛĮ Ú©
ĠÙħØª Ø¨ÙĪØ¹
ĠØ§ÛĮÙħ Ø§ÙĨ
ĠØ¢Ø¨ Ø±ÛĮØ²
ĠØ¢ÙħØ±ÛĮÚ© Ø§Ø³Øª
ĠØ¯Ø±ÙħØ§ÙĨ Ú¯Ø§Ùĩ
ĠÛ±Û± Û³
ÛĮÙĨØ¯ ÙĪ
Ù¾Ø±Ø¯ Ø§Ø²ÛĮ
ÙĪØ³ÛĮ ÙĦÙĩ
ĠØ§ØªØµ Ø§ÙĦØ§Øª
ĠØ§ÙĤØ³ Ø§Ø·ÛĮ
ĠØ§ÙĨØ¯Ø§Ø®Øª ÙĨ
ĠØ¨Ø§Øª Ø¬Ø±Ø¨Ùĩ
ĠØªØ¸ Ø§ÙĩØ±Ø§Øª
ĠØ§Ø®ØªØªØ§Ùħ ÛĮÙĩ
i g
Ġ Ġ
Ø¬ ÙĦ
ĠÛĮÚ© Ù¾Ø§Ø±ÚĨÚ¯ÛĮ
ĠØ§ÛĮØ± ÙĪØ§ÙĨ
ĠØ¯Ø§Ø¯ Ø®ÙĪØ§Ø³Øª
ĠØ¨Ø§Ø² ÙħØ§ÙĨØ¯
ÙħØ¯ Ø§Ø±Ø§ÙĨ
ĠØªØ± Ø§Ø¨ÛĮ
ĠØ´Ø®Øµ Ø§
ĠØ±Ùħ Ø¶Ø§ÙĨÛĮ
Ø¯Ø±ÛĮ Ø¬
ĠØ§Ù¾Ø±Ø§ØªÙĪØ± ÙĩØ§
ĠØºÙģ ÙĦØª
ĠØ³ÛĮØ² Ø¯ÙĩÙħ
ĠØ¯Ø±Ùħ ÙĪØ±Ø¯
ĠØ§Ø¹ØªØµ Ø§Ø¨
ÙĪ ÙħØ§ÙĨ
ĠØ¯ ÙĨØ¯Ùĩ
ĠØ· Ø§Ùĩ
ĠÙħØ¯ ÙĪÙĨ
ĠÙĤØ± ÙĤÛĮ
ĠÚ©ÙĪ ÛĮØ±
ĠØ¢ÙĦ Ø±ÚĺÛĮ
ĠÚ©Ø§ Ø°Ø¨
ĠØ·Ø±Ùģ Ùĩ
ĠØ®Ø± Ø§Ø¨ÛĮ
ĠØªØ³ ÙĦØ·
ĠØ³Ù¾ Ùĩ
ĠâĢ¦ )
ĠØ±Ø® Ø¯Ø§Ø¯
ĠØ±ÙĪÛĮØ¯ Ø§Ø¯ÙĩØ§
ĠØ¢Ø´ Ù¾Ø²
ĠØ¨Ø® ÙĪØ±Ø¯
ĠÙģÙĨ ÙĦØ§ÙĨØ¯
ĠÙħÚ©Ø± Ø§ÙĨ
ĠÚ¯ÙĪØ§Ø± Ø´
ĠÙ¾Ùħ Ù¾Ø§Úĺ
a w
ĠØ¯ ÙĦØ§
ĠØª ÙģØ±
ĠØ³ ÛĮØ±ÛĮ
ĠØ® ÙģÛĮÙģ
ĠØ¨Ø¯ Ø§ÙĨØ¯
ĠØŃØ¯ÙĪØ¯ Ø§
ĠÚ©Ø§ÙĦ Ø±ÛĮ
Ø´Ø± ÙĤ
ĠØ¨Ø® Ø´ÙĪØ¯Ú¯ÛĮ
ĠØ¹Ø¨Ø§Ø³ Ø¹ÙĦÛĮ
ĠØ²Ø¯ ÙĨØ¯
ĠØ¶ÙĦ Ø¹
ĠØ¨Ø§Ø±Ú© ÛĮÙĨØ¯ÙĪ
d e
ĠÙ¾ ÙĪØ¯Ø±
ĠØ¢ ÛĮÙĨØ¯
ĠØ¬ ÙĦÛĮÙĦ
ĠÙħØŃ ÙĪÙĦÙĩ
ĠØ³Ø§ÙĦ Ø±ÙĪØ²
ÙħØ¯ ÛĮØ±Ùĩ
ĠØªØ¬ Ø³ÙħÛĮ
ĠÙħØ³Øª ØŃ
ĠÛ±Û² Û¶
ĠØªØ¬ÙĩÛĮØ² Ø§ØªÛĮ
ØŁ !
ĠÙĩÙĪØ´ ÙĨÚ¯
ĠØ¯Ø§Ùħ ØºØ§ÙĨ
ĠÙĪØ® Ø§ÙħØª
ĠÙģØ§Ú©ØªÙĪØ± ÙĩØ§ÛĮ
ĠØ§ÙĦÚ©Øª Ø±ÙĪ
ĠÙĤØ¶ Ø§Øª
ĠØ¬ ÛĮÙħ
Ø§Ø¨ ÙĪÙĨ
ĠÙĨÛĮ ÙĪ
Ú¯ÛĮØ± ÙĨØ¯Ùĩ
ĠØ¨ÙĨ Ø²ÙĨ
ĠÙħØ³Ø§ ÙģØª
ĠØ¹Ø¨ Ø¯ÛĮ
ĠÙħØ±Øº Ø¯Ø§Ø±Ø§ÙĨ
ĠÙ¾ÙĪ Ø³ØªÛĮ
ĠÙĩÙĦ ÙĨØ¯ÛĮ
ĠØªÙĪÛĮ ÛĮØª
ĠÙ¾Ø±Ø³Øª Ø§Ø±
ĠØ§Ø³ÙĦ ØŃÙĩ
ĠØªÙĩØ§ Ø¬ÙħÛĮ
ĠØ¨Ø± ÙĩÙħ
ĠØ¹ Ø·Ø±
ĠØ§Ø³ Ù¾Ø±
ÙĨØ§ ÙĪØ±ÛĮ
ĠØ§ÙĤØªØµ Ø§Ø¯ÙĩØ§ÛĮ
ĠØ²ÛĮØ± Ø³Ø§Ø²ÛĮ
ÙĪØ´ ÙĪ
ĠØ¹ÙĦÛĮ Ù¾ÙĪØ±
Ø¨Ø±Ø¯ Ø§Ø±Ø§ÙĨ
ĠØ¢Ø« Ø§Ø±ÛĮ
ĠÙħØŃØª ÙħÙĦ
ĠÙħØ¸ Ø§ÙĩØ±ÛĮ
ĠØ¨ÙĩØ± Ø§Ùħ
ĠÙĪÛĮØ¯ÛĮ ÙĪ
ĠØªØ¬Ùħ Ø¹Ø§Øª
ĠÙħÛĮÙĦÛĮØ§Ø± Ø¯ÙĩØ§
Ø¬ ÛĮÙĦ
ĠØ¨Ø± ÙĨØ¯Ú¯Ø§ÙĨ
ĠØ§Ø³Øª ÙĪØ¯ÛĮ
ĠÙĨÙģØª Ø§
Û¶ Û¶
ĠØ° Ø±Øª
ĠØ§ÙĨØªÙĤ Ø§ÙĦÛĮ
ĠØ³Ø§ÛĮØ± ÛĮÙĨ
ĠÛ±Û· Û´
ĠØ¢Ø³ Ùħ
ĠØ§ÙĨØ¹ Ú©Ø§Ø³
i m
ĠØ¨ Ú¯ÙĪÛĮÙĨØ¯
ĠÙĪ Ú©Ø§Ø±
Ø§Ø± ÛĮØ¯
ĠØ´ ÙģØ±
ÙĤ Ø±
Úĺ ÙĪØ§ÙĨ
ĠÙħØŃ Ø±Ùħ
ĠÛ±Û² Û¹
ĠØ±ÙĪØ´ ÙĩØ§ÛĮ
ĠâĢ ¢
ĠÛ²Û¹ Û°
ĠØ³Ø±Ø§ Ø¬Ùĩ
ĠÙĦØ· ÙħÙĩ
ĠØ³ÙĨØ§Ø±ÛĮ ÙĪ
ĠÙħØ¹ØªÙħ Ø¯
Ø§Ø±Ú¯ Ø§Ø¯
Ùĩ Ø´Øª
ĠÙħ Ø§Ø±Øª
ĠÙĪ Ø§ØªØ³
Ø§ÙĦ ÙħØª
ĠÙĨÛĮ Ø§ÛĮØ¯
ÙĪÙħ ØªØ±
Ø±ÛĮÚ© Ø§
ĠÚ©ÙĦ ÛĮÙĨ
ĠÙħÙĨØª Ø¸
Ø®ÙĪØ§Ùĩ Ø§ÙĨ
ÙĪØ¦ ÛĮØ¯
ĠØ³ÙĦØ· Ø§ÙĨ
ĠØ¹Ø² Øª
ĠÚĺÙĪØ± ÙĨØ§ÙĦ
Ø³ Ùģ
ĠØ¯Ø± ØµÙĪØ±Øª
ĠÚ©Ø´ Ú©ÙĪÙĦÛĮ
Û± Û°Û°
Ø´ÙĨ Ø§Ø³Ø§ÙĨ
Û¸ Û¸
ĠÚ©ÙĦ Ø³ØªØ±ÙĪÙĦ
ĠØªÙĤ Ø§Ø¨ÙĦ
ĠÙĨÙħ Ø§
ØªÙĪ ÙħØ§ÙĨ
Ø®ÙĪØ§ÙĨ ÛĮÙħ
ÙħØ¹ Ø§ÙĪÙĨ
ĠØ¯Ø³ØªØ§ÙĪØ± Ø¯ÙĩØ§
ĠÚ¯Ø±Ø§ÙģÛĮ Ú©
ĠØ¨ Ø³Ø§Ø²
Ùģ ÙĤÛĮ
ĠÙħÛĮ Ø´
ĠØŃ ÙĨØ§
Ø±ÛĮ ÙĤÛĮ
ĠÙĨÛĮ Ø³Ø§ÙĨ
Ø¢ ÙĨÛĮ
ĠØ¨Ø§Ø² ÙĪÛĮ
ĠÙĨØ§ ÚĨÛĮØ²
ÙħØ§ÙĨØ¯ Ø§Ø±Ø§ÙĨ
ĠÙ¾ÙĦØ§Ø³ ÙħØ§ÛĮ
ĠÛ´Û¶ Û°
ĠØ³ÛĮÙħ Ø§ÛĮ
ĠØ¯Ú©ÙĦ ÙĩØ§ÛĮ
ĠØ¬ÙĪØ´ Ú©Ø§Ø±ÛĮ
ĠØ¬ÙĪØ±Ø¬ ÛĮØ§
Ø¯ Ø´Øª
ĠØ¢ Øª
ĠÙĤ Ø§ÛĮÙĤ
Ø¦ ÛĮØ§ÙĨ
ĠÚ©ÙĨ Ú¯Ø§ÙĨ
ĠÙħØ¹ Ø§ÙĦ
ĠØ®ÙĪ Ø§Ùģ
ĠÙĨØ§ ÙĪØ¨Ø±ÛĮ
ĠÙĨØ§ ÚĺÙĪØ§ÙĨ
ĠØŃØ¶ÙĪØ± Ø´
Ø¬Ùħ Ø¹ÛĮØª
ĠÙ¾Ø§Ø³ Ø®ÛĮ
ĠØ¨ÙĨØ²ÛĮÙĨ ÛĮ
ĠØªØ§ÙĦ Ø´
ĠÙħÙĪÙĦ Ú©ÙĪÙĦ
ĠÛµÛ³ Û¹
ĠØ¬Ø³ Ø¯
ĠØ¨Ù¾Ø±Ø¯Ø§Ø² ÛĮÙħ
ĠØ¯Ø§Ø±ÛĮ ÙĪØ´
ĠØ·Ø§ÙĦ Ø¨ÛĮ
it y
ĠÙĨØ§ÙħØ·ÙĦ ÙĪØ¨
ĠÙ¾ Ø§Ø±Ùĩ
ĠÛĮ Ø²
ĠÙħØ³ Ø§ÙĦÙħØª
Ø¯Ùħ ÙĨ
ĠØ¹ÙĦ Ø§ÛĮÙħ
ĠÙĩÛĮ Ø¬Ø§ÙĨÛĮ
ĠØ§Ø® ÙĦØ§ÙĦ
Ø´Ùħ Ùĩ
ĠØ¢Ø³ Ø§ÙĨØ³ÙĪØ±
Ø§Ø¸ ÙħÛĮ
ĠÙħØ·ÙĦ ÙĤ
ĠÙĤØ§ÚĨØ§ÙĤ ÚĨÛĮØ§ÙĨ
ĠØ±Ø³Ø§ÙĨØ¯ ÙĨØ¯
ĠØ§Ú©ØªØ´Ø§Ùģ Ø§Øª
ĠØ³Ú©ÙĪ ÙĩØ§
ĠØ³Ùħ ÙĪÙħ
ĠÙħÙĨÙĪ ÚĨÙĩ
ĠØ³ ÙħÙĨØ¯
Ø§Ø¯ Ùħ
ĠÛĮ ÙĪØªÛĮ
ĠÙĨÙģØª Ø§ÛĮ
ĠØ¯ÙĪ Ø¨ÛĮ
ĠØ§Ø¬ ÙĨØ§Ø³
ĠÙĩØ± Ø§Øª
Û³ Û¶
Û· Û·
ĠØ§Ùĩ Ùħ
ĠØ¬ÙĪ Ø§Ø¯ÛĮ
ĠÙĩÙĨØ± Ø³ØªØ§ÙĨ
ĠÙĤØ§ Ø¦
ĠØªÙĩØ¯ÛĮØ¯ ÛĮ
ĠÛ´Û³ Û·
ĠØªÙħØ§Ø´ Ø§Ú¯Ø±
ĠØ®ÙĦ Ø®Ø§ÙĦ
ĠØ¶Ø±Ø¨ Ø§ÙĨ
ĠØ¨Ø²ÙĨ ÛĮÙħ
ĠØ¨ ÙĦØ§Ùħ
ĠØ¨Ø§ Ø¯Ø±
Ø±Ø¯ Ø§ÙĨ
ĠÚ©ÙĨ Ø¬
Ø¨Ø± Ø¬Ø§Ùħ
ÙĪØ² Ø§ÙĨ
ĠØ¯ÛĮ Ø´Ø¨
ĠØ³ÛĮ Ø§
ĠÚ©ÙĦ ÙħØ§Øª
ĠÙģØ±ÙĪØ´ Ø§ÙĨ
ĠÛ±Û´ Û±
ĠØ¬ÙĪ Ø§Ø²
ĠÙĪØ³ Ø·
ĠØ§ÙģØ²Ø§Ø± ÙĩØ§ÛĮ
ĠÙĦÛĮØ³ Ø§ÙĨØ³
ĠÙħÙĨÙĪÚĨÙĩ Ø±ÛĮ
r a
ÙĨ ÙĪØ¹
ĠØ¨ Ø§ÛĮØ±ÙĨ
Ùģ Ø´
ĠØ¹ Ø§ÛĮØ¯ÛĮ
ĠØ§ÙĨ ÛĮ
Ù¾ Ú©ÛĮ
ĠÙĤØ± Øµ
ĠØ§Ø³ØªØ§ÙĨ ÙĩØ§
ĠÙħØ±Ø¯ ÛĮ
ĠÙ¾Ø±Ø³ ÛĮØ¯
ĠÛ±Û¶ Ûµ
ĠÙ¾Ø§ÙĦØ§ÛĮØ´ Ú¯Ø±Ø§ÙĨ
ÙĦØ§Øª ÙĪØ±
ĠÙħØ±Ø§ÙĤ Ø¨ØªÛĮ
ĠF ATF
ĠØªØ¯Ø§Ø± Ú©Ø§Øª
ÙĪÚ¯ Ø±Ø§ÙģÛĮ
ĠÚ©Ø´ÙģÛĮ Ø§Øª
ĠØ¨Ø± ÛĮ
Ø· Ùħ
ĠÙģ ÙĪØ±Ø§ÙĨ
Ø±ÛĮ Ø¶
ĠÙĨÛĮ Ø§Ø±Ú©ÛĮ
ĠØ¯Ø§ÙĨ ÙĦÙĪØ¯
ĠØ¨Ø§Ø² ÙħÛĮ
ÛĮÙĨÛĮ Ø§ÙĨ
ĠØªØ¨ Ø¹ÛĮØª
Ø§ØŃ Ø¨
Ú©ÙĪ Ùģ
ĠØ§Ø´Ú© Ø§ÙĦØ§Øª
ĠØ´ Ø§Ø²ÙĨØ¯
ĠÙģ ÙĦØ§
ĠÙĩÙħ Ø¯ÛĮÚ¯Ø±
ĠÛ´ Û³Û°
ÙĪÙĨÛĮ Ø®
Ø§Øµ ØºØ±
Ú©Ø± Ø¯ÙĩØ§
ĠÙĨÙĪ Ø¸Ùĩ
ĠØ§ÙħÚ©Ø§ÙĨ Ù¾Ø°ÛĮØ±
ÙĪØ¦ ÛĮ
ĠÛ±Û¸ Û¶
ĠØ±ÛĮÛĮØ³ Ùĩ
ĠÙ¾ÛĮØ§Ùħ Ú©ÛĮ
ĠÙĩØ´Ø¯Ø§Ø± ÙĩØ§ÛĮ
ĠH u
ĠÙĤÙĦÙħ Ø±ÙĪ
ĠÙĤØ±ÙĤÛĮ Ø²Ø³ØªØ§ÙĨ
ÙĨ Ø§Ø²
ĠØ¨ Ø·Ø±ÛĮ
Ø¨ ÙĪÙħÛĮ
Ø® Ø·
Øµ ÙĨ
ĠÚ¯ Ø¬Øª
Ø§Ø¯ Ú¯Ø§ÙĨ
ĠØªØ¹ Ø§ÙħÙĦÛĮ
Ø§ÙĤ Ø¹ÛĮ
ĠÙħÛĮÙĦÛĮØ§Ø±Ø¯ ÛĮ
ĠÙ¾Ø± ÛĮÙĨ
ĠÙģØ¹Ø§ÙĦÛĮØª ÛĮ
ĠØ¨Ø§Ø± Ø§Ú©
ĠØ³ÙĨ Ø§ØªÙĪØ±
ĠÙĨØµ ÛĮØ±
ĠØ¹ÙĦÛĮ Ø®Ø§ÙĨÛĮ
ĠØºÛĮ Ø¨Øª
ĠÚ©ÙĪØ¨ Ø§
ĠØ¯Úĺ Ù¾Ø³ÙĨØ¯
ĠØ¯ÛĮØ§Ø¨ Ø§ØªÙĩ
Ø§ Ø¹Ø¯
Ø¨ ÙĨØ§
ĠØª ÙĪØ¯ÛĮ
ĠÙĨ Ø¨Ø§Ø´
ĠØ¢ Ø±Ø³
ÚĨ ÙĨØ§ÙĨ
ĠØ² ÙĪØ§ÙĦ
ĠØ¯Ø§Ø± Ø§Ø³Øª
ÙĪÙħ ÛĮÙĨ
ĠØ§ÛĮÙĨÚ©Ùĩ Ú©
ĠÛ´ Û±Û°
ÙģØ§ Ø¹ÛĮ
ĠØ¨Ø§ÙĦ Ú¯Ø±Ø¯
ĠØªØ´Ú©ÛĮÙĦ Ø§Øª
ĠØ¨ÙĪ Ú©Ø³
ĠÚ©ÙĦØ§ÙĨØ´ÙĩØ± ÙĩØ§ÛĮ
O S
ÚĨ Ø±Ø®
Ø¨Ø± Ø§Ø³
ĠØ§ÙĤ ÙħØ§Ø±ÛĮ
ĠØ¯ÙĪ Ø§Ø²Ø¯ÙĩÙħÛĮÙĨ
ĠØ§Ø´ Ø¨Ø§Ø¹
ĠØ¯ÙĪÙĦ ØªÙħ
ĠÙĨØ§ Ø®ÙĪØ§Ø³ØªÙĩ
Ú©ÙĪ ÙĪÛĮÚĨ
ĠÛ±Ûµ Û¸
ĠÛ±Ûµ Û³
ĠÙ¥ ÙłÙł
ĠÙĨØ¯Ø§Ø¯ ÙĨØ¯
ĠÙħÛĮÚ©Ø±ÙĪ Ø¨
ĠÙħÙĪÙĨ Ø³Ø§ÙĨ
ĠÙħØ±ÛĮ Ø®
ĠÚ©Ø§ÙĨØ¯ÛĮØ¯ Ø§ÛĮ
ĠÙħØµØ¯Ø§ ÙĤ
ĠÙ¾ Ø®Øª
ĠÙĨÛĮ ÙĪØ²ÛĮ
ĠØªØŃ ÙħÛĮÙĦÛĮ
ĠØ¯Ùĩ ÙĦ
Ø§Ú© Øª
ĠÛ±Ûµ Û¶
Ù¾Ø± Ø³Øª
ĠÙħØªØ¹ Ø§ÙĤØ¨
ĠØŃÚ© ÙħÛĮ
ĠØ±ØŃ ÛĮÙħ
ĠÚĨØ´ ÙħÛĮ
ĠØ¶Ø® Ø§ÙħØª
ĠØŃÙĪØ¶ ÚĨÙĩ
ĠØ¬Ø±Ø§ Ø¦Ùħ
ĠØ§Ø³ØªÛĮÙĨ Ø§Ùģ
ĠØ¢Ø´Ù¾Ø² Ø®Ø§ÙĨÙĩ
ÙĪ Ø¬Ùĩ
Ø§Ø± Ø§ØªÛĮ
ĠØ³ ÛĮØª
ĠÙĩ ÛĮØ±
ĠÙĩÙħ Ú¯Ø±Ø§ÛĮÛĮ
ĠÚĨ Ùħ
ĠÙĦ ÙĨÚ¯Ø±
ĠØ¯ÙĪ Ø§Ø²Ø¯Ùĩ
ĠÙħØª ØµØ¯ÛĮ
ĠÙĨØ® Ø§ÙĦÙĩ
ĠØ¨Ø²Ø±Ú¯ Ø¯Ø§Ø´Øª
ĠÛ±Û´ Û¶
ĠÙ¾ÙĪ Ú©ÛĮ
ĠØ§ÙĦØ¹ ÙħÙĦ
ĠØ¢Ø±Ø§ Ø¡
ĠÙĨØ§ÙĤ Øµ
Ø³Ø±Ùĩ ÙĨÚ¯
ĠÚ© ÛĮÙħ
Ø§Ø±Ø¯ ÛĮ
ĠØ§Ø¯ Ø¨
ĠÙĨÙħØ§ÛĮ ÛĮØ¯
ĠÙ¾Ø§Ø³ Ø§Ø±Ú¯Ø§Ø¯
ĠÛ²Ûµ Û°Û°
ĠÛ²Û³ Û¸
ĠÚ¯Ø±Ùħ Ø§ÛĮØ´
ĠÚ¯Ø°Ø§Ø´Øª ÛĮÙħ
ĠØ®Ø¯Ø§ ØŃØ§Ùģ
ĠÙħØ¨Ø§ØŃØ« ÛĮ
Ø³Ø§ Ø¹Øª
at e
ĠÚ©Ø§Ø³Øª ÙĨ
ĠÙĨÙĪØ² Ø¯ÙĩÙħ
ĠØ¯Ø± Ø¨ÛĮ
Ø¹ ÙĤ
ĠØŃ Øµ
Ø±ÙĪ ÛĮÙħ
Ú©ÙĨ Ùĩ
ĠÙĤØ± Ø¢ÙĨÛĮ
ĠÚ¯Ø§Ø² Ø¯Ø§Ø±
Ø§Ø±Ø§ÙĨ ØªÛĮ
ĠÙħØ´Øª Ø§ÙĤ
ĠÙħØ±ØŃÙĦÙĩ Ú©
Ø¨ÛĮÙĨ Ø§ÙĨÙĩ
ĠØ¯Ø±ÛĮ Øº
ĠØ§Ø³Ù¾ Ø±ÛĮ
ĠØ¨ÛĮØ³Øª ÙħÛĮÙĨ
ĠØ±Ú¯ ÙĪÙĦØ§Øª
ĠØ§ÙģØªØ® Ø§Ø±Ø§Øª
ĠÙħÙĨØ¬ ÙħØ¯
ĠÙħÚ©Øª ÙĪØ¨
ĠÙħÚ¯Ø§Ù¾ÛĮÚ©Ø³ ÙĦÛĮ
Ùħ ÙĨØ§
ĠÚ© ÛĮÙĩ
ĠØª ÙĦÙĩ
ĠÙĨ ØªÙĪØ§ÙĨÙĨØ¯
ĠØ¨Ùĩ Ø±ÙĪØ²
ĠØ±ÙĪ ÙħØ§ÙĨÛĮ
ĠÙħÙĨ Ø²ÙĦÙĩ
ĠØ§Ø³ Ú©ÛĮ
ĠØ§Ø± Ø¶ÛĮ
Ø§ÙĦÛĮ Ø³ØªÛĮ
ĠØ±ÛĮ Ø§ØŃÛĮ
ĠÙ¾Ø§ÛĮ ÛĮÙĨÛĮ
Û³ Û¸
ĠÚ©Ø³ Ø¨Ùĩ
ĠÛ±Û² Û²
ĠÙĪÙĦÛĮ Ø¹ÙĩØ¯
ĠÙ¾Ø§Ú© Ø³ØªØ§ÙĨÛĮ
ĠÙĨØ¬ ÛĮÙħÛĮ
ĠÙ¾Ø±Øª Ø±Ø¯Ø¯
ĠÙħØµØ¯ ÙĪÙħØ§ÙĨ
ĠÙ¾Ùĩ ÙĦÙĪ
ĠØ¯Ø±Ø®Ø´ Ø´
ĠÙ¾ÛĮØ´ÙĨÙĩØ§ Ø¯ÙĩØ§
ĠÙ¾ÙĪØ±Øª ÙĪ
ĠÙħÙĩØ§Ø¬ Ø±Ø§ÙĨ
ĠÚ©ÙħØ±Ø¨ ÙĨØ¯ÛĮ
ĠÙĩÙĪØ´ÛĮ Ø§Ø±ÛĮ
ĠØ¢ÙĨØª ÙĪÙĨÛĮ
ÙĦ Ø§ÙĨÛĮ
ĠÙĪ Ø§ÛĮ
ĠØ´ ÙĩØ§Ø¨
ĠØ® ÛĮØ±Ùĩ
ĠØ§Ø³Øª ÛĮÙĦ
ĠÙĦ Ú©
ĠÙģØ± Ø´ÛĮØ¯
ĠØ³ÛĮ Ø§ÙĦ
Û³ Û´
ĠØ±Ø§ÙĩÚ©Ø§Ø± ÙĩØ§
ĠÛĮØ²Ø¯ Ø§ÙĨÛĮ
ĠØ±ØŃ ÙħØª
ĠÙ¾Ø±Øª ÙģÙĪÛĮ
ĠØªØµÙĪÛĮØ± Ø¨Ø±Ø¯Ø§Ø±ÛĮ
ĠØŃØ± ÛĮØ±
ĠØ§ÙĦÚ© Ø§Ø¸ÙħÛĮ
ĠÚ©Ø§Ø±Ø¢Ú¯Ø§Ùĩ Ø§ÙĨ
ĠÙ¾Ø±ÙĪØ± Ø´ÛĮ
Ø§ÙĨ Ø¬Ø§ÙħØ¯
ĠØ¹ Ø§Ø¨Ø±
Ø³ÛĮ Ø§
ĠÙħÙĪ Ø¨ÛĮÙĦ
ĠØ³Ø§ÙĦ ÙĩØ§
ĠÙĩØ²Ø§Ø± ØªÙĨ
Ø¢ Ú¯ÙĩÛĮ
ĠØ§ÙģØ²ÙĪØ¯ ÙĨ
Ø´ÙĨ Ùĩ
ĠØ±Ø§Ùĩ ÙĩØ§ÛĮ
ÙĪÙĤ Øª
ĠÛ±Û´ Û²
ĠØ¨Ø®Ø´ÛĮ Ø¯Ùĩ
ĠØªØ§Ø±ÛĮØ® ÚĨÙĩ
ÙĦÙĪ ÚĨØ³ØªØ§ÙĨ
ĠØ³Ø®ÙĨ Ø±Ø§ÙĨ
ĠÚ¯ÙĪÙĨØ§ Ú¯ÙĪÙĨÛĮ
Ø§ÙĨ ÙĪÙĨØ¯
ĠÚ© ÙĪØ§Ø±
âĢĮ âĢı
ĠØª Ø§ÙĦÛĮÙģ
ĠØ± ÙĨ
ÙĤ Ø¶
Ø· Ø±ÙģÙĩ
ĠØŃ Ø´
ĠØ±Ø§ Ø¨Ø±Øª
ĠØ´Ø¯Ùĩ Ú©
Ø¢ Ø¨ÛĮ
ĠÙħØ³ ÙĨ
ĠÙħØ§Ùĩ Ø±
ĠÙĩØ¯Ùģ ÙĪÙĨ
ĠÙĨØµ ÛĮØ±ÛĮ
ĠÙħØªØŃ Ø±Ú©
ĠÙģÙĪÙĦØ§Ø¯ Ø´ÙĩØ±
ĠØ¯Ú©ØªØ± Ø§ÛĮ
ĠØ§ÙĦÙģ ÛĮÙĨ
ĠØ§ÙĩØ¯Ø§ ÙģÛĮ
ĠÙĨÙĪØ² Ø§Ø¯Ø§ÙĨ
ĠÚ¯ÙĦÙĪ Ú¯Ø§Ùĩ
ĠØ¯ÙĪÙĦØªÙħ Ø±Ø¯Ø§ÙĨ
P D
ĠÙĨ ÙħØ§ÙĨØ¯
ĠØ´ Ú©ÛĮ
ĠØ³ Ø§Øª
ĠÙħÛĮ Ø´ÙĪØ¯
ĠØ¹ Ø§Ø·
ĠØ§Ùħ ÛĮ
ĠÙħÙĨ ÙĤ
Ú©ÙĨ Ø´ÛĮ
ÙĨØ¯Ùĩ Ø§
ĠØ®Ø§ÙĨ Ú¯ÛĮØ±Ø§ÙĨ
ĠØ¨Ø²Ø±Ú¯ ØªØ±
ĠÚ¯Ø±Ø¯ ÙĪ
ĠØ§Ø±Ø² Ø¨Ø±ÛĮ
ĠØªÙģ ÙĪÛĮ
ĠÙģØ´Ø§Ø± ÙĩØ§
ĠÙ¾ÛĮØ±Ø§Ùħ ÙĪÙĨÛĮ
ĠÙĨØ§ÙħÛĮ Ø¯Ùĩ
ĠÚ©Ø§Ø±Ø¯ Ø±
ĠÙħØ±ÙĪ Ø§Ø±ÛĮØ¯
ĠÙĨÛĮÙĪØ²ÛĮ ÙĦÙĨØ¯
Ø¹ Ø¯ÛĮ
ĠØ± Ø¨Ø¹
ĠÙĩ ÛĮÙĦ
ĠÙ¾ ÛĮØ¯
Ø§Ø¯ ÙĪ
ĠÙģ ÙĪÙħ
ĠÙħØ· Ø¨
ĠØ¯ÙĦ Ø³ÙĪØ²
ĠØ¢Ø³ÛĮ Ø¨ÛĮ
ĠØªÙĪØ± ÙĨ
ĠØŃØ¯ Ùģ
ĠØ³Ø±Ø¯ Ø±Ú¯
ĠØ¨ØªÙĪØ§ÙĨ Ùħ
ĠØ¯ Ø´ØªÛĮ
ÛĮÙĨ Ø²
ĠØ± ÛĮØª
ÙĨØ¯ Ú¯Ø§ÙĨÛĮ
ĠÙģ Ø´
ĠÙĩÙħ Ø§ÛĮ
ĠØ¨Ø±Ø§ÛĮ Ùħ
ĠØ§Ø³ Ø¯ÛĮ
ĠØ§Ø³ Ø¨Ø§Ø¨
ĠÙĩÙĪ ÛĮØªÛĮ
ĠÙħÙĨØª ÙĤØ¯
ĠØ§ÛĮØ³Øª Ø§Ø¯
ĠØŃÚ© Ø§Ùħ
ĠØ³ÙĦ ÙĪÙĦÛĮ
ĠÙĩÙĨØ¯ ÙĪØ³ØªØ§ÙĨ
ÚĨÛĮ ÚĨ
ĠØ¨ÙĩØ± Ø§ÙħÛĮ
ĠÙĩÙħØ³Ø± Ø´
ĠØ§ÙħØª ÙĨØ§Ø¹
ĠØµØ¯Ùħ Ùĩ
ĠÙħØ³ØªØ§Ø¬ Ø±Ø§ÙĨ
ĠØ±Ú¯ÙĪÙĦØ§Øª ÙĪØ±ÛĮ
a y
Ùħ Ø§Ùħ
ĠØ¯ Ø§ÙĦØ§ÙĨ
ĠØ® Ø§ÙĦ
Ø· Ø±ØŃ
ĠÙĤ ÙģÙĤ
ĠØ§Ùħ Ø±ÙĪØ²ÛĮ
Ù¾ ÛĮÙħØ§ÙĨ
ĠÚĨ ÙĪØ¨ÛĮ
Øº Ø±Ø¨
ĠÚ©ÙĨ ÛĮ
Ûµ Û´
ĠØ®Ø¨Ø± Ø¢Ú¯ÙĩÛĮ
ĠØ§ÛĮ Ø§ÙĦØªÛĮ
ĠÙħÙĤ ÛĮÙħÛĮ
ĠØ¯Ø§ÙĨ Ø´ÛĮ
ĠØ¨Ø¹ Ø¯ÙĩØ§
ĠÙĪØ¶ ÙĪØŃ
ĠØ±Ø¶ ÙĪØ§ÙĨ
ĠÙĨÚ©Ø±Ø¯ ÛĮÙħ
ÙĨØ¬Ø§ÙĨ Ø¯Ùĩ
ĠØ´Ø§ØºÙĦ Ø§ÙĨ
ĠØªØ¯Ø§Ø±Ú© Ø§ØªÛĮ
ĠØ·Ø§Ø± ÙħÛĮ
ĠØ´Ø±ÛĮØ¹Øª ÙħØ¯Ø§Ø±ÛĮ
Ø§Ø± Ø¬
ĠÚ¯ Ø§Ø±Ø§ÙĨØªÛĮ
Ø±ÙĪ ÛĮÙĩ
Ù¾ Ø²ÛĮ
Ø« ÙĤ
ĠØ§Ø¬ Ø¨Ø§Ø±
ĠÙħØ± Ø¬
ĠØ§Ø´ Ø¹Ø§Ø±
ĠÙħÛĮØ§ÙĨ ÙħØ§Ø±
ĠØ·Ø¨ÙĤ Ø§Øª
ĠØ³Ø±Ø¯ Ø±Ø¯
ĠØ±ÙĪØº ÙĨÛĮ
ĠÛµÛ¶ Û°
ĠÙħØŃØ±Ú© Ùĩ
ĠIS O
ĠÙĨÙĪØ¸Ùĩ ÙĪØ±
ĠØŃØ±ÛĮØ± ÚĨÛĮ
ĠØ¨ Ù¾ÛĮÙĪÙĨØ¯
ĠÙĨ Ù¾Ø°ÛĮØ±
ĠØ± Ø´ÛĮØ¯
ĠÚ¯ ÙĨØ¬Ø§ÙĨØ¯Ùĩ
ĠØ§ÙĨ Ø§Ø±
ĠØ· ÙĨØ²
ĠÚĨ Ø±Ùħ
ĠØ¶ Ø§Ø¨Ø·
ĠØªØ± Ùħ
ĠØ¨Ø§ÙĨ Ú©Ø±
ĠØ¨ÙĦ ÙĨØ¯ÛĮ
ĠÙĦÛĮ ÙĪÙĨ
ĠØ§ÙħÛĮØ¯ ÛĮ
ĠÛ±Ûµ Û²
ĠØ´Ú© ÙĪÙĩ
ĠØ§Ø³ØªÙĤÙĦ Ø§ÙĦÛĮ
ĠÙħØ´Ùĩ Ø¯ÛĮ
Ø§Ø¨Ø±Ø§Ùĩ ÛĮÙħ
ĠØ¨ ÙĦØ§ÛĮ
Ú© Ø²ÛĮ
ĠÙ¾ Ø³ØªÙĩ
Ø· Ø¦Ùĩ
ĠØ§Ùģ ÙĤÛĮ
Ø±Ø§ ÙģØª
ĠØ¨ÛĮ Ø¬Ø§Ø±
ĠÚ©Ø± Ø§ÙħØª
ĠÙĦ ÙĪÚ¯ÙĪ
ĠØ³Ø± ÙĨØ´ÛĮÙĨ
ĠØªÛĮÙħ ÙĪØ±ÛĮ
ĠØ§ÙĨØ±ÚĺÛĮ ÙĩØ§ÛĮ
ĠÚ¯ÙĦ Ú©Ø³ÛĮ
ÙĨØ´Ø§ÙĨ Ø§ÙĨ
ĠÛ²Û³ Û²
ĠÙħØº Ø°ÛĮ
ĠÙĨØ§Ø¨ Ø³Ø§Ùħ
ĠÙħØŃØ§Ùģ ÙĦ
ĠØªÙĨÚ¯ Ø§Øª
ĠÙħÙħØª ÙĨØ¹
ĠÙħÙĨÙģ Ø¹Øª
ĠÙħØ²Ø§ØŃ Ùħ
ĠÙħÙĦØ§ÛĮ Ø±
ĠØ¨ ÙĪÙĦ
ĠØª ÛĮØ±Ùĩ
ĠØ¨Ø± ÙĪÚ©Ø±
ĠØ¯Ø§ ÙĪØ¯
ĠØ§Ø±Ø² Ø¢ÙĪØ±ÛĮ
ĠØ¹Ø±Ø¨ Ø³ØªØ§ÙĨÛĮ
ĠÚ©Ø§Ø±Øª Ø®ÙĪØ§ÙĨ
ĠÙ¡ ÙłÙł
ĠÙ¡Ù ¦
ĠØ´Ú©Ø³Øª ÙĨ
ĠØ§Ø±Ú© Ø³ØªØ±
ĠÙħØªØºÛĮØ± ÙĩØ§ÛĮ
ĠÚĺÙĨØªÛĮ Ú©
ĠÙħÙĩØ¯ ÙĪÛĮ
ĠÙģÙĪØªØ¨ Ø§ÙĦÛĮ
ĠØªÙģÙĪÛĮ Ø¶
Ġ +
Ú© ÙĪÙĨ
ĠÙħ ÙģÙĤ
ĠÙħ ØºÙĦ
ĠØ¨Ùĩ Ø§Ø±ÛĮ
Ø§ÙĦ Ø¨ÛĮ
Ø±Ø§ Ø¶ÛĮ
ĠÙħÙĪ Ø²
ĠÚ©ÙĨ Ø´
ĠØ§Øµ ÙĦÙĩ
ĠÚ¯Ø° Ø±Ø§ÙĨ
ĠØªØ¹ Ø±Ø¶
ĠÚ©ÙĦ Ø³ÛĮÙħ
ĠØ¨Ø¯ ÙĨØ¨Ø§ÙĦ
ĠÛ±Û´ Û¸
ĠÛ±Û± Û¹
ĠØ¬ÙĪØ§ÙĨ Ø¨
ĠÙħØªÙĤ Ø§Ø¹Ø¯
ĠÙħØŃØ³ ÙĪØ³ÛĮ
ĠØŃÛĮ ÙĪØ§ÙĨÛĮ
ĠÛ³Û± Û°
ĠØ¨ÛĮØ± Ø§ÙĨÙĪÙĨØ¯
ĠÚ©Ùģ Ø§ÛĮØª
ĠØ®Ø¯Ø§ØŃØ§Ùģ Ø¸ÛĮ
) :
Ùħ Ø§Ø¯ÛĮ
ĠØ¨ Ø°Ø±
ĠÙĪ ÙĦÙĪ
ĠÙĪ ÙĨØªÛĮ
ĠØ³ Ø§Ú©Ø³
ĠØ±ÙĪ Ø§Ø¯
Ú©ÙĨ ÙĪ
Øº Ø±Ø¨ÛĮ
ĠÙĤØ±Ø§Ø± Ú¯ÛĮØ±ÛĮ
ĠØ¹ÙĦØ§ Ø¦ÙħÛĮ
ĠÙģØ´Ø§Ø± Ø®ÙĪÙĨ
ĠÙħØ¬ÙĪØ² ÙĩØ§
ĠâĢ¦ ØĮ
ĠØ³Ø±ÛĮØ¹ Ø§
ĠÙħØ¬ØªÙħØ¹ ÙĩØ§ÛĮ
ĠÙ¢ Ù¥
ĠØ¨Ø§Ø¨ ÙĦ
ĠØºÛĮØ±Ùħ ÙħÚ©ÙĨ
ĠØ¨ÛĮØ¯ Ø§Ø±
ĠØºÙĦØ§Ùħ ØŃØ³ÛĮÙĨ
ĠØ¹Ø¨Ø¯Ø§ÙĦ Ø±Ø¶Ø§
ĠØ§Ø° ÙĩØ§ÙĨ
ĠØ®Ø¯ Ø´Ùĩ
ĠØ§ÙĤØªØµØ§Ø¯Ø¯Ø§ÙĨ Ø§ÙĨ
ĠÚ©ÙĦØ§Ùħ ÛĮ
aw ei
a g
ĠØ¨ ÙĪØ³
ĠÙĪ ÙĪÙĨ
ĠØµ Ø§Ø¨ÙĪÙĨ
ĠÙħÙĨ Ø²
Ø¨Ø± Ø§Ø¨Ø±
ĠØ§ØŃ Ø¶
ÙĪØª ÙĪ
ĠÚĨÙĩØ§Ø± Ø¯ÙĩÙħ
ĠÚ©ÛĮÙĦ ÙĪÛĮÛĮ
ĠÙĤØ±Ø§Ø±Ø¯ Ø§Ø¯ÙĩØ§ÛĮÛĮ
ĠÙħØŃÙħ Ø¯ÙħÙĩØ¯ÛĮ
ĠØ¢Ø³ ÙħØ§ÙĨÛĮ
Ø§ÛĮÙĨ Ø§Øª
ĠØ³Ø±Ø® Ø³
ĠÙħØ±ÛĮ ÙĪØ§ÙĨ
ĠØ¢Ø±ÚĺØ§ÙĨØª ÛĮÙĨÛĮ
ĠØ®Ø§Øª Ùħ
ĠØ³ÙĨØ§Ø±ÛĮ ÙĪÛĮ
ĠÚ©Ø±ÙĪ Ø§Ø³ÛĮ
ĠØµÙħÛĮÙħ Ø§ÙĨÙĩ
ĠØ¯ÙĩÙĦ Ø±Ø§ÙĨ
ĠØ¨ ØªÙĪØ§ÙĨÛĮØ¯
ĠØ¯Ø± Ø¯ÙĩØ§ÛĮ
ĠØ³ Ø§ÙĨØª
ĠÙħÛĮ Ø´ÛĮ
Ø§Øª ÛĮÙĦÙĨ
ĠØ¹ Ø§Ø¬
ĠØµ ÙĪØª
ĠØ§ÙĨ Ø²
ĠÙĦ Ø§ÙĦÛĮ
ĠÙĦ Ø§ÙĪØ±
ĠØ§Ø³ ÙĤ
ĠØ¯Ø³Øª Ú©Ø§Ø±ÛĮ
ĠØ³Ø§Ø² ÙĩØ§
ĠØ§ÙĦ Ú¯ÙĪÛĮÛĮ
ĠØªÙĪØ³ ÙĦÛĮ
ĠØ§Ø´ Ø±Ø§Ùģ
Ø§Ø¯Ø± Øª
ĠÙħØ¨ Ø§Ø¯Ø±Øª
ĠÛ±Û´ Û³
ĠØ§ÙĪÙĦÙĪÛĮØª ÙĩØ§ÛĮ
ĠØ§Ù¾ Ø±Ø§ØªÙĪØ±ÙĩØ§ÛĮ
ĠÚ¯ÙģØªÚ¯ÙĪ ÙĩØ§ÛĮ
ĠÙħØ¹ÙĦ ÙĪÙĦÛĮÙĨ
ĠÙħØº ÙĨØ§
ĠÛ³Û· Û°
ĠÚ¯ÙĪÛĮ Ø§ÛĮ
ĠØ®ÙĪØ´ØŃ Ø§ÙĦÛĮ
ĠØ³Ø±ÚĨ Ø§ÙĩÛĮ
ĠÚ¯ ÙĦÙĩ
ĠØªÙĪ Ø·Ø¦Ùĩ
ĠÙĪÛĮ Ø²
ĠÙħÙĪ ÙģÙĤÛĮ
ĠØ¢Ùħ Ø§ÛĮØ´
ĠØ³Ø± ÙħØ§ÛĮ
ĠÙħØ¬ Ø±Ø¯
ĠÚ©Ùħ Ø§
ĠØ®Ø§Ùħ ÙĪØª
ĠØ³Ùģ Ø±ÛĮ
ĠÛ±Û¸ Ûµ
ĠØ¯ÛĮØ± ÛĮÙĨÙĩ
ĠÙħØ¯Ø§Ø± Ø¨Ø³ØªÙĩ
ĠØ§ÛĮÙĨØ³ØªØ§Ú¯Ø± Ø§ÙħÛĮ
ÙħØ¬ ÛĮØ¯
ĠÙħØ¹Øµ ÙĪÙħÙĩ
o c
Øª Ùĩ
Ø® ÙĪÙĨÛĮ
ĠØ® Ø§Ø´
ĠÚ¯ ÛĮØª
ĠØŃ ÙħØ¯
ĠØŃ Ø§ØµÙĦÙĩ
ĠÙĤ ÙĦÙĩ
ĠØ¯Ø§ Ø³ØªØ§ÙĨÛĮ
ĠÚ©Ø±ÙĪÙĨØ§ Ø³Øª
ĠØ±Ø§Ùĩ Ú¯
ĠØ±Ø§Ùĩ ÙĨÙħØ§
ĠØ´ÙĪØ± ÙĪÙĨ
ĠÛ· Û²Û±
ĠØ®Ø¯Ùħ ØªÛĮ
ĠÙĪØ± Ø§ÙħÛĮÙĨ
ĠÙ¾Øª Ø§Ø³
ĠÙ¾Ø§Ø± Ø§
ĠØ§ØªÙģØ§ÙĤ Ø§
ĠÙħÛĮØ± Ø²Ø§
ĠØ®ÙĦÛĮ ÙĦÛĮ
ĠØ¹Ø¨Ø¯ Ø§ÙĦØ¹
ĠØ´Ø§Ø¹ Ø±Ø§ÙĨ
ĠØ¨ÙĪØª Ø§ÙĨ
ĠÚ©ÛĮØ§ÙĨ ÙĪØ´
Øª Ø±Ú©
ĠÚ© ÙĪØ§ÙĨ
ĠÚ© ÙĪÛĮ
ĠØ¢ ÙĪÛĮ
ĠØ³Ø± Ø§ÛĮ
ĠÛ· Û²Û°
ĠÙĨØ§ Ú¯Ø²
ĠÙĨØ§ Ø§ÙħÛĮØ¯
ĠÙģÙĨØ§ ÙĪØ±Ø§ÙĨ
ĠÚ¯Ø±ÙĪÙĩ Ú©
Ø´Ùħ Ø§Ø±Ùĩ
ĠØ§Ø´Øª Ø±Ø§
ĠÙĨØ¨ Ø§ØªÛĮ
Ø·ÛĮ Ø³ÛĮ
ĠØ¹ÙĦÙħ Ú©
ĠØªØµØ§ÙĪ ÛĮØ±ÛĮ
ĠØ¬Ø§Ø³ ÙĪØ³ÛĮ
ĠØ³Ø§Ø± ÙĤØ§ÙĨ
ĠØ§ÙĦØ§ Ø¬
ĠØŃØ¯Ùģ Ø§ØµÙĦ
Ø³Øª Ø±Ø³
ĠØ³ Ø¦ÙĪÙĦ
ĠØ¨Ø± ÙĪÙħ
ĠØ¹ Ø§ÙħÙĩ
ĠÚ©Ø§Ø± Ø´Ø§ÙĨ
ĠÙħØª Ø¯Ø§
ĠØ§Øµ ÛĮÙĦ
ĠØ³Ùĩ ÙĦ
ĠØ§Ø´ Ø¹Ùĩ
ĠØ³ÙĪ Ø¦ÛĮ
ĠØ´ÙĩØ±ÛĮ Ø§Ø±
ĠØ§ÙĨØ¯ Ø±Ú©Ø§Ø±Ø§ÙĨ
ĠÙģÙĪ Ø§ÛĮØ¯
ĠØ§ÙħÙĨ Ø§ÛĮ
ĠØ¬ÙĦÙĪ ØªØ±
ĠØ´ÛĮØ± Ø¢ÙĦØ§Øª
ĠÛ±Û· Û¶
ĠÙ¾ÙĪÙĦ Ø´ÙĪÛĮÛĮ
ĠØ¯Ø§Ùħ Ø¯Ø§Ø±ÛĮ
ĠØ§Ø¨Ø²Ø§Ø± ÙĩØ§
ĠØ¯Ø¹ Ø§ÙĪÛĮ
Ø³Ø§ÙĨ ØªØ±Ùĩ
ĠØ´Ø³Øª Ø´ÙĪÛĮ
ĠØ¨Ø±Ø§ÙĨ Ú¯ÛĮØ²
ĠÚĺÙĨ Ø±Ø§ØªÙĪØ±
ĠØ¢Ø±Ø² ÙĪ
ĠØªÙĦÚ¯Ø± Ø§Ùħ
ĠÙĤÙģÙĤ Ø§Ø²
ĠØ±ÙĪØ§Ø¯ ÛĮØ¯
Ø§ÙĨ Ø¹
ĠØ§Ø³Øª Ø±Ø¯Ø§Ø¯
ĠØ¹ Ø§Ø±Ùģ
ĠÙĦ Ø§ÙħÙ¾
ĠÚ©Ø§Ø± ÙĦ
ĠØ§Ø¯ ÙĪØ§Ø±
ĠÙĨÛĮØ§Ø² ÙħÙĨØ¯Ø§ÙĨ
ĠÙĩÛĮÚĨ Ú©Ø³
ĠÙħØŃØ§Ùģ Ø¸
ĠÙģØ±Ø§Ø³ Ø§ØŃÙĦ
ĠÙħØ®ÙģÛĮ Ú¯Ø§Ùĩ
ĠÙ¾Ø§Ø´ ÛĮÙĨÛĮØ§ÙĨ
ĠØ¯Ø±ÙĨ ÙĩØ§ÛĮØª
ĠÙħØ¸ÙĦ ÙĪÙħÛĮ
ĠØŃÙĨØ§ ÚĨÛĮ
ĠÙħÛĮØ´ÛĮ Ú¯Ø§ÙĨ
Ø§ Ø´ØªÙĩ
ĠØ§Ø² Ø³Ø±
ĠÚ¯ ÙĪØ±Ùĩ
ĠØ¢ Ú©Ø³
ĠÙģ Ø§Ú©Ø³
ĠØ¨ÛĮ ÙĪØªÛĮÚ©
ĠÙģØ± ÙĤ
ĠØ¬Ø§ÙĨ Ø¨Ø§Ø²Ø§ÙĨ
ĠØ³ÛĮØ³ØªÙħ ÙĩØ§ÛĮ
ĠÙħÙĤØ± Ø±ÛĮ
ĠÚ¯ÛĮØ± Ø§ÙĨ
ĠØ§ÙħØ¶Ø§ Ø¡
Û±Û³ Û¹Û¹
ĠÙħÙĨØªØ® Ø¨Ø§ÙĨ
ĠØ³ÙĪØ² Ø§ÙĨØ¯ÙĨ
ĠÚ©Ø±Ú© ÙĪÚ©
ĠÙħØ²Ø§Ø± Ø¹
ĠÙĨØ§Ú¯Ø² ÛĮØ±
Øª Ø§Ø²Ú¯ÛĮ
Ø§ÛĮ ØªÛĮ
ĠØ³ ØŃØ±
ĠØ¢ ÙħÛĮØ²ÛĮ
Ø±ÙĪ Ø¹ÛĮ
ÙĤÛĮ ÙĤÙĩ
Ø®ÙĪ Ø§Ø¨ÛĮ
ĠÙ¾Ø± ØªÙĤØ§ÙĦ
ĠØºÛĮØ± Ø¨ÙĪÙħÛĮ
ĠÚ©Ø§ Ø´ØªÙĩ
ĠØŃØ¯ Ø§Ø¯ÛĮ
ĠØ´Ø¯ÛĮØ¯ ØªØ±
âĢı âĢı
ĠØªÙĪØ¦ ÛĮØªÛĮ
ĠØ®ÙĦ ÙĦÛĮ
ĠÚ©Øª Ø§Ø¨ÛĮ
ĠØ¢ÙĨØ§Øª ÙĪÙĦÛĮ
Ø± ÙĪÙĨ
Øª ÛĮÙħ
Øª Ø±Ø§
ĠÙĪ Ú©ÛĮ
ÛĮØ¯ Ø±Ø§Øª
Ú¯Ø± Ø¯ÙĩØ§ÛĮ
ĠØ±ÙĪØ² ÙĩØ§ÛĮÛĮ
ĠØ§ÙĦ Ø±ÛĮØ§ÙĨ
ĠØ¨Ø§ÙĨ ÙĪÛĮ
ĠØ®Ø· ÛĮØ¨
ĠÙ¾Ø± ØªÙĪ
ĠØ§Ø®Øª ÛĮØ§Ø±ÛĮ
ĠØ¬Ø§Ùħ Ø¯
ĠÚ¯ÙĦ Ø¯ÙħÙĨ
ĠØ³ÙĨ ÙĪØ§ØªÛĮ
ĠØ·Ø±Ùģ Ø¯Ø§Ø±
ĠØ¯ÙĨÛĮ Ø§Ø³Øª
ĠÙ¾ÛĮØ§Ùħ Ø¨Ø±
ĠÙĨØ§ÙĨ ÙĪØ°
ĠÙĨØªÙĪØ§ÙĨØ³Øª ÛĮÙħ
ĠÚ¯Ø±ÛĮ Ø¨Ø§ÙĨ
u l
ÙĤ Ø§Ø³Ùħ
Ø§ÙĨÛĮ Ø§ÙĩÙĪ
ĠÚ©ÙĨ ÙģØ±Ø§ÙĨØ³ÛĮ
ÙĪØ±ÛĮ Ø³
ĠØ´Ùĩ Ø¨Ø§Ø²ÛĮ
ĠÙĩØ± Ø§Ø²
ĠÙħØ± Ø§Ø³ÙħÛĮ
ĠØ³ÙĪ Ú¯
ĠØªØ´ Ú©
ĠÙģØ±Ùĩ ÛĮ
ĠÙĩØ¯Ùģ Ú¯Ø°Ø§Ø±ÛĮ
ĠØ¹Ø¶ ÙĦØ§ÙĨÛĮ
Ø¨Ø±ÛĮ Ø¯
ĠÙħØ³ÛĮØ± ÙĩØ§
ĠÙħÚ© Ø´ÙĪ
ĠØªÙĪØ²ÛĮ Ø¹ÛĮ
ĠØ®ÙĪØ§Ø³Øª ÙĨØ¯
ĠÛ´Û· Û°
ĠE PC
ĠØªØ¯Ø§Ø¨ ÛĮØ±ÛĮ
ĠØ§ØŃØªÛĮ Ø§Ø¬
ĠÙħÚ©Ø´ÙĪ ÙģÙĩ
I C
T E
ĠØ¨ Ù¾
ĠØ¨ Ø¯ÙĩÙħ
Ø¨ Ø§Ø®ØªÚ¯Ø§ÙĨ
Ø¬ ÛĮØ¯
Ú¯Ø± Ø¯ÙĩØ§
ĠØ´ÙĩØ± Ø§Ùħ
ĠØ¯ÛĮ ÙĪØ§Ø±ÛĮ
ĠÙĪØ§ Úĺ
ĠÚ©ÙĦ Ø±
ĠÙĩÛĮÚĨ Ú©Ø¯Ø§Ùħ
ĠÛ±Ûµ Û·
ĠÛ±Û¶ Û²
ĠÙĩØ´Øª Ø§Ø¯
ĠÙĨØª Ø§ÙĨÛĮØ§ÙĩÙĪ
ĠØ¨Ø±Ø§ÛĮÙĨ Ú©Ùĩ
ĠØ³ÙĨØ§Ø±ÛĮ ÙĪÙĩØ§ÛĮ
ĠÙĪÚ© ÙĦØ§
ĠØ¬ÙħÙĩÙĪØ±ÛĮØ®ÙĪØ§Ùĩ Ø§ÙĨ
ĠÙħØªÙħØ§ÛĮ Ø²
ĠHu awei
ĠÙħØºÙĦ ÙĪØ¨
Ùħ Ø´
ĠØ¨ ÙģØ±ÙĪØ´Ø¯
ÙĦ ÙĨØ¯ÛĮ
ĠØ¯ Ú©
ĠØ¨Ùĩ Ø¨Ùĩ
ĠØ¨Ø± Ø¹Ú©Ø³
ĠÙģ Ø±ÙĪØ²
ĠÙħØ¹ Ø§ÛĮÙĨØ§Øª
ĠØ³Ø± Ø¨
ĠØ³ÛĮ Ø§Ùħ
Û¸ Û´
ĠÛ±Û¶ Û¹
ĠØ³Ù¾ Ø§Ø±ÛĮ
ĠÛµÛ°Û° Û°
ĠØ¬Ø¯Ø§ ÙĪÙĦ
ĠÙ¥ Ùł
ĠØªÙĪØ¬ÛĮÙĩ ÛĮ
Ù¾ÙĪØ´ Ø´
ĠØ¹Ø³Ú¯Ø±ÛĮ Ø§ÙĨ
P G
Ġ ÛĮÙħ
ĠØ¨ Ø·ÙĪØ±ÛĮ
Ú© ÙĪØª
ÙĪØ± Ø²ÛĮ
ĠÚĨ Ø§Ø±
ĠÚ©ÙĨ Ø³Ø§ÙĨØªØ±Ùĩ
ĠÚ©Ø§Ø± Ø§Ú©
ĠØ¢Ùħ ÙĦ
Ø¨Ø± ÙĤ
ĠØ®ÙĪØ§Ùĩ Ø±
ĠÙħØ³Øª ØºÙĦ
ĠØªØ±Ú© ÙħÙĨ
ĠØ³ÛĮØ§Ø³Øª ÙħØ¯Ø§Ø±Ø§ÙĨ
ØŁ ØĮ
ĠØªØ³ ÙĦØ§
ĠØ¢Ø¨Ø§Ø¯ Ø§ÙĨÛĮ
ĠÚ©ÙħØ¨ÙĪØ¯ ÛĮ
ĠÙħÙĨØ§ÙĤ Øµ
ĠØ´ÛĮÙĦ Ø§Øª
ĠÙħÙģÙĩ ÙĪÙħÛĮ
ĠØµØ§Ø¯ÙĤ Ø§ÙĨÙĩ
ĠÚ©ÙĪØ´ Ø´
Ø² ÙħÛĮ
ÙĩØ§ÛĮ ÙħØ§ÙĨ
ĠÙĨÛĮ Ú©ÙĦ
ĠØ¨ÛĮ Ú¯Ø§ÙĨÙĩ
ĠÙĦ Ø³
ĠÙĨØ´ ÙĪÛĮÙħ
Û³ Û¹
ĠØ¨Ø²Ø± Ú¯Ø§ÙĨ
ĠÙħØ® Ø§Ø±Ø¬
ĠÙ¾Ø°ÛĮØ± Ø§ÛĮ
ĠÙħØ³ØªÙĤ ÛĮÙħÛĮ
ĠØ³Ø¹ Ø§Ø¯
ĠÙĨÙĩØ§ ÙĪÙĨØ¯
Ø®ÙĪØ§ÙĨ Ø¯
ĠØµØ¯Ø§ ÙĤØª
ĠØ±Ø³Øª ÙħÛĮ
ĠÙħÛĮÙĨ Ø³Ú©
ĠÙħÙĪÙĨ ØªØ§Úĺ
ĠØªØŃØ±Ú© Ø§Øª
ĠØ¬Ø§ÙĨØ¨ Ø§Ø®ØªÚ¯Ø§ÙĨ
ĠØ¨Øª ÙĨÛĮ
ĠÙ¾ÙĨØª Ø§Ú¯ÙĪÙĨ
ĠÚ© Ø±ÙĪÙħ
ÙģØª ÙĨ
ĠÚ©Ùħ Ø±ÙĨÚ¯
ĠÙħØ§ Úĺ
ĠØ¹ÙĦ Ø§ÙħÙĩ
ĠØ§Ø· ÙģØ§
ĠØªÙħØ§Ùħ ÛĮØª
ĠÙħÙĦ ÙħÙĪØ³
ĠØ³ÙĪØ¯ Ø¬ÙĪ
Ú©Ø´ ÙĪØ±
ĠÙĨØ¯Ø§Ø´Øª Ùħ
ĠØ§Ø³ØªØ« ÙĨØ§
Ú¯ÙģØª ÙĨØ¯
ĠØ§ÙĦÙħ Ø³ÙĦÙħÛĮÙĨ
ĠØ§Ø³ÙĨ Ø§Ø¯ÛĮ
ÛĮØ§ÙģØª Ú¯Ø§ÙĨ
ĠÙ¾ÙĩÙ¾ Ø§Ø¯
ĠØ¨Ø±ÙĪÚ©Ø± Ø§Ø³ÛĮ
ĠÙħØ³ØªØºÙĦ Ø§Øª
a p
ĠÙħ ÙĪÙĨÛĮØ®
Ø§ÙĨ ÛĮØª
ĠÙĨ Ú¯Ø§Ø±ÛĮ
ĠØ´ ÙĦÛĮÚ©
Û° Û·
ĠØ§Ùģ ØºØ§ÙĨÛĮ
ĠÙħØŃ Ø±Ø²
ĠØ³Ø± Øª
ĠØ¶Ø± ÙĪØ±ØªÛĮ
ĠØ§Ø¬Ø±Ø§ Ø¦ÛĮ
ĠÙĨØµ Ø§Ø¨
ĠØ´Ø¹ ÙĦÙĩ
ĠØ§ØµÙĪÙĦ Ø§
ĠÙĦØ¨Ø§Ø³ Ø´ÙĪÛĮÛĮ
ĠØ±Ø¨ Ø·ÛĮ
ĠØ´Ø§ÙĨØ² Ø¯ÙĩÙħ
ĠØ¨Ø§Ø²ÙħØ§ÙĨØ¯ Ú¯Ø§ÙĨ
ĠØ¨ÙĦØ§Ùħ Ø§ÙĨØ¹
ĠØ¨Ø§ÙĨÚ©Ø± ÛĮÙĨÚ¯
O T
o w
u d
Ø² ÙħØ§ÙĨÛĮ
ĠØ¯ Ú¯Ø±
Ø´ ÙĪÙħ
ĠÙĪ ÙĪÙĩØ§ÙĨ
ĠÙģ Ø®
ĠØ¹ Ø¬
ĠÙĦ ÙĨØ²
ĠÙĦ Ø·ÛĮ
ĠØ¯ÛĮ Ø²ÙĦÛĮ
ĠÙĪØ§ Ú©ÙĨØ´ÛĮ
ĠØªÙħ Ø±ÛĮÙĨÛĮ
ĠØ§Ø· ÙģØ§ÙĦ
ĠÛ±Û¶ Û±
ĠØ´Ø¯ÛĮØ¯ ØªØ±ÛĮÙĨ
ĠØ¨Ø³ Ø·
ĠØªØ±Ø§Ø² ÙĨØ§ÙħÙĩ
ĠÙĨØ§ÙħØ² Ø¯ÙĩØ§
ĠÙħØ¹ØªØ± Ø¶
ĠØ¯Ø¨ÙĦÛĮ ÙĪØªÛĮ
ĠÙħØ¬Ø± ÙħØ§ÙĨ
ĠØ³ÛĮØ¯Ø§ÙĦØ´Ùĩ Ø¯Ø§ÛĮ
ÙĩÙģØª Ùħ
ĠØ³ÙĩØ± Ø§Ø¨
ĠÙĩÙħØ§ÛĮ ÙĪÙĨ
ĠÙĪÙĨØªÛĮ ÙĦØ§ØªÙĪØ±
c e
t er
ÙĨ ÙģØ±
ĠØ® ÙĦØ¨Ø§ÙĨ
ĠÙ¾ ÛĮØª
ĠÙ¾ Ø§Ø®Øª
ĠØ¨Ø± Ø§Øª
ĠØ¹ Ø§Ø´
ĠØªØ§ Ù¾ÛĮ
ĠÙ¾ÛĮ Ø§Ø²
ĠØ§Ø± ÙħÙĨÛĮ
ĠØ³Ø± ÙĤ
ĠØªØ¹ Ø¯Ø¯
ĠØ¨Ø®Ø´ ÛĮØ¯
Ø§Ú© ÙĪØ±
ĠÙħÙĨØª Ø´
ĠØªØ® Ø·ÛĮ
Ú¯Ø±Ø¯ ÛĮÙħ
ĠØ¯ÙĪÚĨ ÙĨØ¯Ø§ÙĨ
ĠØ§Ø±Ø¯ÙĪ ÙĩØ§ÛĮ
ĠÙħØ´Ø±ÙĪ ØŃ
ĠÚ©ÙĪØ§Ø± ØªØ±
ĠØ§ØŃØ¶ Ø§Ø±
M C
O C
Øª ÙĪÙĦÛĮØ¯
Ø® Ø§Ø·Ø±
ĠÙĤ Ø§Ø·
ĠÛĮ Ø¹ÙĤ
ĠÚ©Ø§Ø± Ú©Ø±Ø¯ÙĩØ§ÛĮ
ÙĪØ² ÛĮØª
ĠØ§ÙĦ Ø´Ø¹
ĠÙħØ¨ ÛĮÙĨ
Â» .
ĠÛ±Û´ Û´
ĠÚĺ Ø§ÙĨ
ĠØŃØ¯Ø§ ÙĤÙĦÛĮ
ĠÛ±Û³Û¹ Û±
ĠØ³ÙĤ Ø²
ĠâĢ¦ .
ØªÙĨ ÙĩØ§
ĠÚĨØ§ÙĦØ´ ÙĩØ§ÛĮ
ĠÙħÙĪØªÙĪØ± Ø®Ø§ÙĨÙĩ
ĠÙģØ§Ø± Ø§Ø¨ÛĮ
ĠÙĪØ§Ø±ÛĮ Ø²ÛĮ
ĠÙ¾ØªØ±ÙĪ Ø¨Ø±Ø§Ø³
ĠØ®ÙĦØ§ Ø¡
ĠØŃÛĮØ¯ Ø±ÛĮÙĩ
ĠÙĨØ§ÙħØ² Ø¯ÛĮ
ĠØ§ÙħØ§ÙĨ ÙĪØ¦ÙĦ
ĠÙħØ²Ø§ØŃ ÙħØª
ĠÙħØªØ¯Ø§ ÙĪÙĦ
ĠØ¨ ÙĪÙĦØª
Ø´ Ø§Øª
ĠÙĪ ÙģÙĤ
ÙĪØ± ÙĩØ§
ĠÙĩ Ø±ÛĮØ³
Ø§ÙĦ Ùģ
Ø§ÙĦ ÙħÙĩ
ÛĮÙħ Øª
ĠØ®ÙĪØ¯ ÛĮ
ØªÛĮ Ù¾
ØªÛĮ Ú©ÛĮ
ĠÙģØ± ÙħØ§ÙĨØ¯Ø§Ø±Ø§ÙĨ
Û¸ Ûµ
ĠÙħÙĩ Ø±ÛĮÙĩ
ĠÙ¾Ø±ÙĪ ÛĮÙĨ
ĠÙĪØ² Ø±Ø§
ĠØ´Ø§Ø®Øµ Ùĩ
ĠØ¯Ø§Ø±ÙĪ ÙĩØ§ÛĮÛĮ
ĠØ±ÙĪØ§ÙĨ Ø´ÙĨØ§Ø³
ĠÛµÛ· Û°
Ù¢ Ùł
ÙĤØ¯Ø± Øª
ĠÙģØ§ÛĮ Ø¯Ùĩ
ĠØ¨Ø±Ø¢ÙĪØ±Ø¯Ùĩ Ø§
ĠØ¨ Ø§ÙĨÙĩ
Ø¨ Ú©Ø³
ĠØ± Øº
ĠØ· Ø§ÙĤ
ĠÙģØ± Ø´Ø§Ø¯
ĠØ´Ø¨ Ø§ÙĩØª
Ø¨Ø§ÙĨ Ú©
ĠÙĪÙĤ Ùģ
ĠÛ±Û¸ Û³
ĠØ®ÙĪØ§Ø¨ Ú¯Ø§Ùĩ
ĠÙ¾Ø±Ùĩ Ø²ÛĮÙĨÙĩ
ĠÙĩÙħØ¯ Ø±Ø¯ÛĮ
ĠØ³Ø±Ø²ÙħÛĮÙĨ ÛĮ
ĠÚ©Ø§Ø±Ø¢ ÛĮÛĮ
ĠÙĩØ¬ ÙĪÙħ
ĠØ¢ÙħÙĪ Ø®ØªÙĩ
ĠÙĩØ§ Ø´Ùħ
ĠÙ¾Ø§Ø®Øª Ø§Ú©ÙĪØ±
Ø¯ ÙĤÛĮÙĤÙĩ
ĠÚ© ÛĮØ§
Ø§Ùĩ ÛĮØ±
ĠØ§Ùģ Ø´ÛĮÙĨ
ĠØ¯ÙĪ Ù¾
Ø±ØŃ ÛĮÙħ
ĠÙħÙĦ ØŃÙĤ
ĠÙħÚ© Ø§ÙĦÙħÙĩ
ĠÛ±Û· Û·
ÙħØŃ Ø³ÙĨ
ĠÙ¢ Ù¡
ĠØ¯ÙĪØ³Øª Ø¯Ø§Ø±Ø§ÙĨ
ĠÙģØ±Ø³ Ø§ÛĮØ´
ĠÙħÙĪÙĦ Ú©ÙĪÙĦÛĮ
ĠÙĪØ¨ Ø³Ø§ÛĮØª
ĠØªÚ©Ø± Ø§Ø±ÛĮ
ĠØ§Ø³ØªØ« ÙĨØ§ÛĮ
ĠØªØ§Ú©Ø³ÛĮØ± Ø§ÙĨØ§ÙĨ
ĠØ³Ø±Ú© ÙĪØ¨
ĠØ¯Ø±Ø§Ø² ÙħØ¯Øª
ĠÙĤÙĨ Ø¨Ø±ÛĮ
ĠÙĨÛĮØ§ÙģØª ÙĨ
ĠØ³Ø±Ú¯ Ø¦ÛĮ
ĠÙĦØ§ÙĪØ± ÙĪÙģ
ĠÙħÙĨØ§ÙĤØµ Ø§Øª
Ø³ ÛĮØ±ÛĮ
Ú¯ Ø³
ĠÙĨ Ù¾Ø§ÙĦ
Øµ Ø§Ø¯
ĠØ¬ ÛĮÙĨ
Ø±ÙĪ Ø³Øª
ĠÚĨ ÛĮÙĦ
ĠÚ¯ÙģØª ÙħØ§ÙĨ
ĠÚ©Ø± Ùħ
ĠØ§Ø³ Ú©Ø§Øª
ĠØªØŃ Ø³ÛĮÙĨ
ĠÙĨØ§ Ø´Ø±
ĠÙĦÛĮ Ø²Ø±
Ø¯ÙĨ Ø¨Ø§ÙĦ
ĠÛ±Û¶ Û·
ĠØ§ÛĮØ³Øª Ø§Ø¯Ú¯ÛĮ
ĠØµØ¨ ÙĪØ±ÛĮ
ĠØ¨Ø¯ÙĨ Ø³Ø§Ø²ÛĮ
ĠÙ¢ Ù¤
ĠØ¨ÙĦÙĪ Øº
ĠØ±Ø§Ø¯ÛĮ ÙĪÙĦÙĪÚĺÛĮ
ĠÙĨØ§Ú© Ø§Ùħ
ĠØ¨Ú© Ø§Ùĩ
ĠÙģÛĮØ±ÙĪØ² Ú©ÙĪÙĩ
ĠÙĨÙĪØ§Ø² ÙĨØ¯Ùĩ
ĠÚ¯Ø§Ø±Ø¯ ÛĮÙĨ
ĠÙ¾Ø§Ø±Ø§Ùħ ØªØ±ÙĩØ§ÛĮ
Ø ©
ĠØ¨ ÙħÙĨØ¸ÙĪØ±
Ø² ÙĨØ¯Ú¯ÛĮ
ØŃ Ø¬Øª
ĠØ¹ ÛĮØ¨
ÚĨ Ø§ÛĮ
ĠØ² Ø¨Ø§ÙĨÛĮ
ĠÚĨ ÙĨ
ĠÙĦ Ø§ÙĩÛĮ
ĠÙħØ¹ Ø·ÙĦ
ĠØ§ÙĤ ÙĪØ§Ùħ
ĠØ¯ÛĮ Ùĩ
ĠÛµ Û³Û°
ĠÙĨØ§ Ù¾Ø°ÛĮØ±ÛĮ
ĠÙħÙĩÙħ ØªØ±
ĠÙħØ® Ø¯
ĠØ¢Ø± Ø§ÛĮØ´
ĠØ´Ø± Ø¹ÛĮ
ĠØ§Ú©Øª Ø§ÙĨ
Ø·ÛĮ ØŃ
ĠÙħØ¹Øª Ø§Ø¯
ĠÛ¸Û´ Û°
ĠØ¯Ø¨ Ø³ØªØ§ÙĨÛĮ
ĠØ¨Ø¯Ùĩ ÛĮØ¯
ĠÙ¾Ø§ÙĨØ² Ø¯ÙĩÙħÛĮÙĨ
ĠØ¨ÛĮØ§ÙĪØ± ÛĮÙħ
ĠÙĦØ¬ Ø³ØªÛĮÚ©
ĠØ¯Ø±Øµ ÙĪØ±ØªÛĮ
ĠÛĮÙħ ÙĨÛĮ
u m
Ø¯ Ø®Øª
ÙĪ ÙģÙĩ
ÙĪ Ø§ØŃ
Øª Ø±Ø¯
Ú© ÛĮÙĨÚ¯
ĠÙĨ Ø§Ø¨Ø±
ĠØ§Ø³Øª ÙħØ§Ø¹
ÙĦÛĮ ÙģÛĮ
Ø· Ø§Ø¨ÙĤ
ĠØŃ ÙĪÙĦ
ĠØ¹ Ø¯ÛĮØ¯Ùĩ
Ø§Ø¨ ÙĦÛĮ
ĠÚĨ ÙĨÚ¯
ĠÚĨ Ø§Ø¯Ú¯Ø§ÙĨ
ĠÙħØ´ Ú©ÛĮÙĨ
ĠØ§ÙĪ Ù¾Ú©ÛĮ
Û¸ Û·
Û¶ Û·
ĠØ¢Ø¨ Ú¯ÛĮØ±ÛĮ
ĠØ¯ÙĪØ±Ùĩ ÙħÛĮ
Ø±Ø§Ùĩ Ø§
ĠØ§Ø¶ Ø·
ĠÛ±Ûµ Û´
ĠØ´Ú© ÙĪØ±ÛĮ
ĠÛ±Û· Û²
Ù¾ÛĮ Ø´
ĠØ§Ø¯Ø¹ Ø§ÛĮÛĮ
ĠØ§ÙħØ¯Ø§Ø¯ Ú¯Ø±Ø§ÙĨ
ĠÛµÛ´ Û°
ÚĨÙĩØ§Ø± Ùħ
ĠØ§ÙĨØµ Ø§Ø±
ĠÙ¾Ø¯Ø± Ø´
ĠØ§ÙĪÚ© Ø±Ø§ÛĮ
ĠÙħØ§Ø¨ ÛĮÙĨ
ĠØ¨Ú¯Ø°Ø§Ø± ÛĮØ¯
ĠØ´Ø³Øª Ø´ÙĪ
ĠØ®Ø¯ Ø§Ø¨
ĠØŃÙħ Ø§Ùħ
ĠÙĩØ§ÛĮØ´ Ø§ÙĨ
Ġ "
ĠØ¨ ÙģØ±ÙĪØ´ÙĨØ¯
Ø§Ø± ÙĨ
ĠÚ© Ø§Ø²
ĠÙħÛĮ ÙħÙĩ
ĠÙĤ ØµØ±
ĠÙħØ¯ Ø¯ÛĮ
Ø« Ø§Ø±
ĠØ³Ø± ÙĨÚ¯
ĠØ®ÙĪØ§Ùĩ ÛĮ
ÙĪØ¨ ÙĦÙĪÚĨØ³ØªØ§ÙĨ
ĠÙ¾Ø³ Ø§Ø¨Ø±
ĠÙĪØ§ØŃ Ø¯ÙĩØ§ÛĮÛĮ
ĠÙ¾Ø± Ø¬ÙħØ¹ÛĮØª
ĠÚ¯ÙĦ ÙĪÙĦÙĩ
ĠÛ±Û´ Û¹
ĠØ´Ú© Ùħ
ĠØ¢Ø± Ø§ÙħÛĮ
ĠÙħØ¨Ø§Ø± Ø²
ĠØ±ÙĪØ¯ Ø³Ø±
ĠØ¢ÙĪØ± ÛĮÙħ
ĠÛ³Û¶ Ûµ
ĠØŃØ² Ø¨ÛĮ
Ø§Ú©Ø³ ÛĮØ¯
Ø¹Ùħ ÙĪÙħÛĮ
ĠØºÙģ ÙĪØ±ÛĮ
ĠÙħØ³Ø¤ ÙĪÙĦØ§ÙĨ
ĠØªÙĪØ±ÙĨ ÙħÙĨØª
ĠÚ©ÙĪØ§ÙĨ Øª
T C
ĠÙħ Ø¨Ùĩ
Øµ ÙģÙĩ
ĠÙĦ Ø§Ú©
ĠØ° Ø§Øª
ĠÚ©ÛĮ Ø§ÙĨÛĮ
ĠÚ¯Ø°Ø§Ø±ÛĮ ÙĩØ§ÛĮ
ĠÚĺ ÙĨÙĪ
ĠØªØ³ Ø·ÛĮØŃ
ĠÙ¾ÛĮØ´ÙĨÙĩØ§Ø¯ Ø§ØªÛĮ
ĠÚĨØ§ÙĦ Ø´ÛĮ
ĠØ§Ø¹Øª Ø±Ø§Ø¶ÛĮ
ĠÙĤØ³ Ø·
ĠØªÙĨØ¯ Ø±ÙĪ
ĠÚ©Ø§Ø±Ø¯ Ø§ÙĨÛĮ
ĠØ³Ø±Ùħ Ø§ÛĮØ´ÛĮ
Ù¾ÛĮÙħ Ø§ÛĮÛĮ
Ġ f
Ùħ ÛĮØ±ÛĮ
Ø´ Ø³Øª
ĠÙĪ ÛĮÙĨØ¯
ĠÚ© Ø°Ø¨
ĠØ¨Ø± Ú¯Ø±ÙģØªÙĩ
ĠÙĩÙħ Ø®ÙĪØ§ÙĨÛĮ
ĠÛ±Û¶ Û´
ĠÛ±Û¶ Û¶
ĠØ²ÙĨ Ø§ÙĨÙĩ
ĠÚ©ÙĪÙĩ Ø³ØªØ§ÙĨ
ĠÙħØ§Ø¯ Ø±ÛĮ
ĠØ´Ø§ÙĨØ² Ø¯ÙĩÙħÛĮÙĨ
ĠØ§ÙģØ±Ø§ Ø·ÛĮ
c om
Ø± Ø¹Øª
Ø² Ø¨ÙĪØ±Ú¯
ĠÚ© ØªØ¨
Ø¹ Ø±
Ø¹ Ø§ÙħÙĦÛĮ
ĠØ¨Ø§ ÙĩÙħ
ĠØ¯Ø³Øª Ø®ÙĪØ´
Ú©ÙĨØ¯ Ú¯ÛĮ
ĠØ§Ø· ÙĦØ³
ĠÙĤØ· Ø±Ùĩ
ĠÚ©Ø§ÙĦ Ø§Ø¨Ø±
ĠÙħØ® Ø²ÙĨÛĮ
Û²Û° Û²Û°
ĠØ¯Ø±Ø®Ø´ Ø§ÙĨÛĮ
Ø¨ÙĪÚ© ÙħÙ¾
ĠØªØ¹Ùĩ Ø¯ÛĮ
ĠÙ¾Ø±ÙĪÙģ Ø³ÙĪØ±
Ø´Ø§Ø¡ Ø§ÙĦÙĦÙĩ
ĠØ³ÛĮØ§Ùħ Ú©
ĠÙĦØ§ÙĩÛĮ Ø¬Ø§ÙĨ
ĠØ§ÙĪÚ©Ø±Ø§ÛĮ ÙĨÛĮ
ĠØ§ ÛĮØ¯Ø±ÙĪ
Ú© Ù¾Ø§Ø±ÚĨÙĩ
ĠÙħ Ø²Ø±
ĠØ¹ Ø§Ø²Ùħ
Ù¾ ÙĪØ³Øª
ĠØ³Ø§ÙĦ ÙħÙĨØ¯ÛĮ
Ø¨Ø± Ø¯Ùĩ
Û¹ Û²
ĠÛµ Û²Û°
ĠØ³ÙĪØ®Øª Ú¯ÛĮ
ĠØ´ÙĩØ±Ø³ØªØ§ÙĨ ÙĩØ§ÛĮ
ĠØ¯ÛĮØ¯ ÙĨØ¯
ĠØ§ÙħÛĮØ¯ÙĪØ§Ø± ÙĨØ¯
ĠÙģØ±ÙĪ Ø®Øª
ĠØ³ÙĨØ¯ Ø±Ùħ
ĠØ§ÙĦØ¹ Ø±Ø¨ÛĮ
ĠÙĪÙĦ Ø§ÛĮØª
ĠØ¹Ø¨Ø¯Ø§ÙĦ ØŃØ³ÛĮÙĨ
ĠØ±Ø² ÙħÛĮ
ĠØ§ÙĪÙĤ Ø§Ùģ
ĠÙĩØ§ÛĮ Ù¾Ø±
ĠØ³Ø¬ Ø§Ø¯
ĠÙĨØ§Ø§Ùħ ÙĨÛĮ
Ú¯Ø°Ø±Ø§ÙĨ ÙĨØ¯
ÙĪ Úĺ
ÙĦ ÙĦ
ĠÙħ Ø§Øª
ĠÚ© Ù¾ÛĮ
ĠØ¢ ØªÙĦ
Ø¶ Ùħ
ĠØ§Ùģ Ø´Ø§
ĠØ¨ÛĮ Ø§ÛĮ
ĠÙħØŃ Ø¨Øª
ĠØ§ÙĪ Ø³Øª
ĠØ§Ø¹ÙĦØ§Ùħ ÛĮÙĩ
ĠÚĺ ÙĦ
ĠÛ²Ûµ Û¶
ĠØ³ÙĦ Ø·Ùĩ
ĠØ¨Ø±Ø¯ ÙĨØ¯
ĠÛĮÙĪ Ø¢ÙĨ
ĠÙħÚ¯Ø§ÙĪ Ø§ØªÛĮ
el l
ĠÚĺØ¦ÙĪ Ù¾
ĠØ²Ø§Ø¦ Ø±Ø§ÙĨ
ĠØ§ÙĦÚ¯ ÙĪØ±ÛĮØª
ÙĪ ÙĤÙĩ
ĠÚ© ÙħØ§ÙĨ
ÙĪØ± Ø²
ĠØ² Ø¨
ĠØ¯Ø§ ÙĪÙĪØ¯
ĠÙĦ Ø§Ø¨ÛĮ
ĠÙħØª Ø¬
Ø§Ø· ÙĦØ³
ĠÚ¯Ø± Ø³
ĠØ¶ ÛĮ
ĠÚ¯Ø°Ø´ØªÙĩ Ú©
ĠØªÚ© ÙĦÛĮÙģÛĮ
ĠØ¯ÛĮØ¯ ÛĮÙħ
ĠØ¨Ø±Ø® ÙĪØ±
ĠØªÙĪØ± Ø¨ÙĪÚ©ÙħÙ¾
ĠÚ©Ø§Ø±Øª ÙĩØ§ÛĮ
Ø§ÙĦÙĩ ÛĮ
ĠØ§Ø±Ø¯ Ø³ØªØ§ÙĨ
ĠÙĦØº Ø§ÛĮØª
Ú©Ø§ ÙĪÛĮ
ĠÛ´Û´ Û°
ĠP CR
ĠØ´Ø³Øª ÙĨ
ĠØŃØ±ÛĮÙģ Ø§ÙĨ
ĠÚ©ÙĨØ³Ø±Ø³ÛĮ ÙĪÙħÛĮ
ĠØ²Ø§Ø¦ Ø¯
ĠØ³ÙħÛĮ Ø¹ÛĮ
ĠÚ¯Ø§ÙĪ Ø®ÙĪÙĨÛĮ
ĠØ§Ø³ØªØ§Ø¯ÛĮ ÙĪÙħ
ĠÙĨØ§ÙĨÙĪØ° Ø±Ø§Øª
Ø§ Ø¬Ø±
Ùĩ ÙģØªÙĩ
ÙĪ Ù¾ÛĮ
Ø§ÙĨ Ø§
Ø¹ Ø§Ø¯ÙĦ
ĠØ§Ø² Ø§ÛĮÙĨ
ĠÙģ Ø§ØµÙĦ
Û° Û¹
ÛĮØª Ø¯
Ø§ÙĨÛĮ ÙĪÙħ
ĠÚ¯ÙģØª Ø§Ø±
ĠØ³Ø§Ø² ÙĪ
ĠÙ¾ÛĮØ´ Ø±ÙĪÛĮ
ĠØªØ¹ Ø¨ÛĮØ±
ĠÙħØ± Ø§Ø¯
ĠÚ©Ø±Ø¯Ùĩ Ø§
ĠÙĨÙħ Ø§Ø¦
ĠØ¨Ø¹ Ø¯Ø§
ĠØŃØ³ Ø§Ø¨ÛĮ
Ø§ØŃ ÙħØ±
ĠÙħØŃÙħØ¯ ØŃØ³ÙĨ
ĠÙħØŃÙĪØ± ÙĩØ§
ĠØ³Ø¹ Ø¯
ĠØŃÛĮ Ø§Ø·
ĠÙħÙģ ØµÙĦ
ĠÙĨØ§Øµ Ø±ÛĮ
ĠÙĪÙĩ ÙĦÙĩ
ĠÙĪÛĮØ² ÛĮØª
Ú¯ ÙĪØ±
ĠÙģ Ø§Ùħ
Ø§Ø¨ Ø§Ø¯
Û° Û²
ĠÙĩÙħ Ø´Ùĩ
ĠÛĮ Ø§Ø³ÙħÛĮ
ĠÙĦ Ø±Ø¯
ĠØ´ÙĩØ± Ø®ÙĪØ¯Ø±ÙĪ
Ø§ÙĨØ¯ Ø±Ú©Ø§Ø±Ø§ÙĨ
ĠÙĨÙĤ ÙĦÛĮ
ĠÙĩÙĪ Ú©
ÙĪÙĨØ¯ ÛĮ
Ø¯Ø± ÙĪÙĨ
ĠÙĨØ® Ø¨Ùĩ
ĠÙħØ´Øª ÙĤ
ĠÛ³Û° Û¶
ĠÚ¯ÛĮØ± Ø¨Ú©Ø³
ĠÛ±Û· Û¸
ĠØ´Ú©ÙĦ Ø§Øª
ĠÙģÙĦ Ø¬
ĠÙ¾Ø§ Ø¦ÛĮÙĨ
ĠÛ¶Û´ Û°
ĠØ®Ø´Ú© Ø¨Ø§Ø±
ĠÙ¾Ø±Ø§ Ú©ÙĨØ¯Ú¯ÛĮ
ĠÙģØ±Ø§Ùħ ÙĪØ´ÛĮ
ĠØ®ÙĪØ¯Ú© Ø´ÛĮ
ĠØ±ÛĮÙĨÚ¯ ÛĮØª
ĠØ¯ÙĪØ¯ Ú©Ø´
ĠØ§Ø¶Ø· Ø±Ø§Ø±
Ø§ ÙģØªÙĩ
Ø³ Ø¯
Ø§ÛĮ Ø¹ÛĮ
ĠÙĪ Ø§Øª
ĠØ® Ø§Ø¯Ùħ
ĠÙģ Ø´Ø§Ø±ÛĮ
ĠØ¬ Ø±ÛĮ
ĠÙĤ Ø§Ø±ÚĨ
ĠÛĮ Ùĩ
ĠØµ Ø¹Ø¨
ĠØ§Øµ Ø§Ø¨Øª
ĠØªØµ Ø§ØŃØ¨
ĠÙħØ± Ø³ÙĪÙħ
ĠÙħØ³Øª Ø§Ø¬Ø±
ĠØ³ÙĪØ®Øª ÙĩØ§ÛĮ
ĠØ§Ø¨ ÙĨ
ĠØ¨ÙĩØ¨ÙĪØ¯ ÛĮØ§ÙģØªÚ¯Ø§ÙĨ
Ø¨ÛĮÙĨ ÛĮØ¯
ĠÛ´Û° Û²
ĠØ§ÙĨÚ¯ Ø§Ø±
ĠØ§ÙĦÛĮ Ø§Ùģ
ĠØ§ØªÙĪÙħ Ø§Ø³ÛĮÙĪÙĨ
ĠØµØ¯Ø± ÙĨØ´ÛĮÙĨ
ĠØ§Ú©Ø³ÛĮØ¯ Ø§ÙĨ
ĠØ§ÛĮØ² ÙĪÙĦÙĩ
ĠÙħØºÙĨØ§ Ø·ÛĮØ³ÛĮ
ĠÙĩÙħØ´Ùĩ Ø±ÛĮØ§ÙĨ
e p
ĠØ§ ÙħØ§ÙĨÛĮ
ĠØ§ Ú¯Ø²
ĠÚ© Ø¨Ø¯ÛĮ
Ø¨ Ø²Ø±
ĠÚ¯ Ø§
ĠØ¢ ÛĮØ²
Ø§Ø±ÛĮ Ùĩ
ÛĮØª ÙĪÙĨ
Ø³ÛĮ ÙĦ
ĠÙĨÛĮ Ú©ÙĪÙĦ
Ø²ÛĮ Ø²
Ø¨Ø± Ùħ
ĠØ¯ÙĪ Ø§Ø±
ÙĨÛĮ Ø²
ĠØ³Ø§Ø² ÙĨØ¯
ĠØ³ÙĪ Ù¾
ÙħØ¯ Ø³ÛĮ
ĠØªØ§Ú©ÛĮØ¯ Ø§Øª
ĠØ§Ùĩ Ø¯Ø§ÛĮÛĮ
ĠÚ©ÛĮÙĦÙĪ ÙĪÙĦØª
ĠÙģØ±ÙĩÙĨÚ¯ Ø³Ø±Ø§ÛĮ
ĠØ´Ø±ÙĪ Ø·
ĠØªØ§Ø¨ Ø¹ÛĮØª
ĠÙħØ±Øº ÙĪØ¨
ĠÙĩÙĪØ§Ù¾ÛĮÙħ Ø§ÙĩØ§
ĠØ§Ø³ØªØ± Ø§ÙĦÛĮØ§ÛĮÛĮ
ĠØ¨Ø±Ø²ÛĮ ÙĦÛĮ
ĠØªÙĨÚ¯ ÙĨØ§ÙĩØ§ÛĮ
ĠØ§ÙħØ±ÛĮÚ© Ø§ÛĮÛĮ
ĠÙģØ¶ ÙĦÛĮ
ĠÙĪØµ ÙĪÙĦÛĮ
ĠÙħØ¬Ø± ÙħØ§ÙĨÙĩ
ĠØ¯Ù¾ Ø§Ø±ØªÙħØ§ÙĨ
ĠÙĨÛĮÙģØª Ø§Ø¯Ùĩ
ĠÙħØ¬Ø±ÙĪ ØŃ
Ø§ ÙĪØ±ÛĮ
Ø§Ø± Ø²Ø´
ĠØ§ÛĮÙĨ Ø·ÙĪØ±
Ø§Øª ÙĪØ±ÛĮ
ĠÙģ Ø±ÛĮØ²
ĠØ¬ Ú©
ĠØ¬ Ø³Ùħ
ĠØ¨ÛĮ Ø·Ø±Ùģ
ĠØ®Ø¨Ø± Ùĩ
Ø±Ø³ ÛĮÙħ
ĠØªØ± Ø§ÙĨÙĩ
ĠØ±ÙĤ Ø¨Ø§
ĠØ±ÙģØª Ùħ
ĠØ§ØµÙĦØ§ØŃ Ø§ØªÛĮ
ĠÛ±Û· Û³
ĠØªÙĪØ± ÙĩØ§ÛĮ
ĠÛ²Û³ Ûµ
Ø³Ø§Ø² ÙħØ§ÙĨ
ĠØ´ÙħØ§Ø±Ùĩ Ú©
ĠØ§Ø³Ù¾ ÛĮØ³
ĠÚ¯Ø±Ùħ Ø®Ø§ÙĨÙĩ
ĠØ´Ø³Øª Ø§
ĠÙĨØ§Ùĩ ÙĨØ¬
ĠØ²Ø§Ø¯ Ø¨ÙĪÙħ
ĠØ¨Ùħ ÙĪÙĤØ¹
ĠØª Ø±Ùģ
ĠØª Ø¶ÛĮ
ĠØ¯Ø± Ø³Ø§ÙĦ
Ø³Øª Ø§ÙĨÙĩ
Ø® ÙĪØ±ÛĮ
ĠØ¢ Ø±ÙĪÙħ
ĠØ¬ Ø±Ø§ØŃ
ĠÚ©Ø´ÙĪØ± Ø´Ø§ÙĨ
ĠØ±ÙĪØ² Ú¯Ø§Ø±
Ø§Ùģ Ø¹ÛĮ
Ûµ Û·
ĠØ¶ ÙħÙĨØ§
Ø§ÙĤ ÙĦ
ÙĪØ´ ÛĮØªØ¯
ĠÛ³Û° Û±
ĠÛ±Û¸ Û¸
ĠØ§ÙĨÚ¯ Ø¬Øª
ĠÙħØŃØªÙĪ Ø§ÛĮÛĮ
ĠØ±Ø´ ÛĮØ¯ÛĮ
ĠÙħÙĨÚĨ Ø³ØªØ±
ĠÙģØª ØŃÛĮ
ĠÙħÛĮØ« Ùħ
ĠÙħØ³Ø¦ÙĪÙĦÛĮ ØªÛĮ
ĠØ¹Ø§Ø· ÙģÛĮ
Ø§ Ø¹Ùĩ
ÙĪ ÙĪ
Ø´ Ø§ÙħÙĦ
Ø´ Ø§Ø®
ĠØ± ÙĤÛĮ
ĠØ± Ø²ÙĪÙħ
ĠØ³ ÙĪØ¯ÛĮ
ĠØ¬ ÙĪØ¯ÙĪ
ĠÙħØ¹ ÙĨØ§Ø¯
ĠØ³Ø± Ø¹ØªÛĮ
ĠØ³Ø± ØªÛĮÙ¾
ĠØ§Ø¬ Ø²Ø§
ĠØ§ÙĦ ÙĤ
ĠÛ¶ Û³Û°
ĠÙģØ±Ùĩ Ø§Ø¯ÛĮ
ĠÙĪØ§ÙĤ Ø¹Ùĩ
Ú©ÙĪØ± Ùĩ
ĠØ®ÙĪÙĨ Ø±ÛĮØ²ÛĮ
ĠÙĨÙħØ§ÛĮØ´ ÙĨØ§ÙħÙĩ
ĠØ¬Ø§ ÙĪÛĮØ¯
ĠØ±Ùħ Ø²Ø§Ø±
ĠÙ¾Ø§Ø¯ Ø´Ø§Ùĩ
ĠØ¶Ø±Ø¨ Ø§Øª
ĠØ§ÙĦÚ©Øª Ø±ÙĪÙħ
ĠØ³Ø±ÚĨ Ø´ÙħÙĩ
ĠØ¹Ø§Ø¨ Ø±Ø§ÙĨ
ĠÙħØ²Ø± Ø¹Ùĩ
Ø§ Ø¬Ùĩ
Øª Ø¯Ø±ÛĮØ¬
Ùħ Ø§ÙĦÛĮ
ĠØ¯ Ú©ÙĪØ±
ĠØ® ÙħÛĮØ±
ĠÙħØ¹ ÙĤÙĪÙĦ
ÙĪÙħ Øª
Û¹ Û´
ĠØ±ÛĮ Ú©Ø§
ĠØ§ÙĨØ³ Ø¯Ø§Ø¯
ĠØ³Ù¾ ÛĮØ¯
ĠÛ²Û± Û¶
ĠÙĤÙĪØ§ÙĨ ÛĮÙĨÛĮ
ĠØ¨Ø³ Ø§ÙĤ
ĠØ§ÙĪÙĦÛĮ Ø§
ĠÙĩØ¯Ø± Ø±ÙģØª
ĠÙ¾Ø§ÙĨ ØµØ¯
ĠÚ¯ÙĨØ¬ ÛĮÙĨÙĩ
ĠÙĨÛĮÙĪ Ø§Ø·ÙĦØ³
ĠØ¢Ø±Ø³ ÙĨØ§ÙĦ
ĠÙĩ Ø§Ø±
Ø§ÙĦ Ø§Ø¬
ĠØ¹ Ø§ÙĦÙħ
Ø° Ùĩ
Ø±Ùģ ÙĨÛĮ
ĠÙħØª Ø¬Ø§
ĠØ¨ÙĨ ÙĪÛĮØ³
ĠÙ¾Ø± Ø·Ø±Ùģ
ĠÛ²Û°Û° Û±
ĠÙĨÙĪØ¨ ÙĦ
ÙħØ³ Ø¹ÙĪØ¯
ĠØªØ§ÙĦØ§Ø± ÙĩØ§ÛĮ
ĠÙĨØ§ÙĤ ÙĦ
ĠÚ©ÙĨØªÙĪØ± ÙĩØ§ÛĮ
ĠØ¬ÛĮÙħ Ø²
ĠÙħØ®Ø¯ ÙĪØ´
ĠØ±Ø²ÙĪÙħ Ùĩ
i a
Ġ b
ĠØ¯ ÙħÙĨ
ĠÙĩ Ø§Ùħ
ĠØ¨Ø± Ú©Øª
ĠÙģ Ø±Ú©
ĠÙģ Ø§ÙĪØ§
ĠØ±Ø§ Ú©Øª
ÚĨ ÙĩØ±
Ø±Ø§ ØµÙģÙĩ
Ø§Ø±Ø³ ÙĨØ¬ÛĮ
Ø¹Ø¨ Ø¯
ĠØ²ÛĮØ³Øª Ú¯Ø§Ùĩ
ĠØ´ÛĮØ± Ø§Ø²ÛĮ
ĠØªØ³ Ú©ÛĮÙĨ
ĠÙĦØŃ Ø¸Ø§Øª
ĠØ³Ø§ÛĮ ÙĨØ§
ĠØŃØ³ÛĮÙĨ Ø¹ÙĦÛĮ
ĠØ¹ÛĮÙĨ Ú©
ĠÙ¾Ø±Øª ØºØ§ÙĦÛĮ
ĠÙħÙĪØ¨ Ø§ÛĮÙĦÛĮ
ĠØ®ÙĦ Ø¹
ĠÙĨÙĪØ² Ø¯ÙĩÙħÛĮÙĨ
es s
ĠØ¹Ø¬ÛĮ Ø¨ÛĮ
ĠÙĨØ§Ú¯Ùĩ Ø§ÙĨ
ĠØ¨Ø±Ú©ÙĨ Ø§Ø±
ĠÙĨØ§Ø§Ùħ ÛĮØ¯ÛĮ
ĠØª ÙĦØ³
ĠØ¨Ùĩ ÙĨØ§Ùħ
Øµ ÛĮØ±
ÚĨ Ú©
ĠÛĮ Ø§Ø²Ø¯Ùĩ
Ø±Ø§ Ø´
ĠØªØ§Ú© ØªÛĮÚ©
Ú©Ø± Ø¨ÙĨ
ĠØ° ÙĩØ§Ø¨
Ú©Ø³ ÙĦ
ĠØ³ÙĨ Ø§ÛĮ
ĠØ®ØµÙĪØµÛĮ Ø§Øª
ĠÙħÙĪØ¬ Ø¨Ø§Øª
ĠØ¢ÙĤ Ø§Ø²Ø§Ø¯Ùĩ
ĠÙ¢ Ù¢
ĠÙģØ±Ø§ÛĮ ÙĨØ¯ÛĮ
Ø´ÙĨØ§Ø³ ÙĨØ¯
ĠÛ±Û³Û¸ Û¶
ĠÛ¶Û¶ Û°
ĠØµÙĩÛĮÙĪÙĨÛĮ Ø³Øª
ĠØ²ÙĪØ¬ ÛĮÙĨ
ĠÙĩÙħØ³Ø§ÛĮ Ú¯ÛĮ
ĠØ³ÙĪÙĨ Ú¯ÙĪÙĨ
Ù¾ÙĨ Ø§Ùĩ
ĠÙ¾Ø±ÙĪÙģ ÛĮÙĦ
ĠÙ¾Ø±Ú© Ø§Ø±
ĠØ¨Ø±ÙĪØ¬ Ø±Ø¯
ĠØ³Ø±Ø¯Ø±Ú¯ ÙħÛĮ
V C
Ùħ ÙĪÙĨÛĮ
ĠÚ© ÙĦÛĮØ³
ĠØ± ÙħØ¯Ø³ÛĮ
Ø· ÙĪØ¨
ĠÙĨÛĮ Ø§ÙĪØ±
Ø§ÛĮØ´ Ø§ÙĨ
ĠÙģØ± ÙĤÛĮ
ĠØ¯Ø³Øª Ø§ÙĨ
ĠØªØ¹ Ø§Ø¯ÙĦÛĮ
ĠØ±ÛĮ Ø®Øª
Û´ Û¹
Û´ Û·
ĠÙħØ±Ø¯ Ø§ÙĨÛĮ
ĠÙĨØ§Ùħ ØªØ¹
Ø±Ø® Ø§ÙĨÛĮ
ĠØ§ÙĨØªØ¸ Ø§Ø±ÛĮ
Ø´Ø± ÙĤÛĮ
ĠØŃÙĤÙĪÙĤ Ø¯Ø§ÙĨ
ĠØ³Ø±Ø® ÙĪÙĨ
ĠÛ·Û¶ Û°
Ø§ÙģØ²Ø§Ø± ÙĩØ§ÛĮ
ĠØ¨Ø§ÛĮ Ø³Øª
ĠÚ©Ø§Ø±Ø¯ Ø§ÙĨØ´
ĠØ³Ø§Ø± ÙĤ
ĠÚ©Ø§Ø¯ Ø±ÙģÙĨÛĮ
ĠÙĤØ§Ø¹Ø¯ ØªØ§
ĠØ¨Ø§Ø¯Ø± ÙĪØ¯
ĠØ±ÛĮÚ©Ø§ ÙĪØ±ÛĮ
Ú© ÙĪØ´
ĠÙĨ Ø±Ø³Ø¯
ĠÚ¯ Ø²Ø§Ø±
ĠØ¬ Ø±Ø§Øª
ĠØ±ÙĪ Ø¨Ø§Øª
Ø³ÛĮ Ùĩ
ĠØ¨ÛĮ Ø§Ø¨
ĠØ®ÙĪ Ø§Ø¬Ùĩ
ĠÙĤØ± Ø¨Ø§ÙĨ
ĠØ§Ø´ Ø§Ø¹Ùĩ
Û³ Û²
ĠØ¯Ùĩ Ú©Ø¯Ùĩ
ĠÛ²Û° Ûµ
ĠÙĪØ²ÛĮØ± ÛĮ
ÛĮÙĨÛĮ ÙĪ
âĢİ âĢĮ
ĠØ³Ø· ÙĦ
ĠØªÙĩ Ø¯ÛĮØ¯ÙĩØ§
ĠÙ¾Ø±Ø³ Ø±Ø¹Øª
ĠÙĨØµ Ø±Ø§ØµÙģÙĩ
ĠÙĨØ¯Ø§Ø± ÛĮØ¯
ĠØ§Ø¹ØªÙħ Ø§Ø¯ÛĮ
ĠÙħÙĪÙĦ ÙĪÛĮ
ĠØ§Ø´ØªØ¨ Ø§ÙĩÛĮ
ĠÙ¾Ùĩ ÙĦ
ĠØ§Ø¯Ø§ÙħÙĩØ§ ÙģØª
Ø¯Ø§ÙĨØ³Øª ÙĨØ¯
ĠÙĨÙĪØ´ ÛĮØ¯ÙĨ
ĠØ§Ø³Ú©ÙĪ ÚĨÛĮÚĨ
Ø¯Ø®Øª Ø±
ĠÚ©Ø§ÙĦØ§Ø¨Ø± Ú¯
ĠÙĨØµØ±Ø§ØµÙģÙĩ Ø§ÙĨÛĮ
ÙĪ Ø®ØªÙĩ
Ùħ ÙĪÙĨØ¯
Ø´ Ú©Ø±
Ú¯ Ø±Ø§ÙģÛĮ
ĠØ¨Ø§ Ø·ÙĦ
Øµ ÙĦÙĩ
ĠÚ¯ ÛĮÙĦ
ĠØŃ Ø¨ÙĪØ¨
Û° Ûµ
ĠÙħØ± Ø·ÙĪØ¨
Û´ Û²
Ø²ÛĮÙĨ Ú¯
ĠØ¢Ø¨ Ø²ÛĮØ§ÙĨ
ĠØ§Ø³ÙĦØ§Ùħ Ø´ÙĩØ±
ĠØ¸Ø±ÙģÛĮØª ÛĮ
ÙħØª Ø±ÛĮ
Ø®ÙĪØ§Ø³Øª ÙĨØ¯
ĠÙħÙĪØ§ Ø¬
ĠØ±ÙĤØ§Ø¨Øª ÙĩØ§ÛĮ
ĠÙ¾Ø±ÙĪØª Ø¦ÛĮÙĨÛĮ
ĠÙħØ¹ÛĮ ÙĪØ¨
er s
ĠÙĨÙħØ§Ø¯ ÛĮÙĨ
ĠÙĨØ§Ù¾Ø§ÛĮØ¯ Ø§Ø±ÛĮ
ĠØ¬ÙĨØ¬ Ø§ÙĦÛĮ
ĠØ¢Ø¨Ø±Ø§Ùĩ Ùĩ
ÙħØŃÙħ ÙĪØ¯
ĠÙĨ ØªÙĪØ§ÙĨÛĮÙħ
ĠØŃ Ø±ÙģÛĮ
ĠØ¢ÙĨ Ø²
ĠØ¯Ø§ ÙĪ
ĠÙħØŃ Ø§ÙĦ
ĠÛĮÚ© Ø³Ø§ÙĦÙĩ
ĠÙħØ¹ ÙĪÙĤÙĩ
ĠØ¯ÙĪ Øº
ĠÙħØ¬ Ø§ÙĦØ³
ĠØ´Ùħ ÙĪÙĦ
ÙħØ§Ùĩ ÙĨÚ¯ÛĮ
ĠØªÚ© Ø§ÙħÙĦ
ĠÛ±Û³Û¹ Û°
ĠÛ±Û¸ Û²
ĠÙģÛĮ Ø´
ĠØªØ±Ø¯ Ø¯ÙĩØ§
ĠÙħÙģ ÛĮØ¯ÛĮ
ĠØ§ØµÙĪÙĦ Ú¯Ø±Ø§
ĠØ¹Ú© Ø§Ø³
ĠØ¹Ú© Ø§Ø³Ø§ÙĨ
ĠØªÙ¾ Ø³ÛĮ
ĠØ¨Ø±Ø§Ø¯Ø± Ø§ÙĨ
ĠÚ¯ÙĪØ³ ÙģÙĨØ¯
ĠÙĨÙĤØ§ÙĩØª Ú¯Ø§Ùĩ
ĠÚ¯Ø²ÛĮÙĨ Ø´
ĠÙĪØ· ÙĨ
ĠÙħØ§ÙĨÛĮØªÙĪØ± ÛĮÙĨÚ¯
ĠØ§Ø³ÙĤ Ø§Ø·
ĠØ³Ø±Øª Ø§Ø³Ø±
ĠØ¨ÙĪÙĦØª ÙĪÙĨ
ĠÙĦØ±Ø¯ Ú¯Ø§ÙĨ
V ID
ÙĪ ÙĩØ§
Øª Ø³
ĠØ§ Ø³ÛĮ
ĠØ¨ ÙĦØ§Ú©
ĠÙħ Ø§ÙĨÛĮ
Ø§ÛĮ Ø§Øª
Ùģ Ú©Ø±
ĠØ¨Ø§ Ø·Ø±ÛĮ
Ø¬ ÙĨÚ¯
ĠÙ¾ Ø§ÙĪØ±
ĠØ§Ùħ Ù¾
ĠÙħÙĨ Ø§Ø²
ĠÙħÙĨ Ú©Ø±
Ø¦ ÛĮÚ©
ĠØ³Ø± Ú¯Ø±Ùħ
ĠØ¯ÛĮ ÙĪÛĮØ¯
ĠØ³Ùĩ ÛĮÙĦ
Ø±Ø³ ÙĪØ±ÙĩØ§ÛĮ
ĠÙĩØ³Øª ÛĮ
ĠØ¢Ø¨ Ø´Ø§Ø±
ĠØ¯ÙĦ Ø®ÙĪØ§Ùĩ
ĠÙħÛĮØ² Ø§ÙĨÛĮ
Ú¯ÙĪ Ø¦Ùĩ
Ø¯Ø§Ø± ÙĨØ¯
ĠÚ©Ø§ÙĦ Ø¯Ø±ÙĪÙĨ
ĠØ³ÙĪØ¯ Ø¢ÙĪØ±
ĠØµØŃ Ø¨ØªÛĮ
ĠÚ©ÙĪÚĨ Ú©ØªØ±
ĠØ§ØªÛĮ ÙĪÙ¾ÛĮ
ĠØ¹Ø±ÙĪ Ø³ÛĮ
ĠÙģØ±ÛĮØ¯ÙĪÙĨ Ø´ÙĩØ±
ĠØªØ¬Ùħ Ø¹ÛĮ
ĠÙħØ³ÙĦÙħØ§ÙĨ Ø§ÙĨ
ĠØ³ÙĪØ¯Ø§ Ú¯Ø±Ø§ÙĨ
ĠÙĦÛĮÙĪÙĨ ÙĦ
ĠØ§ÙĦÚ¯ÙĪØ±ÛĮØª Ùħ
ÙĪ Ú©ÛĮ
ĠØ¯ ÙĪØ±Øª
ĠØ¨Ùĩ Ø§ÛĮÛĮ
ĠØ³ ÙĪØ³
ĠØ¨Ø± Ø®ÙĪØ§Ø±
Ø±ÛĮ ÙĦ
Ø¸ Ø§ØªÛĮ
ÙĦØ§ ÙģÛĮ
ĠÚ¯ÙģØª ÛĮÙħ
ĠØ§ÛĮ Ø¨ÙĨØ§
Û´ Û¶
Û¸ Û¶
ĠØªØ± ÙĪØ±
ĠØ§ÛĮØ¬ Ø§Ø¨
ĠØ²ÛĮØ± Ù¾ÙĪØ´Ø´
ĠÚĨÙĩØ§Ø± Ú¯Ø§ÙĨÙĩ
ĠÙ¾Ø§Ø³ Ø§Úĺ
Ø§ÙĨØ³ Ø±
ĠÛ²Û³ Û¹
ĠØ±ÛĮØ²ÛĮ ÙĩØ§ÛĮ
ĠØ¯Ø±Ø¯ Ø³Ø±
ĠÙħØ¯Ø¯ Ú©Ø§Ø±ÛĮ
ĠØ§ÙħØªØŃ Ø§ÙĨÛĮ
ĠØ´Ú©Ø§ÛĮ ØªÛĮ
ĠÙħÙĨÙĪ ÚĨÙĩØ±
ĠÚ©ÙħØ¨ ÙĪØ¯ÙĩØ§
ĠØ¨ÙħØ§ÙĨ ÛĮÙħ
ĠØ¹Ø§Ø¨Ø¯ ÛĮÙĨÛĮ
ĠÙ¾ØªØ§Ø³ ÛĮÙħ
ĠÙ¾Ø³Ø§Ø¨Ø± Ø¬Ø§Ùħ
ĠØªØ¶ÛĮ ÛĮØ¹
P I
o b
Ø± ÙħÙĨ
Ú© Ø§Ùĩ
Ø´ Ú©ÙĨ
ĠÙĪ ÙģÙĪØ±
ĠØ¨Ø§ Ú©Ø³
ĠÙĩ Ø¶Ùħ
ĠØ§Ø³Øª Ø§Øª
ĠØ¢ ÙĪ
Ø§Øª Ø±ÛĮ
ĠÙĤ Ø§ØªÙĦ
ĠØ§Ø¹ ÙĦØ§ÙĨ
ÙĨØ§ ÙĪÙĩ
ĠÙħØ¯ÛĮØ± Ø¹Ø§ÙħÙĦÛĮ
ĠØµÙĨ Ø§ÛĮØ¹ÛĮ
ĠØ§ØŃ ÙĤØ§ÙĤ
ĠÙĤØ· Ø¹ÛĮØª
ĠØ§Ø® ÙĪØ§ÙĨ
ĠÙĩØ¯ ÙģÛĮ
ÙĨÙĩ Ø§Ùħ
ĠØªÙĪØ± Ø¨ÙĪ
ĠØ®Ø§Ú© Ø³ØªØ±ÛĮ
ĠÙħØ±Ú¯ Ø¨Ø§Ø±
ĠÙĩÙħÚ©Ø§Ø±Ø§ÙĨ Ùħ
ĠØ§Ø³ØªØ§Ø±Øª Ø§Ù¾ÛĮ
Ù¾ÙĪ Ø´ÛĮØ¯Ùĩ
ĠØ¬ØºØ±Ø§ÙģÛĮ Ø§ÛĮ
ĠÙĨÛĮØ´ Ø§Ø¨
ĠÙħÙĨØªØ´ Ø±Ùĩ
ĠÙĪÛĮÙĨØ¯ ÙĪØ²
ĠØ¬Ø±ÛĮ Ø§ÙĨÛĮ
ĠØŃØ¨ÙĪØ¨ Ø§Øª
ĠÙħ ÙģØ±
Ø¨ ÙĪØ³Øª
ĠØ´ Ú©ÙĨ
ĠØ´ Ø±ÛĮØ§ÙĨ
ĠÚ¯ Ø³ÙĦ
ĠØ§Ø³Øª Ø§ÛĮØ±ÙĨ
ĠØ² Ùĩ
ĠÙĦ Ø§ÙĦÙĩ
Ø´ÙĨ Ø§ÙĦ
ÙħØ¯ Ø§ÙĨ
ÙĪÙĤ ÙģÙĩ
ĠÙĤØ· Ø±Ø§Øª
ĠÚ©Ø§ÙĦ Ø¬
ĠÛ²Û³ Û±
ĠÛ¶Û· Û°
ĠÙĨØ· ÙĤ
ĠÙģØ±Ø³Øª Ø§Ø¯
ĠÚ©Ø§Ø±Ø¢ Ø²ÙħØ§ÛĮÛĮ
ĠÙĤØ§Ø·Ø¹ Ø§ÙĨÙĩ
ĠØ¯Ø² ÙģÙĪÙĦ
ĠØ¨ÙĪÙĦÛĮ ÙĪØ§Ø±
Ø´ÙĨØ§ Ø®ØªÛĮ
ĠÚ©Ø§Ø±ÙĦ ÙĪØ³
ĠÙģØ±ÙĪØ² Ø§ÙĨ
ĠØ´ ÛĮØ§
ĠØ´ ÛĮØ±ÛĮ
Ø§ÙĦ Ø§
ĠÚ¯ ÙĦÙģ
ĠØ¹ ÙĪØ¯
Ø±Ø§ Ø¬ÛĮ
ĠØ¨ÛĮ Ø¹
ĠÙħÙĪ Ùĩ
ĠÙĦ Ø·ÙģÛĮ
ĠÙģØ± ÙĪÙĨ
ĠØ§ÙĨØª ÙĩØ§
ĠØ±Ø³ ÙĪØ¨ÛĮ
ĠÛ²Û° ÛµÛ°
ĠÙĨÛĮØ§Ø² Ø³ÙĨØ¬ÛĮ
ĠØªØ¨ Ø±ÛĮØ²ÛĮ
ĠÙĤØ· Ø¨ÛĮ
Ú©Ø§Ø± ÙĩØ§ÛĮ
ĠÛ±Û¹ Û²
ĠÛ±Û¸ Û·
ĠÛ²Û² Û¶
ĠØ¢Ø³ ÙĪØ´ÛĮØªØ¯
ĠØ³ÙĦ ÙģÛĮ
ĠÙĩÙĨØ¯ Ø¨Ø§ÙĦ
ĠØ®Ø§Ú© Ø¨Ø±Ø¯Ø§Ø±ÛĮ
ĠÛµÛ¸ Û°
ĠÛ²Û°Û² Û´
ĠÙ¦ Ùł
ĠØ§ØŃØµ Ø§
ĠØ§ÙĩØ± Ùħ
ĠØ¢Ú©Ø³ ÙģÙĪØ±Ø¯
Ø± Ø§Ø¯
Ú© Ø±Ùĩ
ĠÙ¾ Ø³ØªØ§ÙĨ
ĠØ¢ Ø¬ÛĮÙĦ
Ø¶ ÛĮÙĩ
Ù¾ ÙĦØ§Ø³
ĠÚĨ ÙĦØ³ÛĮ
ĠØ®ÙĪØ¯ Ù¾Ø±Ø¯Ø§Ø²
ĠÙģØ± Ø§Ø±ÛĮ
ĠÙģØ± Ø§Ø±Ø³
ĠØ§Ø³ Ú©ÙĦØª
Ûµ Û³
ĠÙħÙĤ Ø¯ÙĪØ±
ĠÙ¾Ø³ Ø§Ú©Ø±
ĠÙħØ±Ø§ Ú©Ø²ÛĮ
ĠÙħÙĩØ± Ø¨Ø§ÙĨ
ĠÚ©ØªØ§Ø¨ ÙģØ±ÙĪØ´ÛĮ
Ú¯Ø°Ø§Ø± ÛĮÙħ
ĠÚ©ÙĦÛĮ Ú©
ĠÚ©Ø§Ø±Øª ÙĨ
ĠØ¢Ø´ ÙģØªÚ¯ÛĮ
ĠÚĨØ§Ø¨ Ú©
ĠÚ©Ø§ÙħÙ¾ ÙĪØ²ÛĮØª
ĠØ§Ø³Ø¯ Ø§ÙĦÙĦÙĩ
ĠØ¨Ø§Ùĩ Ø¯Ùģ
Ø¨Ø²Ø± Ú¯
ĠÙ¾Ø±Ø·Ø±Ùģ Ø¯Ø§Ø±
ĠØ±ÙħØ¯Ø³ÛĮ ÙĪÛĮØ±
A C
ĠØ¯ ÙĦÛĮ
Ø´ ÙĤ
Ú¯ ÙģØªÙĩ
ÛĮÙĨ Ø³ÙĪÙĨ
ĠØ± Ø®Øª
Ø§ÙĦ ØŃÙĩ
ĠÙ¾ Ø§Ø¨Ø±
Û° Û´
Ø« Ø¨Ø§Øª
ĠØ§Ø³ Ú©Ø§Ø±
ĠØ¯Ø³Øª Ú©Ùħ
ĠØ§ÙĦ Ø¨
ĠØ§ÛĮ Ø²ÙĪÙħ
ĠØªØ§Ú© Ø§ÛĮ
ĠØ¹Ø± Ø´Ùĩ
ĠÛ¸ Û²Û°
ĠÙģØ¹Ø§ÙĦÛĮØª ÙĩØ§
ĠØ¢Ø²Ùħ Ø§ÛĮÛĮ
ĠÙĪÙĤ Ø§ÛĮØ¹
ĠÛ±Û¶ Û¸
ĠÛ²Û°Û° Û³
ÙĪÚ¯ÙĪ ÙĩØ§ÛĮ
ĠÙħØº ÙģÙĪÙĦ
ĠÙģØ±ÙĪØ¯ Ú¯Ø§ÙĩÛĮ
ĠÙ£ ÙłÙł
ĠÙģØ±ÛĮ Ø¯ÙĨ
ĠØ´ÙħØ´ ÛĮØ±
ĠÙħÙħÙĦ ÙĪ
ĠÙ¾Ø² ÙĪÛĮ
ĠØ³ÙħÙ¾ ÙĪØ²ÛĮ
Ø´Ø§Ø® Ùĩ
Ġ n
ĠØ§ Ú©Ø±
ĠØ¯ Ø§ÙĨÛĮ
ĠØ´ Ø±Ùģ
ĠÙĩ Ú©Ø±
ĠØ® Ø¯Ø±ÛĮ
ĠØ¬ ÙĦÛĮÙĦÛĮ
ÛĮØ¯ Ø±
ĠØ¢ÙĨ Ø¬
ĠØ³Ø± Ù¾ÙĪØ´ÛĮØ¯Ùĩ
ĠØ±ÙĪØ² Ø¨Ùĩ
ÛĮØ³ Ùħ
Ø§Ø³ÛĮ Ø§ÙĨ
ĠÙ¾Ø³ Ø§ØªØŃ
Ø§Ú© Ø±ÛĮ
ĠÛ· Û³Û°
ĠÙĨØ§ Ø´ÙĨØ§Ø³
ĠØ¨Ø§Ø± Ø¨Ø±ÛĮ
ĠØ¨ØŃ Ø¨ÙĪ
ĠÙħÙĦ ÙĪØ§ÙĨ
ĠØºØ° Ø§ÙĩØ§
ĠÛ²Û°Û° Û¶
ĠÙ¾ÙĦ Ø§ØªØ³
ĠÛ²Û± Ûµ
ĠØ±ÙĪØ¯ Ú©ÛĮ
ĠÙ¢ Ù§
ĠÙħØ¹Ùħ Ø§Ø±
ĠØ§Ø¹Ø· Ø§ÛĮÛĮ
ĠØ§Ø±Ø¯ÙĪ ÙĩØ§
ĠØªÙĪÛĮ ÛĮØªÛĮ
ĠÙ¾ÙĨØ§Ùĩ Ú¯Ø§Ùĩ
ĠÚ¯Ø±ÙĪ Ø³ÛĮ
ĠØ§ÛĮØ² ÙĪ
ĠØ²Ø§Ø± Ø¹ÛĮ
ĠØºØ§ÙģÙĦ Ú¯ÛĮØ±
ĠØ¨ÛĮÙĪÙĦÙĪÚĺÛĮ Ú©ÛĮ
ĠIC T
ĠÙħÛĮØ´ ÙĦ
ĠÙĦØ·ÛĮ ÙģÛĮ
ĠØ¨Ú©Ø§Ùĩ ÙĨØ¯
ĠÙħØ¨Ùĩ Ùħ
ĠÙ¾Ø³Ø§ØªØŃ Ø±ÛĮÙħ
ĠØ¨ØŃØ¨ÙĪ ØŃÙĩ
ÙĨ ÙĪÙĨ
Ú© ÙħÛĮ
Ú¯ Ø¯
ĠØ´ Ú©ÙĨÙĨØ¯Ùĩ
ĠØ´ ÙĦÙħ
ĠÙĩ Ø§ÙĦ
ĠÙĩ Ø¬ÙħÙĩ
ĠØ® Ø´ÙĨ
ĠÙ¾ Ø§Ùģ
ĠØ¢ÙĨ ÛĮ
ĠÙĦ Ø¨Ùĩ
Ø¢ ÙħÛĮØ²ÛĮ
ÙħÙĦ ÛĮÙĨ
ĠØ§Ø¯ Ø±Ø§Ø±
ĠØ¹Ùħ ÙĪØ¯ÛĮ
ĠÙħØ±Ø¯ ÙħØ§ÙĨ
ĠÙĪØ± ÙĤÙĩ
ĠÙĤØ§ÙĨÙĪÙĨ Ú¯Ø°Ø§Ø±ÛĮ
ĠÚ©ÛĮ Ø§Øª
ĠÙħÙĨØ¸ ÙĪÙħÙĩ
ĠØ´ÛĮØ± Ø§ÙĨÛĮ
ĠØ¬ÙħØ¹ Ø§
ĠÚ©ÙĨØ§Ø± Ú©
ĠÙħØªØ±ÙħÚ© Ø¹Ø¨ÛĮ
ĠÙħØº ØªÙĨ
Ø³ÙĦ Ø§ÙĨ
ĠØ¯Ø¹ ÙĪØ§
ĠØ§ÙĦÙħÙ¾ ÛĮÚ©ÛĮ
ĠÙ¾Ø§ Ú©ÛĮ
ĠÙĤØ·Ø§Ø± ÙĩØ§ÛĮ
Ù¾ÙĨØ¬ Ùħ
ĠØªØ§ÙĨ Ú©
ĠØ²Ø§Ø¯ Ú¯Ø§ÙĨ
ĠÙĪÛĮØ¯ÛĮ ÙĪÛĮÛĮ
ĠÚ¯ÙĪØ§Ø± Ø´ÛĮ
ĠÙħØªÙĪÙģÛĮ Ø§ÙĨ
ĠÙħØŃØ§Ú© ÙħÙĩ
ĠØªØ§Øª ÙĨÙĩØ§Ùħ
Ġ Z
ĠØ¯ Ø´Ùħ
ĠØª Ø±ÛĮØ¨
ĠÙĨ ÙħØ§ÙĨØ¯Ùĩ
ĠØ³ ÙħØ¹
ÙĤ Ø·
Ø§ÙĦ Ø¨Ø§
ĠÚ¯ Ø³
ĠÚ¯ Ø±Ø§
ĠØ¨Ø± ÙĪÛĮØ¯
ĠØ¬ Ùģ
ĠØŃ ÙģØ±Ùĩ
ĠØ¹ Ø§ÙĦ
ĠØµ ÙħÛĮÙħÛĮ
ĠÙĦ Ùģ
ĠØ³ÛĮ ØµØ¯
ĠÙħÙĩ Ø¯ÙĩØ§ÛĮ
ĠØµÙĪØ±Øª ØŃØ³Ø§Ø¨
ĠØ´ÙĪØ±Ø§ÛĮ Ø¹Ø§ÙĦÛĮ
ĠØ¨Ø¯ Ø±
ĠØ§Ø·ÙĦØ§ ÙĤ
ĠØºÛĮØ± Øª
ĠÚ¯ÙĪ Ø´ØªÛĮ
ĠÛ³Û° Ûµ
ĠØªÙģ Ø±ÛĮ
ĠÛ±Û¸ Û°Û°
ĠØ±ÙĪÛĮØ¯ Ø§Ø¯ÛĮ
ĠØ¯Ø³ØªÙĪØ±Ø§ÙĦØ¹ ÙħÙĦÛĮ
ĠØ¹ÙĪØ§Ø± Ø¶ÛĮ
ĠÛ¹Û¶ Û°
ĠÙħÙĪØ§ÙĨ Ø¹ÛĮ
ĠÙħÚ©Ø± ÙĪÙĨ
ĠØ·Ø§ÙĦ ÙĤØ§ÙĨÛĮ
ĠØ¬ÙĨØ³ ÛĮØªÛĮ
ĠØ§ÛĮØ² Ø¯ÛĮ
ĠÙģØ±Ø¶ ÛĮÙĩ
ĠÙħÙĪØ¯ÛĮ Ø§ÙĨ
ĠÙħØ³ØªØŃ Ú©Ùħ
ĠØ³ÛĮØ§ ÙĪØ´
ĠØ¨ Ø³Ø§Ø²Ø¯
ĠÚ© Ø¯ÙĩØ§ÛĮ
ĠÚ¯ Ø´ÙĪØ¯
ÙĦØ§ Ø´
ĠÙħØŃ Ø¨ÛĮ
ĠÚ¯Ø±Ø¯ ÙĨÙĩ
ÙħØ± Øº
ĠÛ²Û´ Û·
ĠØ³ÙĪØ¯ Ø¯ÙĩÛĮ
Û²Û° Û±Û¶
ĠÙħØªØŃ ÙĪÙĦ
ĠÛ±Û· Û±
ĠÛ²Û³ Û´
ĠÛ²Û³ Û³
ĠÛ²Û± Û´
ĠØ§Ø³ØªÙĤ Ø±Ø§Ø¶
Ø±ÛĮØ² Ø§Ø³ÛĮÙĪÙĨ
ĠÙħØ·Ø§Ø¨ÙĤ Øª
ĠØªØ² Ø±ÛĮÙĤÛĮ
ĠÙģØ±Ø² Ø§ÙĨÙĩ
ĠÙĩÚ©Øª Ø§Ø±ÛĮ
Ø¨Ø¯ ÙĪÙĨ
ĠÙħØ§ÛĮ Ú©ÙĦ
ĠØ¯ÛĮÙĪØ§Ø± ÙĩØ§ÛĮ
ĠØ§Ø° ÛĮØª
ĠÙ¾Ø§Ø³Øª ÙĪØ±
ĠÙģÙĦÙĪØ± ÛĮØ¯Ø§
ĠØ§ÙĦØ§Ø¬ Ø±Ø§
ĠÙħØªØ¬ Ø§ÙĩØ±
ĠÙģØ±Ø§Ø±Ø³ ÛĮØ¯ÙĨ
ĠÙ¾Ø§Ùģ Ø´Ø§Ø±ÛĮ
Ġ d
ĠØ§ Ø´ØªÛĮ
Ø´ Ø´
ĠÙĪ Ú¯Ø±
Ø¨ Ø§Ø³
ĠØª Ø°
ØŃ Ø§ÙĨÛĮ
ĠØ¢ Ø±ÙĪ
ĠØŃ Ø´Ø¯
ÛĮØª Ùĩ
ĠÙħØŃ ÙĪÙĦ
ĠØº Ø§ÙĦØ¨Ø§
Û¸ Û¹
ĠÙħØ±Ø§ Ú©Ø´
ĠÙĦÛĮ Ø²ÛĮÙĨÚ¯
Ø¹Ø¨ Ø¯Ø§ÙĦ
ĠÛ±Û¶ Û³
ĠÙģØ§Ø² ÙĩØ§
ĠØ§ÙĨÚ¯ ÙĪØ±
ĠØ²ÙĨØ¬ ÛĮØ±
ĠÙĩÙĪØ´ÙħÙĨØ¯ ÛĮ
Ú¯ÙĪÛĮ ÛĮØ¯
ĠÛ²Û· Ûµ
ĠØ³Ø§ÙĦØ§ÙĨÙĩ Ú©
ĠØ±ÙģØªØ§Ø± ÙĩØ§
ĠÙħØªÙĤØ§Ø¶ÛĮ Ø§ÙĨÛĮ
ĠØ¨Ø±ÙĨØ¯ Ø³Ø§Ø²ÛĮ
an g
ĠÙħÚ©ÙĦ ÙģÙĨØ¯
ĠØ§ÙģØ³ Ø§ÙĨÙĩ
ĠØ¹Ø· Ùģ
ĠÙħØŃØªÙĪØ§ ÙĩØ§ÛĮ
ĠØ§ÛĮÙĪØ§ÙĨ Ú©ÙĪÙĪÛĮÚĨ
ĠÚ©ÙĪØ§ÙĨØª ÙĪÙħÛĮ
ĠØ³ÙħÙ¾ÙĪØ²ÛĮ ÙĪÙħ
ĠØ¯Ø´Ùħ ÙĨÛĮ
O R
ÙĪ ÙģØ±
ĠØ¨ ÙģØ±Ø³Øª
Ø² Ø§Ø¯ÛĮ
ĠØ¯ ÛĮØª
ĠØ³ ÙĪÙĦÙĩ
ØŃ Øª
ĠÚ¯ ÙĨØ§ÙĪÙĩ
ĠØ¹ Ø§Ø±ÛĮ
Ú©ÙĨ Ú¯
ĠØ¨Ø§Ø² Ø¬ÙĪÛĮÛĮ
ĠØ¯Ùĩ Ø³ØªØ§ÙĨ
ĠØ®Ø· ÛĮØ±
ĠÙĩØ¯ Ø§ÛĮ
ĠØ³ÙĪÛĮ ÛĮØ³
ĠØ´Ø§ Ø¦
ÙĪÛĮÛĮ Ú©
Ø§ÛĮÙĦ ÛĮÙĨ
ĠØ¢Ø± Ø´ÛĮ
ÛĮÚ© Ùħ
ĠØ¨ØŃØ« ÛĮ
ĠØ³Ø¹ Ø¯ÛĮ
ĠÙ¡ Û¶
Ø¢Ùħ Ø±ÛĮÚ©Ø§
ĠØ´ÙĪ ÙĩØ±
ĠÙħØŃØ§Ùģ Ø¸Ùĩ
ĠÛ²Û°Û² Ûµ
ĠØ§ÙĨØ¨ Ø³
ĠØªØ°Ú©Ø± Ø§Øª
ĠÙģÛĮØ± ÙĪØ²ÛĮ
ĠØ¹Ø· Ø³Ùĩ
ĠÚ¯ÙĪØ³ Ø§ÙĦÙĩ
ĠÙģÙĪØªØ¨ Ø§ÙĦÛĮØ³Øª
ĠØ¯ÙħÙĨ ÙĪØ´
ÛĮ Ø§Ø¨
ÙĪ ØŃÛĮ
ĠØ§ ÙħØ§ÙĨØª
ĠÙĪ ÙĨØ¯
ĠÙĪ Ø«
ĠØª Ø·Ø§Ø¨ÙĤ
ĠÙģ ÛĮÙħ
ĠØ² ÛĮØªÙĪÙĨ
ĠÙĦ Ø§Ùĩ
ĠÙĨØ§ Ø¸Ùħ
ĠÚ¯Ø±Ø¯ ÛĮ
ĠØ¯Ø§ÙĨØ³Øª ÙĨ
ĠØ¨Ø® ÙĪØ±
ĠØ³Ø§ÙĨ ÚĨÛĮ
ĠØ´Ø®Øµ ÛĮØªÛĮ
ĠØ±ØŃ ÙħØªÛĮ
ĠÛ´Û¹ Û°
ĠØ¢Ú¯Ø§Ùĩ Ø§ÙĨÙĩ
Ø±Ø³Ø§ÙĨ ÙĨØ¯
ĠÛ²Û°Û² Û³
or t
ĠØµØ§Ø¯ÙĤÛĮ Ø§ÙĨ
ĠÚ©ÙĦÛĮÙĨ ØªÙĪÙĨ
ĠÛĮÙĪØªÛĮ ÙĦÛĮØªÛĮ
ĠÙĪÚ¯Ø± ÙĨÙĩ
o d
ĠÙĨ Úĺ
ĠØ³ Ø¬Ø§Ùħ
ĠØ³ ÙĪÙĨÛĮ
ĠÙ¾ Ø´
ĠÚ¯ ÛĮÙĨÙĩ
ĠÙģ ØªØ§ØŃ
ĠØ¬ Ø¹ÙĦ
ĠØ§Ø± Ú¯Ø§ÙĨÛĮ
ĠÙħØ¬ ÙĪØ²ÛĮ
ĠÙĩØ± Ø§Ø³
ĠØ´Ùħ ÛĮØ±
ĠÙĩÛĮ ÙĪÙĨØ¯
ĠØ« Ø¨Ø§ØªÛĮ
Ø¨Ø±ÛĮ Ø¯ÛĮ
ĠØ¨Ø§Ø²ÛĮÚ©ÙĨØ§ÙĨ Ùħ
ĠP ro
ÙħØ¨ ÙĨØ§ÛĮ
ĠØ³Ùħ ØªÛĮ
ĠØ³ÙĪÙĦ Ùģ
ĠÙĨØ§Ú©Ø§Ø± Ø¢ÙħØ¯ÛĮ
ĠÙĦÙĤ Ø¨
Ø³ØªØ±Ø³ ÛĮØªÛĮ
ĠØ±ÙħØ²Ø§Ø± Ø²
Ø³ Ø§Ø¯
ĠØª Ú©Ùĩ
ĠØ³ Ú©ÙĨÙĩ
Ø§Ùħ ÙĨÛĮ
ĠÚ¯ Ø±ÛĮØ²
Ø§Ùĩ Ø¯ÛĮ
Ú©ÙĨ Ø§Ø±
ĠØ§Ø¹ Ø§Ø¯Ùĩ
Ø¯ÛĮ ÙĦÛĮ
ĠØ§Ø± Ø³ÙĦØ§ÙĨ
ĠÙħØ´ ÛĮ
ĠØ¯ÛĮ Ú¯ÙĪ
ĠÚ©Ùħ Ø§ÙĦÛĮ
Û´ Û°Û°
ĠÙħØ±Ø¯ Ø§ÙĨÙĩ
Ø§ÙĤ ØªØµ
ĠÙĩÛĮ Ø¦
ĠØ¯ÙĦ Ø§ÙĦ
ĠÙĨÙĪ Ø¨Ùĩ
ĠØ´ÙĩØ±ÛĮ Ø§Ø±ÛĮ
ĠÚ©Ø§ÙĦ Ø¨Ø¯ÛĮ
Ø±ÛĮÙĨ Ú¯
ĠØ¯ÛĮØ¯ ÙĨÛĮ
ĠØ§Ø±Ø² ÙĩØ§
ĠÙĤØ¯Ø± ØªÙħÙĨØ¯ÛĮ
ĠØ®Ø·Ø± ÙĨØ§Ú©ÛĮ
Ø§ÙĦÙĦÙĩ ÛĮ
ĠS t
ĠÙĨØ§Ú© Ø§ÙģÛĮ
ĠÚ©ÙĨØ³ ÙĪÙĦ
ĠÙ¾ÛĮØ´ÙĨÙĩØ§ Ø¯ÙĩØ§ÛĮÛĮ
ĠÙħØ¨Ø§ÙĦ ØºÛĮ
ĠØ±Ø§Ùħ Ø³Ø±
ĠØºÛĮ Ø§Ø¨
ĠØ¨ÛĮÙĨØ¯ Ø§Ø²Ø¯
ĠÙħÙħÙĦ Ú©Øª
ĠØ§ÙĦØªØŃØµ ÛĮÙĦØ§ÙĨ
ĠÙģÛĮÙħ Ø§Ø¨ÛĮÙĨ
i p
Ġ ÛĮØ±
Ø§Ø± Ø§ÙĨÙĩ
ĠØ´ ØªØ±
ÙĩØ§ÛĮ Ùħ
ĠØ¢ Ø±ÛĮØ²
ĠØ¢ÙĨ ÚĨÙĨØ§ÙĨ
ÙĦØ§ ÙĪÙĩ
ĠÙħÙĪ Ø¬ÛĮ
Ø¨Ø± ÙĨØ§ÙħÙĩ
ĠØ¨Ø®Ø´ ÙĩØ§
ĠØ³Ùĩ ÛĮÙħ
ĠØ²ÛĮ Ø¨Ø§Øª
ĠØ§ÙĪÙĦ Ø§
Ú©Ø³ ÛĮØ¯
ĠØ§Ø¨ ÙĨÛĮÙĩ
ĠÛ±Ûµ Û¹
ĠÚ¯ÙĦ ÙĪØ¨
ĠÛ²Ûµ Û´
ĠÛ¹Û¸ Û°
ĠØ´Ø¹ Ø§Ø¹
ĠØ²ÙĨ ÛĮØª
ĠØ§Ø±Øª Ú©Ø§Ø¨
ĠÙħÛĮÙĨ ÙĪ
ĠÙħØ³ÙĦ Ø·
ĠÙģØ§ÙĦ ÙĪ
ĠÙħØµÙĪÙĨ ÛĮØª
ĠØ®ÙĪØ§Ø± Ø²ÙħÛĮ
ĠÙģÙĦØ§ ÙĪØ±
ĠØ§Ø´ØªÛĮ Ø§ÙĤ
ĠØ¨ Ù¾Ø°ÛĮØ±Ø¯
Ø§Ø± Ø´ÛĮ
Ø¬ Ø§Ø±Øª
Û° Û±
ĠÚ©ÙĨ Ú¯ÙĪ
ĠØªØ¹ ÙĦÙĦ
ĠØ¯Ø§ÙĨØ´ ÙħÙĨØ¯
ĠÛ¶ Û²Û°
ĠÙħÙĪØ¶ Ø¹ÛĮ
ĠØªÙĦØ§Ø´ ÙĩØ§ÛĮ
ĠØªÚ© Ùģ
Ø¨Ø¹ Ø¯ÛĮ
ĠÙħØ´Ø§ÙĪØ± ÛĮÙĨ
ĠÛ²Û³ Û¶
ĠÛ²Û· Û¶
ĠØ§ØªÙĪØ¨ Ø§ÙĨ
ĠÙģÙĩØ± Ø³ØªÛĮ
ĠØªÙħØ§ÛĮ Ø²
Ú¯Ø±ÙģØª ÙĨ
ĠØ§ÙĩØ¯Ø§ Ú©ÙĨÙĨØ¯Ú¯Ø§ÙĨ
ĠÙ¤ Ùł
ĠÚĺÙĨ Ø±Ø§ÙĦ
Ù¾ÙĦ ÙĨØª
ĠØ³ÛĮØ¯Ø§ÙĦØ´Ùĩ Ø¯Ø§
ĠØªÙĪØ±Ø¨ÙĪÚ©ÙħÙ¾ Ø±Ø³ÙĪØ±
ÙĪ Ú¯ÙĪÛĮÛĮ
ÙĦ ØªÛĮ
ĠÚ© ÙĪÙĨ
ĠØª ÛĮØª
ĠÙĨ Ø¯ÛĮØ¯Ùĩ
ĠØ³ ÙħÛĮØ¹
ĠÙĩ ÙĦÛĮ
ĠØ¢ÙĨ Ø·ÙĪØ±
ÙħÛĮ Ø¯Ùĩ
ĠØ¨ÛĮ Ø§Ùħ
ĠÙ¾ÛĮ Ú©Ø³ÙĦ
Ûµ Û¶
ÙĪÙħ Ø±
ĠØ§ÙĨØª ÙĩØ§ÛĮÛĮ
ĠØ§Ø· Ø±Ø§ÙģÛĮ
ĠØ²ÛĮ Ø§Ø¯Ùĩ
ĠÛ²Û° Û¸
ĠØ¸ ÙĦÙħ
Ø®ÙĪ Ø§Ø¨
ĠÙĨØ§ Ø¢Ø±
ĠØ³Øª Ø§Ø¯ÙĩØ§ÛĮ
ĠØ±Ø¹ Ø¯ÙĪ
ĠÚ©Ø§ÙĨ Ø§Ø¯
ĠØ³Ø±Ù¾Ø± Ø³ØªØ§ÙĨ
ĠØ§Ø³Ù¾ ÙĪØ±Øª
ĠÙħÙģ ØµÙĦÛĮ
ĠÛ¹Û· Û°
ĠÙĩÙħØª Ø§ÛĮØ§ÙĨ
ĠÙģÛĮÙĨ Ø§ÙĦÛĮØ³Øª
Ø³Ø§ Ø¹Ø¯
ĠØ§Ø´ÛĮ Ø§Ø¡
ĠÙħÙĩØ§Ø¬ ÙħØ§ÙĨ
ĠÙĤÙĨ Ø§Øª
ĠØ¨ÙĪØ¦ ÛĮÙĨ
ĠÙħØªØ§Ø¨ÙĪÙĦÛĮ Ø³Ùħ
ĠÙ¾Ø³Ø§Ú©Ø± ÙĪÙĨØ§
ĠØª Ú©Ø§ÙĨ
Ø§Ùħ Ø²
ĠØ® Ø¯Ø§ÛĮÛĮ
ĠÙ¾ Ø±Ø§ÛĮ
ĠØ¢ Ø¨Ùĩ
ĠØ¢ Ø®ÙĪ
ĠÙģ ÙĪØ¨
ĠØ§Ùħ ÙĩØ§ÙĦ
Ù¾ ÙĪØ±Øª
ĠØ§Ùģ Ø´Ø§ÛĮ
ĠØ¢ÙĨ Ø§ÙĦ
ĠÙħØ´ Ø§ÛĮ
ĠÙħØª ØµÙĪØ±
ĠØªØ¹ Ø±ÛĮØ¶
ĠØ¨Ø§Ø² Ø®ÙĪØ±Ø¯
ĠØ¯Ùĩ Ø§ÙĨÙĩ
ĠØ³ÙĪ Øª
ÙħØ¯ ÛĮØª
ĠÙĩÛĮ Ø¨Ø±ÛĮØ¯ÛĮ
ĠÚĨÙĩØ§Ø± Ø¨Ø§Øº
ĠØŃØ§Ø¶ Ø±Ø§ÙĨ
ĠØ´Ø± Ø·ÛĮ
ĠÙĩÙħØ³ Ø±Ùħ
ĠØªØ¯Ø§ Ø®ÙĦ
ĠØ¹Ø²ÛĮ Ø²ÙħØ§ÙĨ
ĠØ±ØŃ ÙħØ§ÙĨ
ĠØŃØ¬ ÙħÛĮ
ĠÛĮÙĪÙĨ Ø§ÛĮØªØ¯
ĠÙ¾Ø¯Ø± Ùħ
ĠØ°ÙĩÙĨ ÛĮØª
ĠØ§Ø³Ú© Ø§ÛĮ
ĠØ·Ø§Ùĩ Ø±Ø®Ø§ÙĨÛĮ
ĠÙĨØ§ÙĩÙĨØ¬ Ø§Ø±ÛĮ
ĠØªÙĦØ³ Ú©ÙĪÙ¾
I P
Ùħ Ú©
Ø§Ø± Ú¯Ø§ÙĨÛĮ
ĠÚ© ÛĮÙħÛĮ
ĠÙĨ Ø±ÙģØª
ĠØ± Ø§ÛĮØª
ÙĤ Ø¨Ùĩ
ĠÙĩ ÙĪÛĮ
ĠØ¢ ÙĦÙģ
ÙĦÛĮ Ø¨
ĠÙģ Ø¯Ø§ÛĮÛĮ
ĠØ¬ Ø§Ú©
ĠØµ Ø®Ø±Ùĩ
Øº ÙĦØ§Ùħ
Ø« Ø¨Ø§ØªÛĮ
ĠØ¯Ø§Ø± Ø§Ø¨ÛĮ
ĠØ®Ø¨Ø± ÙĩØ§
ĠÙĩØ± Ø³Ø§ÙĦÙĩ
ĠÙħØµ Ø§ÙĦØŃÙĩ
ĠØ±Ø§Ùĩ Ø§ÙģØª
ĠØ´Ùħ Ø±Ø¯Ùĩ
ĠØ³Ø§Ùħ Ø§ÙĨÛĮ
ÙĪØ§ Ú©ÛĮ
ĠÛ±Û¸ Û¹
ĠØ¨ÛĮÙħØ§Ø±Ø³ØªØ§ÙĨ ÙĩØ§
ĠÚ©ÙĦÛĮ ÙĪÛĮ
ĠÙ¾ÙĦ Ø¯Ø®ØªØ±
ĠØŃÚ© ÙħØª
ĠØ§ÛĮÙĨØªØ± ÙħØ¯ÛĮØª
ĠØªÛĮØ± Ø§Úĺ
ĠÙħÙģ Ø§ØµÙĦ
Ø³Ø± ÙħØ§ÛĮÙĩ
ĠØ±ÙĪØ¨Ø±ÙĪ Ø³Øª
ÙħØ§Ø± Ú©Øª
ĠØ§Ø¹Ø¶Ø§ Ø¡
ĠÙĪÙĦ ØªØ§Úĺ
ĠØ²ÙĨØ¯ Ø¢ÙĪØ±
ĠØ§Ø³ØªÛĮ Ø¬Ø§Ø±ÛĮ
ĠÙĩØ¬ Ø¯ÙĩÙħÛĮÙĨ
ĠÙģØ¶ Ø§ÙĩØ§
ĠØ´Ø§ÛĮØ¹ Ø§ØªÛĮ
ĠØ¢ÙħÙĪ Ø®ØªÚ¯Ø§ÙĨ
ĠÙĪÛĮÙĦ ÚĨØ±
ĠØ¨ÙĤØ§ÛĮ Ø§ÛĮ
ĠØ¢ÛĮÙĨØ¯ Ú¯Ø§ÙĨ
ĠÙĦØ§ÙĦÛĮ Ú¯Ø§
i f
ÙĨ ÙĪØ´
ĠØ¨ Ø´ÙĨ
ĠÚ© ÙĪÛĮÛĮÚ©
ĠØ¯Ø± Ù¾ÛĮ
ĠÙ¾ Ø®ØªÙĩ
Ø§Ø¯ Ø§Ø±ÛĮ
ĠÙģ Ø¯
ĠÙģ Ø§ÛĮÙĨ
ĠÙģ Ø§Ø³Ø¯
ĠØ¬ Ø¨Ø±
ĠÙĤ Ø§Ø¯Ø±ÛĮ
Û° Û¶
ĠØ· Ø¹
ĠØ· Ø±ÙĤ
Ù¾ Úĺ
ĠÙħØ³ Ø¹ÙĪØ¯ÛĮ
ÛĮØ³ Ùģ
ĠØ§ÙĦ Ø®
ĠØ¯Ø§Ø¯ Ø³Ø±Ø§
ĠØº Ø§ÛĮØ¨
ĠØ®Ø±ÛĮ Ø¯Ùĩ
ĠØ§Ø¨ ÙĩØ±
ĠØ¯ÛĮØ¯Ø§Ø± ÙĩØ§
ĠØ¯Ø³ØªÛĮ Ø§Ø±Ø§ÙĨ
ĠØ³ÛĮÙĨ Ùħ
ĠØ±Ø® Ø¯
ÙĦÙĪ ØŃÙĩ
ĠÙħÙĤØ±Ø± Ø§ØªÛĮ
ĠØ¯Ùħ Ú©Ø±
ĠØ§ÙĦØª ÙģØ§ÙĪØª
ĠÙħØ¯Ø¹ÛĮ Ø§ÙĨ
ĠØ§ÙĨØµ Ø§Ùģ
ĠÙģØ±ÙħØ§ÙĨØ¯Ùĩ Ø§ÙĨ
ĠÙĤØ·Ø§Ø± ÙĩØ§
ĠØ§ÙĦÙħ Ø«ÙĨÛĮ
ĠÙĨØ¯Ø§Ø¯ ÙĨ
ĠØ³ÙĪÙĦ ÙģÙĪØ±
ĠØ¹Ø§Ø¨ Ø¯ÛĮ
ĠØ¹Ø¨Ø¯Ø§ÙĦØ¹ Ø²ÛĮØ²
ĠÙĨØ§Ø¨Ø± Ø§Ø¨Ø±ÛĮ
ĠØ´Ø§Ø¦ Ø¨Ùĩ
ĠØ¨ Ú©Ø±
Ø¨ Ø§Ø¯ÛĮ
ÙĤ Ø§ÙĦ
Ø§Øª ÙĪ
ĠØ¹ Ø§Ø¯ÙĦÛĮ
ĠÚ©Ø´ Ø´
ØªÛĮ Ø§ÙĨ
Ú©Ùĩ Ø²Ø§Ø±
ĠØ§ÙĤ ÙĦÛĮØª
ĠØ§Ø¹ Ø¯Ø§Ùħ
ĠØ¯Ø³Øª ÙħØ²
ĠØ§ÛĮ Ø«Ø§Ø±
Û´ Û±
ÙĪØª ÙĨ
ĠØ¨Ø§Ø± ÙĨØ§ÙħÙĩ
Ø¯Ø§ÙĨ Ø´
ĠØ¨ÙĦ Ø¯
ĠÙĦÛĮ ÙĪØ§ÙĨ
ĠÙħØ« Ø§Ø¨Ùĩ
ĠØ¬Ø² Ø§ÛĮ
ĠâĢ ĭ
ĠØ¨Ø³Øª Ø±Ø³Ø§Ø²ÛĮ
ĠÚ©ÙĦÛĮ Ù¾
Ø¨ÛĮÙĨ Ùħ
ĠÛ±Û· Û¹
ĠÙħØ·ÙĦ Ø¨ÛĮ
ĠÙģØ±ÙĪ Ú©Ø´
ĠØ®ÙĦÛĮ ÙģÙĩ
ĠØ¯Ùģ Ø¹Ø§Øª
Ø¨ÙĨ Ø¸Ø±Ø§ÙĨ
ĠØ§ØŃØª Ø±Ø§ÙĤ
ĠÚ©ÙĩÚ© Ø´Ø§ÙĨ
ĠÚ©ÙħÙ¾ ÙĪØ³Øª
ĠØ³ÛĮØ± ÙĪØ³
ĠÛ±Û³Û¸ Û¹
ĠÛ¸Û¶ Û°
Ø¯Ø±ÛĮ Ø§ÛĮÛĮ
ĠØ¨Ú© Ø§ÙĩØ¯
ĠØ³ÙĨØ¬ÛĮ Ø¯Ùĩ
ÙĪØ§Ø³ Ø·Ùĩ
ĠØ§ÛĮÙĦ ÙĨØ§
Ø¬ÙĦ Ø³Ùĩ
ĠÙĤØ§Ø¦ Ø¯ÛĮ
ĠØ¨ÙĩØ¨Ùĩ Ø§ÙĨ
ĠØ¢ØªÙĦ Ø§ÙĨ
ĠØª Ø±ÙĪ
ĠØ¨Ø± ÙĪ
ĠØ¨Ø± ÙħØ¨ÙĨØ§ÛĮ
ĠÚĨ ÙĪ
ĠÚĨ Ú¯
ĠÚ©Ø± ÙħÙĦÛĮÙĨ
ĠØ³Ø± ÙĦÙĪØŃÙĩ
ĠÙħØ§ Ø´ÛĮÙĨÛĮ
ĠÙ¾Ø± ÙĨØ¯
ĠÙĨØ§ Ú¯ÙĪØ§Ø±
ĠØ¢ØºØ§Ø² ÛĮÙĨ
ĠÛ±Û¹ Û³
ĠÚĺ Ø¦
ĠÚ¯ÛĮØ± ÙĨØ¯Ú¯Ø§ÙĨ
ĠÙħØ±Ø² ÙĨØ´ÛĮÙĨØ§ÙĨ
ĠØ¬Ø¯ Ø§ÙĦ
ĠØ¢Ø±Ø§Ùħ Ú¯Ø§Ùĩ
ĠØ´ÙĪ Ø§ÙĩØ¯ÛĮ
ĠØµØ§ØŃ Ø¨ÙĨØ¸Ø±Ø§ÙĨ
ĠØ¨ÙĦÙĪ Ú©Ùĩ
ĠÙ¾ÙĨ Ø¨Ùĩ
Ú¯ÙĦ Ø§ÙĨ
Ø¹ÙĦ ÙĪÙħ
ĠÙ£ Ù¦
ĠÙģÙĨ ÙĪÙĨ
ĠÛ¸Û· Û°
ĠØ§ÙĨØ´Ø¹Ø§Ø¨ Ø§Øª
ĠÙĩØ±Ú© Ø³ÛĮ
ĠØ³Ú©ÙĪÙĨØª Ú¯Ø§Ùĩ
ĠÙħØ³ÙĦ ÙħØ§
ĠØªÙĪØ±ÛĮ Ø³ØªÛĮ
ĠÙħÙĤØµ ÙĪØ¯
ĠØ¢ÙĪØ§Ø± Ú¯Ø§ÙĨ
Ù¾Ø²Ø´ Ú©
ĠÚ¯Ø±Ø³ ÙĨÚ¯ÛĮ
ĠØ¢Ø³ÙĪØ´ÛĮØªØ¯ Ù¾Ø±Ø³
ĠØªÚ©Ùģ ÛĮØ±ÛĮ
ĠØ±Ø¹Ø¯ÙĪ Ø¨Ø±ÙĤ
C o
E R
Ø§Ø± ÙĪÙĨ
ĠØª Ø®ØªÙĩ
ÙĪØ¯ ÙĨ
ĠÙ¾ ÛĮÙĨÚ¯
Ø§Ùĩ ÙĦÛĮ
Û° Û¸
ĠØ§Ùħ ÙĨØ§
ĠÙĨÛĮ Ú©ÛĮ
ĠÙĪÛĮ Ø²Ø§
Ø« Ùĩ
ÙĨÚ¯ Ùĩ
ÙĤÛĮ ÙĤÛĮ
ĠØ§ÛĮ Ø²Ø¯
ĠØº Ø¶
ĠÙħØ± Ø¬Ø§ÙĨ
ĠØ§ÙĪ Ø¨Ø±
ĠÙģØ¹Ø§ÙĦ Ø§ÙĨÙĩ
ÙĪØª ÙĪØ±
ĠÙĨØ§ Ø¦ÛĮÙĨ
ĠÙ¾Ø±Ø¯ Ø§Ø²ÛĮ
ĠÙĪÛĮØ± Ø§ÙĨ
ĠÙħÙĩØ± Ø¢Ø¨Ø§Ø¯
ĠØ¯Ø§ÙĨØ´Ú¯Ø§Ùĩ ÛĮØ§ÙĨ
ĠØ§Ø¹ØªØ¨ Ø§Ø±Ø³ÙĨØ¬ÛĮ
ĠØ±ÙģØª ÛĮÙħ
ĠØ®Ø± ÙħØ§
ĠÙĪØ§Ú©Ø³ ÛĮÙĨÙĩ
ĠØ¹Ø§ÙħÙĦ Ø§ÙĨ
ĠÛ²Û² Û·
Ø§ÙĦØ¹ Ø¸ÛĮÙħ
Ø¨ÙĨ Ø²ÛĮÙĨ
ĠÙħØªØ±ÙĪ Ú©Ùĩ
ÙĨÙħØ§ÛĮ ÙĨØ¯
ĠØ´Ø¹Ø§Ø± ÙĩØ§ÛĮ
ĠÛ·Û¸ Û°
ĠÙ¤ ÙłÙł
ĠØ³ÛĮØ§Ø± Ú©
ĠÙĨØ§Øª ÙĪØ§ÙĨ
ĠØ¨Ø²ÙĨ ÛĮØ¯
ĠÙĨØ§Ø´ÙĨ ÙĪØ§
ĠÙĨØ§ÙħØªØ¹ Ø§Ø±Ùģ
Øª Ø§Ù¾
Ø³ ÙĨØ¬
ĠÙħ Ùħ
ĠØ® Ø¶
ĠÙģ Ø·Ø±
Ù¾ Ø§Ø³
ĠÙĨÛĮ Ø§ÙĪØ±Ø¯
ĠÚĨ ÙĨÚ¯ÛĮ
ØªØ± Ø§ÙĦ
Ú¯Ø± Ú¯
ĠØ§Ø³ ÙĩØ§ÙĦ
ĠØ§Ø¯ Ø§ÛĮ
Ø§Ø³Øª Ø±
ĠØ§ÛĮÙħ Ù¾ÙĦÙĨØª
ĠØªØ¨ Ø®ÛĮØ±
ĠØ§Ø® Ø·
ĠØ¯Ø§ÙĨØ´Ú¯Ø§Ùĩ ÙĩØ§
Ø§ÛĮØ± Ø§ÙĨÛĮ
ĠØ³ÙĪØ¯ Ø¬ÙĪÛĮØ§ÙĨ
ĠØµØ¯ Ø¯Ø±ØµØ¯
ĠØ³Ø¹ ÛĮØ¯ÛĮ
ĠØ±ÙĪÙĨ Ø¯ÙĩØ§ÛĮ
ĠÛ²Û· Û²
ĠÚ©ÙĪÚĨÚ© ØªØ±ÛĮÙĨ
ĠÙĤØ² ÙĦ
ĠØ¨Ø±Ø¯ Ø§Ø±Ø§ÙĨ
ĠÚ¯Ø±Ø§ÙĨ ÙģØ±ÙĪØ´ÛĮ
ĠØ´Ø§Ø¯ Ø§Ø¨ÛĮ
ĠØ¢Ø¯ Ø§Ø¨
ĠÚ©ÙĪÙĦ Ø±ÙĩØ§ÛĮ
ĠÙ¾Ø±ÙĪÙ¾ Ø§ÙĨ
ĠÙĨØ§Ùĩ ÙħØ§ÙĩÙĨÚ¯ÛĮ
ĠØŃÙħ ÛĮØ¯ÛĮ
ĠØ¨ÙĦØ§ØªÚ©ÙĦÛĮ ÙģÛĮ
Ø§ÙĦØªØŃØµ ÛĮÙĦØ§ÙĨ
ĠØ§Ø³ØªÙĪØ¯ÛĮ ÙĪ
ÙĨ ÙĪØ³
Øª ÙĩØ±Ø§ÙĨ
Ú¯ Ø±Ø§Ùģ
ĠØ³ ÙģØª
ĠÙĩ ÙĨØ¬
Ø§Ùħ Ø§ÙĨ
Ø® ÙĨØ¯
ĠØ® Ø¬
ĠÛĮ Ø¨ÙĪØ³Øª
ĠÙħØ¯ ÛĮÙĪÙĨ
ĠØ§Ø³ ÙĦÙĪ
Ûµ Û²
ĠØªØ¹ Ø§Ø±ÛĮ
ĠÙĤØ±Ø§Ø± Ú¯Ø±ÙģØªÙĩ
ĠÙħØ± Ùĩ
ĠØ¬Ùĩ ÛĮ
ĠÙģØ¹ Ø§ÙĦÛĮ
ÙĪÙĩ ÙģØª
Û¶ Û¹
ĠÛ²Û° Û´Û°
ÙĪØª Ú©ÙĨ
Ú©Ø§Ø± Ø§ÙĨÙĩ
ĠØ´ÙĨ Ø§Ø³Ø§ÙĨ
ĠØ¯Ø³ØªÚ¯Ø§Ùĩ ÙĩØ§
ĠØ³Ø¨ ÙĤØª
ĠØ§ÙĨØªÙĤØ§ÙĦ Ø§ØªÛĮ
ĠÙħØ·Ø§ÙĦ Ø¨ÛĮ
ĠØ§Ø±ÙĪ Ù¾Ø§ÛĮ
ĠØ¢Ø± Ø§ÛĮØ´Ú¯Ø§Ùĩ
Ø®ÙĪØ§Ø³Øª ÛĮÙħ
ĠÙĨØ²Ø¯ÛĮ Ú©Ø§ÙĨ
ĠÙ¾Ø§Ø±Ú© ÛĮÙĨØ³ÙĪÙĨ
ĠÛ²Û· Û¸
ĠØ¯Ùħ Ø´ÙĤ
ĠÙħÚ¯ Ø§Ø¨
ĠÚ©Ø§Øª Ø¯ÛĮ
ĠÛ±Û³Û¸ Û´
ĠÛ¸Û¸ Û°
ĠØ®ÙĦ ÙĪØª
ĠØ¯Ø¨ Ø³ØªØ§ÙĨ
es t
ĠØ¨Ø±Ø§ÙĨ Ú¯ÛĮ
ĠØªÙĪØ³Ø¹ÙĩØ§ Ø¨Ø¯
ĠØ·ÙĦ Ø¨ÛĮ
ĠÙħÙĨØŃØµØ± Ø¨Ùĩ
ĠØ¨Ø´Ø±ÛĮ Øª
ĠØ¢ÙĩÙĨÚ¯ Ø³Ø§Ø²ÛĮ
ĠÚ¯ÙĪØ± Ø³ØªØ§ÙĨ
ĠÚ©Ø§ÙĨØªÛĮÙĨ Ø±
ĠCO VID
e ar
ÙĨ ÙĪØ±ÛĮ
ĠØ¨ Ø¨Ø®Ø´
Ø§Ø± ÙĩØ§
ĠØ± ÙģÛĮ
ÙĪÙĨ ÙĤÛĮ
ÙĪÙĨ Ø§ÛĮØªØ¯
ĠØ² ÛĮØ¯Ø§ÙĨ
ĠÚĨ Ø§Ø±Øª
ĠÚĨ Ø±Ø§ÛĮÛĮ
ĠÚ©ÙĨ Ø¹
ĠÙĪØ§ ØµÙĦÙĩ
ĠØ±ÛĮ ÚĨ
ĠØ§ÙĪ ØªÛĮ
Û´ Û³
ĠØªØ§Ú© ØªÛĮÚ©ÛĮ
ÙĦÙģ ÙĦ
Ú©Øª Ø±Ø§
ĠÙĨØ§ Ù¾ÙĪÙĦÛĮ
ĠÙħØ³Ø¦ÙĪÙĦ Ø§ÙĨÙĩ
ĠÙĨÛĮÙħ Ø§Ø±
ÙĩÙĨ Ø±
ĠÛ²Û°Û° Ûµ
ĠØ§ÙģØºØ§ÙĨ Ø³ØªØ§ÙĨÛĮ
ĠÛ³Û°Û° Û°
ĠØ²ÙĪØ¯ Ø±Ø³
ĠØ±Ø§Ø¯ÛĮ Ú©Ø§ÙĦ
ĠØºÙĦØ§Ùħ Ø¹ÙĦÛĮ
ar d
ĠØ¬ÙĨØ³ ÛĮØª
ĠÙĩÙĪØ± Ø§ÙĦØ¹Ø¸ÛĮÙħ
ĠØªØŃØ± ÛĮØ±
Ø¢Ø± Ø´
ÙĦØ± Ø²Ùĩ
ĠÚ©Ø§Ø±Ø´ Ú©ÙĨÛĮ
ĠØ³ÙĪØ¯Ø§ Ú¯Ø±ÛĮ
ĠÙħÙĨØªØ¸ Ø±ÛĮ
ĠÙĦÙĨÚ¯Ø± ÙĪØ¯
ĠÙĤØ§Ø· Ø¹ÛĮØª
ĠØ´ÙħÛĮØ± Ø§ÙĨØ§Øª
ĠØ¢Ø±ÛĮØ² ÙĪÙĨØ§
ĠÙħ Ø¶Ø§Ø¹
Ø¹ ÙģÛĮ
Ø¹ ØµØ±
ĠÙĨ Ø±ÙĪØ¯
ĠÙĨ Ø¯ÙĩÛĮÙħ
Ø±ÙĪ ÙĩØ§
ĠØµ Ø±Ø¹
ĠØ´Ø±Ú©Øª ÙĩØ§ÛĮÛĮ
ĠÙ¾ÛĮ ÙĪÙĨ
ĠÙģØ± Ø®
ĠÙĨÙĤ Ø§Ø´
ĠØº Ø±ÛĮØ¨ÛĮ
ĠÙħØµ Ø§Ø¯Ùģ
ĠÙħØµ ÙĨÙĪØ¹
ĠÙ¾Ø³ Ø§
ĠØ®Øµ ÙħØ§ÙĨÙĩ
ĠØºÛĮØ± ÙħØª
ĠÚ¯Ø±ÙģØª Ø§Ø±ÛĮ
ÙĨÙĩ Ø§Ø¯
ĠØ¨ÙĦ ÙĪØªÙĪ
ĠØ±Ø§ÛĮ Ø²ÙĨ
ĠÙģØ±ÙĩÙĨÚ¯ Ø³ØªØ§ÙĨ
ĠÙĪØ³ ÙĪØ§Ø³
ĠØªÙĪØµ ÛĮ
ĠÛĮØ§Ø± ÙħØŃÙħØ¯ÛĮ
ĠØ¨Ø±ÙĨØ¯Ùĩ Ø§
ĠØ§ØŃÛĮØ§ Ø¡
ĠÙĨØ± ÙģØªÙĩ
Ø´ÛĮØ± ÛĮÙĨ
ĠÙħØ³Ø¤ ÙĪÙĦ
ĠÙĨØ§Ø² Ú©
ĠÙĩÙģ Ø¯ÙĩÙħ
ĠØ¬ÙĨØ¬ Ø§ÙĦ
ĠØªÙĪØ¯ÛĮ Ø¹
ĠÙĨÛĮØ´Ø§Ø¨ ÙĪØ±
ĠØªØ±ÛĮØ¨ ÙĪÙĨ
ĠÙĩÛĮØ¦ ØªÛĮ
ĠÙħØ¶Ø§Ø¹ ÙģÛĮ
G S
H O
ĠØ¨ Ú¯
ĠÙħ ÚĨ
ĠØª Ú¯Ø±Ú¯
ĠÙĨ Ø§ÙħÙĦ
ĠØ± Ø§Ø¯Ø§Ø±
ĠØ¨Ø± Ø²
Ø§Ø±ÛĮ Ø§ÙĨ
Ø±ÙĪ Ø¨
Ø« Ø§ÙĦ
ĠØ³Ø§Ø² Ø´
ĠØ´ÙĩØ± ÙĨØ´ÛĮÙĨÛĮ
ĠØ§ÙĦ ÙħØ¹
Ûµ Û¹
ĠØ¯Ø§ÙĨ Ø§ÛĮÛĮ
Û³ Û°Û°
ĠØ¶ Ø§ÙħÙĨÛĮ
ĠÙĨØ§ Ø¢
ĠÙĨØ§ Ø¹Ø§Ø¯ÙĦ
ĠØ¬ÙĨ Ø±Ø§ÙĦ
ĠØ¬ÙĩØ§ÙĨÛĮ Ø§ÙĨ
Ø§ÙĦØª ÙģØ§ÙĪØª
ĠÛ±Û¸ Û±
ĠÙĤØ¯ ÙħÛĮ
ĠÛ²Û· Û´
ĠÙĨØ¬ ÙĪÙħ
ĠÙ¢ Ù¦
ĠØ¢ÙĪØ±Ø¯ ÛĮÙħ
ĠØªØ¨ØµØ±Ùĩ Ú©
ĠÙħØ´ÙħÙĪÙĦ ÛĮÙĨ
ĠÙħÙĪÙĤØ¹ÛĮØª ÛĮ
ĠØ¨Ø±Ø¬ Ø§ÛĮ
Ú¯Ø±ÙģØª ÙĨØ¯
ĠØ¨Ø§Ø®Øª ÙĨØ¯
ĠÚ©Ø±ÛĮ Ø³ØªÛĮ
ĠÙĨØ§ÙħØ´ Ø®Øµ
ÙħÙĤ Ø¯Ùħ
ĠØ¨ÙĦØ§ØªÚ©ÙĦÛĮ Ùģ
ĠØ¢ÙĨØ² ÛĮÙħ
ĠÙģÙĦØ§ÙĪØ± Ø¬Ø§ÙĨ
M I
Ġ Y
Ø± ÙĪØ±ÛĮ
Øª ÙĪØ³
ĠØ¯Ø± Ø§Ø³ØªØ§ÙĨ
ĠØ´ ÙĪÛĮ
ĠØ´ Ú©Ø§Ø±ÛĮ
ĠØ® Ø§Ø¯ÙħÛĮ
ĠÙ¾ Ø§Ø²
ĠÚ¯ Ø§Ø¨
Ù¾ Ø±ÛĮ
ĠÙħØ¯ Ø§Ø±ÛĮ
ĠØ®ÙĪ Ø´ÛĮ
ĠÙħÛĮÙĦÛĮ ÚĨ
ĠØ§Ø± ÙĪÙĨÙĤÛĮ
ĠØ³Ø± Ø³
ĠØ±ÙĪØ² Ø±Ø³Ø§ÙĨÛĮ
ĠØ¨ÛĮÙĨ ÙĨØ¯Ùĩ
ĠÙĨØ§ Ø®ÙĪØ´
ĠÛĮØ§Ø¯ Ø¨ÙĪØ¯
ĠÙĨÙĩ ÙģØªÙĩ
ĠÙĨØ² Ø§Ø¹
ĠÙĤØ§ Ø¬Ø§Ø±
Ú©Ø´ ÙĨØ¯
ĠÙĦØ²ÙĪÙħ Ø§
ĠÙĪÛĮÚĺÚ¯ÛĮ ÙĩØ§ÛĮ
ĠÛ±Û³Û¸ Û·
ĠÙģØ±ÛĮ Ø§Ø¯
ĠØ±Ø¨ Ø§Ø·
ĠØ¨ÙĦÚĺÛĮ Ú©ÛĮ
ĠÙģÛĮØ³ Ø¨ÙĪÚ©
ĠÙħÙĨÚĨ Ø³ØªØ±ÛĮ
ĠÙĪÙģ Ø§Ø¯Ø§Ø±
ĠÚ©Ø§ÙĨØ¯ÛĮØ¯Ø§ ÙĩØ§ÛĮ
AR S
ÙħÙĨØ· ÙĤÙĩ
ĠÚ©Ø§ÙĨØ§Ø¯ Ø§ÛĮÛĮ
ĠØ¬ÙĩÛĮ Ø²ÛĮÙĩ
ĠÙĨØ§Ø¹Ø§Ø¯ÙĦ Ø§ÙĨÙĩ
A T
Ø± Ø§Ø¨
Øª Ø¶ÛĮ
ĠÚ© ÙĦÙĩ
ĠØ³ Ø±ÙĪØ´
Ø§ÙĦ ÙĪ
ĠÚ¯ Ø§ÙĨ
ĠØ¨Ø± ÙĪÚ©Ø³
ĠÚ©Ùĩ Ø§
ĠØ¹ ÙħÛĮ
ĠØµ ÙģÙĩ
ĠÙĦ ÙĨ
ĠÙĦ Ø³Øª
Ø¨Ø± Ùĩ
ĠØ§Ø¬ Ø³Ø§Ø¯
ĠÙħØª ÙģØ±
ĠØ³Ø§Ø²ÙħØ§ÙĨ ÙĩØ§
ĠØªÙħ Ø§Ø³ÛĮ
ĠØªÙħ Ø¬ÛĮØ¯
ĠÙħÙĨØ·ÙĤÙĩ ÙĪØ±ÙĪ
ĠØ¯ÙĦ Ø§ÙĦÛĮ
ĠØ¨ÙĨ Ø§Ùħ
ĠÙĨÙĪ Ø¢ÙħÙĪØ²Ø§ÙĨ
ÚĺÛĮ ÙĪÙĨ
ĠØªÙĦØ§ Ø·Ùħ
ĠÛ²Û´ Û¶
ĠÙ¾Ø§Ø±Ø³ Ø§
ĠÙģØ±ÙĩÙĨÚ¯ Ø³Ø§Ø²ÛĮ
ĠÚ©Ø§Ø±ÛĮ Ú©Ø§Øª
ĠØ³ÛĮØ¯ ÙħØŃÙħØ¯
ĠÙħØ±Ø² Ø¨Ø§ÙĨÛĮ
ĠØ¯Ø§Ø±Ø§ÛĮÛĮ ÙĩØ§ÛĮ
ĠÛ²Û¶ Û´
ĠÙĨÙĪØ± Ù¾Ø±Ø¯Ø§Ø²ÛĮ
ĠØ¯Ø§Ùħ Ø¯Ø§Ø±Ø§ÙĨ
Ø´Ú© Ø¯Ùĩ
ĠØ¹Ùĩ Ø¯
ĠØ³Ø±ÙħØ±Ø¨ÛĮ Ú¯Ø±ÛĮ
Ø±ÙĪÙħ ØªØ±
ĠØ¨Ø® Ø±Ø¯
ĠØ´Ø§Ø¯ Ú¯Ø§ÙĨ
ĠÛ¶Û¸ Û°
Ù¾Ø±ÙĪ Ù¾
ĠØ§Ø³Ùģ ÙĨØ¬ÛĮ
Ø§Ø¨Ø±Ø§Ùĩ ÛĮÙħÛĮ
ĠØ¯ÙĪØ±Øª ÙħÙĪÙĨØ¯
ĠØ³ÙħØ¹ Ú©
ĠÚ©ÙĨØ¹ Ø§ÙĨÛĮ
B S
ĠØ¨ Ø³ØªØ§ÙĨ
ĠØ¨ ÙĪØ±ÛĮØ³
Ùģ ÙĦÛĮ
ĠÙĨ Ø¯ÛĮØ¯
ØŃ Ø¯ÛĮ
ĠØ±ÙĪ Ø§Ø¬
ĠÚĨ Ø§ÙĨÙĩ
ĠØ¯Ø³Øª ÙħØ§ÙĦ
ÙĪÙħ ØªØ±ÛĮ
ĠØ§Ø´ ØºØ§ÙĦÛĮ
ÙħØ± ØªØ¶ÛĮ
ĠÙħÛĮÙĦ Ø±
ĠÛ²Û´ Ûµ
ĠÛ²Ûµ Û±
ĠÙ¾ÙĪØ´ ÛĮØ¯ÙĨ
ÙĩØ§ÛĮØª Ø§ÙĨ
ĠØµØ¨ØŃ Ø§ÙĨÙĩ
ÙĨÙĪ Ø¬
ĠØ§Ø¹Øª ÙĦØ§ÛĮ
ĠÙ¾ÙĪ Ø³ØªÙĩ
ĠÚ©Ø§Øª Ø§ÙĦÛĮØ³ØªÛĮ
ĠØ§Ø´Ø®Ø§Øµ ÛĮ
ĠÙĩØ§Ø¯ÛĮ Ø§ÙĨ
ĠØµØ¯Ùħ Ø§Øª
ĠÙĩÙħØ¬ ÙĪØ§Ø±ÛĮ
ĠÚ©Ø±Ø¨ ÙĪÙĩ
ĠØªÙĪØ±ÛĮ Ø³Ùħ
ĠÚ©Ø±ÛĮØ³Øª Ø§ÙĦ
ĠÙħØŃØ§Ú© Ùħ
ĠØ§ÙĦÙĤØ§ Ø¹Ø¯Ùĩ
ĠÚĨÙħ Ø±Ø§ÙĨ
ĠÛĮØ¹ÙĤ ÙĪØ¨ÛĮ
ĠØ§ÛĮØ²ÙĪÙħ Ø±ÛĮØ²Ø§Ø³ÛĮÙĪÙĨ
Øª Ø²
Ø§ÛĮ Ø³Øª
Ø¨ Ø§Ú©
ĠØ³ Ø§ÙĤ
ĠØ³ Ø§Ø±Ø§
ĠØ¢ ÛĮÙĨÙĩ
ÚĨ ÙĪÙĨ
Ø¶ ÙĦÛĮ
ĠÚĨ ÛĮØ¯
ĠØ´Ø¯ ÙĨÛĮ
ØªØ± Ø´
Úĺ ÙĨÛĮ
ĠÙĦ Ø¬ÙĨ
ĠØ§ÙĤ ØµÛĮ
ĠØ³Ø± ÙĨØ´ÛĮÙĨØ§ÙĨ
ĠØ¯Ø§Ø¯ Ø³Ø±Ø§ÛĮ
ĠÚ©ÙĦ Ø§ÙĨÛĮ
ĠÚ©ÙĦ ÙĪÙ¾
ÙħÛĮÙħ Ùĩ
ĠØ±Ø§ÛĮ Ø§ÙĨ
ĠÛ²Ûµ Û²
ĠØ´Ø± Ø¨Øª
ĠØ§ÙĪØ± Ø§ÙĨÛĮÙĪÙħ
ĠÛ²Û² Û³
ĠÙģÛĮÙĦÙħ Ø¨Ø±Ø¯Ø§Ø±ÛĮ
ĠÛ²Û¸ Û¸
Ù¾ÛĮ ÙĪØ³ØªÙĩ
ĠÙĨÙĤØ§Ø· ÛĮ
ĠÙ¢ Ù£
ĠÙ¾ÙĨ ÛĮØ±
ĠØ³ÙĪØ² ÙĨ
ĠØ³Ø®ÙĨØ§ÙĨ Ø´
ĠØ¢ÙĨÙģ ÙĪÙĦØ§ÙĨ
Ø·ÙĦ Ø¨ÛĮ
ĠØ§Ù¾ÛĮØ¯ÙħÛĮ ÙĪÙĦÙĪÚĺÛĮ
ĠØ¹Ø³ Ú©Ø±ÛĮ
ĠÙģÙĪØ± Ø§
ĠØ§ÙĨÙĤ Ø¨
ĠØ¨Ù¾Ø°ÛĮØ± ÛĮÙħ
ØªØ±Ø¯ ÛĮØ¯
ĠØ¢Ø±ÙĪÙħ Ø§ØªÛĮÚ©
ĠÙģØ±ÙĪÙĨ Ø´Ø³Øª
ĠØ¨ÛĮØ§Ùħ ÙĪØ²
ĠØ¢Ø®ÙĪ ÙĨØ¯ÛĮ
ĠØªØ¹Ø§Ø±ÛĮ Ùģ
Ù ¬
ÙĪ Ø§ÙĦÛĮ
ĠØ¨ Ú©ÙĨØ¯
Ú© Ø´ÙĨØ¨Ùĩ
ĠØ¨Ø§ ØºÛĮ
ĠØ¹ ÛĮÙĨÛĮ
ĠØ¨ÛĮ Ø³
ĠÙħØ¹ Ø¬
Ø¨ÛĮ ÙĦÛĮ
ĠØªØ¹ ÙħÛĮØ±ÛĮ
ĠØ¨Ø§Ø² Ú¯Ø±Ø¯ÙĨØ¯
Û¸ Û±
ĠÙħÙĩ Ø±ÛĮ
ĠØ¨Ø§Ø²ÛĮ Ú¯Ø±ÛĮ
ĠØµØ¨ ÙĪØ±
ĠÙĦØ¨ ÙĨØ§ÙĨÛĮ
ĠØ³ÙģØ§Ø±Ø´ Ø§Øª
ĠÛ³Û¹ Û°
ĠØªØ®Øª ÛĮ
ĠØ¬ÙĪØ§Ø¨ Ú¯ÙĪÛĮ
ÙħØµ Ø·ÙģÛĮ
ĠÚ©ÙĪÙĦ Ø§Ú©
ĠØ¨Ø±Ùĩ ÙħÛĮÙĨ
ĠÙ¾Ø¯ÛĮØ¯ Ø§Ø±
ĠØ¢ÙĨØ¯ Ø±Ùĩ
ĠØ¢Ùĩ Ø³ØªÙĩ
ĠÙĨÙĪØ´ Ø§Ø¨Ùĩ
ØŃÙħÛĮØ¯ Ø±Ø¶Ø§
ĠÙħÛĮÚ© Ø±ÙĪÙħØªØ±
ĠÚ©ÙĨØ¬ Ø§ÙĦÙĩ
ĠØ±ÙĨ Ú©ÛĮÙĨÚ¯
ĠØªÙĨÚ¯Ø§Øª ÙĨÚ¯
ĠØ§ÙĨØµØ§Ø± Ø§ÙĦÙĦÙĩ
ĠØ¨Ø±Ø®ÙĪØ± Ø¯ÙĩØ§ÛĮ
ĠØ¯Ú©ÙĪØ± Ø§Ø³ÛĮÙĪÙĨ
ĠÙĨØ§Ø¢Ø± Ø§ÙħÛĮ
Ø§ Ø¦ÛĮ
ĠÚ© ÙĪØ±Øª
Ø¨ ÙĩØ§ÛĮ
Ú¯ ÙĪØ³
ĠÙ¾ ÛĮØ±ÛĮ
ĠÙ¾ ÛĮÙħØ§
ĠÚ¯ Ø±Ø§ÛĮ
ĠÙģ ÙĪØ±Ø¯
ĠÙģ Ø§ØŃ
ĠÙģ ÙĦÙģÙĦ
Û° Û³
Ø° ÙĦ
ĠØ§Ùģ Ø´Ø§Ø±
ĠÚĨ Ø§ÙĪ
ĠÙĦ Ùħ
ĠÙĦ ÚĺÛĮÙĪÙĨ
ĠÚ©Ø§Ø± Ùĩ
ĠÙħØ¹ ÛĮÙĨÛĮ
ĠÙģØ± ÙħØ§ÛĮ
ĠØ¯ÙĪ Ø¨
ĠØ®Ø¨Ø± Ú¯Ø§ÙĨ
ĠØ¯Ùĩ Ú¯ÙĦØ§ÙĨ
ĠØ§Øª Ú©Ø§ÛĮÛĮ
ĠØ´ÙĪØ±Ø§ÛĮ Ø§Ø±ÛĮ
ĠØ¨ÙĨ Ø´ÛĮÙĨ
ĠÙĨÙĪ Ø´ÙĩØ±
Ø¯Ø± Ø¢ÙħØ¯
ĠØ²ÛĮØ± Ø¯Ø±ÛĮØ§ÛĮÛĮ
ĠØ¨Ø§Ø± ÙĩØ§ÛĮ
ĠØ¸Ø±Ùģ Ø´ÙĪÛĮÛĮ
ĠÙĨØ§Ùħ ÙĪØ±
ĠÙĨØ§Ùħ Ø³Ø§Ø¹Ø¯
ĠÙħØªØ± Ø¬Ùħ
Ø®ØµØµ ÛĮ
ĠÛ²Û² Û¸
ĠØ´Ø¹ Ø¨ÛĮ
ĠØ´ÙĪ Ø®ÛĮ
ĠØ§ØŃØ³ ÙĨ
Ø³Ø± Ø¹Øª
ĠÙ¾Ø§ Ø´ÛĮ
ĠÚ©ÙħÙ¾ Ø±Ø³ÙĪØ±ÙĩØ§ÛĮ
ĠØ¨Ø±Ø´ÙħØ±Ø¯ ÙĨ
ĠÙģØ³ Ùģ
ĠÙĪØ¨ Ø¯Ø§
ĠÙĨØ±ÙĪ ÚĺÛĮ
ĠØ´Ø±ÛĮÚ© Ø§ÙĨ
ĠØ§ØŃØªÛĮ Ø§Ø·ÛĮ
ĠØ§ÙĦØ³ Ø¯
ĠØµÛĮ Ø§Ø¯ÛĮ
ĠØ¨ÙĪØ¦ ÛĮÙĨÚ¯
ĠØ§Ø´ØªØ±Ø§ Ú©ÛĮ
ĠØ¯Ú© ÙħÙĩ
ĠÙĨÙħØ§Ø¦ ÛĮØ¯
ĠÙħØ´ØªÙĤ Ø§Øª
ĠØ´ÛĮØ§ Ø¦
ĠØªÙģØ±ÛĮ Øº
ĠØªØ° Ú©Ø±ÛĮ
R O
ÙĨ ÛĮØ±ÙĪ
ÙĪ Ø§Ø±Ø¯
ĠØ¨ ÙĪÙĤ
ĠØ¨ Ø®ÙĪØ§ÙĩÛĮØ¯
Ø³ ÙģØ±
Ùģ ÛĮÙĦ
ĠØ¯Ø± ÙĪÛĮ
Ø¹ ÛĮÙĨ
ĠØ¨Ø§ Ø¬
ĠØ¢ Ø´ØªÛĮ
ĠÙħÛĮ Ø®
Ø§Øª Ú©
ĠØ¬ ÙĪÙĨÚ¯
ĠØ· ÙĨ
ĠØ¢ÙĨ Ø±Ø§
ĠØ¨ÛĮ Ø§ÙģØªØ¯
ĠØ®ÙĪØ¯ Ø³Ø±
ĠÙĦ Ø§Ùħ
Ø« Øª
ĠÙħØ¹ ÛĮØ§Ø±ÛĮ
Ø¨ÛĮ ÙĪØªÛĮÚ©
Ø¯ÛĮ Ø§ÙĨ
Ø¯ÛĮ Ø´
ĠØ§ÙĦ Ø§ÙĩÙĦÛĮ
ĠØªØŃ ÙĤÛĮÙĤÛĮ
ĠØº Ø²ÙĦ
ĠØ¨Ø§Ø² ÙĨ
ĠÚ©ÙĨÙĨØ¯ Ú¯ÛĮ
Ú©ÙĨÙĨØ¯ Ú¯ÛĮ
ĠØºÛĮØ± ÙĪ
ĠØ§ÙĨØ¯ ÛĮÙħ
ĠÙħÙĪØ§Ø¯ ÙħØ®
ĠÛ²Û´ Û²
ĠØµØ¯ Ø±Ø§Ø¹
Ø®ÙĪØ§ÙĨ ÙĨØ¯
ĠØªØ®ØµÛĮØµ ÛĮ
ĠØ¯Ø¹ ÙĪØ§ÛĮ
ĠÙĨØ§Ø± Ø§Ø¶ÛĮ
ĠÙĨØ§Ø¨ ÛĮÙĨØ§
ĠØ³ÙģÛĮØ± Ø§ÙĨ
ĠÛ·Û· Û°
ĠÙħØŃØª ÙĪÛĮ
ĠÛ±Û¹Û¹ Û°
ĠÙ¾ÙĪØ±Øª Ø§ÙĦ
ĠÚ©ÛĮÙĩ Ø§ÙĨ
ĠØ³Ø¹Ø§Ø¯ ØªÙħÙĨØ¯
ĠÙħÙĪØ§Ø¯ÙħØ® Ø¯Ø±
Ú ¾
Ġ '
ÙĪ Ú¯Ø§Ø²
Ø¬ ÙĦØ§ÙĦ
ĠÙĩÙħ Ø²ÙħØ§ÙĨÛĮ
ĠØ· ÙĩÙħ
Úĺ Ø§ÙĨØ³ÛĮ
ĠØ®ÙĪ Ø§ÙĨÛĮ
ĠØ§Ø¹ Ø¸ÙħÛĮ
ĠØ³Ø± Ø¢ÙħØ¯
ĠØ¯ÛĮ Ø³Ú©
ĠÙħÙĤ ÙĨ
Ø´ÙĨ Ø¬
ĠÙĨØ´ ÛĮØ¨
ĠÙ¾Ø³ Ø±Ø§ÙĨ
Ø§ÙħÛĮÙĨ Ø§
ĠÛ²Û° Û´
ĠØªÙĦØ§Ø´ ÙħØ§ÙĨ
ĠÙħØ« ÙĤØ§ÙĦ
ĠØªØ§Ø±ÛĮ Ú©
ĠØµØ¯ Ø±Ø§
ĠÛ²Û± Û¸
ÙĩÙħ Ø±Ø§Ùĩ
ĠØ¯ÛĮØ± ØªØ±
Ø±Ø§ØŃ ØªÛĮ
ĠØ±Ø¯ÛĮ Ø§Ø¨
ĠØ°ÛĮ ØµÙĦØ§ØŃ
ĠØ¨Ø±ÙĪØ¯ Øª
Ø²Ø§Ø¯ Ø§Ø±ÛĮ
ĠÙħØ³Ø¤ ÙĪÙĦÛĮØª
ĠØ²ØŃÙħØª Ú©Ø´
ĠØ³ÙĪØ± ÙĨØ§
ĠÙ¾Ùħ Ú©Ø³
ĠØªÙĪÙħ Ø§Ø³
ĠÙģØ¶Ø§ÙĨ ÙĪØ±Ø¯Ø§ÙĨ
ØµØ§Ø¯ ÙĤ
ĠÙħØªØ¬Ø§ ÙĪØ²
ĠÙĨÚĺ Ø§Ø¯ÛĮ
ĠØ¨ Ø¬Ø§ÛĮ
Ú© Ø§ÙĪ
ĠÙħ ÙĦØ§
Ø§Ø± ÙĩØ§ÛĮ
ĠÚ© Ø±Ø§
ĠØª ÛĮØ²
ĠÙĨ Ø§ÙĩÙħ
ĠØ³ Ú©ÙĨØ¯
ĠØ® Ø§Ø·ÛĮ
ĠÙģ Ø§ÙĨÛĮ
ĠØ¹ Ø²Ø§Ø¯Ø§Ø±ÛĮ
ĠØ· Ø¨Ø±ÛĮ
ĠÙħÙĪ Ú©ÙĦ
ĠÚ¯ÙģØª Ú¯ÙĪÛĮÛĮ
ĠØ§Øµ ØºØ±ÛĮ
ĠØ¹Ùħ Ø¯ÛĮ
Û¶ Û³
ÙģÛĮ Ú©
ĠØ¢ÙħÙĪØ² Ùĩ
ĠØ±ÙĪÛĮ Ú©Ø±Ø¯ÙĩØ§
ĠØ§Ø¨Øª Ú©Ø§Ø±ÛĮ
ĠÙĦÛĮ Ú©ÙĨ
ĠÙĦÛĮ Ø¨Ø±
ĠÛ±Û¹ Û±
ĠØ¨Ø±Ø® Ø§Ø³Øª
ĠÛ²Û´ Û¸
Ø´ÙĩØ± Ø§Ùħ
ĠØ²ÛĮØ±Ø³Ø§Ø®Øª ÙĩØ§
Ø±ÛĮØ² Ø§ÙĨ
ĠÚ¯Ø±Ø§ÙĨ ØªØ±
ĠÛ³Û³ Ûµ
ĠÛµÛ¹ Û°
ĠØ§ÙĦÛĮ ÙĪÙħ
ĠØªÙĨØ¯ Ø±
ĠÙħØ±ÙĪØ± Ú¯Ø±
ac e
ĠÚ©Ø§Ø´ Ø§ÙĨÛĮ
ĠÙ¾Ø±Ú©Ø§Ø± Ø¨Ø±Ø¯
ĠØ§ÙĪØªÛĮ Ø³Ùħ
ĠØªÙĪØµÛĮ ÙģÛĮ
ĠØµØ¯Ø±Ø§Ø¹ Ø¸Ùħ
h t
ÙĨ Ø§ÙĨØ¯
ĠØ¨ ÙĪÙĨÛĮ
ĠØ¨ ÙģØ±ÙĪØ´
Ø§ÙĨ Ø¨Ø§Ø±
ĠÚ© Ø§Ú©
ĠÙģ ÙĤÙĩ
ĠÙģ Ø³ØªÛĮ
Ø±Ø§ Øº
ØªØ± ÙĩØ§
Ø¢ ÙĨØ¬
ĠÙħØ§Ùĩ Ú©
ĠØ¨Ø§Ø² Ø¯ÛĮØ¯ÙĩØ§
ĠÙħØ· Ø±ÙĪ
ĠØ§Øª Ú©Ø§ÛĮ
ĠÙĪØ¬ÙĪØ¯ ÛĮ
ĠØ³ÙĪÙħ ÙĪÙĨÛĮ
ĠÙģÙĤ ÛĮØ¯
ĠÛ²Û°Û° Û·
ĠÙģÛĮÙĦ ÙħÛĮ
ĠØªÙĨØ¸ÛĮÙħ Ø§Øª
ĠØ¨Ø±Ø¬Ø§Ùħ ÛĮ
ĠÚ¯Ø§Ùħ ÙĩØ§ÛĮ
ĠÚ¯Ø±Ø§ÙĨ Ø¨ÙĩØ§
ĠØŃØ¬ Ø§Ø¨
ĠÙ£ Ù¢
ĠØ§Ø±Ø¯ÙĪ Ú¯Ø§Ùĩ
ĠÙħØŃØ±ÙĪ ÙħØ§ÙĨ
ĠØ¯Ø§ÙĪØ± Ø²ÙĨÛĮ
ĠØ²Ø± ÙĨØ¯
ĠØ¨ÙĪÛĮ Ø§ÛĮÛĮ
ĠÚ©Ø±Ø¨ Ø§Ø³ÛĮØ§ÙĨ
ĠÙħÙĦØ§ÛĮ Ùħ
ĠÙħØ¹ÙĪÙĤ Ø§Øª
ÙĪÙģÛĮ ÙĦÛĮ
ĠÙħÙģØª ØŃ
Ø«ÙĤ ÛĮÙĦ
ĠÙħÙģÙĤ ÙĪØ¯
ĠØ§Ø·Ø±Ø§ÙģÛĮ Ø§ÙĨ
ĠÚĨÙĨÚ¯ÛĮ Ø²
ĠØ§ÙĨØ¯ÛĮÙħ Ø´Ú©
A N
ĠÚ© Ø¬Ø§ÛĮ
ĠØ¯Ø± Ø²
Ø³Øª ÙĪÙĨ
ĠÚ¯ ÛĮÙħ
ĠÙĤ ÙĪÚĨ
ĠØµ Ú©ÙĪÚ©
ĠÙħØ¹ ÛĮØªÛĮ
ĠÙħØª ÙĪÙĨ
Ø®Ø´ ÛĮ
Ø§Ø· ÙĦØ§
ĠØªØµ ØŃÛĮØŃ
ĠÙħØµ Ø±ÛĮ
Û¸ Û²
ĠØ¯Ùĩ ÙĩØ§
Ú¯Ø° Ø§Ø´ØªÙĩ
ĠÙħØ±Ø§ Ø¹Ø§Øª
ĠÙĨÙĪ Ø§Ø¨
Ø¶Ø§ Ø¹Øª
Ø¨ÙĪØ¯ ÙĨ
ĠØ¯ÛĮØ¯ Ú¯ÛĮ
ĠØ´Ø§Ø®Øµ ÙĩØ§ÛĮ
ĠØ³ÛĮØ³ØªÙħ Ø§ØªÛĮÚ©
ĠÛ²Ûµ Ûµ
ĠÛ²Ûµ Û³
ĠØ³ÙĪØ¯ ÙħÙĨØ¯
ĠÛ±Û¸ Û´
ĠÛ²Û± Û·
ĠØ¨ÙĩÚ© Ø¨Ø§Ø±Ùĩ
ĠÛ²Û¸ Û·
ĠÙ¢ Ù¨
ĠÙ¾ÙĪØ± Ø§Ø¨Ø±Ø§ÙĩÛĮÙħÛĮ
ĠC o
ĠÙĦØ± Ø²
ĠÙħØ³ØªÙĨØ¯ Ø³Ø§Ø²ÛĮ
ĠØ¯Ø±Ø¯ ÙĨØ§Ú©
ĠÙ¾Ùĩ ÙĦÙĪØ§ÙĨ
ĠÙ¾Ø§Ø¯ ÙħØ§ÙĨ
ĠÙħØŃØ§Ø³Ø¨ Ø§ØªÛĮ
ĠØ§Ø³ØªØ¹ÙĦØ§Ùħ Ø§Øª
ĠÚ©Ø§Ùģ Ø¦ÛĮÙĨ
ĠØªÙĪØ±ÛĮ Ø³Øª
ĠØªÙĪÙħ ÙĪØ±
ĠÙĦØ¬ Ø³ØªÛĮÚ©ÛĮ
ĠÙħØŃÙģ ÙĪØ¸
ĠÙħØµÙĨÙĪØ¹ Ø§Øª
ĠØ¨Ø±ÙĪÚ©Ø³ ÙĦ
ĠØ´ÛĮØ§Ø¦ ÙĪÙħÛĮ
a k
c i
ĠÙħ Ø§ÙģÛĮ
ĠÙĨ ÙģÛĮ
ĠØ´ ÛĮÙĨ
ĠØ¨Ø§ ÙģÙĤ
ĠÙĩ Ø§ÙĦÛĮ
ÙĪØ¯ Ø§Ø±
ĠØ® Ø¯Ø§ÛĮ
ĠØ§ÛĮÙĨ Ø±ÙĪ
ĠÚ¯ Ø²ÛĮØ¯Ùĩ
Ø±Ú© Ø§ÙĨ
ĠÙħÙĪ ÛĮØ¯
ĠÙĦ Ø§Øª
ĠØ¢Ùħ Ø¯Ùħ
ĠÙĩØ²Ø§Ø± ØªÙĪÙħØ§ÙĨ
ĠÙħØ´ Ú©ÛĮ
ĠÙħØ¬ ÙĦØ³ÛĮ
ĠØªØ¹ ÙħÛĮÙħ
ĠÙħØ§Ùĩ Ø§ÙĨ
ĠØ³Ùĩ ÙĨØ¯
ĠØ¶ ÙħÛĮÙħÙĩ
ĠØ¢Ø¨ ÙģØ§ÛĮ
ĠÙĨÙħ Ø§Ø¯ÙĩØ§
ÙħØª ØŃ
ĠØ§Ø¨ Ø¯
ĠÙĨÙĩ Ø¨ÙĨØ¯Ø§ÙĨ
ĠØ´Ø§Ø®Øµ ÛĮ
ĠÙħÚ© Ø«
ĠÛ²Û² Û²
ĠØµÙģ Ø±ÛĮ
ĠÛ²Û¸ Ûµ
ØŃØ³ Ø¨
ĠØ±ÙĪØ¨ Ø§Ø²
Ø§ÙĨØª Ø´Ø§Ø±
ĠÛµÛ´ Û·
ĠÙħØ±Ø§Ø¬Ø¹ ÛĮÙĨ
ĠÙģØ±ÛĮ Ø¯Ùĩ
ĠÙĨØ§Øª ÙħØ§Ùħ
ĠØªØŃØ±Ú© ÛĮ
ĠÙ¢ÙłÙ¡ Ù¤
ĠÚ©ÙħØ¨ ÙĪØ¯ÙĩØ§ÛĮ
ĠØªÙĨØ§ ÙĤØ¶
ĠØ°ÙĪØ§ÙĦ ÙģÙĤ
ĠØªÙģØ± Ø¬
ĠÛĮØ² Ø¯ÛĮ
ĠÙĨØ§Ø¨Ø³Ø§Ùħ Ø§ÙĨÛĮ
c t
r i
Ø§ Ø¹ÛĮ
Ø¨ ÙĩØ±Ùĩ
Ùģ ØµÙĦ
ĠÙĨ Ø¨ÛĮ
ĠÙģ ØªÙĪ
ĠØ¹ Ø·ÙģÛĮ
ĠØ±Ø§ Ú©
ÛĮØ¯ Ø§ÙĨÛĮ
ĠÛĮ ÙĦ
ĠÛĮ ÙĪÙĨÛĮ
Ù¾ ÙĨØ¯
ĠØ§Ùģ Ø³Ø±
ĠØ³Ø§ÙĦ Ú©
ØªÛĮ Ø¨
ĠÙħØª ÙħØ§Ø¯ÛĮ
ĠØ¯Ø§Ø± ÙĪØ³Ø§Ø²
ĠØ®Ø¨Ø±ÙĨÚ¯ Ø§Ø±ÛĮ
ĠØºÛĮØ± Ø§ÙĨØª
ĠØªÛĮØ± ÙĪØ¦ÛĮØ¯
ĠÛ²Û± Û³
ĠØ¨ÙĪ Ø¬Ø§Ø±
ĠÛ³Ûµ Û°Û°
ĠÛ³Û² Û²
ĠØ§Ø³ØªØ¹ Ø¯Ø§Ø¯ÛĮ
ĠØ¯Ø±Ø®Øª Ú©Ø§Ø±ÛĮ
ĠH D
an t
ĠØ¯Ø±ØŃØ§ÙĦÛĮ Ú©Ùĩ
ĠØ³Ø±Ú© Ø§Ø±
ĠØ¬ÙĨØ§ ØŃÛĮ
ĠØ§Ø¯ÛĮ Ø¨
ĠÙĩÙģ Ø¯ÙĩÙħÛĮÙĨ
ĠÙ¾Ø±Ùģ Ø±ÙĪØ´
ĠØ¨Ù¾Ø°ÛĮØ± ÙĨØ¯
ĠÙħØŃÙģ Ø¸Ùĩ
ĠÙħØ§Úĺ ÙĪÙĦ
ĠØ§Ø³ÛĮ Ø¯ÙĩØ§ÛĮ
ĠÚ©Ø±Ø¨ÙĪÙĩ ÛĮØ¯Ø±Ø§Øª
M E
W TI
u p
ÛĮ ÙĪ
Ø± ÙĨØ¯
ĠÙ ł
Ùĩ Ø²ÛĮÙĨÙĩ
ĠØ¨ Ø¨Ø±ÛĮØ¯
Ø§ÙĨ Ú¯ÛĮ
Ø§ÛĮ ÙħÙĨ
ĠØ¯Ø± ÙħÛĮ
ĠÙĨ Ø§ÛĮÙĦ
ÙĤ Ø¨ÙĦ
ĠØ® ÛĮØ§ÙĨØª
ĠØ§Ø³Øª ÙĪØ§ÛĮÛĮ
ĠØ¬ ÙĪØ§Ø±
Ø²Ø§Ø± Øª
ÛĮØ¯ Ùħ
ĠÙĩÙħ ÙĪÙģÛĮÙĦÛĮ
ĠØ¨Ø±Ø§ÛĮ ÙħØ§ÙĨ
Ù¾ Ø§Ø³Øª
ĠÚ©ÙĨ ÛĮØ§
ĠÛ¹ Û³Û°
ĠÙ¾Ø±ÙĪ Úĺ
ĠÛ¶ Û±Û°
ĠØ³ÙĪ ÚĺÙĩ
ĠØ§ÛĮØ¬Ø§Ø¯ Ø´Ø¯Ùĩ
ĠØ²ÛĮØ± Ú¯Ø°Ø±
ĠÛ²Û´ Û±
ĠØµØŃ Ø±Ø§ÛĮÛĮ
ĠÛ²Û³ Û·
ĠÚ¯ÙģØªÚ¯ÙĪ ÙĩØ§
ĠØ®Ø³ Ø§Ø±ØªÛĮ
ĠÛ²Û¶ Û·
Ġ* *
ĠÙĪØ§Ø³ Ø·
ĠÙ¾ÙĦØ§ Ú©Øª
Ø´ÙĨØ§Ø³ Ø¯
ĠØ¯Ø§ÙĪØ·ÙĦØ¨ Ø§ÙĨÛĮ
ĠØªÙĪÛĮ ÛĮØªØ±ÛĮ
ĠØªÙĪÛĮ ÙĪØªØ§
ĠÙħØ¸ ÙģØ±ÛĮ
ÙģÙĪØ± ÛĮØªÛĮ
ĠÙģØ¶ Ø§Ø³Ø§Ø²ÛĮ
ĠØ¯Ø§ÙħÙ¾ Ø±ÙĪØ±ÛĮ
ĠØ¬ÙĩØ± Ùħ
ĠØ¨ÙħØ¨ Ø§Ø±Ø§ÙĨ
ØµÙĨ Ø¹ØªÛĮ
ĠÚ©Ø§Ø±Ø§Ú© Ø§Ø³
ÙĪØ§ØŃ Ø¯
Co V
ĠØ¹ÙħÛĮ ÙĤÛĮ
R I
Ú© Ø§ÙĩØ¯
ĠØ¯ Ú©ØªØ±Ø§
Ú¯ Ø´Øª
ĠØ´ Ø§ÙģØ¹ÛĮ
ĠÚ¯ Ø§Ø¨Ø±ÛĮ
ĠÙħÛĮ Ú©ÙĨØ¯
ĠØªÙĪ ÙģØ§ÙĨ
ĠØ§Ùħ Ø§Ø±Ø§ØªÛĮ
ĠØ¨ÛĮ Ùģ
ØªØ± ØªÛĮØ¨
ĠØ¢Ùħ ÛĮÙĨ
ÙĪØ² ÙĨ
ĠØ§Ø³ Ú©ÙĨØ¯
ĠØ³Ø± Ø±ÛĮØ²
ÙħÙĦ ÙĪ
Ø±ØŃ Ø§ÙĦ
ĠØ§ÙĦ Ú©ÙĦÛĮ
ĠØªØµ Ø§Ø¯
ĠÚ©Ø§Ùĩ ÙĨØ¯Ùĩ
ĠÙĪØ² Ø±Ø§Øª
Ø§Ø±Øª Ø§
ĠØ« Ùħ
ĠÙ¾Ø± Ø¨ÛĮÙĨ
ĠØºÛĮØ± ÙħÙĨ
Ú¯ÙĪ Ø§Ø±ÛĮ
ĠÚ©ÙĪ ÙħØ§ÙĨ
ĠÙĩÛĮÚĨ ÛĮÚ©
ĠÛ²Û´ Û´
ĠÛ´Û° Û¶
ĠÙħÙĪØ³ Ø³
ĠØ¯Ø¨ÛĮØ± Ø§ÙĨ
ĠØ³ÙĦ ÙħØ§ÙĨÛĮ
ĠÙħØ¹Ø§Ø¯ÙĦ Ø§Øª
ĠØ¹Ùģ ÙĪ
ĠÙħÙĪØ± Ø¨Ø§ÙĨ
Ù¥ Ùł
ĠE TF
ĠÛ±Û³Û¸ Ûµ
ĠÙ¾Ø§ÛĮÛĮ Ø²ÛĮ
ĠØ®Ø§Øª ÙħÛĮ
ĠØ¶Ø§ÛĮ Ø¹Ùĩ
ĠU S
ĠØ¯Ø±ÙĨ ØªÛĮØ¬Ùĩ
ĠØ²ÛĮÙĨ ØªÛĮ
ĠÙĨÛĮÚ©ÙĦ Ø§Ø³
ĠÙģØ³ØªÛĮ ÙĪØ§ÙĦ
ĠÙ¾Ø±Ø¨ÛĮÙĨ ÙĨØ¯Ùĩ
ĠØ ¦
Ùħ Ø§Ø¯
ĠØ¨ Ø·
Ú© Ø«ÛĮØ±
ĠÙĪ ÙĪØ¯
Ø¨ Ø§ÙģÛĮ
Ùģ ÙĪØ±Øª
Ùģ ÙĨØ§ÙĪØ±ÛĮ
ĠØ´ Ø±Ø§
ÙĨØ¯ ÙĪÙĤ
ĠØ§Ø³Øª Ùĩ
Ø· ØŃÛĮ
ĠØ¬ ÙĪØ²
Ø±ÛĮ ÙģÛĮ
ĠÙĤ Ø§Ùĩ
ĠØ² ÙĩØ±Ùĩ
ØªÛĮ ÙĪ
ĠØ³Ø± Ø´Øª
ĠØ³Ø± Ø´ÙħØ§Ø±ÛĮ
ĠØªØŃ ÙĦÛĮÙģ
ĠØº Ø¯Ø¯
ĠÙĨÙģØ± Ø§ØªÛĮ
ÙħÙĨ Ø´
ĠØ´Ùħ Ø§Ø³Øª
ĠÙħØ±Ú© ÙĦ
ĠØ¹ÙħÙĦ Ú©Ø±Ø¯ÙĩØ§ÛĮ
ĠØ¬Ø§ÛĮÚ¯Ø§Ùĩ Ø¯Ø§Ø±Ø§ÙĨ
ĠÙ¾Ø§ÙĦØ§ÛĮØ´ Ú¯Ø±
ĠÛ²Û± Û±
ĠÙħØ³Ø§ÙģØ± Ø¨Ø±
ĠØ¨ÙĦÙĪ Ú©ÛĮ
ĠØ³Ø±Ø¯ Ø®Ø§ÙĨÙĩ
Ø§ÙĨØ¯Ø§Ø² ÙĨØ¯
ĠÙħØ¯Ø± ÙĨØ§
ĠÚ©Ø±ÛĮ Ø³Ùħ
ĠÙħÙĩÙħØ§ÙĨ Ø§ÙĨ
ĠØ¬Ø± Ø«ÙĤÛĮÙĦ
ĠÚĺØ¦ÙĪ ÙģÛĮ
ÙħÙĨØª Ø¸
ĠÙ¾ØªØ± Ø²Ø¨ÙĪØ±Ú¯
ÙĪØªÚ©ÙĨ ÙĪÙĦÙĪÚĺÛĮ
ĠØ¨ÙĦÙĪØªÙĪ Ø«
e v
e w
Ùĩ ÙĦÙĨØ¯ÛĮ
Ø¯ Ø±Ùĩ
ĠØ¨ ÙĪÛĮÙĦ
ÙĦ ÙģÛĮ
Ø³ Ø§ÙĦÛĮ
ĠÙħ ÙģØ§
ĠØ¯ ÛĮØªØ§
Ø§ÛĮ ÙģÛĮ
ĠÙĪ Ø±Ø§
ĠÚ© Ø¨ÙĪØ¯
ĠÙ¾ ÙĪÛĮØ§ÙĨ
ĠØ¨Ø± Ø¢ÙħØ¯Ùĩ
ĠÙģ ÙĦÙĪ
ĠØ¬ Ø¯Ø§ÛĮ
ĠØ¬ Ø§ÙĦØ¨ÛĮ
ĠÙĨÛĮ Ú©Ø²
ĠÙĨÛĮ Ø§ÙħØ¯
ĠÙħØª ÙĪØ§Ø±ÛĮ
ĠÙħØ¯ÛĮØ± ÛĮ
Û¹ Û³
ĠÙĨØ´ Ø§Øª
ĠØ³ÛĮ Ú©ÙĦØª
ĠØ¨Ø§Ø² ÙĨØ¯Ùĩ
Û· Û³
Û¶ Û¸
ĠØªØ± ÙĨØ¯
ĠØªØ± ÙħÙĪ
ĠØ¨Ø¯ ÙĪÛĮ
ĠÛ¸ Û³Û°
ĠÛ±Û³ Û°Û°
ĠÚ¯ÙĦ Ø´ÙĩØ±
ĠÛ²Û´ Û³
ĠÙħØŃØ¯ÙĪØ¯ÛĮØª ÙĩØ§ÛĮ
ĠØ®ÙĪØ§ÙĨ Ø³Ø§Ø±ÛĮ
ĠÛ²Û¹ Û¹
ĠÙħØ¤Ø³ Ø³
ĠÚ©ÙĪØ¯Ú© Ø§ÙĨÛĮ
ĠØ¯Ø³ØªÙĩ Ú©
ĠÙħØ§Ø¯Ø± Ùħ
ÙĪØ¬ ÙĪ
ĠØ¯Ø±Ø®Øª ÚĨÙĩ
Ù¾Ø§ÛĮ Ø§ÙĨ
ĠÙħØ³ÛĮ ØŃ
or e
ĠØ´ÙĩØ±ÙĪÙĨØ¯ Ø§ÙĨÛĮ
ĠØ·ØºÛĮ Ø§ÙĨ
ĠØ¨ÛĮÙĪÙĦÙĪÚĺÛĮ Ú©
ĠÙħÛĮÚ© Ø±ÙĪÙģ
ĠÙģØ¯Ø§ Ú©Ø§Ø±ÛĮ
ĠÙħØ¹Ø§ÙĦ Ø¬
ĠÙĨØ¨Ø§Ø´ ÛĮØ¯
ĠØ¹Ø¬ ÙĦÙĩ
ĠØ³Ø§Ø²ÙĪ Ú©Ø§Ø±ÛĮ
ĠÚ¯Ø§Ø¨ ÙĨ
ĠØºÛĮØ±Ø§ÙĨØª ÙģØ§Ø¹ÛĮ
Ø¯ ÛĮÙĨ
ĠÚ© ÙĪØ¯ÙĩØ§ÛĮ
ĠÚ¯ Ø±ÛĮÙĩ
ĠÙĤ Ø±ÙĪÙĩ
ÚĨ Ø§ÙĩÛĮ
ĠÙħÙĨ Ùĩ
Ø®Øª Ú¯ÛĮ
ĠÚĨ ÙĪÙ¾
ĠØ¯ÙĪ ÙħÛĮ
ĠØ§ÛĮ ÛĮ
ĠØ¶ Ø§ÛĮØ¹
ĠØ³ÙĪ Ú©Ø§Ø±
ĠØ²ÛĮ Ø§Ø±Øª
ĠÙĪØ± Ùħ
ĠØŃÙĤ Ø§Ø¨Ùĩ
ĠØ§ÙĨØ¯ ÙĪÙĩ
Ø¹Ø¨ ÙĪØ±
Ù¾Ø± Ø³ØªÛĮ
ĠØ´ÛĮØ± Ø§Ø¨Ùĩ
ĠØ³Ù¾ ÙĩØ±ÛĮ
Ø§ÙĪ ÛĮØ±
ĠØ¢Ø³ ÙĪØ¯Ùĩ
ĠØµÙģ ÙĪÛĮ
ĠÛ²Û¹ Û¸
ĠØ³ÛĮÙĦ ÙĨØ¯Ø±
ĠØ¨Ø³ Ø²Ø§
ĠØªØ¶ Ø§Ø¯
ĠØ²ÙĨ Ø§ÙĨÛĮ
ĠÙħØ§ÛĮ ÙĦÛĮ
ĠØªØ´ÙĪÛĮ Ø´
ĠÚ©Ø§ÙħÛĮ Ø§Ø¨ÛĮ
ar t
ĠØ¹Øµ Ø¨Ø§ÙĨÛĮ
ĠÙĨÙĩØ§Ø¯Ùĩ Ø§ÛĮÛĮ
ĠÙĦØ§ Ø´Ùĩ
ĠØ¨Ø§Ø±ÛĮ Ú©
ĠÙĩØ¬ Ø¯ÙĩÙħ
il l
ĠÚ©Ø±ÛĮØ³ØªÛĮ Ø§ÙĨÙĪ
ĠÙħØ·Ø±ÙĪ ØŃÙĩ
ÙħØªØŃ Ø¯Ùĩ
ĠÚ¯Ø§Ø¨Ø±ÛĮ ÙĦ
ĠÚ©Ø±ÛĮØ³Ùħ Ø³
L ED
Ú© ÙĪÛĮ
Ø² ÙĨØ§ÙĨ
ĠØ¨Ùĩ Ø§Ø±Ùĩ
Ø§Ø¨ Ø§
ĠØ¨Ø±Ø§ÛĮ ØªØ§ÙĨ
ĠÚĨ Øª
ĠÙħØŃ ØµÙĪØ±
ĠØ§ÛĮØ± ÙĦÙĨØ¯
ĠØ§Ø± Ø§Ùħ
ĠÙħØ± Ø¯Ùĩ
ĠØ±Ø³ Ùħ
ĠØ§Ø¸ÙĩØ§Ø± Ø§ØªÛĮ
ĠÙĨÙħ Ø§ÛĮÛĮ
ĠØ° ØºØ§ÙĦ
ĠÙ¾Úĺ ÙħØ§ÙĨ
ĠÙħÛĮÙĦ Ø§ÙĨÛĮ
Ø²Ø¯ Ú¯Ø§ÙĨ
ĠÛ²Û± Û²
ĠÛ²Û¶ Û²
ØªØ§ Ø«ÛĮØ±
ĠØŃÙĪØ§Ø¯Ø« ÛĮ
ĠÙħØ´Ø§ ØºÙĦÛĮ
ĠÚ©Ø¯ Ø®
ĠØ¨ÙĨÛĮØ§ÙĨ Ú¯Ø°Ø§Ø±
ĠØ¢Ùģ Ø§Øª
ĠÙ¾Ø§Ø¯ Ø´Ø§ÙĩÛĮ
ĠG IS
ĠÚ©ÙĨØ³ ÙĪÙĦÛĮ
ØŃØ¶ Ø§Ø±
ĠØ§Ø³ØªÛĮ Ú©Ø±
ĠÛĮØ¯ Ú©
ĠÙĩÛĮØ¯Ø±ÙĪÚ©Ø± Ø¨ÙĨ
ĠØ®Ø¯ ÙĪÙħ
ĠÙħØ§Ø±Øª ÛĮÙĨ
ĠØ¨ÙĦØ§ÛĮ Ø§ÛĮ
ĠÙģØ§ÙĦÙĪ ÙĪØ±
ĠÙħØ¹Ø¬ Ø²Ùĩ
ĠØºÛĮØ±ÙĪ Ø§ÙĤØ¹ÛĮ
ĠÙĨÛĮÚ©Ø² Ø§Ø¯
ĠØ¨ Ø§Ø±Øª
ĠØ¨ Ø¯Ø§Ùģ
Ø³ ÙĪÛĮÙĩ
ĠÙħ ØºØ§ÙĨ
ĠÙħ ÙĪÙĨØª
ĠÚ© Ø±ÙĪØ²
ĠØ³ Ø¯Ùĩ
ĠØ¨Ø± Ø´Ø§ÙĨ
ÙĩØ§ Ø¨Ø§Øª
ĠÙĨÛĮ ÙģØªØ¯
ĠÙ¾ÛĮ Ø¬
ĠØ§Ø± Ø§Ø¯
ĠØ³Ø± Ø¨Ø§Ø²ÛĮ
ĠÛ³ Û²Û±
ĠØ±ÛĮ Ø®ØªÙĨ
Ø±Ø³ ÙĪÙĦ
ÙĪØ³ Ø§
ĠÛµ Û±Û°
ØªØ±ÛĮÙĨ Ú¯
ĠØ° Ø±Ùĩ
ĠØ¨Ø§ÙĦ Ø§Ø±
ĠÚ©ÛĮ ÙĪØ§ÙĨ
ĠØ¬ÙĩØ§ÙĨ Ø¨Ø®Ø´
ĠØ¹Ø¶ ÙĪÛĮ
ĠÙħØ« Ø§ÙĨÙĩ
ĠÙģÙĪ Ø§Ø¯
ĠØªÙĩ ÙĪØ¹
ĠÙĨØ² ÙĪÙĦ
ĠØ¬Ø§ÙĨ ÙĪØ±ÛĮ
ĠÙĤØ±Ø§Ø±Ø¯Ø§Ø¯ ÙĨ
ĠÙģÙĤ Ø±Ø§Øª
ĠÙĤØ¯Ø± ØªÛĮ
ĠØ¹ÙĪ Ø§ÛĮØ¯
ĠØŃÙĪ Ø§Ø³
ĠÛ²Û¹ Û±
Ø®ØµÙĪØµ ÛĮ
ĠØ¢Ø´ ÙģØªÙĩ
ĠØ¢Ø´ ÙĪØ¨
ĠÛ³Û² Û´
ĠØ³Ø±Ø¯ ØªØ±ÛĮÙĨ
ĠØ§ÙĦØª ÙĩØ§Ø¨Ø§Øª
Ù¾ÙĪ Ø³ØªØ§ÙĨ
ĠØ¯ÙħÙĪÚ©Ø± Ø§ØªÛĮÚ©
Ø§Ø¹ Ùħ
ĠÛ±Û³Û¸ Û¸
ĠØ³Ø±Ø§ ÙĪØ§ÙĨ
ĠØ¯Ø´ÙĪØ§Ø± ØªØ±
ĠØ¹Øµ Ø§Ø±Ùĩ
ĠØ®ÙĪØ¯Ú© ÙģØ§
ĠØ³Ø§Ú©ÙĨ ÛĮÙĨ
ĠÚĨÙĩÙĦ ÙħÛĮÙĨ
ÙħØ¬ ØªØ¨ÛĮ
ĠÙħÙĪØª ÙĪØ±Ø³
ĠØ§ÙģØ±Ø§ Ø·
ĠÙħÛĮØ§ÙĨØ¬ÛĮ Ú¯Ø±ÛĮ
ĠØ¢ÙĨØªÙĪÙĨÛĮ ÙĪ
Ø§ÙĦØ§Ø¬ Ø±Ø§
D S
E S
T P
u re
Ø¯ ÙĪØ±Ùĩ
Ø´ Ø¨ÙĨØ¯
Ø¨ Ú¯ÛĮØ±Ø§ÙĨ
ĠÙĨ Ú¯ÛĮÙĨ
ĠÙĩ Ø±Ø¯
ĠØ® Ø§ÙĨØ¯
ĠØ§Ø³Øª ØŃØ¶Ø§Ø±
ĠÙħÛĮ ÙĩÙĨ
ĠØ±Ø§ Ú©ØªÙĪØ±
ĠØ² ÛĮÙħÙĨ
Ø³ÛĮ Ø®ØªÙĩ
ĠØ· Ø§ÙĩØ±
ĠØ¯Ø§ Ø¦
ÙĨÛĮ Ùģ
ĠØ¬Ùĩ Ø´ÛĮ
Ø§Øµ ÙģÙĩ
ĠØ¹ÙĦ Ùģ
ĠØªØ¨ Ø¯ÛĮÙĦÛĮ
ĠØ§Ùĩ Ø§ÙĨØª
ĠØ§ÙĨØªÙĤ Ø§Ø¯ÛĮ
ĠÙĨØ§Ùħ Ø¯Ø§Ø±
ĠÛ²Ûµ Û·
ĠÛ±Û¶ Û°Û°
ÚĨÛĮ Ø²ÛĮ
ĠÙħØ§ÙĨØ¯ Ú¯ÛĮ
ĠÙģØ¶Ø§ ÙĩØ§ÛĮÛĮ
ĠØ§ØµÙĦ Ø§ÙĨÛĮ
ĠÛ³Û² Ûµ
ĠØ±ØŃ Ùħ
ĠØ³Ø¯ ÛĮÙħ
ĠÛĮÙĪÙĨ ÛĮØ³Ùģ
ĠØ´ÙĨØ§ÙĪØ± ÙĩØ§
ÙĨØ¸ Ø±Ø§ÙĨ
ĠØ´ÙĦÙĪ ØºÛĮ
ĠÙĩÙĪØ´ÛĮ Ø§Ø±
ĠÙħØªÙĨØ§ ÙĪØ¨
ĠØ§Ø²Ø³Ø± Ú¯ÛĮØ±ÛĮ
ĠØ¯ÙĪÙ¾ ÛĮÙĨÚ¯
ĠØ¶ÛĮ Ø§ÛĮÛĮ
ĠØ¯ÙĪØº Ø§Ø±ÙĪÙĨ
ĠØ¢Ø±Ø´ÛĮ ÙĪ
ĠÙħØ±Ùĩ ÙĪÙĨ
ĠÙħÙĤÙĨ ÙĨÙĩ
ĠØªØµØ§Ø¯ ÙģÛĮ
ĠØ²ÛĮÙħÙĨ Ø³
a z
ÙĪ ÙģÙĤ
ĠØ¨ ÙĪØ±Ø¯
Ú© ÙĪØ¯
Ø³ Ø±Ø§ÙĩØ§
ĠÙĪ ÙĪØ´ÙĪ
ĠØ± ÛĮÙħ
ĠØ¨Ùĩ ÛĮÙĨ
ĠÙĩ ÙĪÙĦ
ĠØ¬ ÙĪÙĦØ§ÙĨ
ĠØ¹ Ø§ÙĤÙĦ
Ø¶ ÙĪÛĮ
ĠÚ©Ø±Ø¯ ÛĮ
ĠØ² ÙĩØ±
ĠØ· ÙĪÙĦÛĮ
ĠÙĨÛĮ ÙĪÚ©
ĠÙĪÛĮ Ø²Ø§ÛĮ
ĠÛĮÚ© Ø¬Ø§
ĠÙ¾ÛĮ Ú¯
ĠÙħØ¹ Ø§Ø±Ø¶
Ø¢ Ø°Ø±
ĠÙħØ¬ Ø±Ùħ
ĠØ¹Ùħ Ø§Ø±Øª
ĠØ±Ø§Ùĩ Ø§ÙģØªÙĩ
ĠØ§Øª Ø±ÛĮØ´ÛĮ
Ø±ÙĪØ² Ùĩ
ĠÛ²Û° Û³
ĠÙĨØ§Ùħ ÛĮØ¯
ĠÙħÙĨØª ÙģØ¹
ĠØ³Øª ÙĪØ¯
ĠØ¨Ø§ÙĦ Ø¹Ú©Ø³
ĠÚĺ ÛĮÙħ
ĠØªØ¯ Ø¨ÛĮØ±ÛĮ
ĠÙ¾ÙĪØ´ Ø´ÛĮ
ĠØ§ÙĨÚ¯ Ø§Ø±ÛĮ
ØªÙĪ Ø§ÙĨÛĮ
ĠÛ·Û° Û³
ĠØµØ¨ØŃ Ú¯Ø§ÙĩÛĮ
ĠÛ³Û± Ûµ
ĠÙħØŃÙħØ¯ÛĮ Ø§ÙĨ
ĠI R
ĠØ¨ÙĩØ§Ø± ÙĪÙĨØ¯
ĠÛ·Û´ Û°
Ø§ÙģØ² Ø§ÛĮØ´
ĠÚ©Ø´ÛĮØ¯ ÙĨØ¯
ĠÙĨØ§Ùĩ ÛĮØ¯
ĠØ®Ø¯Ø§Ø¯ Ø§Ø¯
ĠØ±Øº Ø¨Øª
ĠÙĩÚ©Ø± ÙĩØ§
ĠÚĨÛĮØ¯ ÙħØ§ÙĨ
ĠØ®ÙĪØ¯Ø³Ø± Ø§ÙĨÙĩ
Ø± Øº
Ùĩ Ø§Ø±ÛĮ
Øª Ø§Ú©
ĠØ¨ Ø²Ùĩ
Ø¨ ÙĩØ±
Ø¨ Ø§ÛĮØ¯
ĠÙĨ Ú¯Ø±ÛĮ
ĠØ® ÙĦØ§ÙĦ
ĠÚ¯ ÙĪØ§ÙĨ
ĠØ¢ ÙĦØ§
ĠÙģ Ø§Ø®Ø±
ĠØ§Ùħ ØŃ
ĠÙħÙĨ Ø§Ùģ
ĠÙĪÛĮ ÙĦÛĮ
ĠØ³Ø§Ø² ÙĨØ¯Ú¯ÛĮ
ĠÙħØª Ø¶
Ûµ Û¸
ĠØ®Ø¨Ø± ÙĩØ§ÛĮÛĮ
ÙĪØ³ Ùĩ
ĠÙħØ§ Ú©Ø±ÙĪÙĨ
Û¶ Û²
Ø§Ú© Ø¨Ø±
ĠØ®Ø· Ùĩ
ĠÙĨØ§ Ù¾ÛĮÙĪØ³ØªÙĩ
ĠÙĤØ¨ Ø¶Ùĩ
ĠØ³ÙĪÛĮ Ùĩ
ĠØ¬ÙĩØ§ÙĨ Ú¯ÛĮØ±
ĠÛ²Ûµ Û¸
ÙĪØ¦ ÙĨ
ĠÚ©ÙĨØ§Ø± Ú¯Ø°Ø±
ĠÙĦØŃ Ø¸Ø§ØªÛĮ
ĠÛĮØ§Ø¯Ø¢ÙĪØ± Ø§ÙĨ
ĠØ¨ÙĪ Ø§Ø³
ĠÛ²Û¶ Û±
ĠÛ³Û³ Û¶
ĠÙħÙĪÙĦ ØªÛĮ
ĠÛ¶Û¹ Û°
ĠÙħØ´Ø±ÙĪ Ø¹
ĠÙĦØ§ ØºØ±ÛĮ
ĠÙģØ¶ ÙĦ
Ø®ÙĪØ± ÙĨØ¯
ĠÙħÙĨÚĨ Ø³ØªØ±Ø³ÛĮØªÛĮ
ĠÙħÙĨÙĤ Ø¶ÛĮ
ĠØ±Ø§ÙĩÚ¯ Ø´Ø§
ĠÙ¾ÙĩÙĦ ÙĪÛĮ
ĠÙħÙĨÚĨØ³ØªØ±ÛĮ ÙĪÙĨØ§ÛĮØªØ¯
ÙĪ Ø¢
ĠØ§ ÙĪØ±Øª
Ùħ ÙĤØ§Ùħ
ĠØ¨ Ú¯Ø°Ø±Ø¯
ĠÚ© Ø§ÙĨÛĮ
ÙĪØ¯ Ø´Øª
ĠØ¨Ø± Ø§
ĠØ¨Ø± ÛĮØ²
ĠÚ©Ùĩ Ø§Ø¨
ĠØ¹ Ø§ÛĮØ¯
ÚĨ Ø§ÙĦÙĩ
Ø§Ø³ ÙħØ§Ø¹ÛĮ
ĠØ¨ÛĮ Ú©Ø§Ø±Ø§ÙĨ
ĠÙĦ Ø´Ú©
ĠÚ©Ø§Ø± Ø§ÙĨ
ĠØ³Ø± Ø´ÙĨØ§Ø³
ĠÙĨÙĤ ÛĮ
Û· Û²
ĠÙĨØ¸Ø± Ø§ÙĨ
ĠØ¨ÙĨ Ø²
ĠÙħØ±Ø§ ØºÙĩ
ĠØºÛĮØ± ÙħÙĨØªØ¸
Ú¯ÙĪ Ø¦
ĠØ¹Ø¨ Ø§Ø¯ÛĮ
ĠÙ¾Ø§Ø³ Ú¯Ø§Ùĩ
ĠÙħÙĪØ¬ÙĪØ¯ Ø§Øª
ĠØ³Ùģ Ø§ÙĦ
ĠÛ²Û°Û° Û²
ĠÛ²Û°Û° Û´
ĠÙħØ¤ ÙħÙĨÛĮ
ĠØŃØ¯ Ø³
ĠÙ¾ÙĪØ± ÙħØŃÙħØ¯ÛĮ
ĠØ³Ø±Ø¯ Ø´Øª
ĠÙħÙĪØ± Ú¯Ø§ÙĨ
ĠI P
ĠÙĪØ¬Ùĩ ÛĮ
ĠÙ¾Ø±Øª Ø§ÙħÛĮÙĨØ§
ĠØ²Ø¯ Ú¯ÛĮ
ĠØªÙĪØ±Ø¨ÛĮÙĨ ÙĩØ§ÛĮ
ĠÙ¾Ø§ÙĨØ² Ø¯Ùĩ
ĠØ§Ø³Ú© ÛĮØª
ĠÚ¯ÙĦÙĪ Ú©Ø²
ĠÚ©ÙĪÙĩÙĨ ÙĪØ±Ø¯ÛĮ
ĠØ¨Ø¯Ø§Ùģ Ø²Ø§Ø±
ĠØºÛĮØ±ÙħÙĨØªØ¸ Ø±Ùĩ
ĠØª Ø´ÛĮ
ĠØ¯Ø± Ø¢ÙĪØ±Ø¯Ùĩ
ĠØ³ Ú©Ø§ÙĨ
ĠØ³ ÙĦÛĮÙħ
ĠØ® Ø¨
ØŃ ÙħØ¯ÛĮ
ĠÙ¾ ÛĮØªØ±
ĠÙ¾ ÛĮÙĨÙĪ
ĠÙĤ ÙĪ
Ø§Ø³ ÙĪÙĦ
Ù¾ ÛĮÙħØ§
ÙĪØ§ÙĨ Ø¯
ĠØ§Ø¯ ÙĪÛĮÙĩ
Û· Û±
ĠØ±Ø§Ùĩ Ø³Ø§Ø²ÛĮ
ĠØªØ± ÙħØ²
ĠÛ²Û° Û¹
ĠØ¨ÙĨ Ø´
ÙĪÙĦÛĮ Ú©
ĠØ®Ø§Ùħ Ø³ÛĮ
ĠÙħØ´Ø®Øµ Ùĩ
Û²Û° Û±Ûµ
ĠÙ¾Ø§Ú© Øª
ĠÙħØ§ÙĩÙĩ Ø§Ø¯
ĠÙĨØ¨ÙĪØ¯ ÛĮÙħ
ĠÛ²Û¸ Û¶
ĠØ¨Ø±ÙĪØ² Ø±Ø³Ø§ÙĨÛĮ
ĠÛ³Û± Û¸
ĠÙħØ²Ø§ÛĮ Ø§ÛĮÛĮ
Ù¡ Ùł
ĠØ§ÙĦØ²Ø§Ùħ Ø§
ĠØ§ÙĨØ¯ÛĮ Ø´Ú©Ø¯Ùĩ
ĠÙħØ¹ØªØ¨Ø± ØªØ±ÛĮÙĨ
ĠÙħØ²ÛĮØª ÙĩØ§ÛĮ
ĠÙħÙĨØŃ ÙĪØ³
ĠÙĪØ±ÛĮ Ø§
ĠØ¨ÙĪØª Ùĩ
ĠÙģÛĮÙĦØªØ± ÙĩØ§ÛĮ
ØŃØ³Ø§Ø¨ Ø±Ø³ÛĮ
ĠÙħÙĨØ´Ø§ Ø¡
ĠÚ¯ÙĦØ§ÛĮ Ú©ÙĪÙĦ
ĠØ§ÙĦØ³ Ø¯Ø±
ĠØ§Ø±Ø¬ ÙħÙĨØ¯
ĠØ®ÙĪØ§ÙĩØ´ ÙħÙĨØ¯
ĠÚĨØ§Ø¯Ø± ÙħÙĦÙĪ
ĠØ¨Ø·ÙĪØ±ÛĮ Ú©Ùĩ
ĠÙ¾ÛĮÙĪÙĨ Ø¯ÙĩØ§ÛĮ
ÙĨ ÙĪØ±
ÙĪ Ø²Ø§Ø±Øª
Ú© Ø³Øª
ĠØ± Ø³ØªÙħ
ĠÙ¾ ÙĪØ¯
ÛĮØ± ÙĪØ²
ĠØ±Ø§ Ø¨ÛĮ
ĠÙĤ ÙħØ±
ĠÙħÙĨ Ø§
ÙĪÛĮ Ø§
ĠØ¯ÙĪ ÙĪÙħ
ĠÙħØ¬ ÙĦØ§Øª
ĠØ§ÙĦ Ø´
Ø§Ø®Øª Ùĩ
ĠØ¨ÙĨ Ø±
ĠÙĨØ§ Ø¬ÛĮ
ĠÚĨÙĩØ§Ø± Ø±Ø§Ùĩ
ĠØ§Ø¨ ÙĪØªØ±
ĠØªØ±ØªÛĮ Ø¨ÛĮ
ĠØ¯Ø§ÙĨØ³Øª ÙĨØ¯
ĠÛ³Û± Û³
ĠØ§ØŃØ³ Ø§Ø³ÛĮ
ĠA C
ĠØ¢ØªÛĮ Ùĩ
ĠÙĤØ¯Ø±Ø¯ Ø§ÙĨ
ĠÙĨÙħÙĪØ¯ ÙĨØ¯
ĠÙĤØ§Ø¦Ùħ Ø´ÙĩØ±
ĠÙ¾ÛĮÙħ Ø§ÙĨÛĮ
ĠÙ§ Ùł
ĠÙĨÛĮÚ©ÙĪ Ú©Ø§Ø±ÛĮ
ØµØ¨ Ø§ØŃ
ĠØ¢Ø±Øª Ø±ÙĪØ²
ĠØŃØµ Ø§Ø±
ĠÙ¾Ø±Ø§ÛĮ Ø³
a x
Ġ in
ĠØ¨ Ú¯Ø°Ø±Ø§ÙĨÙĨØ¯
ĠÙħ ÙħÛĮØ²
ĠÚ© Ú©
ĠÚ© Ù¾
ĠØ´ ÙĪØ´
ĠØ± ÙħÙ¾
ÙĪØ± Ø§ÙĨÙĩ
ĠØ¨Ø§ ÙĩÙĨØ±
ĠÙĩ Ø§Øª
Ø® ÙħÛĮ
ĠØ§Ø³Øª ÙĪØ±ÛĮ
ĠØ¬ ÙģØª
ĠØŃ ÙĦÛĮ
Ø±Ú© ÛĮ
ĠÙĦ ÛĮØª
ĠÚ¯Ø²Ø§Ø±Ø´ ÙĩØ§ÛĮ
ĠØ³Ø± Ù¾ÙĦ
ÙģØ± Ø´
ĠÛ´ Û±Û¹
ÙĪØµ ÙĦÙĩ
ĠÙħØ±Ú© Ø¨
ĠØŃØ³ Ø§Ø³ÛĮ
ĠÚ¯ÙĦ Ø²ÙĨ
ĠÙĨØª Ø§ÛĮ
ĠØ§ÛĮØ³Øª Ø§Ø¯ÙĨ
ĠØ³ÛĮØ¯ Ø±Ø¶Ø§
ĠÛ²Û¶ Û³
ĠØ¨Ø§Øº ÚĨÙĩ
ĠÛ³Û· Ûµ
Ù¡ Ù£
ÙħØ¯ÛĮØ± ÛĮØª
ĠÙħØ±Øª Ø¶ÙĪÛĮ
âĢĮâĢĮ âĢĮâĢĮ
ĠÛµÛ² Û¹
ĠÙĨØ§Ø¨ Ø§Ø±
ĠØ§ÙĦØ§ÙĨ Ø¨Ø§Ø±
ĠØ´Ø§ØºÙĦ ÛĮÙĨ
ĠØ³ÙĪÙ¾Ø± ÙħØ§Ø±Ú©Øª
ĠØªØ±Ø´ ØŃ
ĠØªÙģÚ©Ø± Ø§Øª
ĠØªÙĪÙĨ Ø³
ĠÚ¯Ø±Ø§ÙģÛĮ Ú©ÛĮ
ĠØ´Ø¬Ø§ Ø¹Øª
ĠØ¯Ù¾ ÙĪÛĮ
ĠØ³Ø§ÙĨØª ÛĮÙħ
ĠÚĨÛĮÙĦ Ø±
ĠÙħØ´Ø§ÛĮ Ø®ÛĮ
ĠÚĨÙĪÙ¾ Ø§ÙĨØ§ÙĨ
Ø§ØµÙģÙĩ Ø§ÙĨ
ĠÚĺÛĮÙħ ÙĨØ§
P T
Ú© Ø§Ú©
ĠÙĪ Ú¯ÙĪÛĮ
ĠÚ© Ø¯Ø±
ĠØ¨Ùĩ ÙĨÚ¯Ø§Ùħ
ØŃ Ø¯Ø§
ÛĮØ± Ø§ÙĨ
ĠÚ¯ Ø±Ø§Ùģ
ĠØ¨Ø± ÙĪØ´
ĠØ§Ø³Øª Ø§Ø±
ĠÚ©Ùĩ ÙĨÙĩ
ĠØªÙĪ ÙĦ
ĠÙħÙĨ ÙĤÙĪÙĦ
ĠØ®ÙĪØ¯ Ø±Ø§ÙĨ
ĠÙĦ Ø®ØªÙĩ
Ú¯Ø± ÙħÚ©ÙĨ
ĠØ³Ø± Ø¨ÙĦ
ĠÙħØ§Ùĩ Ú©Ø¨Ø§Ø±
ĠÙĨØ³ ÛĮÙħ
ĠØ±ÙĪÛĮ Ø§ÙĨ
ĠÙĨØ§Ùħ ÙĪÙģÙĤ
ĠÙĤØ§ÙĨÙĪÙĨ Ú¯Ø°Ø§Ø±
ĠÙħØ±Ú©Ø² ÛĮØª
ĠØ³ÛĮØ§Ø³Øª Ú¯Ø°Ø§Ø±Ø§ÙĨ
ĠØ®Ø± Ø§Ø²ÛĮ
ĠØ¬ÙĪ ÙĩØ±
ĠØ²ÙĨØ¬ Ø§ÙĨÛĮ
Ø§Ø¸ ÙĩØ§Ø±ÛĮ
ĠÙĪØ³ Ø¹
ĠÛ²Û¶ Ûµ
ĠØ³ÙĨØ¯ Ø±ÙĪÙħ
ĠÛ³Û² Û·
ĠÛ·Û¹ Û°
ĠØ®ÙĦ ÙĪØµ
ĠØ¹Øµ Ø¨Ø§ÙĨ
ĠÙĨÙĪØ§Ø² ÙĨØ¯Ú¯ÛĮ
ĠØ¨Ø§Ø²Ø¯Ø§Ø± ÙĨØ¯Ú¯ÛĮ
ĠØ®Ø¯Ø§Ø¯ Ø§Ø¯ÛĮ
ĠØ¬ÙĦÛĮÙĦ ÙĪÙĨØ¯
ĠÚ¯Ø°Ø±Ø§ÙĨ Ø¯Ùĩ
ĠÙĦÙģ Ø¸ÛĮ
ĠØ§Ø®Ø· Ø§Ø±ÛĮÙĩ
ĠÙħØªÙģØ± ÙĤÙĩ
ĠØ¨ÙĪØ¬Ø§Ø± Ø²Ø§Ø¯Ùĩ
ĠØ¯ÙĪÙĪÙħ ÛĮØ¯Ø§ÙĨÛĮ
ĠØ§Ø¨ÙĪØªØ± Ø§Ø¨ÛĮ
a v
i z
p p
Ø² ÙĩØ±Ø§
âĢ ĭ
ĠØ¨Ùĩ ÙħÙĨÛĮ
ĠØ³ Ø²Ø§Ø±
ÙĤ ÛĮØ±
ÙĤ ÛĮÙĨØ§
ĠÙĩ Ú©
ĠØ® ÙĨØ¯Ùĩ
ÛĮØ± Ø§
ÚĨ ÙĪ
ĠØ§Ø³ ÙģØ±
ĠÙħØ³ Ø§ØŃØªÛĮ
ĠÙħØ¬ Ø±ÛĮÙĩ
ĠÙħØª ÙĦØ§
ĠÙħØª ÙĨÛĮ
ĠÙ¾ÛĮØ´ Ùĩ
Ûµ Û±
ĠÙħØ§Ùĩ ÛĮØ§ÙĨ
ĠØ¨Ø®Ø´ ÙĩØ§ÛĮÛĮ
ĠØ¯ÙĪØ± Ø§ÙĨÛĮ
Ú©Ø± ÙħÛĮ
ĠØ¬ÙĨ Ø§ÛĮØ§Øª
ĠÚ©Ø§ÙĦ Ø¨Ø¯
ĠØ²ÙħØ§ÙĨÛĮ Ú©Ùĩ
ĠØ¯Ø±Ø¢ ÛĮØ¯
ĠÙ¾ÙĦ Ú©Ø§ÙĨÛĮ
ĠÙ¾ÙĪØ´ ÛĮØ¯
ĠÙ¾Ø§Ú© Ø¨Ø§ÙĨØ§ÙĨ
ĠÛ²Û² Û¹
ØºÙĦ ÙĪ
Ø§ÙĦØ¹ ÙħÙĦ
ØªÙĪØ± Ùħ
ĠØ®ÛĮ Ø§ÙĦÛĮ
ĠÙĩÙĨÚ¯ ÙģØª
ĠÛ²Û· Û¹
ĠØ®ÙĪØ§ÙĨ ÙĨØ¯Ú¯Ø§ÙĨ
ĠÛ²Û¹ Û³
Ù¾ÛĮ Ú©Ø±
ĠØ¨Ø±Ú¯ Ø´ØªÙĩ
ĠÛ³Ûµ Û·
ĠÚ¯Ø±Ùħ Ø³ÛĮØ±ÛĮ
ĠÙĦØ¨ Ø®ÙĨØ¯
ĠØµÙĪØ±ØªÛĮ Ú©Ùĩ
ĠÙĤÙħ Ø±ÛĮ
ĠÙħÙĨØµ Ø±Ùģ
ĠØ²ÙĨ Ø¨ÙĪØ±
ĠØªÙĪØ§ÙĨÙħÙĨØ¯ÛĮ ÙĩØ§ÛĮ
ĠØ¯Ø³ØªØ§ÙĪØ± Ø¯ÛĮ
ĠÙħØ±Øª Ø¹
ĠØ¯Ø±Ø®Øª ÛĮ
ĠØ§ÙĦØª Ø²Ø§Ùħ
ĠØ±Ø§Ø¯ÛĮ Ø§ØªÙĪØ±
ĠÚĨÛĮØ² ÙĩØ§ÛĮÛĮ
ĠÙĩÛĮØ¯Ø±ÙĪ ÙĦÛĮÚ©
ĠÙħØŃØª Ø§Ø·
ĠN G
ĠÙģØ±ÛĮ Ø¨Ø§
ĠØ³ÙģØ§Ø±Øª Ø®Ø§ÙĨÙĩ
ol og
ĠØ§Ø¨ÙĪØ§ÙĦ ÙĤØ§Ø³Ùħ
ĠÚĨØ´ ÙħØ§ÙĨ
ĠØ±Ú©ÙĪØ± Ø¯ÛĮ
ĠØ³ÙĪØ¦ÛĮ ÙģØª
ĠØ±ÙĤÛĮ Ø¨Ø§ÙĨ
ĠÙģØ±Ú© Ø§ÙĨØ³
Ø¹Ø¨Ø¯ Ø§ÙĦÙĦÙĩ
ĠØ§ÙĨØ¨Ø³ Ø§Ø·ÛĮ
ĠØ¨ÙĪØ§Ø³ Ø·Ùĩ
ĠØ³Ø±Ø¨ÙĦ ÙĨØ¯ÛĮ
i b
ĠØ¨ Ø§ÙĨÛĮ
Ú© Ùģ
ĠÙĪ Ø±Ø§ÛĮ
Ø§Ø± Ùħ
ĠÚ© ÙĪÙħ
ĠØ¯Ø± Ø§ÛĮØª
ĠØ± Ø¬Ø§
ĠØ± ÙĨÙĪ
ĠØ¨Ùĩ Ø±ÙĪØ²ÛĮ
ĠØ¨Ø§ Ø«Ø¨Ø§Øª
Ø¬ ÙĪØ§ÙĨÛĮ
ĠÙĩ Ø§ÙĨ
ĠØ±ÙĪ Ø¨ÛĮ
Ø³ÛĮ Ø³
ĠÙħØ¹ Ø§ÛĮØ¨
ÙħÙĦ Øª
ĠÚ¯Ø± ÛĮÙĨ
ĠÙħØ± Ø³
ÙħÙĨ Ùģ
ĠØ¹Ø± ÙĤ
ĠÙĨØ§Ùħ ØŃØ¯ÙĪØ¯
ĠØ§ÙĪØ± ÚĺØ§ÙĨØ³ÛĮ
Ø®ÙĪØ§Ø³Øª Ùħ
ĠâĢ ¬
ÙģØ§ÙĤ Ø¯
ĠÛ²Û± Û¹
Ø§ÙģØª Ø§Ø¯
Ø§ÙģØª Ø§Ø¯Ùĩ
ĠÛ²Û¶ Û¸
ĠÛ³Û± Û²
ĠÛ³Ûµ Ûµ
ĠØ³ÙĪØ§ÙĦ Ø§ØªÛĮ
ĠØ§Ø¯Ø¹ Ø§ÙĩØ§
ĠÚ¯Ø±Ø§ÙĨ ÙĪÙĦ
ĠS ARS
ĠØªØ§ÙĦ Ø§Ø³ÙħÛĮ
ÙħÙĨØ¸ÙĪØ± Ùĩ
ĠE n
ĠØ²Ø§Ùĩ Ø¯ÛĮ
ĠÙħØªØ±ÛĮ Ø§ÙĦ
ĠÙĦØ· ÙģØ§
ĠÙ¾Ø°ÛĮØ±ÙģØª ÙĨ
ĠØ³ÙĨØ¯ÛĮ Ú©Ø§ÛĮ
ĠØµØ¯ÛĮ ÙĤÛĮ
ĠØ¹Ø§Ø´ÙĤ Ø§ÙĨÙĩ
ĠØ§ÙĦØ² ÙĩØ±Ø§
ÚĨØ§ÛĮ ÙĨØ§
ĠØ§Ø±Ø§Ùħ ÙĨÙĩ
ĠØ¹ØµØ¨Ø§ÙĨ ÛĮØª
B A
Ġ w
Øª Ùģ
ĠØª ØªØ±
ĠØ± Ø§ÙĨÛĮ
Ø® ÙĪØ±Ø¯Ùĩ
Ø¶ Ø±Ø¨
Ø§Ø±ÛĮ Ø§
ĠØ² ÙĪØ§ÛĮ
ĠØ§Ùħ ÙĪØ§Øª
ĠÙģØ± Ø¶ÛĮ
ĠØ§Ø³ ÛĮØ¯ÛĮ
ĠØ³Ø± ÙĪØ±ÙĩØ§ÛĮ
ĠØ§ÙĦ ÙĨ
ĠØ®ÙĪØ§Ùĩ Ø±Ø®
ĠØ³ÛĮ ÙĦÛĮ
Û¶ Û±
ĠØ§Ø®Øª Ø±Ø§
ĠØ¨Ø§Ø± Ø§ÙĨÛĮ
ĠÚĺ Ø±ÙħÙĨ
ĠØ·Ø¨ Ø¹Ø§
ĠØªØ® Ø±ÛĮØ¨ÛĮ
Ø¬Ø± Ùħ
ĠØ¨Ø³Øª ÙĨÛĮ
ĠÛ´Û° Û´
ĠÙģÛĮ Ø¶
ĠØ§Ø¹ØªØ¨Ø§Ø± ÙĨØ§ÙħÙĩ
ĠÙĪØ¸ Ø§ÛĮÙģÛĮ
ĠÙĩÙĨØ¯ Ø³ÛĮ
ĠÛ²Û· Û±
ĠØ®ÙĪØ§ÙĨ ÙĨØ¯Ú¯ÛĮ
ĠØ¯ÛĮØ± Ø¨Ø§Ø²
ĠØªÙĤØ§Ø¶Ø§ ÙĩØ§ÛĮ
ĠØ®Ø§Ú© Ø³Ù¾Ø§Ø±ÛĮ
ĠØ¯Ø¹ ÙĪÛĮ
ĠÙĩÙħÚ©Ø§Ø±Ø§ÙĨ Ø´
ĠÛ³Û´ Ûµ
ĠÙħØ§Ø¯Ø± Ø´
ĠØ§ÛĮÙĨÚĨ ÙĨÛĮÙĨ
ĠÙħØµØ¯ ÙĤ
Ú¯Ø°Ø± Ø§ÙĨØ¯
ĠØ±Ø´ ÙĪÙĩ
ĠÙħÙĤØª Ø¯Ø±
ĠØŃÙħ Ø²Ùĩ
ĠÚ©Ø±Ú© Ø±Ùĩ
ĠÙħØ¶ ÙħÙĪÙĨ
ĠØ²Ø±Ø§ Ø¹Øª
ĠÚ©Ø§ÙĨØªÛĮÙĨ Ø±ÛĮ
Ú¯Ø±Ø§ÛĮ Ø§ÙĨÙĩ
ĠÙħÙĪØ¯ Ùħ
ĠÙģØ±ÙĩÛĮ Ø®ØªÙĩ
ĠØ±Ø®Øª Ú©ÙĨ
ĠØ¢ÙĨØ¬ ÙĦØ³
ĠÚ¯ÙĦÙĪØ¨ Ø§ÙĦ
ĠØ¬Ø§Ú© Ø§Ø±ØªØ§
ĠÚĺÛĮÙħÙĨØ§ Ø³ØªÛĮÚ©
M MC
g e
r an
ĠÙħ ÙĪÙĦØ§ÙĨ
ĠØ¯ Ø§Ø¨ÙĦÛĮ
ĠÚ© ÛĮÙĨ
Ø¨ Ø¹ÛĮ
Ø¬ Ø¯ÛĮ
ĠÙĩ Ø±ØŃØ§ÙĦ
ĠÙ¾ Ù¾
ĠØ¢ ÙĩÙĨÛĮ
ĠÙħÛĮ Ùĩ
ÙĦÛĮ Ø§ÙĨ
ĠÙģ Ø²
ĠØ¹ Ø§Ø¯Ø§Øª
ĠØ±Ø§ Ø´Ø§Øª
ĠÛĮ Ùģ
ĠÛĮ ÙĤÛĮÙĨ
ĠØ² ÙħØ²
ĠØ¨ÛĮ ÙĪØªÚ©ÙĨÙĪÙĦÙĪÚĺÛĮ
ĠØ®ÙĪØ¯ Ø§Ø¸ÙĩØ§Ø±ÛĮ
ĠÚ©Ø§Ø± ÙĪÙĦÛĮÙĨ
ĠÙģØ± ÙħØª
ĠØ¯ÙĪ Ø¨Ø§Ø±
Ø´Ø¯ ÙĨÛĮ
ĠÙħÙĤ Ø¯Ø±ÛĮ
ĠØ¢Ø¨ Ú¯Ø±ÙħÚ©ÙĨ
ĠÛ· Û±Û°
ĠÙĨØ§ Ø¸ÙħÛĮ
ĠÚ©ÙĪ Ù¾ÙĨ
ĠØªÙĦØ§Ø´ ÛĮÙħ
Ø¬Ùħ Ø¹
ĠÙģÙĪ Ø§ØµÙĦ
Ú©Ø² Ø§Ùħ
ĠÚ¯ÛĮØ± Ø§Ø³ÙĪÙĦ
ĠÚ©ÛĮÙģÛĮØª ÛĮ
Ø²Ø¯ Ú¯ÛĮ
Ø³Ø§Ø² ÙĨØ¯
ØŃÙĦ Ø§ÙĦ
ĠÙĦÙĪ Ú©Ø²Ø§Ùħ
ĠÛ²Û¹ Ûµ
ĠÙģÙĦ Ø§ÙĨ
ĠØ¯Ø¹ Ø§
ĠÛ³Û³ Û³
ĠØ¬Ø§ ÙĩØ§ÛĮ
ĠÙħØ±Øª Ø¶Ø§ÛĮÛĮ
ĠÛµÛ· Û¹
ĠÚ¯Ø°Ø± Ø§ÙĨØ¯
ĠØ¹Ø´ ÙĤÛĮ
ĠÚ©Ø§ÙħÛĮ Ø§Ø±Ø§ÙĨ
ĠØªØ±ÛĮ Ø§Ú©
ĠÙģØ±ÛĮ Ø²Ø±
ĠÙ¾ÙĨØ§Ùĩ ÙĨØ¯Ú¯Ø§ÙĨ
Ø³Ø§Ùħ Ø§ÙĨÙĩ
ĠØ§Ø´ÛĮ Ø§ÛĮ
ĠÙĪØµ Ùģ
ĠÙĩÛĮØ¬Ø§ÙĨ Ø§Øª
ĠØ§Ø³ÙĦ ÙĪØ§Ú©ÛĮ
ĠÙģÙĩ ÛĮÙħÛĮ
ĠØ³Ø§Ø³ Ø§ÙĨÛĮ
Ù¾Ø²Ø´ Ú©Ø§ÙĨ
Ú©ÙĨÙĪ Ø§Ø®Øª
ĠÙĨØ§ÙħÙĦ ÙħÙĪØ³
ĠØ¢ÙĨÙģÙĪÙĦØ§ÙĨ Ø²Ø§
ĠÙĦØ´Ú© Ø±ÛĮ
ĠÙĨØªØ§ÛĮ Ø¬ÛĮ
ĠØ±Ø§Ø´Ø§Øª ÙĪØ¯ÛĮ
C O
I A
Øª ÛĮØ±
Øª Ø®ØµØµÛĮ
Ùħ Ø«
Ø³ Ø±ÙĪ
Ø³ Ø§ÛĮØ¯
Ø³ ÙĨØª
Ø´ Ø§ÙĨÛĮ
Ø® ÙĪØ±Ø´
Ø±ÙĪ ÙĤÙĩ
ĠØ±ÙĪ ÙħÛĮÙĨ
ĠÚĨ ØªØ±
ĠÛĮÚ© Ø·Ø±ÙģÙĩ
Ø« Ø§ÙĨÛĮÙĩ
ĠÙģØ± ØŃ
ĠØ§ÙĦ Øµ
Ú©ÛĮ Ø§
ĠØº ÙĪ
ĠÙĩØ± Ùħ
ĠÙĩØ± Ú¯Ø§Ùĩ
ĠØ¨ÛĮÙĨ Ø¬Ø§ÙħØ¯
ĠÙ¾Ø±ÙĪ Ø³Øª
ĠØ¶ ÛĮØ§
ĠÙĨÙģØ± Øª
ĠØªÙĨ Ùĩ
ĠØ¢Ø¨ Ø±ÙĪÛĮ
ĠØªØ± Ø§ÙĨ
ĠØºÛĮØ± Ø¹ÙĦ
ÙģØ§ Ø¦ÙĦ
ĠØ³Ø¨ ØŃØ§ÙĨÛĮ
ĠÙĪØ§ÙĤ Ùģ
ĠØ¨Ø³Øª Ú¯Ø§ÙĨ
ĠÙħÙĨØªØ´Ø± Ø´Ø¯Ùĩ
ĠÚ©Ø§ÙĨ Ú©Ø³
ĠÙģÛĮÙĦ Ø³
ĠÙ¾ÛĮØ§Ùħ Ø¯
ĠØªØ±Ú©ÛĮ Ø´
ĠØ¢Ùģ ÙĦØ§ÛĮÙĨ
ĠS p
Ø´Ø§ Ø§ÙĦÙĦÙĩ
ĠÙ£ Ù£
ĠÙ© Ù¨
ĠÙħÛĮÙĨ Ø§Ø³
ĠÚ¯Ø±ÛĮ Ø¯ÙĩØ§ÛĮ
ĠØ®ÙĪØ´ØŃØ§ÙĦ ÛĮÙħ
ĠÚ©Ø«ÛĮØ± Ø§ÙĦ
ĠÙħÙĨØ² ÙĪÛĮ
Ú©Ø§Ùĩ Ø´
ĠÙĩÛĮÙĪÙĨØ¯ Ø§ÛĮ
ĠÙĤØ§Ùĩ Ø±Ùĩ
Ø¨ÙĩØ± Ø§Ùħ
M O
ĠØ¨ Ø¨Ø®Ø´Ø¯
Ø¨ Ø§Ø¨ÛĮ
Ùģ Ø§Ùħ
ĠØª Ø±Ø¯ÛĮ
ĠØ³ Ø²Ø§ÛĮÛĮ
ØŃ Ø¯
ĠÚ¯ ÙħÙĨ
ĠÙģ ØŃ
ĠØ¬ Ø§Ø¯
ĠØ±ÙĪ ÛĮØª
Ø° ÙĪØ±
ĠÚ©Ø´ Ø§ÙĨØ¯
Ø¨Ùĩ ÙħÙĨ
ĠÙĦ ÛĮØ²
ĠÚ©Ø§Ø± Ø³Ø§Ø²
ĠÙ¾ÛĮ ÙĦ
ĠØ¢Ùħ Ù¾Ø±
ĠÙħØ¹ ÙĨØ§ÛĮÛĮ
ĠØ§ÙĤ ÙĨØ§Ø¹
ĠÙħØ¬ Ø§ÙĩØ¯
Ø§ÙĦÛĮ Ø³Ùħ
ĠØ¯ÛĮ Ø§Ø±
ĠÚ¯Ø± Ø¨Ùĩ
ĠÚ¯Ø± ÙħØ§ÛĮÛĮ
ĠØ±ÛĮ Ø´ØªØ±
ĠØ¨Ø§Ø² Ø®ÙĪØ§ÙĨÛĮ
ĠØ³ÙĪ ÙħÛĮ
ĠØ®Øµ ÙĪÙħØª
ĠÙĨÙĪ Ø¬ÙĪØ§ÙĨÛĮ
Ø¯Ø± Øª
ÙĪØª Ø±ÛĮ
Ú©Ø±Ø¯ ÛĮ
ØªÙħØ§ Ø¹ÛĮ
ĠØ³ÙĪØ®Øª Ùĩ
ĠØ´Ø§ Ù¾ÙĪØ±
ĠØ¨Ø§ÙĦ Ø§Ø¨
Ø´Ùħ Ø±
ĠØ·Ø¨ Ø¹
ĠØ·Ø±Ùģ ÙĩØ§ÛĮ
ĠØªÙĪØ± Ø¬
ĠØ§Ø±Ø¯ Ú©Ø§ÙĨ
ÙħÙĩ ÙĨØ¯
ĠØ³ÛĮÙĨ ÙĪ
ĠÛ²Û¸ Û²
ĠÚ©Ø§Ùħ Ø±Ø§ÙĨ
ĠÛ³Û± Û¶
ĠØªÚ©ÙĨ ÛĮÚ©ÛĮ
ĠØ¬Ø§ ÙĩØ§ÛĮÛĮ
ĠÛ¹Û´ Û°
ÚĨÙĩØ§Ø± ÙħÛĮÙĨ
ĠØ§ÛĮÙĨØ³Øª Ú©Ø³
ĠØ¢Ù¾ Ø§Ø±Øª
ĠÙħÙĩÙĨØ¯Ø³ ÛĮÙĨ
ĠØŃØ± ÙħØª
ĠØ¢Øº ÙĪØ´
ĠØ§Ø³Ø¯ Ø¢Ø¨Ø§Ø¯
ĠØ¯Ø§ÙĨØ´Ø¬ÙĪÛĮ Ø§ÙĨÛĮ
ec t
ĠØ±ÛĮÚĨ Ø§Ø±Ø¯
ĠÙģØ§ØŃ Ø´
T O
h er
ĠØ§ ÙĦØ§ØŃ
ĠØ§ ÙĪÛĮÚ©
ĠÚ© Ø¬Ø§Ø³Øª
ĠÙĨ Ø¯ÙĩÛĮØ¯
ĠØ³ Ø§Ú©
ĠØ® ÙĨØ¯
Ø§Ùĩ ÙĦ
ĠØ¬ Ú©Øª
Ø±ÛĮ Ø§
ĠØµ ÙħØ¯
ĠØµ ÙĦÛĮØ¨
ĠØ§ÙĨ Ø¨Ø§Ø±ÛĮ
ĠÙħÙĨ Ú¯
ĠØ³Ø± Ø§Ø¨
ÙĪÙħ ÙĪØªÛĮ
ĠØ¨Ø§Ø² Ù¾Ø±Ø³
ĠÛ´ Û±Û³
ÙĪÙĨÛĮ Ø§
ĠØ¢Ø¨ Ø®ÙĪØ§ÙĨ
Ø§Øµ ÛĮ
ĠØ²ÙħØ§ÙĨ Ø¨Ø±
ĠÙĩÙĪ Ø§Ø²ÛĮ
ĠØ¨ÙĨ Ø§ÙĩØ§
Ø¯Ø± ÙħØ§ÙĨÛĮ
ÙģØ§ Ø¹
ĠÙħÙĩØ± Ø§Ø¨ÛĮ
ĠØ¬ÙĨ ÙĪ
ĠÙħØ³Ø¦ ÙĦØª
Ø§ÙĩÙħ ÛĮØª
Ø´Ùħ Ø§ÙĦ
ĠÙħÚ© Ø¹Ø¨ÛĮ
ĠÙģØ±Ø§ Ø®ÙĪØ§ÙĨÛĮ
ĠÚĨÙĨÛĮÙĨ ÛĮ
ĠÛ²Û² Û´
ĠØ¢Ø³ ÙħØ§Ø±ÛĮ
ĠØ³Ø®ÙĨÚ¯ ÙĪ
ĠÙħØ§ÙĦ ÚĨ
ÙĪØ³Øª ÙĪÙĨ
ĠÛ²Û¹ Û¶
ĠØ´ÙĩÛĮØ¯ Ø§ÙĨ
ĠÙ¢ Ù©
ĠØ¨Ø³ ÙĨØ¯Ùĩ
ĠØ±ÙĨÚ¯ ÛĮÙĨ
ĠØªØ² Ø¦ÛĮÙĨÛĮ
ĠÙĦØ± Ø²Ø´
ĠØ¨ÛĮØ³Øª ÙĪÙĨ
ĠÛ³Û¸ Ûµ
ĠÛ³Û´ Û±
ĠP S
ĠÙĪØ¨ Ú¯Ø§Ùĩ
ĠÙĩØ§Ø´ÙħÛĮ Ø§ÙĨ
on t
ĠØ¨ÙĪØ± ÙĦ
ĠD NA
ĠØ³ÛĮÙĨÙħØ§ ÙĩØ§ÛĮ
ĠÙħØ³ÙĦØŃ Ø§ÙĨÙĩ
ĠÙħØ¹ÛĮØ§Ø± ÙĩØ§
ÙħØ¬Ùħ ÙĪØ¹
ĠØ¹Ø¨Ø¯Ø§ÙĦÙĦÙĩ ÛĮ
ĠÙĨØ§Ù¾ Ø¯ÛĮØ¯
ĠÙħÙĨÙģ Ø¬Ø±
ĠÚ©Ø§Ø³ Ù¾ÛĮÙĨ
ĠÙĤÙĦÛĮ Ø§ÙĨ
ĠØ§ØŃØµ Ø§Ø¡
ĠØ§ÙĦØªØŃØµ ÛĮÙĦ
ĠÙĦÛĮÙħ ÙĪ
ĠÙĨÙĩØ§ÙĪÙĨØ¯ ÛĮØ§ÙĨ
ĠØ·Ø§ÙĤ Øª
ĠØ¨ÛĮØ§Ø¨ Ø§ÙĨÛĮ
ĠÛĮØ§Ø±ÙħØŃÙħØ¯ÛĮ Ø§ÙĨ
ĠÚ©Ø¯Ø® Ø¯Ø§ÛĮÛĮ
ĠÙĦÙĪÚ©Ø²Ø§Ùħ Ø¨ÙĪØ±Ú¯
D C
ĠØ§ ÙĪØ²Ø§ÙĨ
Ø§ÛĮ Ú©
ĠÙĪ Ø§ÙĩÛĮ
ĠÙĪ Ø§ÙĨÚ¯
Ø¨ ÙĦÛĮ
ĠÙĨ ÛĮÙĨ
ĠØ¨Ø§ Ø³Ø§Ø¨ÙĤÙĩ
Ø§Ùħ Ø±ÙĪØ²
ØŃ ÛĮÙĦ
ĠØ§ÛĮÙĨ Ø¯ÛĮ
ĠØ¨Ø± Ø¢ÙĨ
ĠØ¨Ø± ØŃØ³Ø¨
Ø±Ø¯ Ø§Ùħ
ĠÙģ Ø³Øª
ĠÙģ Ø§ØªØŃ
ĠØ¬ Ø§Ø±ÙĪ
ĠØªÙĪ Ù¾Ú©
ĠÙħÙĨ Ø¨Ø¹ÛĮ
ĠØ§ÛĮØ± Ø¨Ø§Ø³
Ø¨Ø± ÛĮÙĨÚ¯
ĠØ¯ÙĪ ÙģÙĪØ±ÛĮØªÛĮ
ĠØ§Ø¬ Ø±
ĠØ³ÛĮ Ø§Ø±Ø§Øª
ĠÛ¹ Û²Û°
ĠÙĨØ³ ÙĪØ²
ĠØªÙĤ Ø³ÛĮ
ĠØºÛĮØ± Ø·Ø¨ÛĮØ¹ÛĮ
ĠØ±ÙĪÛĮ Ø§ÙĦ
Ø¯Ø§Ø± ÛĮÙħ
ĠÙħÙĨØª Ø¬
ÙħØª ÙĨ
ĠØ¨Ø§ÙĦ Ú©ÙĨ
ĠÚ©ÛĮ Ú©
Ú©ÙĪ Ø´Ø¯
ĠÚ©Ø§ Ø´ÙħØ±
Ù¾Ø§ Ø´
ĠØ³Ùģ Ø§Ø±Ø´ÛĮ
ĠÙģØ±Ø¯ Ø§ÛĮ
ĠâĢ «
ĠÙĤØ·Ø¹ Ø§ØªÛĮ
ĠÙĪÙĦÛĮ Ø¹ØµØ±
ĠØªÛĮØ± Ø¢ÙĩÙĨ
ĠØ±ÙĪØ³ØªØ§ ÙĩØ§ÛĮÛĮ
Ú©Ø´ ÛĮØ¯
ĠÛ·Û° Û±
ĠÙĨØ¬ ÙĪÙħÛĮ
ĠÚ¯Ø±Ùħ Ø³Ø§Ø±
ĠC R
Ø²ÙħÛĮÙĨ Ùĩ
ĠØ¨Ø§Ø²ÛĮØ§ÙģØª ÛĮ
ĠÚ¯ÙĪØ´ Ø²Ø¯
ĠØ¹Ø±ÙĪ Ø³
Ø³Ø¨ Ø²
ĠÚ©Ø±ÛĮ Ø³
ĠÙ¦ ÙłÙł
ĠÛĮØ® Ø¨ÙĨØ¯Ø§ÙĨ
ĠÙ¨ ÙłÙł
ĠÚ¯ÙĨ Ø§Ø¨Ø§Ø¯
ĠØŃØ¨ÛĮ Ø¨ÛĮ
ĠÛ±Û¹Û· Û°
ĠØ´Ú¯ÙģØª ÛĮ
ĠØ²ÛĮØ±Ø¨ ÙĨØ§ÙĩØ§ÛĮ
ĠØŃØ³Ú¯Ø± ÙĩØ§ÛĮ
Ø§Ø³ØªØ§ÙĨ Ø¯Ø§Ø±Ø¯
Ù¾Ø±ÙĪÙ¾ ÛĮÙĦÙĨ
ĠÚ©Ø«ÛĮØ±Ø§ÙĦ Ø§ÙĨØªØ´Ø§Ø±
e ch
ĠØ¨ Ú¯ÙĪÛĮÛĮØ¯
ĠÙĪ Ø±Ø¯
ĠÙĪ Ø§ØªØ±
Ùģ ÙĨÛĮ
ĠØ³ ØªÛĮ
Ø¯Ùĩ Ø§ÙĨ
Ø§ÙĦ Ø°Ú©Ø±
ĠØµ ÛĮØ§Ø¯
ĠØ¢Ùħ Ø³Øª
ĠÙģØ± ÛĮÙħ
ĠÙħØ³ Ø¨
ĠØ§ÙĦ ØµØ¨Ø§ØŃ
ĠØ¨Ø®Ø´ Ø´
ĠÙħØ± Ø¶ÛĮÙĩ
ĠØªÙĨ Ø¸
ĠÙ¾Ø± ÙĤØ¯Ø±Øª
ĠÙĨØ§ Ø§ÛĮÙħÙĨ
ĠØºÛĮØ± ÙħÙĨØ·
ÙģØ§ Ø¸ÛĮ
ĠØ¨Ø¹ ÙħÙĦ
Ø¯Ø§ÙĨ Ø§
ĠØ³ÙĪØ®Øª Ø±Ø³Ø§ÙĨÛĮ
ĠØ´Ø§ Ù¾
ĠÛ²Û´ Û¹
ĠØ¬Ø±ÛĮØ§ÙĨ Ø§Øª
ĠÙ¾Ø±Ø³Ù¾ÙĪÙĦÛĮ Ø³ÛĮ
ĠØ¯Ø¨ÛĮØ± Ø³ØªØ§ÙĨ
ĠØ³ÛĮØ¯ Ø¹Ø¨Ø§Ø³
ĠÛ²Û¸ Û¹
ĠÚĨÛĮ Ù¾
ĠÙħØ¯Ø±Ø³ Ø§ÙĨ
ĠØ¨Ø³ Ø§
ĠØ¨Ø³ Ù¾Ø§Ø±
ĠÙ¾Ø§ ÙĪÙĦ
ĠÛĮÙĪÙĨ Ø§ÙĨÛĮ
ĠÛ´Û± Û¸
ĠÙ¾Ø±Ø³Ø´ ÙĨØ§ÙħÙĩ
ĠÙ¾Ø§ÛĮÛĮ Ø²Ùĩ
ĠØ´Ø§Ø±Úĺ Ø±
ĠØ³Ùħ Ùģ
ĠÙħØ´Ø±ÙĪ Ø·Ùĩ
âĢ¦ ØĮ
ĠØ±Ø¨ Ø§ØªÛĮÚ©
ĠÙĩØ§ÛĮ Ù¾
ĠØ§ÙĦØ¯ ØŃÛĮÙĦ
ĠÚ©Ø§ÙĦÛĮ Ø¨Ø±
ĠØ¢ÙĩÙĨÚ¯ Ø³Ø§Ø²
ĠØ¬Ø¹ÙģØ± Ø²Ø§Ø¯Ùĩ
ĠÚ©Ø§ÙĨØ¯ÛĮØ¯ Ø§ÙĩØ§
ĠØ°ÛĮÙĨ ÙģØ¹
ĠÙħØ¸ÙĦ ÙĪÙħ
ĠØ¨Ø³Ø§Ø² ÛĮÙħ
ĠÙħØ¹Ø§ÙĦ Ø¬Ùĩ
ĠÙħØ¨Ø§Ø±Ø² Ø§Øª
Ú©Ø§ÙĪ ÙĪØ³
ĠÛĮÙĦ Ø¯Ø§
ÙħÙĨÙģ Ø¹Ùĩ
E T
Ø§ÙĨ ÙĪÙģ
Ø´ Ú©ÙĨÛĮ
ĠÙĪ ÙĦØª
ĠØ³ ÙĦØ§ÛĮ
ĠÙĩ ÛĮØ¯
ĠØ¢ Úĺ
ĠØ±Ø§ ÙģØ§Ø¦ÙĦ
ĠØ±ÙĪ ÛĮØ§
ĠÙħÙĨ ÛĮØ²
ĠØ¢ÙĨ Ø±
ĠÙħÙĪ Ø§ÙĤØ¹ÛĮ
Ø« Ø±Ø§
Ø¨Ø± Ø®ÙĪØ±Ø¯
Ø¢ Ø²ÙħØ§ÛĮÛĮ
ĠÙħØª Ùĩ
Û¹ Û±
ĠØ³ÛĮ Ø¨Ø±ÛĮ
ĠÛ¹ Û±Û°
ĠÙħÙĩ ÛĮ
Û· Û´
ĠØ¶ Ø±Ø§ÛĮ
Ø®ÛĮ ÙĪ
Ú©Øª Ø§Ø¨
ĠÙħÙĪØ¶ÙĪØ¹ ÙĩØ§ÛĮ
ĠØ´ÛĮ Ø·
Ø§ØŃ ÙĤÛĮÙĤØª
ÙĨÙĩ Ùħ
ĠÙĩÙħØ±Ø§Ùĩ Ú©
ĠÙħØ³Ø§ Ú©ÙĨ
ĠÙ¾Ø§Ø± Ø§Ø²
ĠÛ³Û° Û²
ĠØªØ® ÙĦÙģÛĮ
ĠØµØ¯ ÙĤ
Ø§ÙĪ Ø§ÛĮ
ĠØ§Ø±Ø¯ Ø¨ÛĮÙĦÛĮ
ĠØ®Ø·Ø± ÙĩØ§ÛĮ
ĠØªØ±Ø¯ ÙħÛĮÙĦ
ĠØ§Ú© Ø«Ø±Ø§
ĠÙĩÙĨÚ¯ ÙģØªÛĮ
ĠÙĦØº Ø²ÙĨØ¯Ú¯ÛĮ
ĠØ¨Ø® Ø±ÙĨØ¯
ÙĪÚ©Ø± ÙĪÙĨ
Ø§ÙĦÙħ Ø§ÙĦ
ĠÛ´Û· Ûµ
ĠØ¯Ø® ÙĦ
ĠÙĩØ±ÚĨ ÙĤØ¯Ø±
Ø§ÙĤÛĮ Ø§ÙĨ
ĠÙħØŃØ§Ùģ Ø¸ØªÛĮ
ĠÙģØ¬Ø± Ø¬Ùħ
ĠØ¹Øµ Ø¨
ĠÙ¨ Ùł
ĠÙ¾Ø§ÙĨ ÙĦ
ĠØ¨Ú©Ø´ ÙĨØ¯
ĠØ±Ú©ÙĪØ± Ø¯ÙĩØ§ÛĮ
ĠØ¶Ø§Ø¨Ø· Ùĩ
ĠØ¹ÙĪØ¯ Øª
ĠØ¢ÙħØ³Øª Ø±Ø¯Ø§Ùħ
ĠØ³ÙĦØ§ÛĮ ÙĤ
D P
ĠØ¨ Ú©ÙĨÙĨØ¯
ÙĦ Ø²
Ø³ Ø·ØŃ
Ø² ÙĨØ¯Ùĩ
Ø¹ ÛĮØ±
ĠÙĨ Ú¯Ø°Ø§Ø´Øª
ĠØ± Ø®Ø´
ĠØ± Ø²ÛĮÙĨ
ĠØ¨Ø§ Ø§ÛĮÙĨ
ĠØ® ÛĮØ§Ø±
ĠØ¨Ø± Ø§Ø«Ø±
ĠÙħÛĮ Ú¯ÙĪ
ÙĦÛĮ ØªÛĮÚ©
ĠØŃ Ø¯Ø§Ø¯
ĠØŃ ÙĪØµÙĦÙĩ
ĠØ§ÙĨ ØŃÙĦØ§ÙĦ
ĠÙĦ Ø§ÛĮØª
ĠÙĦ ÙĪØ¯Ø±
ĠÙĪØ§ Ø¬
ĠØ§ÙĦ ÙĪØµ
Ø±Ø³ Ø§Ø²
ĠØ³ÛĮ Ø§ÙĦØ§Øª
ĠÙħÙĩ ÙħØ§ÙĨÛĮ
Û· Û¶
ĠØ±Ø§Ùĩ Ù¾ÛĮÙħØ§ÛĮÛĮ
ĠØ« Ø§Ø¨ØªÛĮ
ĠÙĤØ§ÙĨ Ø¹ÛĮ
ĠØŃØ³ Ø§Ùħ
ĠØ§ÙĨØªÙĤ Ø§Ùħ
ĠÚ©ÙĪ ÛĮØ¯
ĠÙħØ³Øª ØŃÙĤ
ĠÙħØ³Øª Ø¹ÙģÛĮ
ĠÙħØ« ÙħØ±
ĠØ·Ø¨ Ø³
ĠØ¬Ø§ÙĨ Ø´ÛĮÙĨÛĮ
ĠØ´ÙħØ§Ø± Ú¯Ø§ÙĨ
ĠÙħØ² Ø±ÙĪØ¹ÛĮ
Ø²ÙĨ ÛĮÙħ
ĠÙģÛĮÙĦÙħ Ø³Ø§Ø²ÛĮ
ĠÙģØ±Ø§ÛĮ ÙĨØ¯ÙĩØ§
ĠÙĤÙĦ ÙħÛĮ
al l
ĠÙ© Ù§
ĠÙģØ±Ø²ÙĨØ¯Ø§ÙĨ Ø´Ø§ÙĨ
ĠØ§ÙĦÙħ Ø§Ø³
ĠÚ¯Ø´ ÙĪØ¯Ùĩ
ĠØ¯ÙĩÛĮ Ø§Ø±Ø§ÙĨ
ĠÙĨØµØ± Ø§ÙĦÙĦÙĩ
ĠÙģÙĦØ³ ÙģÛĮ
ĠØ§ÙĪØ±Ùĩ Ø§ÙĦ
ĠØ±Ø§ÙĩÙĨÙħØ§ÛĮ Ø§ÙĨ
ĠØ§ÙĨÚ¯Ø´Øª Ø§ÙĨ
ĠÚ¯ÙĪØ³ Ùģ
ĠÙģØ±Ø§ÙĨÚ© ÙģÙĪØ±Øª
ĠÙħØ¹Ø¯ÙĪØ¯ ÛĮ
ĠØªÙĦÚ¯Ø± Ø§ÙħÛĮ
ĠÙĨØ§ÛĮ ÛĮÙĨ
de x
ĠÙħÚ¯Ø§Ø¨ ÛĮØª
ĠØ·ÙĩÙħ Ø§Ø³Ø¨ÛĮ
ĠØ²ÙħØ² ÙħÙĩ
* *
. )
S R
Ġ ,
ÙĪ ÛĮÙĨÛĮ
ĠØ¨ Ø¶Ø§Ø¹Øª
ĠØ³ Ø§Ú©Øª
ĠØ¨Ø§ Ø³
ÙĪÙĨ Ø§Ùħ
Ø´Øª Ø§Ø¨
ĠØµ ØŃÙĩ
Ø³ÛĮ Ø§ÙĨ
ĠÚĨ ÛĮØª
Ú¯Ø± ÙĩØ§ÛĮ
Ø¨ÛĮ Ú¯ÛĮ
ĠØ§Ø³ Ø±Ø§Ø±
ĠØ§ÙĤ Ø§ÙħÙĩ
ĠÙĤØ± Ø¶ÛĮ
ĠØ³Ø± Ø§Ø²
ĠØ³Ø± Ú¯Ø±ÙģØªÙĩ
ĠØ¯ÛĮ ÙĪÙĨ
ĠØªÙĪÙĦÛĮØ¯ Ø´Ø¯Ùĩ
ĠØ§ÙĦ ÙħØ²
ĠØ§ÙģØ²ÙĪØ¯ ÙĨÛĮ
ĠÙħØµ ÛĮ
ĠØ±Ø³ ÙĪÙħ
Û¸ Û³
ĠØ´Ùħ Ø¹
ĠØ²ÙħØ§ÙĨ Ùĩ
ĠÙĩÙĪ Ø§Ùģ
Ú©Ø§ÙĨ Ø³ÛĮÙĨ
ĠÚ©ÛĮ ÙĪØ³
ĠÛ²Û´ Û°Û°
ĠØ´Ø± Ùħ
ĠØªØ³ Ø¹ÛĮØ±
ĠØ³Ø±ÙĪ Ø¢Ø¨Ø§Ø¯
ĠØ®ÙĪØ´ Ø§ÛĮÙĨØ¯
Ø§ÙĦØ¯ ÛĮÙĨÛĮ
ĠÚ©Ø§Ùħ Ø¨
ĠÛ²Û¹ Û·
ĠÛ´Û¸ Ûµ
ĠÚ©ÙĪÙĩ ÛĮ
ĠÙĪØ¬Ùĩ Ùĩ
ĠØºÛĮØ±Ùħ ØªØ±
ĠÚ©Ø§Øª Ø¯
ĠØ±ØµØ¯ Ø®Ø§ÙĨÙĩ
ĠÛ±Û³Û¸ Û³
ĠØ§ØŃØªØ± Ø§ÙħÛĮ
ĠØ¹Ú© Ø³ÛĮ
ĠØªØ§ÙĦØ§Ø± ÙĩØ§
ĠØ¨ÛĮÙĨØ¯ Ø§Ø²ÙĨØ¯
ĠÚĨØ§ÙĤ ÙĪ
ĠØ¨Ø³Ø§Ø² ÙĨØ¯
ĠØ´ÙĦÙħ ÚĨÙĩ
ĠØ³ÛĮÙĨÙħ Ø§ØŃÙĤÛĮÙĤØª
ĠØ±Ø®Ø¯ Ø§Ø¯ÙĩØ§ÛĮ
ØªÙĪØ³ Ø¹Ùĩ
ĠØ¯Ø§Ø¦ ÙħØ§
ĠÙĨØ§Ø¨Ø§Ø± ÙĪØ±ÛĮ
ĠÙħÙĪÙĦØ§ÙĨ Ø§
ĠØªÙĤØ³ÛĮ Ø·
ĠØ¶Ø±Ø§ÛĮ Ø¨
e b
i st
ĠØ¯ ÙģØª
ĠØ¯Ø± Ø¬Ø§Øª
ĠØ® Ø§Ø´ÙĤ
ĠÙĤ Ø§ÙħØª
ĠÛĮ ÙĤÛĮÙĨØ§
ĠØ¨Ø±Ø§ÛĮ Ø§ÙĨ
ĠØªØ§ Ø´ÙĪ
ĠØ§Ùģ ÙĪÙĦ
ĠÚ©Ø± ÙħØ§ÙĨÛĮ
ĠÙ¾ÛĮ ÙĦÙĩ
ĠØ³Ø± Ø¢
ÙĪØ±ÛĮ Ø§ÙĨ
Ø±ØŃ ÙħÙĨ
ĠÙħØª Ú©
ĠØ¨Ø§Ø² Ú¯ÙĪ
ĠØ¬Ùĩ Ø§Øª
ĠÙĨÙĪ ÛĮÙĨÛĮ
ĠØ³ÙĪØ®Øª ÙĨ
Ø±Ø§Øª ÙĪØ±ÛĮ
ĠØ§ÙĨØ¯ ÙĪØ®ØªÙĩ
ĠØ§ÙħÛĮØ¯ ÛĮÙĩ
ĠØ¢Ø²Ø§Ø¯ Ø§ÙĨÙĩ
ĠØ¨Ú¯ÛĮØ± Ùħ
ĠÛ´Û°Û° Û°
ÙĪÙĦÙĪÚĺÛĮ Ú©ÛĮ
ĠØ§ÙħÛĮØ± Ø¢Ø¨Ø§Ø¯ÛĮ
Ø³Ø± Ù¾Ø±Ø³Øª
ĠÛ´Û´ Û¸
ĠØ¬Ø§ ÙĪØ¯
ĠÙħØŃÚ© ÙħÛĮ
ĠÙħØ§ÙĩÛĮ ÚĨÙĩ
ĠØ¯Ø³ØªÚ¯ÛĮØ± Ùĩ
ĠÚ©ÙĨØ³ Ø±ÙĪ
ĠØ¹Ø² ÛĮÙħØª
ĠØ±Ø§ÙĩØ¨Ø± Ø¯ÙĩØ§
ĠÚ©Ø§ÙħÙ¾ÛĮ ÙĪØªØ±ÛĮ
ĠØªØ§Ø¨ÙĦÙĪ ÙĩØ§
ĠØªÙĪÙģÛĮÙĤ Ø§Øª
ĠÙ¢ÙłÙ¡ Ù¦
ĠÚ¯Ø² Ø§Ùģ
ĠØ¨Ø±Ú¯Ø² ÛĮØª
Ù¾Ø§ÙĦ Ø§ÛĮØ´Ú¯Ø§Ùĩ
ĠØ§Ø³ØªØ¹Ø¯ Ø§Ø¯ÙĩØ§
ĠØ§Ø¹ØªØµ Ø§ÙħÛĮ
ĠÚ©Ø§Ø¨ÛĮÙĨ Øª
ÙħØ±Ø¯ Ø§ÙĨÙĩ
ĠØ¢ØªÙĦØ§ÙĨ ØªÛĮÚ©
ĠØ®Ø¶ Ø±ÛĮØ§ÙĨ
ĠØ§Ø³ØªØ¹Ø¯Ø§Ø¯ÛĮ Ø§Ø¨ÛĮ
ĠØ§Ø³ÙģØ± Ø§ÛĮÙĨ
ĠØºÛĮØ±ÙħÙĨØ· ÙĤÛĮ
ĠØºÛĮØ±ÙħØªØ± ÙĤØ¨Ùĩ
u al
Ġ l
ÙĨ Ø·
ĠØ§ Ø±ÛĮÚ©
Ø§ÙĨ Ú©
ĠÚ© Ø¬
Ùģ Ø³
ĠÙĨ Ø¯Ø±Øª
ĠØ´ Ø§ØªÙĦ
ÙĤ Ø¯Ùĩ
ĠØ¨Ø§ Ø¬Ùĩ
Ø® Ø·Ø±
ĠØ® ÛĮØ±ÛĮ
Øµ Ø§Ø¯Ø±
ĠÙģ ÙĨØ¬Ø§ÙĨ
ĠÙģ Ø§Ø¦ÙĪ
ĠØŃ Ø±Ùħ
Ø²Ø§Ø± ÛĮ
ĠÙĤ Øµ
Ø±ÙĪ Ø¹
ĠÙĩÙħ Ø²ÛĮØ³ØªÛĮ
ĠÙĩÙħ Ø´ÙĩØ±ÛĮ
ĠØµ ÛĮØ¯ÛĮ
ĠØ§Ùħ Ø«Ø§ÙĦ
Ø®Øª ÙĨØ¯
ĠÚ©Ø´ Ùħ
ĠÙħØŃ Ø¨ÙĪØ³
ĠØ³Ø§ÙĦ ÙĩØ§Ø³Øª
ĠØ³Ø± Ø®Ùĩ
ĠØ¯Ø§Ø± Ø¨Ø³Øª
ĠÙħØ¯ÛĮØ± Ø§ÙĨÛĮ
Ø§Ø®Øª ÛĮØ§Ø±
ĠØ§Ø´ Ú©Ø§ÙĨ
ĠØ¶ Ø¹ÛĮ
ĠØ¨ÙĨ Ø§ÛĮÛĮ
ĠÙħÙĩØ± Ø¨Ø§ÙĨÛĮ
ĠÚ©ÙħÛĮ Ø§Ø¨
ĠÙ¾Ø§Ø³ Ø¯Ø§Ø´Øª
ĠÙ¾ÚĺÙĪÙĩØ´ ÙĩØ§ÛĮ
ĠØ¢Ø°Ø±Ø¨Ø§ÛĮØ¬ Ø§ÙĨÛĮ
ĠÛ²Û² Û±
ĠØ³ÙĤ Ø·
ĠÙ¡ Ûµ
ĠØ¨ÙĦÚ©Ùĩ Ú©
ĠÛ²Û· Û³
ĠÛ³Û± Û·
ĠÛ´Ûµ Û°Û°
ĠÛ³Û¸ Û¶
ĠÙħÙĨØ¹ ÙĤØ¯Ùĩ
ĠØŃØ¬ Ø¬ÛĮ
ĠÙ© Ù©
ĠØ§ÙĦÙħ Ø§ÙĦ
ĠÙ¾ÛĮÚ© Ø±Ùĩ
ĠÙĨØ²Ø¯ Ú©
ĠØ¹ÙĦØ§ÙĤ ÙħÙĨØ¯ÛĮ
ĠÙħÚ©Ø§Øª Ø¨Ø§ØªÛĮ
ĠÙħÙĤØª ÙĪÙĦ
Ùª )
ÙħØ® Ø§Ø·
ĠÚ¯Ø²ÛĮÙĨ Ø´ÛĮ
ÙĩØ´Øª Ùħ
Ø³Ùģ ÛĮØ¯
ĠÙĨØ¨Ø§Ø´ ÛĮÙħ
ĠØ§Ø³Ú©Ø§Øª ÙĦÙĨØ¯
ĠÚĺØ¦ÙĪÙ¾ ÙĦÛĮØªÛĮÚ©
ĠÙģÙĤÙĩ ÛĮ
ĠÙħÙģØ§ Ø®Ø±
ĠØ¨ÙĨØ´ ÛĮÙĨØ¯
Ġ and
Ø¯ Ø§Ø¯Ùĩ
ÙĪ ÙĪÙĨØªÙĪØ³
ĠØ¨ Ø®ÙĪØ¨ÛĮ
Ø¨ ØŃ
ĠÙĨ Ø®ÙĪØ§ÙĩÙħ
Ø® Ø¯Ùħ
Ø· Ø±Ø§ØŃÛĮ
ĠØ¬ ÙĪØ¯
Ø´Øª Ø±ÛĮ
Ø±ÙĪ Ø³ÛĮÙĩ
ĠÛĮ Ú©ÙĨÙĪØ§Ø®Øª
ĠØµ ÙĪØ±ÛĮ
ĠØ§Ùħ ÙĦØ§ØŃ
Ú©ÙĨ ØªØ±
Ø¢ Ø¨Ø§ÙĨ
ĠØ¯Ø³Øª ÙģØ±ÙĪØ´Ø§ÙĨ
ĠÙħØ´ Ú¯ÛĮÙĨ
ĠØ´Ùĩ ÛĮØ¯ÛĮ
ÙĩØ§Ø± Ø§ÙĨÙĩ
ĠØ±ÙĪØ² Ú¯Ø°Ø´ØªÙĩ
ĠØ§Ø¯ ÙĦÙĩ
ĠØªØŃ ÙĤÛĮØ±
ĠÙħÙĤ Ø¨Ø±Ùĩ
ĠØ¨Ø§Ø² Ø®Ø±ÛĮØ¯
ĠØ¬Ùħ Ø§ÙĩÛĮØ±
Ø±Ùĩ ÛĮØ²
ĠÙħØ±Ø¯ ÙĪØ¯
ĠØ¯Ùĩ ÙĨÙĪÛĮ
ĠØ§Ø®Øª ÙĦØ§ÙģÛĮ
ĠØ¨Ø¹ Ø«Øª
ĠØ¨ÙĦ Ø¨Ø±ÛĮÙĨÚ¯
ĠÙ¾Ø§Ø± Ú¯ÛĮ
ĠÙħØ´Ø®Øµ Ø§
ĠÙģØ±Ø¯ ÛĮÙĨ
ĠØ´Ø± Ø¹
ĠÙĦÙĪ Ú©Ø§
ĠÛ²Û· Û·
ĠÛ²Û¶ Û¹
ĠÙħØ¯Ø§Ø± Ú©ÛĮ
ÙĪÙĦÙĪÚĺÛĮ Ú©
ĠÙ¾Ø´Øª Ú©Ø§Ø±
ĠØ³Ø±Ø¯ ÛĮØ³
ĠØ§Ø¹ØªÙħØ§Ø¯ Ø³Ø§Ø²ÛĮ
ĠÛ³Û³ Û¸
ĠÛ³Û· Û±
er v
ÙĪØ¬ ÙĪÛĮ
ĠÙ¾Ø±Øª ÙĦØ§Ø´
ÙĨÙħØ§ÛĮ Ùħ
ĠØ¯Ø® Ø§ÙĦØªÛĮ
ĠÙ£ Ù¨
ĠØ¨ÙĨÚ¯Ø§Ùĩ ÙĩØ§ÛĮ
ĠÙ¾Ø§Ø¯ Ú¯Ø§ÙĨ
ĠÛµÛ± Û´
ĠÛ¸Û¹ Û°
ĠØºØ± ÙĪØ±
ĠØ§Ø´Ú© Ø§ÙĦÛĮ
Ù¾Ø±ÙĪ ÚĺÙĩ
ĠÙģØ±ÙħÙĪÙĦ Ø§Ø³ÛĮÙĪÙĨ
ĠÙħØ²Ø¯ ÙĪØ±Ø§ÙĨ
ĠÙĪÛĮØ³ Ú©Ø§ÙĨØ³ÛĮÙĨ
ĠØ®ÙĪØ´ÙĨ ÙĪÛĮØ³ÛĮ
ĠØ¨Ù¾ÛĮÙĪÙĨØ¯ Ø¯
ÙģÙĦÛĮ Ú©Ø³
ĠØ§ÙĦÙħØ² Ø±ÙĪØ¹ÛĮ
I N
J MMC
ĠØ³ ØŃ
ĠØ³ Ø§ÙĨØ¯
Ø® Ø±Ø¯
ĠÚ¯ Ø§ÙĩØ§
ĠÙħÛĮ ØªÙĪØ§ÙĨØ¯
ĠØŃ Ø³ÛĮ
ĠØ¹ ÛĮØ¯ÛĮ
ĠÙĤ ÙĪÙħ
Ø±ÙĪ Ø³
ĠÛĮ Ø§Ø±Ø¯
ĠØµ ÙģØ§
ĠÙħÙĪ Ø¬Ùĩ
ĠÙħØ¹ Ø¸ÙħÛĮ
ĠØ§Ø³ Ø¹Ø¯ÛĮ
ÙħØ§ÛĮ Ø¹
ĠÙģØ¹Ø§ÙĦ ÛĮÙĨ
ĠÙĨÙĪ Ø§Ø²ÛĮ
ĠØªÙĤ ÙĪÛĮ
ĠÚ¯ÙĪ ØªØ±Ø´
ĠÙĩÛĮØ¦Øª ÙĩØ§ÛĮ
ĠØ®ÙĪØ§Ø³Øª ÛĮÙħ
ĠÙħÙĪÙĤ ÙĪÙģÙĩ
ĠØªÙĦ Ø®ÛĮ
ĠÚ©ÙĪÚĨ ÛĮ
ĠÚĨØ§Ùĩ ÙĩØ§ÛĮ
ĠÛ²Û¶ Û¶
ĠØ§Ø¹Øª Ø¯Ø§ÙĦ
ĠÙĪÙĦ Ø§Ø¯Øª
ĠØ³ÙĪØ¦ Ø¯ÛĮ
ĠØ§ÙĦØ¯ ÛĮÙĨÛĮ
ĠØ§ÙĦÚ©Øª Ø±ÛĮÚ©
ĠÙħØ¹ØªÙħ Ø¯ÛĮ
ĠÙĪØŃØ´Øª ÙĨØ§Ú©
ĠÙ¾ÛĮØ¯ Ø§ÛĮØ´
ĠÙĪÚ©ÛĮ ÙĦÛĮ
ĠØ¦ ÛĮ
ĠÚ©Ø§Ø±ÙĪÙĦÛĮÙĨ Ø§ÛĮ
Ø®ÙĪØ±Ø´ ÛĮØ¯ÛĮ
I V
u b
Øª ÙħÛĮ
Ø´ Ú©ÙĨØ¯
ĠØ¨Ø§ Ø·
Ø§ÙĦ Ø²
ØŃ Ú©
ĠÙ¾ Ø§ÙĩØ§
ĠØŃ Ø±Ø§Ø¬ÛĮ
ĠÙĤ Ø§Ø´ÙĤ
Ø§Ø¨ ØŃÙĩ
Ø§Ø³ Ø§ÙĨÛĮ
ĠØ² Ø¯Ùħ
ĠØ² Ø¹Ùħ
Ù¾ Ø§Ú©
ÙĦØ§ Ø·
ĠÙĦ ÛĮØªÛĮ
ĠÙ¾ÛĮ Ú¯Ø±Ø¯
ĠØ®ÙĪ Ø§Ø¨ÛĮ
ĠØ§Ø± Ø¬Ø§
ÙĨØ§ Ù¾Ø°ÛĮØ±ÛĮ
ĠØ¯ÛĮ Ø¬ÛĮ
Ø¯ÛĮØ¯ Ú¯Ø§ÙĨ
ĠØ« ÙħØ±ÛĮ
ĠØ¨Ø±Ø±Ø³ÛĮ ÙĩØ§ÛĮ
ĠÙħØ®Øª Ø§Ø±ÛĮ
ĠÚ©ÙĪ ÛĮØ±ÛĮ
ĠØªØ§Ø±ÛĮ Ú©ÛĮ
ĠØ´Ø§ÙħÙĦ ÙĪ
ĠÛ³Û° Û´
ĠØªØ¯ ÙģÛĮÙĨ
ĠØ¹ÙĦÙħÛĮ Ùĩ
ĠØ§Ø´Øª ÙĩØ§
ĠÙ¾ÛĮØ± Ø§ÙĨ
ĠØ³Ø®Øª Ú¯ÛĮØ±ÛĮ
Ú¯Ø±Ø¯ ÙĪÙĨ
Ø´ÙĩØ± ÙĩØ§
ĠØ±ÙĪØ¯ Ø¨Ø§Ø±
ĠØ³ÙĨØª Ø²
Ú©Ø§ Ø¦ÙĪ
ĠØªØ¹ÙĩØ¯Ø§Øª Ø´
Ù¾ÙĪ Ø´ÛĮ
ĠÛ·Û² Û´
ĠØ§ÙĦØŃ Ø´Ø¯
ĠØ³ÙĪØ² Ø§ÙĨØ¯Ùĩ
ĠØ¢Ø²Ø§Ø¯Ø± Ø§ÙĩÛĮ
ĠØ§ÙģØ³ Ø±Ø§ÙĨ
Ø´ÙĩØ±ÛĮ ÙĪØ±
ĠØ¯Ø´Øª Ø³ØªØ§ÙĨ
ĠÙĨÚ© ÙĪÙĨØ§Ùħ
ĠØ§ØªÙĪÙħØ¨ÛĮÙĦ Ø±Ø§ÙĨÛĮ
ĠÙħÛĮÙĩÙħØ§ÙĨ Ø§ÙĨ
ĠÙĪØª Ø¬Ø§Ø±Øª
Ø§ÙĤØªØµ Ø§Ø¯ÛĮ
ĠØ²ÛĮØ¨Ø§Øª Ø±ÛĮÙĨ
ĠØ·ÙĨ Ø§Ø¨
ĠÚ©Ø¯Ø± Ø´ØªÙĩ
H SE
Ø± Ø²ÛĮ
Ø± ØªØ¨Ùĩ
ĠØ§ Úĺ
ĠØ§ Ø¨ÛĮ
Ø³ Ú©Ùĩ
Ú¯ ÙĪØ¯Ø±
ĠØ¨Ùĩ Ø´ÙĩØ±
ĠØ¨Ùĩ ÙĤÛĮÙĨ
ĠÙ¾ Ø±Ø³ÛĮ
ĠØ§ÛĮÙĨ ØµÙĪØ±Øª
ĠØ¢ ÙħÛĮ
ĠÙħÛĮ Øª
ĠØ§Ùħ Ú©Ø§ÙĨÛĮ
ĠØ§Ùħ ÙĪØ§ÙĦÛĮ
ØªØ± Ø³
ĠØº Ø§Ø±
ĠÙĩØ± Ø³Ø§ÙĦ
ĠØ¹Ùħ ÙĪÛĮÛĮ
ĠÙħØ± Ø§Ø¨ØŃÙĩ
ĠÙģØ¹ ÙĦ
ĠÙĨØ¸Ø± ÙĩØ§
ĠÛ¸ Û±Û°
ĠÙ¾Ø± Ø¨Ø§Ø±
ĠØªÙĤ Ø¨ÙĦ
ĠÙĨØ§ Ø¸
ĠØ´ÛĮ Ú©Ø§
ĠØ´Ø¨Ú©Ùĩ Ú©
ĠØ¨Ø§ÙĦ ÙĨØ¯Ú¯ÛĮ
Ø®ÙĪØ§Ùĩ Ø§ÙĨÙĩ
ĠÛ³Û° Û·
Ù¾Ø± ÙĪØ±ÛĮ
ĠØ·Ø¨ÙĤ Ø§ØªÛĮ
ĠØªØ±Ø¯ ÛĮØ¯ÛĮ
ĠØ®ÛĮ Ø§Ùħ
ÛĮØªÛĮ Ø´
ĠÙĨÙĪØ± Ø¯ÛĮ
ĠÛ³Ûµ Û²
ĠÙħØ§ÙĨØ¯ ÙĨØ¯
ĠØ±ÙĪØ¨ Ø±ÙĪÛĮ
ÙħØ¹ ÙħÙĪÙĦ
ĠÛµÛ´ Û´
ĠÚĨÙĨØ§ÙĨ Ú©Ùĩ
ĠÚ©Ùģ Ù¾ÙĪØ´
ĠØªØ±Ø§Ø² ÙĪÛĮ
ĠØ¶Ø±Ø¨ ØªÛĮ
ÙģÙĪØ± ÙħØ§Øª
ĠÚ¯Ùħ Ø±Ø§Ùĩ
Ú©ÙĪØª Ø§ÛĮ
ĠÙĨØ§Ø®ÙĪØ´ Ø§ÛĮÙĨØ¯
ĠØ§Ø®ØªØ±Ø§ Ø¹Ø§Øª
ĠØ±Ø®Ø´ Ø§ÙĨÛĮ
ĠØ³Ø±Ø§Ø² ÛĮØ±
Ø§ ÙĩØ§ÛĮ
ĠØ¨ Ú©ÙĨÛĮÙħ
ĠØ¨ ØªØ§
ĠÙħ Ø§Ùģ
ĠÙħÛĮ Ø¨Ø¯
ÙĦÛĮ Ø¯
ĠÙģ Ú©
ĠÙģ ÙĦÙĩ
ĠØªÙĪ ÛĮØ³
ĠÛĮ Ø§ÙĨÚ¯
ĠØµ ÙģÛĮ
Ø§Ø³ ÙģÙĨØ¯
ĠØ· Ø±Ø§Ø¨
ĠÙĨÛĮ Ø§Ø¨Ø¯
ÙĦØ§ Ú©ÛĮ
Ø²ÛĮ Ú©ÛĮ
ĠØ¯ÙĪ Ø³ÙĪÛĮÙĩ
ĠØ´ÙĩØ± Ø¨Ø§Ø²ÛĮ
Ø±Ø³ ÙĪÙĨ
Ø´ÛĮ Ù¾
ĠØŃÙĤ Ø§ÛĮÙĤ
ĠØªÙĪØ§ÙĨ Ø³ØªÙħ
ĠØ³ÙĩØ§Ùħ Ø¯Ø§Ø±ÛĮ
ĠÛµÛ° Û³
ĠØµØ¯ Ùģ
ĠÚĨØ±Ø§ Ø¬ÛĮ
ĠÚ©ÙĦÛĮ Øª
ĠØ§ÙħÛĮØ¯ÙĪØ§Ø± Ú©ÙĨÙĨØ¯Ùĩ
ĠÙĩØ´Øª Ú¯
ĠÛ¹Û¹ Û°
ĠØ³Ø±ÙĪ Ø³ØªØ§ÙĨ
ÙĨØª ÙĪ
ĠØ¢Ø«Ø§Ø± Ø´
ĠØ¬Ø¯ Ø§Ø±Ùĩ
ĠØ¨Ø±Ø¯ ÛĮÙħ
Ø§Ø® ÙĪØ±ÛĮ
ĠÛ³Û² Û¸
ĠØ§ÙĦÙħÙ¾ ÛĮ
ĠÙĨÚ©Ø±Ø¯ Ùħ
ĠÛ´Û² Ûµ
ĠØ¯Ø±ØŃ ÙĪØ²Ùĩ
Ø§Ø¬ ØªÙħØ§Ø¹ÛĮ
ĠÛ´Û± Û·
ĠÛ±Û´Û° Û±
ĠØ¯Ø±Ø¬ Ø§ÛĮ
ĠÙ© Ùł
ĠÙħØ´Ø±ÙĪ Ø¹ÛĮØª
ic al
ĠÙĩØ±Ú© Ø³
ĠÙĨÙĪØ§Ø² ÙĨØ¯Ú¯Ø§ÙĨ
ĠØ®Ø³Ø±ÙĪ Ø§ÙĨÛĮ
Ø³ÙĨÚ¯ ÛĮÙĨ
ĠØªØ±Ø§ÙĨØ³ ÙģÙĪØ±ÙħØ§Øª
ĠØ³ÙĩØ± Ø§Ø¨ÛĮ
ĠØ¨ÛĮÙĩ ÙĪØ´ÛĮ
ĠÙĪÚ©ÛĮ ÙĪÙħ
ĠØ¨ÛĮØ§ÛĮ ÛĮØ¯
ĠÙ¾Ø§Ø¨Ø± Ø¬Ø§
ĠØ¨ÛĮØ³ Ø¨Ø§ÙĦ
ĠØ³ØªÙĪØ¯ ÙĨÛĮ
ĠØ³Ø§ÙĨØªÛĮÙħ ØªØ±
ĠØ´ÛĮÚ©Ø§ Ú¯ÙĪ
a in
Ġ >>
ÙĨ Ø§ÙħÛĮ
ĠØ§ ÙĪØ±ÛĮ
Ø´ Ø´Ùħ
ĠÙĪ Ø¯Ø±
ĠÚ© ÙĪÙĦÛĮ
ĠØ¯Ø± Ø´Øª
Ø³Øª Ø§Ø¯
ĠÙĩ Ø®Ø§Ùħ
ĠÙ¾ Ø§ÙĨØ³
ĠØ¨Ø± Ú¯Ø±Ø¯ÙĨØ¯
ĠØ§Ø³Øª Ø®ÙĪØ§ÙĨÛĮ
ĠÙĤ ØµØ§Øµ
ĠØ· Ø§ÙĦØ¨
ĠØ§Ùģ Ø·Ø§Ø±
ĠÚĨ ÙĦ
ÙħÛĮ ÙĪÙĩ
Ø¢ Ùģ
ĠÙħØª Ø§Ø¬ÛĮ
ĠØ¯Ø§Ø¯ ÙĪØ³Øª
ĠÙĨØ¸ Ø§ÛĮØ±
ĠØ±Ø³ ÙĪØ§ÛĮÛĮ
ĠØ¨Ø§Ø² ÙħØ§ÙĨØ¯Ùĩ
Û¶ Û°Û°
ÙħÙĨ ØµÙĪØ±
ĠØ¨Ø§ÙĨ Ø§ÙĨ
ĠØ®Ø§Ø± Ø´
ĠØºÛĮØ± ÙĪØ§
ĠÙĨØ® Ø¬ÙĪØ§ÙĨ
ĠØ³Øª ÙĪØ¯Ùĩ
ĠØ¹Ø¶ ÙĦÙĩ
ĠØ§Ø±ÙĪ Ú¯ÙĪØ¦Ùĩ
ĠÚ¯ÛĮØ± ÛĮÙħ
ĠÙħØ³Ø§ÙģØ± ÛĮÙĨ
ĠØ§Ú©Øª ÙģØ§
ĠÛ·Û° Û´
ĠÛ³Û± Û´
ĠØ§Ø³ØªØ® Ø±ÙĩØ§
ĠÛ´Ûµ Û³
ĠØªØ¨ÙĦÛĮ ØºÛĮ
ĠÙ¾Ø§ Ø¦
ĠÛ´Û³ Ûµ
ĠÛµÛ´ Û¶
ĠÛµÛ· Û±
ĠØ¬ÙĪÛĮ Ø§ÛĮ
ĠÚĨÛĮØ² ÙĩØ§ÛĮ
ÙĤØ¯ Ø±ÛĮ
ĠÙħØ§Ø¬ Ø±Ø§Ø¬
ĠØ§ÙĨØ¨ÙĪÙĩ ÛĮ
ĠØ¢Ø±Ø² ÙĪÙĩØ§ÛĮ
ĠÚ©Ø±ÛĮÙħ Ùĩ
ĠØ§ØµØ·ÙĦØ§ØŃ Ø§
ĠØ§Ø³ØªØŃ ÙĤØ§ÙĤ
ĠÙĩÙĪØ§ÙĨ ÛĮØ±ÙĪØ²
ĠØªÙĪØ§Ùħ Ø§ÙĨ
ĠÙħØ§Ø±ÛĮ Ø§
ĠØ¨Ù¾ Ø±ÙĩÛĮØ²
ĠØªØ§Ù¾ÛĮ Ú©ÙĪ
Ù¾Úĺ ÙĪÙĩ
ĠØªÙĨØ¯Ø± Ø³ØªÛĮ
ĠØ¨Ø§ÙĦØ§Ø¨ Ø±Ø¯ÙĨ
ĠÙħÙĨÛĮØ² ÛĮÙħ
ĠÚ©Ø´Ùħ Ú©Ø´
ĠØªÙĪÛĮØ³ Ø±Ú©Ø§ÙĨ
ĠØ·Ø±Ø§Ø¨ ÙĦØ³
D I
Ġ h
Ø¯ Ø¨
Ø³ ÙĦÛĮÙħ
ĠÙħ ÛĮØ±ÛĮ
ĠÙĪ Ø¯Ø§Ø¹
ĠÙĪ ÙĨÛĮØ²
ĠØ´ Ø§ÙĦ
ĠØ´ Ø§Ú©Ø±
Øµ Ø±Ùģ
ĠØ¨Ø± ÛĮØªÛĮØ´
ÙģØª ØŃ
ĠÚ©Ùĩ ÙĨÙĪØ¬
ĠØ¬ ÙħÙĦ
ĠØ¬ Ø¨Ø§Ø±
ĠÙĤ ÙħÛĮ
ĠÙĩÙħ Ø§
ĠÚ©Ø´ Ø§ÙĨØ¯Ùĩ
ĠÚĨ Ø§ÙĦÙĩ
ĠØ¯Ø§ Ú©ÙĪØªØ§ÛĮ
ÙĪÛĮ ÛĮØ¯
ĠÙħÙĪ ÙħÙĨ
ĠÙħØ¯ Ø¹
Ú¯Ø± ÙĩØ§
ÙĨÚ¯ Ø±Ø¯
ĠÙĤØ± ÚĨÚ©
ĠØ³Ø± ÙĦ
ĠØ³Ø± Ø¢ÙħØ¯ÛĮ
ĠÙħØª ÛĮÙĨ
ĠØ¯ÛĮ Ú¯
ĠØ§ÙĦ Ø¨Ø¯
ÙĪÙħ ÙĨØ¯
ĠØ±Ø³ Ø§ÙĦÙĩ
ĠÛµ Û±Û²
Û¶ Û´
ĠØŃØ§ÙĦ ØªÛĮ
ÙĪÙĨÛĮ Ø³Øª
ĠØ¢Ø¨ ÙģØ§
ĠÙħØ±Ú© Ø¨Ø§Øª
ĠÙħØ¨ ÙĨØ§ÛĮÛĮ
ĠÙ¾Ø± Ø´ÙĪØ±
ĠÙĨØ§ Ø§ÙħÙĨ
ĠØµØ§Ø¯Ø± Ø´Ø¯Ùĩ
ĠØ¨Ø§Ø± Ú©Ø¯
ĠÙĦÛĮ ÙĪØ§ÙĨÛĮ
ĠÚ¯ÙĦ Ø§Ø¨ÛĮ
ĠØ³ÛĮØ§Ø³Øª ÙħØ¯Ø§Ø±
ĠÙħØŃÙħØ¯ Ø²Ø§Ø¯Ùĩ
ĠÛ³Û° Û¹
Ø´ÙĪÙĨØ¯ Ú¯ÛĮ
ĠÚ©ÙĪØ¯ ØªØ§ÛĮ
ĠÙ¾ÙĦ ÙĪØ³ÛĮ
ÙĦÙħ ÙĪÙĨ
Ø²ÙĨ Ùħ
ĠÙĩÙħØ³ Ø·ØŃ
ĠØ®Ø§ÙĨÙĪØ§Ø± ÙĩØ§ÛĮÛĮ
ĠØ³ÛĮÙĦ Ø§Ø¨ÛĮ
ĠØ§Ø³Ù¾ Ø§ÙĨØ³Ø±
ĠØ§ÙħØªÛĮØ§Ø² ÙĩØ§ÛĮ
ĠØ³Ú© ÙĪÙĨ
ĠÛ´Û² Û·
ĠØ§ØŃÙħØ¯ Ø¢Ø¨Ø§Ø¯
ĠØ¬ÙĪÛĮ Ø§
ĠØ§Ø¹ØªÙĤ Ø§Ø¯ÛĮ
ĠØ´Ø±ÛĮ Ø§ÙĨÛĮ
ĠØ¶Ø±Ø± ÙĩØ§ÛĮ
ĠØ·Ø§ÙĦ ÙĤØ§ÙĨ
ĠÙħÛĮÙĨ Ø§
ic e
Ø¹Ùħ ÙĦÛĮ
ĠØ¢Ú©Ø§Ø¯ÙħÛĮ Ú©
ĠØ§Ø³Ø±Ø§Ø¦ ÛĮÙĦÛĮ
ĠØ³ÙĪØ§Ø¯ Ø¢ÙħÙĪØ²ÛĮ
ĠÙ¢ÙłÙ¡ Ù¥
ĠÚ¯ÙĨØ¬ Ø§ÛĮØ´
ØŃØ± ÛĮØ±
ĠØ¨ÛĮÙĨØ¯ Ø§Ø²
ĠØ¨Ø±ÙĨ ÙħÛĮ
ÙĨÙĤ Ø¯ÛĮ
ĠÙĤØ´ ÙĤØ§ÛĮÛĮ
ĠØ±Ø¶ÙĪØ§ÙĨ Ø´ÙĩØ±
ĠØ¨Ø§Ø²ÙĨ Ø´Ø±
ĠÙģÛĮÙĦØ³ ÙĪÙģ
ĠÙħØµÛĮ Ø¨Øª
ĠØ¶Ø¹ÛĮ ÙģÛĮ
E A
S D
s o
Ø§ÛĮ Ø²Ø±
ĠÙĪ ÙģØ§ÙĤ
Ø¨ ÙĦØ§
Ú¯ Ø§Ø³
ĠÙĨ ÙĩØ±
ĠÙ¾ ÙĪØ³
ĠÙħÛĮ ÙĦÙĩ
ĠÙħÛĮ Ú©Ø±ÙĪÙĨ
ĠÙģ Ø§Ø¦
ĠØŃ Ø±ÙĪÙģ
ĠÙĤ ÙĪÙħÛĮ
ĠÛĮ Ú¯Ø§ÙĨÙĩ
ĠØµ Ø±Ø§Ùģ
ĠØµ Ø§Ø¹
ĠØ¨ÛĮ Ú¯ÙĦ
ĠÚ©Ø± Ø§Ø³
ĠÙĦ ÙĨØ¬
ĠÙħØ³ Ø±ÙĪÙĤÙĩ
ĠØ§Ø± ØªÙĪ
ĠØ¯ÙĪ Ø¨ÙĦ
ĠÙħØª ÙģÚ©Ø±
ĠÙĪØ§ ØµÙĦ
ĠÚ¯Ø° Ø§Ø±Ø¯
ÙĪÙħ ÛĮØ±
Ø§ØªÛĮ ÙĪ
ĠØ¨Ø§Ø² Ø´ÙħØ§Ø±ÛĮ
Ø³Ø§ÙĦ Ø§ÙĨ
ĠØ¨Ø§Ø´ Ú©ÙĪÙĩ
Ø¯Ø§Ø¯ ÛĮÙħ
ĠÙĪØ± Ø²ÛĮ
Ø®ÙĪ ÛĮÙĨ
ĠÙĨØ® ÙĪØ¯
ĠÙħØ§ÙĨ ÙĪØ±ÙĩØ§ÛĮ
ĠÚ©ÙĪ Ø§ÙĦ
ĠØ³Øª Ø§ÛĮØ´
Û²Û° Û±Û¹
ĠØªÙĦ Ú¯Ø±Ø§Ùģ
ĠØªÙĪØ¶ÛĮ ØŃÛĮ
ĠÛ·Û° Û²
ĠØŃÙģØ§ Ø¸
ĠØ§Ø¨Ø²Ø§Ø± ÙĩØ§ÛĮÛĮ
ĠØ±Ø³Ø§ÙĨØ¯ ÛĮÙħ
ĠÙĨÚĺØ§Ø¯ Ù¾Ø±Ø³ØªÛĮ
ĠÙ£ Ù¥
ĠÙ¾ÛĮØ´Øª Ø§Ø²ÛĮ
ĠÙĩÛĮØ¯Ø±ÙĪ ÚĺÙĨÛĮ
ÙģØ±Ùĩ Ø§Ø¯
ĠØªØ±Ø§Ø² ÙĪ
ĠØ·ÙĦ ÙĪØ¹
ĠØ¨ÙĩØ± Ú¯Ø§ÙĨ
ĠØªØ±Ø§Ú©ØªÙĪØ± Ø³Ø§Ø²ÛĮ
ĠØ¯Ø² Ø¯ÛĮ
Ø®Ø± ÙĨØ¯
ĠØ³ÙĪØ§Ø¯ Ú©ÙĪÙĩ
ĠÚ©Ø±ÛĮØ³Øª ÛĮÙĨ
ĠØ§ÙĨÙĤ Ø¶Ø§ÛĮ
ĠÚ¯ÙĨØ¨Ø¯ Ú©Ø§ÙĪÙĪØ³
ĠØ§ØªÙħ Ø³ÙģØ±
ÚĨØ±Ø® Ø¯
ĠØŃØ´ ÙħØª
ĠØ§ÙĨØ² ÙĪØ§ÛĮ
ĠÙ¾Ø§Ø³Ø§Úĺ ÙĩØ§
ĠØ§ÙĦØ¨ Ø³Ùĩ
ĠØ³Ø±Ø³ Ø®Øª
ĠØ¨ÙĪÙĤ ÙĦÙħÙĪÙĨ
ĠÚ©Ø§ÙĦÛĮØ¨Ø± Ø§Ø³ÛĮÙĪÙĨ
Ú¯ÙĪØ¯Ø± Ø²
ĠØºÛĮØ±ÙĪØ§ Ú¯ÛĮØ±
M P
a h
e g
e x
Ø³ ÙĪÙĦ
ĠÙĪ Ø¨Ø§
ĠÙĨ Ú¯Ø°Ø§Ø´ØªÙĩ
ĠØ´ Ø§Ú©Ø±ÛĮ
Ø¬ ÙĪØ´
ĠÙĩ ÙĪÙħ
ĠØ® Ø§ÙĪÛĮ
ØŃ ØµÙĦ
Øµ Ø±ÙģÙĩ
ĠÙ¾ Ø±Ø³ÛĮØ¯Ùĩ
Ø· Ùģ
ĠØ¬ ÙĪÙĦÛĮ
ĠØµ Ø¯Ø§Ùħ
ĠØµ Ø±Ø§ØŃ
Ø³ÛĮ ÙĪØ³
Ù¾ Ø§ÙĪÙĨ
ĠØ¨ÙĪØ¯ ÛĮØ¯
ÙĨÛĮ ÙĪØ²
ĠØªØ¹ ØµØ¨
ĠØªÙĪØ³ ÙĦ
ĠØ§ÙĪ Ø³
Û· Û¸
ĠØ¯ÙĪÙĦØª ÙĩØ§ÛĮ
ĠÙĨØ¸Ø± ÙĩØ§ÛĮ
ĠØ²ÛĮØ± Ø³
ĠØ¨ÛĮÙħØ§Ø±ÛĮ ÙĩØ§ÛĮ
ĠØ§ÙĨØªÙĤ Ø§Ø¯ÙĩØ§
ĠØªÙĦØ§ ÙĤÛĮ
ÙħØ± Ø²
ĠÛ³Û° Û¸
ĠØªÙģ Ø§Ùĩ
ĠØªØ´Ú©ÛĮÙĦ Ø§ØªÛĮ
Û²Û° Û±Û¸
ĠØµØ¯ Ø§ÛĮÛĮ
ĠÙĨØª ÙģÙĦÛĮÚ©Ø³
ĠØªØ¹ÙħÛĮØ± Ú¯Ø§Ùĩ
ĠØ®ÛĮ Ø§Ø·ÛĮ
ĠØ¨ÙĪ Ú©Ø§ÙĨ
ĠØªØ¶ Ø§ÙħÛĮÙĨ
ĠÙħÛĮØ±Ø§Ø« ÛĮ
ĠØ±Ú© ÙĪØ¯ÛĮ
ĠÛ³Û² Û¹
ĠÛ³Û¶ Û´
ĠÙħØ®Ø§Ø¨ Ø±Ùĩ
ĠÛ´Û² Û²
ĠÛ³Û´ Û²
ĠØ§Ø³ØªØ¹ ÙħØ§ÙĦ
ĠØ·ÙĪØ±ÛĮ Ú©Ùĩ
ĠÛµÛ¶ Û¹
ĠÛµÛ´ Ûµ
ĠM ate
ĠØ¨Ø¯ÛĮÙĨ ÙĪØ³ÛĮÙĦÙĩ
ĠÙħØ¬Ø¨ÙĪØ± ÙĨØ¯
ĠÙ¾Ø±Ø³ÙĨ ÙĦÛĮ
ĠÙĨØ§Ø¯Ø± Ø³ØªÛĮ
ĠØ±Ø§Ø³ Ø®
ĠØ¹Ø· Ø§Ø±
ĠÙģØ±Ø¢ÙĪØ± Ø´ÛĮ
ĠÚ©Ø±ÛĮØ³Øª ÙĪÙģØ±
Ø§ÙĦØªØŃØµ ÛĮÙĦ
ĠØ¨Ù¾ÛĮÙĪÙĨØ¯ ÙĨØ¯
ĠØ§Ú©Ø± Ùħ
ĠØ§Ø±Ú¯Ø§ÙĨÛĮ Ú©
ĠØ±Ø§ÛĮØª ÙĦ
ĠØ¯ÙħÚ©Ø± Ø§Øª
ĠØ¯Ø§Ø±ÙĪØ³Ø§Ø² Ø§ÙĨ
ĠØµØ§Ø¹ ÙĤÙĩ
ĠØµØ±Ø§ØŃ ØªØ§
) ØĽ
L C
c o
i o
Ġ k
ÙĨ ÙĩØ§ÛĮÛĮ
ĠØ¨ Ø¬Ø²
ÙĦ Ø§ÛĮÛĮ
Ø´ Ø§Ùħ
ĠÚ© ÙĪØ±ÛĮ
Ø¨ ÙĪØ±Ø¯
ĠØ³ Ø§ÛĮØ¯
ĠØ³ Ø§Ø±Ø³
ĠÙ¾ ÙĪØ²
ĠØ¨Ø± Ø¢ÙħØ¯
ĠÙģ ÛĮØª
ĠÙĤ ÙĨØ§Ø¯
ĠØªÙĪ ØŃÛĮØ¯
Ø° Ø±ÛĮ
ĠÙħÙĨ ÙĪÛĮ
ĠÙħÙĪ ÙħÛĮ
ĠÙħØŃ Ø¬
ĠÙħØ¹ Ø§Ø´
ĠÙħØ¹ Ø±ÙģØª
ĠØ¨ÙĪØ¯ Ø§Ø±
ĠØ¯Ø§Ø± Ø®ÙĪÛĮÙĨ
ĠØ§ÙĪ Ú©ÙĦ
ĠØ¨Ø§Ø² Ø§ÙĨ
ĠÛµ Û±Û³
ĠØ³ÙĪ Ø¦ÛĮØ³ÛĮ
ĠÙ¾Ø± ÙħØ®Ø§Ø·
ĠÙħÛĮØ² ÙĩØ§ÛĮ
Ú©Ø³ ÙĪÙĨ
ĠØ¢Ø³ÛĮ Ø§Ø¨
ĠØ§Ø¨ Ø¯Ø§
ĠØ³ÙĨ Ø³
ĠØ³ÙĨ Ú¯Ø±
ÙĪØ§ Ø´
ĠØ§Ø±ÙĪ Ù¾Ø§Ø³Øª
Ø§ÙĨØ³ Ø§ÙĨÛĮ
ĠØµØ¯ Ø±ÛĮ
ĠØ®ÙĪØ§Ø³Øª Ùħ
ÙĩÛĮ ÚĨ
ĠØ¹ÙĪ Ø§Ùħ
ĠØ¢ÙĩÙĨ Ú¯Ø±Ø§ÙĨ
ĠÙĨÙģ ÛĮØ³
ĠÙħØªÙĪØ³ ÙĦ
ĠØ³Ø§ÛĮ Ù¾
Ø²ÙĦ Ø²ÙĦ
ĠØ¯Ø±ÙĪ Ø§Ø²
ĠÛ³Û³ Û¹
ĠÛ³Û³ Û²
ĠÙħØ§Ø¯Ø± ØªØ®ØµØµÛĮ
ĠÛ¶Û· Ûµ
ĠØ§ÙĦÛĮ Ú¯ÙĪØ¯Ø±Ø²
ĠÛ¸Û¶ Û³
ĠÛµÛ± Û±
ĠØ¹Ø±ÙĪ Ø³Ú©
Ø¬ÙĨ ÙĪØ¨
ĠÙħÙĨØŃ Ø±Ùģ
ĠÙĩÙĨØ±ÙħÙĨØ¯ Ø§ÙĨÛĮ
en ce
ĠÙħÛĮÚ©Ø±ÙĪ Ø§Ø±Ú¯Ø§ÙĨÛĮ
ĠÙĨØ± Ø¯Ùĩ
ĠØ´Ø§ÙħÚ¯Ø§Ùĩ Ú©Ø´ÙĨØ¨Ùĩ
ĠØ§ÙĤØª Ø¶Ø§
ĠØ§Ø³Ùģ ÙĨØ¯ÛĮ
ĠÙģÙĩ ÛĮÙħ
ĠØ¹Ø±Ùģ Ø§ÙĨ
ĠÙĤØ§Ø¹Ø¯ Ú¯ÛĮ
ĠØ´Ø±Ø§ Ú©Øª
Ú¯ÙĪØ¦ ÛĮÙħ
ĠØªØ´ÛĮ ÛĮØ¹
ĠÙħÙĨØ§ Ø¸Ø±
ĠØ²ÙĪØ§ÛĮ Ø§ÛĮ
ĠÙ¾Ø±ÙĪØ³Øª Ø§Øª
ĠÙĩØ®Ø§Ùħ ÙĨ
P M
o x
Ġ ÚĺÛĮ
ÙĨ Ø®
ĠØ¨ Ø§ÛĮØ±
Ú© Ø§ÙħÛĮ
Ø³ Ø±Ø¯
ĠÙħ Ø±Ùģ
ĠÚ© Ø¨ÛĮØ±
ÙĪØ± Ùħ
ĠÙ¾ Ø§Ø³ÛĮ
ĠÚ¯ Ø§Ø±
ĠÙģ Ø¬
Ø±ÙĪ Ø§ÙĨ
ĠØ®ÙĪ Ø§Ø±ÛĮ
ĠØ¯ÙĪ Ø¨Ø±Ø§Ø¨Ø±
ĠØ§ÙĨØª ÙģØ§Ø¹ÛĮ
Ú©ÛĮ Ø´ÙĨ
ĠØº Ø±ÙĪØ¨
ĠÙħØ§ Ú©ÙĪ
ĠØ¯Ø§Ø´Øª ÛĮØ¯
ĠØªØ± ÙģØª
ĠÙĨÙħ Ø§Ø¯ÛĮ
ĠØ° ÙĪÙĤ
ĠÙ¾Øª ÙĪ
ĠÙħÙĩÙħ Ø§Øª
ĠØ¬ÙĨ Ø§ÛĮÛĮ
ĠØ´Ø§ Ø¡
ĠØ³Ø§Ø²ÛĮ ÙĩØ§ÛĮ
ĠØ±Ø§ÛĮ ØŃÙĩ
ĠÙĨØ²Ø¯ÛĮÚ© ØªØ±ÛĮÙĨ
ĠÙĨÙħØ§ÛĮØ´Ú¯Ø§Ùĩ ÙĩØ§ÛĮ
ĠÙħØ² Ø§Ø¬
ĠØ¨ÙĨÛĮ Ùĩ
ĠØ§Ø±Ø¯ Ø´ÛĮØ±
ÙħØ±Ú© Ø²ÛĮ
ĠØ³ÛĮØ¯ Ø¹ÙĦÛĮ
ÙħØŃ ÙĪØ±ÛĮ
ĠÛ²Û¸ Û³
ĠÙħÙģ Ø§Ø³Ø¯
ĠÛ³Û¶ Û±
ĠÛ³Û¶ Û¸
ĠØ±ÙĪØ§ÙĨ ÚĨÛĮ
ĠØ§ÙĤÙĦØ§Ùħ ÛĮ
ĠØ§ØŃÙħØ¯ Ø±Ø¶Ø§
ĠÛµÛ¶ Û²
ĠÚ©Ø§ÙħÛĮ ÙĪÙĨØª
ĠÙħØ´ØªØ±ÛĮ Ø§ÙĨÛĮ
ÙħÛĮÙĦ Ø§Ø¯ÛĮ
ĠÙħØ¸ ÙģØ±
ĠÚ¯ÙĨ Ø§Ùĩ
ĠØ±ÛĮØ² Ú¯Ø±Ø¯ÙĩØ§
ĠÙĨØ§Ùĩ Ø§Ø±
ĠØŃÛĮØ« ÛĮØª
ĠÙħØŃØ± ÙħØ§ÙĨ
ĠØ¬Ø± ÙħÛĮ
iv e
ĠØŃØ´ Ø±Ø§Øª
ĠØ§ÙĦØ´Ø¹ Ø¨ÛĮ
ĠØ±ÙģÛĮ Ø¹
ĠÚĺØ¦ÙĪÙģÛĮ Ø²ÛĮÚ©
ĠÚ¯ÙħÙĨ Ø§Ùħ
ĠÙ¾Ø§Ø±Ø§Ø² Ø§ÛĮÙĦÛĮÙĨ
ĠÙ¾Ø§ÙĨØ³ ÙħØ§ÙĨ
ÙĪ ÚĨÙĩØ§Ø±ÙħÛĮÙĨ
Ùħ Ø§Ø¨ÛĮÙĨ
ĠÙħ Ú©ÙĨ
ĠÙħ Ú©Ø³
ĠÙħ Ø¨Ø±Ùħ
ĠØª Ø¨Ø±
ĠØª Ø´ÙĨØ¬
ĠØ¯Ø± Ø§Ú¯ÙĪÙĨ
ØŃ ÙħÙĩ
ĠÙ¾ ÛĮÙĨ
ĠØ¨Ø± Ø¢ÛĮÙĨØ¯
ĠØ¨Ø± Ú¯Ø±Ø¯ÛĮÙħ
ĠØ¢ Ø¯Ø§Ùħ
ĠÙģ Ø§Øª
ĠØ¬ ÛĮØ§ÙĨ
ĠÙĩÙħ Ú¯ÙĨ
Ø±Ú© Ùĩ
ĠØ² Ø±Ùĩ
Ø° Ø±Ø§Øª
Ø§Ø±Ø¯ Ø§Ø±ÛĮ
ĠØªØ§ Ø¬Ø±
Ù¾ ÙħÙ¾
Ø¦ ÛĮØª
ĠØ³Ø§ÙĦ ÙħÛĮ
ĠØ¢Ùħ Ø¯ÙĩØ§ÛĮ
Ø¨Ø± ÙĤÛĮ
ĠÙħØ³ Ø§ÙĦØª
ĠÙħØ´ Ø§ÙĩÛĮØ±
ĠØ§Ø¯ ÙĪØ§Ø±ÛĮ
ĠÙĪØ§ ÚĨ
ĠØº ÙĨØ§
ĠØ±Ø³ Ø¯
ĠØ§Ø´ Ø±ÙģÛĮ
ĠÙħØ§ ØŃØµÙĦ
ĠÛ¹ Û±Û²
ĠÙģØ¹Ø§ÙĦ Ø³Ø§Ø²ÛĮ
Ø®ÛĮ ÙĦÛĮ
ĠØ§Øª ÙĦØªÛĮ
ĠØªØ± ÛĮÙĨ
ĠØªØ¨ Ø§Ø±
ĠÙħØ®Øª ØµØ±
ĠØ¯Ø§ÙĨØ´Ú¯Ø§Ùĩ ÙĩØ§ÛĮ
ĠÙĨØ§Ùħ Ø¨Ø±Ø¯Ùĩ
ĠØªÙĦØ§Ø´ ÙĨØ¯
ĠÙĨØ´Ø³Øª ÙĩØ§ÛĮ
ĠØªØ³ÙĩÛĮÙĦ Ú¯Ø±ÛĮ
ĠØ¢ÙħØ§Ø± Ú¯ÛĮØ±ÛĮ
ĠØ§Ø¬Ø±Ø§ ÙĩØ§ÛĮ
ĠÛ²Ûµ Û¹
ĠØ´ÛĮØ± ÙĩØ§
ĠØªØ±Ø§ Ø´
ĠØ±Ø§ÙĨ ÙĨØ¯Ú¯Ø§ÙĨÛĮ
ĠÙħØ¹ÙĦ ÙħÛĮ
Ø¢Ùħ ÙĪ
ĠÙħÙĦØª Ùĩ
ĠÛ²Û¹ Û´
ĠÙħØ«ÙĦ Ø«
ĠÛ³Û² Û³
ĠÛ³Û² Û¶
ĠÛ³Û³ Û´
ĠØ±ÙĪØ§ÙĨ Ù¾Ø²Ø´Ú©ÛĮ
ĠÙħØ§ÙĦÚ© ÛĮÙĨ
ĠÛµÛµ Û´
ĠÙ¾Ø§ Ø´ÙĨÙĩ
ĠÛµÛ´ Û±
ĠØŃØ¬ Ø§Ø²ÛĮ
ĠÛµÛ³ Û¸
ĠÛµÛ³ Û³
ĠÚ©Ø§Øª Ø§ÙĦ
ĠØ¨Ø®Øª ÛĮØ§Ø±
ĠÛ¶Û² Ûµ
ĠØªØ±ÛĮ ÙĦØ±
ĠÙĨØ¯Ø§Ø¯ ÛĮÙħ
ĠÙĪØ§Ø¬Ø¯ ÛĮÙĨ
ĠØ³Ø±Ú© Ø´ÛĮ
ĠÙħØ¯Ø±Ú© ÛĮ
ĠØ§ÙĪÙĦÛĮ Ø§ÛĮ
ĠØ¨Ø²Ø±Ú¯Ø± Ø§ÙĩÛĮ
ĠØ¢Øº Ø§Ø±
ĠØ§Ø®ØªÙĦ Ø§ÙĦÛĮ
ac k
ĠØ³ÙĪØ± Ø§Ø®
ĠÙħØªØ±Ø§ Ú©Ùħ
ĠØ®Ø±Ø§Ø¨ Ú©Ø§Ø±ÛĮ
ĠØµØ¯ÛĮ ÙĤ
ĠÙħØ¹ÙĨØ§Ø¯ Ø§Ø±
ÙħÚ© Ø¹Ø¨
ĠØ§Ø³ØªÙĩ ÙĦØ§Ú©
ĠØ¢Ù¾Ø§Ø±Øª ÙħØ§ÙĨÛĮ
D A
o k
Ġ v
ÙĪ Ø¬ÛĮ
ĠØª Ø´ÙĨÙĩ
ĠÙĨ Ø§Ùģ
ĠÙĩ Ø§Ø±ÙĪ
Ø§Ùħ ÙĪ
ĠÙ¾ Ø±ØŃ
ĠØ§Ø³Øª ÙħÙĩ
ÙģØª ÙĨØ¯
ÛĮØ¯ Ø§Ø¯
ĠÛĮ Ø§ÙĨ
ĠØµ ÙĦÙĪ
Ø§Ø³ Ú©Ø§
Ø§Ø³ ÙĪÙĨÛĮÚ©
Ø³ÛĮ ÙĪ
Ù¾ Ø¯ÛĮ
Ù¾ Ø®Ø´
ÙĪØ§ÙĨ Ø¯Ùĩ
ĠÚ©Ø´ Ø´ÛĮ
ĠÙĦ ÙĪØ¨ÛĮ
ĠÚ©Ø§Ø± Ø¨Ø³Øª
ĠØ³Ø± Ú¯ÛĮ
Ø§ÙĦÛĮ ÙģÛĮ
ĠØ§ÛĮ Ùĩ
ĠØ§ÛĮ Ú¯ÙĪØ±
ÙħÛĮÙĨ ÛĮ
ĠÙħØ§ Ú©Ø§Ø±
ĠØªÙħ Ú©ÛĮÙĨ
ÙĪÙĨÛĮ ÙĪØ²
ĠÙĨØ¸Ø± ØªØ§ÙĨ
ĠÙĨÙĪ Ø§Ø¯Ø§
ĠÙ¾Ø± Ø²
ĠÙħØ®Øª Ø±Ø¹
ĠÚ¯ÙģØªÙĩ Ú©
Ú©ÙĪ ÛĮÙĨ
ĠÛ±Û± Û°Û°
ĠÛ³Û° Û³
ĠÙĨØ² ÙĨ
ĠÚ©ÙĪØ¯ ØªØ§
ĠÙĩÙĨØ± ÙħÙĨØ¯ÛĮ
ĠÛ²Û¸ Û´
ĠÛ²Û¹ Û²
ĠÛ³Ûµ Û´
ĠØŃØ³ÙĨ ÙĪÙĨØ¯
ĠØ¨Ø³ Ø±
ĠÛ´Û¸ Û´
ĠÛ³Û· Û²
ĠÛ³Û· Û¸
ĠÛ·Ûµ Û²
Û±Û³ Û¹Û¸
ĠÛ³Û¹ Û²
ĠÛ³Û¹ Û´
ĠÛµÛ² Ûµ
ĠÛ¶Û´ Û¸
ĠØ§Ø±Ø²Ø§ÙĨ ØªØ±
ĠÛ±Û³Û¸ Û±
ĠG T
ĠÙħØ³ÛĮ ØŃÛĮ
ĠØ³ÙĦØ· ÙĨØªÛĮ
ĠØ±ÙĨØ¬ Ø¨Ø±
ĠØºÙģ Ø§Ø±ÛĮ
ĠØ§ÙĨØ¯Ø±ÙĪ ÛĮØ¯ÛĮ
ĠÚ©Ø§ÙĪØ´ Ú¯Ø±
ĠÙĤÙĨ Ø§Ø¯ÛĮ
ĠÙĪØ§Ú¯ÛĮØ± Ø¯Ø§Ø±
ĠØ´ÙĨÛĮØ¯ Ø§Ø±ÛĮ
ĠÚ¯ÙĪØ¯ Ø§ÙĦ
ĠØºÛĮØ±ÙĨØ¸Ø§ÙħÛĮ Ø§ÙĨ
ĠØ¨ÛĮÙĩ ÙĪØ¯Ùĩ
ĠÙħØ¬Ø±ÙĪ ØŃØ§ÙĨ
ĠØ¨Ø¨ÙĨØ¯ Ø¯
ĠØ³Ø±ÙĤ ØªÛĮ
ĠØ±ÙħØ²Ø§Ø±Ø² ÙĩØ§
ĠØ³Ø±ÙĦ Ø´Ú©Ø±
ĠÙĤÙĨØ§Ø¯ Ø§ÙĨ
ĠØ§Ø³ØªÙħÙĩ Ø§ÙĦ
a st
g ov
Ġ &
ÙĪ Ø¢ÙħØ¯
Ø³ Ø®
Ùģ Ø§Ø²
ĠØ¯Ø± Ø¯ÛĮ
ĠØ¯Ø± Ø¬Ø§
Ø³Øª ÙĨ
ĠÙĨ Ø§Ø²ÛĮ
ĠØ³ ÙĪØ¨
Ø§Ùħ Ú©Ø§ÙĨ
Ø§ÙĦ Ø´Ø¹
ĠØ¨Ø± Ø§Ø²
ĠÙħÛĮ Ø§ÙħÛĮ
ĠØ¬ Ø§ÙħÙĩ
ĠØ§Ùħ ÙĦØ§Ú©ÛĮ
ĠÙħÙĨ Ø´ÛĮ
ÙĦØ§ Ø¬
ĠÙĦ Ø¦ÙĪÙĨ
Ø« ÙĨØ§
Ø¨Ø± Ø§Ø³Ø§Ø³
ĠØ§Ø³ Ø§ÙĦÙħ
ĠØ³Ø± Ø¨ÙĦÙĨØ¯
ĠÙħØª ÙħÙħ
ĠØ§ÙĦ Ø°Ú©Ø±
ĠÚ¯Ø± Ø¯Ùĩ
ĠÙĩØ± Ø³
ĠÙħÙĪØ±Ø¯ ØªÙĪØ¬Ùĩ
ĠØ¹ÙĦ ÙĪÙģÙĩ
Ú©ÙĨÙĨØ¯ Ú¯Ø§ÙĨÛĮ
ĠØºÛĮØ± Ø§Ø³ØªØ§ÙĨØ¯Ø§Ø±Ø¯
ĠØºÛĮØ± ÙĨÙĤØ¯ÛĮ
ĠØ³Ø§ ØŃØª
ĠÚ©ÙħÚ© ÙĩØ§ÛĮ
ĠÚ¯Ø±Ø¯ ÙĨØ¯
ĠØ³ÙĨ ØªÙĪØ±
ĠØªÙģ ÙĨÚ¯
ĠÚ©ØªØ§Ø¨ ÚĨÙĩ
ĠÙĨÚ¯Ùĩ Ø¯Ø§Ø±
ĠÛ´Û° Û¹
Ú¯Ø±Ø¯ Ùħ
ĠØ®Ø·Ø± Ù¾Ø°ÛĮØ±
ĠÙĨØ¨ÙĪØ¯ Ùħ
ĠØ³ÛĮØ¯ ÙĨÛĮ
ĠÙģÛĮÙĦÙħ ÙĨØ§ÙħÙĩ
ĠØ¶Ø±ÙĪØ±ÛĮ Ø§Øª
ĠØ³ÙĨØ¯ Ø±Ø²
ĠÙĨÙĤØ¯ Ø´ÙĪÙĨØ¯Ú¯ÛĮ
ĠÙĪØ§ÙĤØ¹ÛĮ Ø§Øª
ĠØ³Ø±Ø¯ Ø±
ĠÙĩØ´Ø¯ Ø§Ø±ÛĮ
ĠØªÚ©ÙĨ Ø³ÛĮÙĨ
ĠØ´Ø§Ùĩ Ø²Ø§Ø¯Ùĩ
ĠÛ´Û² Û³
ĠØ±ÙĪØ§ÙĨ Ø´ÙĨØ§Ø®ØªÛĮ
Ù¡ Ù©
ĠÙħÙĨØ¹ Ø·Ùģ
ĠÛµÛ· Û³
ĠÛ´Û· Û²
ĠÛµÛ² Û²
ĠØ¬Ø³ ÙĪØ±Ø§ÙĨÙĩ
ĠØ¨ÙĪØ±Ø³ÛĮ Ùĩ
Ø¯Ø±ÛĮ Ø³
ĠÙħÛĮÙĨ Ø§Ø¨
ĠL PG
ĠÚ©Ø§Ø±Ú¯Ø± Ø§ÙĨÛĮ
ĠÙĩØ¯ÙģÙħÙĨØ¯ Ø³Ø§Ø²ÛĮ
ĠÚ©ÙĪØ´ Ø§
ĠØ¨Ø§Ø´Ùħ Ø§ÙĤ
ĠØ±Ø¨ÛĮ Ø¹
ĠØ´Ú©Ø§Ø± ÚĨÛĮØ§ÙĨ
ĠÙģØ§ÙĦ Ú©ÙĪÙĨ
ĠÙħØ¹Øµ ÙĪÙħÛĮ
ĠØ§Ø³ØªÙģ Ø³Ø§Ø±ÛĮ
ĠQ R
ĠØ³Ù¾Ø§Ø³ Ú¯Ø²Ø§Ø±
ĠÙħØºØªÙĨ Ùħ
ĠÙĦÚĺÛĮÙĪÙĨ Ø±
ĠØ¨Ø§ÙĦØ§Ø± ÙģØªÙĨ
ĠÙ¾ÙĪØ´ÛĮØ¯ ÙĨÛĮ
olog y
B C
M A
e h
Ùĩ ÙĪØ§
Øª Ø§Ø±ÛĮ
ĠØ¨ ÙĤØ§
Ø² ÙĪÙĨ
ĠØ³ Ø§Ø¨
ĠØ³ Ø§ÙħÛĮ
ĠØ³ ÙĪØ¯ÙĩØ§ÛĮ
Øµ Ø§Ùģ
ĠØ§ÛĮÙĨ ØªÙĦ
ĠØ¢ ØªÙĨ
ĠØŃ ÙĪØ²
ĠÙĤ ÙĪØ³
Ø§Ø¨ ÙĪØ§ÙĦ
ĠØ±ÙĪ Ø³Ø§Ø²ÛĮ
ĠÙĦ Ø§Ø±
ĠÙħØ¯ ÙĦÛĮ
ĠØ®ÙĪ Ø§Ø¬
Ø¨ÛĮ Ø´
ĠØ§Ø³ ÙħÛĮØª
ĠÙĤØ± Ø§ÛĮÛĮ
ĠØ±ÙĪØ² ÙĨÙĩ
ÛĮÙĦ ÙĪ
Ø§Ùģ Ùĩ
ĠÚ¯Ø± ÙĨØª
ĠÛ³ Û±Û¹
ÙĪØ¯Ùĩ Ø§ÛĮÛĮ
Ø¯ÛĮØ¯ Ú¯ÛĮ
ĠØªÙĨ Ø²ÙĦ
ĠØ³ÙĪ Ø³ÛĮ
ĠØ²ÛĮ Ø§Ø±ØªÛĮ
ÙĪØ· ÙĨ
ĠÙ¾Ø± Ø´
ĠØºÛĮØ± ØŃ
ĠÙĨØ® Ø§Ø¹ÛĮ
ĠÚ©ÙĪ Ø¨ÛĮ
ĠÚ¯ÙĦ Ø¯Ø§ÙĨ
ĠØ±ÙĪØ³ÛĮÙĩ Ú©
ĠÙĨØªÛĮØ¬Ùĩ Ú©
ĠÛµÛ° Û´
ĠØ³ÙĪØ¯ Ø§Ú¯Ø±
ĠØªØ§Ø³ÛĮØ³ Ø§ØªÛĮ
ĠØ³Ù¾ Ø±Ø¯ÙĨ
ĠÛ´Û° Û³
ĠÙħØ§Ø³ ÙĪÙĦÙĩ
ĠØ§ÛĮØ³ØªÚ¯Ø§Ùĩ ÛĮ
ĠÙĨØ´Ø¯ ÙĨÛĮ
ĠÛ³Û³ Û·
ĠÛ´Û¸ Û±
ĠÛ´Û¸ Û¶
ĠÙħØ®Ø§Ø· Ø¨ÛĮÙĨ
ĠÛ³Û¸ Û¹
ĠÙ¾Ø§ ÙĪÛĮ
ĠØ¨Ø§ÙĪØ± ÙĩØ§ÛĮ
ĠØ²Ø¯ ÛĮÙħ
ĠÛµÛ² Û´
ĠE x
ĠØ¢Ù¾ Ø´ÙĨ
ĠØ¢Ù¾ Ø§Ø±Ø§Øª
ĠØªØ®ÙģÛĮÙģ Ø§Øª
ĠÙ¾Ø±Ø§ ÙģØª
ĠØ¯ÙģØ§Ø¹ÛĮ Ø§Øª
ĠØ§Ø³ØªÛĮ ÙĪÙĨ
ĠØ¨Ø±Ø¢ÙĪØ± Ø¯ÛĮ
ĠØ³Ø®ÙĨØ±Ø§ÙĨ Ø§ÙĨ
ĠÙĨØ§Ø¨Ø³Ø§Ùħ Ø§ÙĨ
ĠÙħÙĨØ² ÙĦØª
ĠØ®Ø¯Ø§Ø¨ ÙĨØ¯Ùĩ
ĠØ³Ø±ÙĨÚ¯ ÙĪÙĨÛĮ
ĠØ²Ø¨ Ø¯Ùĩ
ĠÙĦØ§Ùħ Ø±Ø¯
ĠÙĦÛĮØ¨Ø± Ø§ÙĦ
ÙĪÙħÙĪØªÛĮ ÙĪ
ĠØ§ØªÙĦØªÛĮ Ú©ÙĪ
ĠØ§Ø³ØªÙģØ³Ø§Ø±ÛĮ Ùĩ
E G
ĠØ§ Ø±Ùģ
ĠØ¨ ÙĪÙĨØ¯
Ú© ÙħÙ¾
ĠÙħ Ø³ØªÙĩ
ĠÙĪ Ø´ÙĩØ±
ĠØª ÙĨØ¯ÛĮ
ĠØ¯Ø± ÙħØ¬ÙħÙĪØ¹
Ø³Øª ÛĮÙĨ
ĠÙĨ Ø¯Ø§
ĠÙĨ ÙĪØ¯Ùĩ
ĠÙĩ ÛĮØª
ÙĪØ¯ Ø§Ø±ÛĮ
Ø§Ø¯ Ú¯ÛĮØ±ÛĮ
ÙĪÙĨ Ø§Ø³
ĠØŃ ÛĮØ±
ĠØªÙĪ Ú©ÙĦ
ĠØ§ÙĨ Ø§Ø±ÛĮ
ĠØ¨ÛĮ Ú©Ø±
ÙĪÛĮ ÛĮÙĩ
ĠØ®ÙĪØ¯ ÙĨÙħØ§ÛĮÛĮ
Ú¯Ø± Ø§ÙĨÙĩ
ĠÙĪØ§ Ø¬Ø¨
ĠÙĨØ¸ Ø§Ø±Ùĩ
ĠÙħØ± ÙĪØ±ÛĮ
Ú©ÙĨØ¯ ÛĮ
ĠØ¯ÙĪØ± ØªØ±
Ú©Ø± ÛĮÙħ
ĠØªÙĤ ÙĦÛĮØ¯
ĠÙ¾Øª ÙĨØª
ĠÙ¾Ø§ÙĦ Ø³
ĠÛ±Û¹ Û°Û°
ĠØ²ÙĨØ¬ Ø¨ÛĮÙĦ
ĠÙģØ±ÙĪ Ú¯Ø°Ø§Ø±
ĠÛ³Ûµ Û³
ĠÙħØŃØ¯ ÙĪÛĮØª
ĠÛ³Û· Û´
Ù¡ Ù¢
ĠÛµÛµ Û¶
ĠÛ´Û´ Ûµ
ĠÙ¾ÙĪ Ù¾ÙĪÙĦÛĮ
ØºØ¯ ÛĮØ±
ĠØµÙĦØ§ØŃ Ø¯ÛĮØ¯
ĠØ§ÙĨØªÙĤØ§Ø¯ Ø§ØªÛĮ
ĠÛµÛ´ Û²
ĠÛ´Û¹ Û´
ĠÙĨÙģØ¹ Ø§ÙĨ
ar k
ĠÙĩÙħØ¯ ÙĦ
ĠØªØ±ÛĮ ÙĦÛĮ
ĠØ¬ØºØ±Ø§ÙģÛĮ Ø§
ĠÛ±Û¹Û¹ Û¹
ĠØ±Ø¤ ÛĮØª
ĠØ±Ø¨ ÙĪØ¯Ùĩ
ĠØ³ÙĪØ§Ø± Ø²
ĠØ§ÙĦØŃØ§ÙĤ Ø§Øª
ĠÙĩÛĮØ¯Ø±ÙĪÚ©Ø± Ø¨ÙĨÛĮ
ĠØ¯ÛĮÙħ ÛĮØªØ±ÛĮ
ĠØ¹ÙĤÙĦ Ø§ÙĨÛĮØª
ĠØ§Ø¨Ø· ØŃÛĮ
ĠØªØ§ÙĨÚ©Ø± ÙĩØ§ÛĮ
ĠÙħÛĮØ« Ø§ÙĤ
ĠØ§ÙĨØ¯ÛĮØ´ ÙħÙĨØ¯Ø§ÙĨ
ĠÛĮØ² Ø¯Ø§ÙĨ
ĠÙĩÛĮÙĦ Ø§Ø±ÛĮ
ĠØ®Ø§ØªÙħ ÙĩØ§
ĠØ³Ø±ÙĤ ÛĮÙĨÛĮ
ĠÚ©ÙĦÛĮØ³ Ø§ÛĮ
ĠÙħÙĪÙĩ Ø¨ØªÛĮ
ĠÙĦÙħ Ø³ÛĮ
ĠÙ¾ÛĮØ±Ø§ÙĨ Ø´ÙĩØ±
ĠÙħØŃØ±ÙħØ§ÙĨ Ú¯ÛĮ
Ġ g
ĠÙĪ Ùħ
Ø¨ Ø´
Ø¨ Ø§Ùħ
Ø¹ Ø§Ø¨
Ø¹ Ø§Ø±Ùģ
ĠÙĨ Ú¯ÛĮØ±ÙĨØ¯
Ø® Ø±Ø§Ø´
ĠØ® Ø±Ø³ÙĨØ¯
ĠØŃ ÙģØªØ±
ĠØªÙĪ Ø§ÙĦÛĮ
ĠØ² ÙĪÙĨ
Ù¾ ÙĪØ³
ĠØ¢ÙĨ ÚĺÛĮ
ĠÚ©Ø± Ø¨ÙĨÛĮ
ĠÚ©Ø± ÙĨØ±
ĠØ§Ø³ Ø±Ø§
ĠØ¯ÙĪ Ø®Øª
Ú¯ÛĮØ± Ùħ
ĠÙĩØ± Ø¬
ĠØ¨Ø®Ø´ ÙĨØ¯
ĠØ·Ø±ØŃ ÙĩØ§ÛĮÛĮ
Û¸ Û°Û°
ĠÛµ Û²Û±
ĠÛµ Û±Ûµ
ĠÛ´ Û²Û±
ÙĪÙĩ Ø´Øª
ĠØªØ± ÙĨØ³
ĠÛ· Û±Û²
ĠÙĨÙĪ Øª
ĠÙĤØ¨ ÙĪØ±
Ø±Ø§ÙĨ Ø²ÙĦÛĮ
ĠÙĨØ§Ùħ ÙħÚ©ÙĨ
ĠØªÚ© ÙģÙĦ
ĠØ¢ÙĦ ÙĪØ¯
ĠØ¨ÙĨØ¯ Ø±Ø§ÙĨØ²ÙĦÛĮ
ĠÛµÛ° Û·
ĠØ®Ø± Ø§Ø³Ø§ÙĨÛĮ
ĠØ¬Ø° Ø§Ø¨ÛĮ
ĠØ¨ÙĨÛĮ Ø§ÙħÛĮÙĨ
ĠØ±Ø§ÙĨ Ø´
ĠÚ©Ø´ÙĪØ±ÙĩØ§ Ø³Øª
ĠØ¯ÛĮØ± Ú©Ø±Ø¯
ĠØ³Ø±Ø¯ Ø¨ÛĮØ±
ĠÛ´Ûµ Û±
ĠÙĩØ´Ø¯Ø§Ø± ÙĩØ§
Ù¡ Ù¦
ĠÛ³Û´ Û¹
ĠÛ³Û´ Û¸
ĠÛµÛ¶ Û±
ĠÛµÛ¶ Û´
ĠI T
ĠÙĨÚĺØ§Ø¯ Ø¨ÙĩØ±Ø§Ùħ
ĠÛ´Û¹ Û³
ĠÛ´Û¶ Û´
ĠÛ´Û· Û¹
ĠØ®ÙĪØ§Ø¨ ÛĮØ¯ÙĨ
ĠÙ¾Ø§Ø¯ Ú©Ø³Øª
ĠÛ±Û³Û¸ Û°
ĠÛ·Û´ Û·
Ù¾ÙĪØ´ Ø§ÙĨÛĮ
ĠÛĮØ¯ Ø§ÙĦÙĦÙĩ
Ø¯Ø³Øª Ú¯Ø§Ùĩ
ÙĪØªØ± Ø´
ĠÙĩØ¬ ÙĪÙħÛĮ
ĠÙģÛĮØ¨Ø± ÙĨÙĪØ±ÛĮ
ĠØ§ÙĦÙĩ ÙĦØ§ÙĦ
ĠØ±Ø§Ùħ ÙĪØ³
ĠØ¯Ø±Ùĩ ÙħÛĮÙĨ
Ø¯Ø§ÙĨØ³Øª ÛĮÙħ
ĠØ§Ø³ØªÙģ Ø§ÙĨ
ĠØ§Ø³ØªÙģ Ø±Ø§Øº
ĠÚ©Ø§Ø¯ Ø§Ø³ØªØ±
ĠÙģØ¶Ø§ÙĨ ÙĪØ±Ø¯
ĠØ¯ÙĦØ§ ÙĪÛĮØ²
ĠØ¹Ø§Ø¬ ÙĦ
ĠÙħØ¹ÙĨØ§Ø¯ Ø§Ø±ÛĮ
ĠØ²Ùĩ Ú©Ø´ÛĮ
ĠØ³ÛĮÙĨÙĪ Ù¾Ú©
ĠØ¯Ø±ÙĪØ§Ø² Ø¨Ø§ÙĨ
ĠÙħÛĮÚ©Ø±ÙĪØ§Ø±Ú¯Ø§ÙĨÛĮ Ø³Ùħ
ĠÙħÙĦØªÙĩ Ø¨
Ø§ Ø¦ÙĦ
ĠØ¨ ÚĨ
ĠØ¨ Ø´Ø¯Øª
Ø³ ÙĨØ³
Ø² Ú¯ÛĮ
Ø¨ ÛĮÙħÙĩ
Ùģ Ú©
ĠØ¯Ø± Ø¨Ø§Ø±
ĠØ¯Ø± Ø®ÙĪØ±
ĠØ³ ÛĮØ¯ÛĮ
ĠØ¨Ø§ ÙĦÙģ
ĠØ® Ø§Ø³Øª
Ø· Ø¨ÙĪØ¹
ÙĪÙĨ ÙĪÙħÛĮ
ĠØ¹ Ø±ÛĮØ¶
Ø§Ø³ Ú©
ĠÙħÙĨ ØŃØµ
Ù¾ Ø§ÙĨ
Ù¾ Ø§Ø¯
ĠØ¨ÛĮ Ø²ÛĮÙĨ
ĠÚ©Ø§Ø± Ú©ÙĨ
ÙĪØ² Ø§ÙĦ
ĠØ§Ø± Ø«
ÙĪØ±ÛĮ Ø²Ùĩ
ĠØ§ÙĦ Ø±Ùħ
ĠØ¨Ø§Ø²Ø§Ø± Ø³Ø§Ø²
ĠØ§ÙĪ Ø¬ÛĮ
ĠØ§ÙĪ ØºÙĦÙĪ
ĠØ¬Ùħ Ø¬ÙħÙĩ
Ú¯Ø²Ø§Ø± Ø§ÙĨ
ĠØ§ÛĮÙħ Ø§ÙĨÛĮ
ĠØªÙĨ Ú©Ø§Ø¨
ĠÛ¶ Û±Û¶
ĠØ« Ø§ÙĨÛĮ
ĠØ« ÙħØ±Ùĩ
ĠØ²ÛĮØ± ÛĮÙĨ
ĠØŃØ¶ÙĪØ± Ø´Ø§ÙĨ
ĠÙĨÙħ Ú©Ø²
ÙĪØ´ ÙĪÛĮ
ÙĪØ´ ÛĮÙħÛĮ
ĠØ¸Ø±ÙģÛĮØª ÙĩØ§
ĠÙĨØ§Ùħ ØŃØ³
ĠÙĦÛĮ Ø³ØªÛĮ
ĠØ³Ø§ÙħØ§ÙĨÙĩ Ú©Ù¾Ø§Ø±ÚĨÙĩ
ĠØ·Ø¨ Ø®
ĠÙħÙĨØ§Ø³Ø¨ ØªÛĮ
ĠØ¬Ø§ÙĨ ÙĪØ±Ø§ÙĨ
ÛĮÙĨØ¯ Ú¯Ø§ÙĨ
ĠØ³ÙĨÚ¯ Ø§ÙĨ
ĠØªÙĪØ± ÛĮÙĨ
ĠÙħØªØ¹ Ø§ÙĩØ¯
ĠØ¹Ø§ÙĦÛĮ Ùĩ
ĠÙħØ³Ø§ÙģØ± Ø§ÙĨÛĮ
ĠÙ¾ÛĮØ´Ø±ÙģØª ÛĮ
ĠÙĨÙĪØ± ÙĪÙĨ
ĠÙģÙĦ ÙĨØ¬
ĠÛ³Û· Û·
ĠÛ³Û¸ Û¸
ĠÛ´Û´ Û¶
ĠÚ©Ø´Øª ÙĨ
ĠÛµÛ´ Û¹
ĠÛ³Û¹ Ûµ
ĠØ³ÛĮÙħ Ø±Øº
ĠÛµÛ² Û³
ĠØºÙĦØ§Ùħ Ø¹Ø¨Ø§Ø³
ĠÛ¶Û³ Û²
ĠØªÙĨÚ¯ ÙĨØ§
ĠÛ±Û´Û° Ûµ
ĠÙ© Ù¤
ĠÛ±Û¹Û¹ Û´
ĠØ§Ø¨ØªÚ©Ø§Ø± Ø§Øª
ĠÙģØ±Ø§Ø± ÙĪÛĮ
ĠØ¨ÙĪÙħ Ú¯Ø±Ø¯ÛĮ
ĠØ§Ø´Ú©Ø§ÙĦ Ø§ØªÛĮ
ĠÙħØ®ØªØµ Ø§Øª
ĠÙĨÙħØ§Ø² Ø®Ø§ÙĨÙĩ
ĠØ¢Ùĩ Ú©
ĠÙ¾Ø±ÛĮÙĨ ØªØ±
ĠØ¯Ú¯Ø± Ú¯ÙĪÙĨ
ĠØ¯Ú¯Ø± Ú¯ÙĪÙĨÛĮ
ĠÙħÙĨØ§Ø² Ø¹Ø§Øª
ĠÙħÛĮÚ©Ø±ÙĪÙģ ÙĪÙĨ
ĠÚ©Ø§ÙħØ¨ ÙĪØ¬
l ar
Ø§ Øº
ĠØ¨ ÙģÙĩ
Ø³ Ø§Ø¨ÛĮ
ĠØª ÛĮÙĦ
ĠØ´ Øª
ĠØ´ Ø§Ø³ÛĮ
ĠØ´ Ø¨ÙĩÙĩ
ĠØ¨Ø§ Ø®Ø¨Ø±
Ø§Ø¯ Ø§ÙħÙĩ
Ø§Ø² ÙĨÛĮ
Ø§Ø³ Ú¯Ø§ÙĨ
Ø±Ú© ÙĪÙĩ
ĠØ§Ùħ ÙĨÛĮ
Ù¾ Ø±Ø³ÛĮ
ĠØ¢ÙĨ Ú¯ÙĪÙĨÙĩ
Ø²ÛĮ ÙĪ
ĠØ³Ø± Ø³Ø§Ùħ
Ø´Ø¯ ÛĮÙħ
ĠÙĪØ§ Ú©Ø§ÙĪÛĮ
ÙĪÙħ Ø§
Û°Û° Û±
ĠØ¨Ø§Ø²Ø§Ø± ÛĮØ§ÙĨ
ĠØ¯Ø§ÙĨ Ø§ÙĨ
ĠØ§ÙĪ ØµØ§Ùģ
ĠØ¨ÛĮÙĨ Ø§ÙĨÙĩ
ĠØµÙĪØ±Øª Ø¬ÙĦØ³Ùĩ
ĠØªÙĨ Ø¨ÛĮÙĩ
ĠØ¢Ø¨ Ø²ÛĮ
ĠØ¢Ø¨ Ú¯ÛĮØ±
ÙĦØ³ ÙĪÙĨ
ĠØ§Ùĩ ÙĦÛĮØª
ĠØ¬ÙĨ Ø¨ÛĮ
ĠÙĨØ§Ùħ Ø´Ø§ÙĨ
ĠØ¢ÙĦ Ø§Ø³Ú©Ø§
ĠÙħØ´ØªØ±Ú© Ø§ÙĨÛĮ
ĠÙħÚ© ØªØ¨
ĠÚĨØ±Ø§ ØºÛĮ
ĠØ³Ù¾ Ø±Ø¯
Ø¨Ø±Ø§ÙĨ Ú¯ÛĮØ²
ĠØ®ÙĪØ§ÙĨ Ø´
ĠÙĤØ§Ø¨ÙĦÛĮØª ÙĩØ§ÛĮ
Ø§ÙĨØª Ø²ÛĮ
ĠÙĩÙħÙĪØ§Ø±Ùĩ Ú©ÛĮ
Ø¨ÙĪØ± ÙĨ
ĠØ³Ø§ÙĨ ÙĪØ³ÛĮ
ĠA PI
ĠÛ¹Û¶ Ûµ
ĠÛ³Û³ Û±
ĠÛ´Û³ Û±
ĠÛ´Û³ Û¶
ĠÛµÛ¶ Û¸
ĠÛ´Û· Û·
ĠÛµÛ³ Û´
ĠÙĨÙģØªÚ©Ø´ ÙĩØ§ÛĮ
ĠØ¨Ø§Ø®Øª ÙĨ
ĠØ¨Ø¨ÛĮÙĨ Ùħ
ĠÛ±Û¹Û¹ Û²
Ø±Ø§Ø³Øª Ø§Ø±
ĠØ®ÙĪØ¯Ùħ Ø®Øª
ĠÙģÛĮØ± ÙĪØ²Ùĩ
ĠØ¨Ø§Ú©ØªØ±ÛĮ Ø§ÛĮÛĮ
ĠÙħÙĤØ§Ø¯ ÛĮØ±ÛĮ
ÙĪÚ©Ø³ ÛĮØ¯
ĠÙ¾Ø§Øª ÙĪÙĤ
ĠÙĩÛĮØ± ÙħÙĨØ¯
ĠÙħØªØµØ¯ÛĮ Ø§ÙĨ
ĠÙħØŃØªÙĪÛĮ Ø§Øª
ĠØ³Ø²Ø§Ø± ÛĮÙĨ
ĠÙĩØ§Ø±ÙĪ Ø§Ø±Ø¯
ĠØ¨Ø§ÙĦÙģ Ø¹ÙĦ
ĠÙĨÙħÚ©Ø² Ø¯Ø§ÛĮÛĮ
! ØŁ
H S
S A
i k
i le
p h
ÙĨ ÙģØ´
Ø¯ ÙĪØ³Øª
ĠØ¨ Ù¾ÙĪØ´
ĠÙħ ØªÛĮ
ĠÙĪ Ø§ÛĮØª
ĠÚ© ÛĮÙĨÚ¯
Ú¯ ÙĩØ±
ĠØ¯Ø± Ø§
ĠØ± ÙĤÛĮÙĤ
ĠØ³ ÙĩØ§
ĠØ³ Ø±Ø¯ÛĮ
ĠÙ¾ Ú©
Ø§Øª ÙĪØ±ÙĩØ§ÛĮ
ĠØªÙĪ Ø¨Ø§
ĠØµ ØŃÛĮ
ĠØ² ÙĦØ§Øª
ĠØ§Ùħ Ú¯Ø§
ĠØ§ÙĨ Ø´Ø§Ø§ÙĦÙĦÙĩ
ĠÚĨ Ø§ÙĩÛĮ
ĠÙħØ¯ Ø§ÙĪØ§
ĠÙħÙĤ Ø§ÙħÛĮ
ĠØº Ø§Ø±Øª
ĠØ±ÛĮ Ú¯Ø§ÙĨ
Û· Û°Û°
ĠØ³ÙĪ ÛĮÙĨØ§
ĠÙĨØ¸Ø± Ø´Ø§ÙĨ
ĠÛ· Û±Û¹
ĠÙ¾Ø± Ø±
ĠÙĨØ§ Ú¯ÙģØªÙĩ
ĠØºÛĮØ± Ú©Ø§Ø±
ĠØ´ÛĮ ÙĪØ§
Ø§ØŃ ÙħØ¯ÛĮ
Ø¨Ø§ÙĦ Ø§
ĠØ¨Ø§ÙĦ Ú¯Ø±Ø¯ÙĩØ§ÛĮ
ĠÚ©ÛĮ ÙģØ±
ĠÚ¯ÙĪ ÙĩØ±
ĠØŃÙĦ ÙĤ
ĠÙĨØ¨ Ø§Øª
ĠØºØ° Ø§Ø®ÙĪØ±ÛĮ
ĠØ¯ÙĨÛĮ Ø§ÛĮÛĮ
ĠÙģØ±Ø§ Ø´Ø¨ÙĨØ¯
ĠØµØŃ Ø±Ø§ÛĮ
ĠÙħØ§Ø³ Ø§Úĺ
ĠØ®Ø·Ø± Ù¾Ø°ÛĮØ±ÛĮ
ĠØ®Ø·Ø± Ø¢ÙģØ±ÛĮÙĨ
ĠØ®ÙĪØ´ Ø¨ÛĮÙĨ
ÙĪÚ¯ÙĪ ÙĩØ§
ĠØ¢ÙĤ Ø§Ùħ
Ø®ÙĪØ§ÙĨ Ø¯Ùĩ
ĠÙģÛĮÙĦÙħ Ø³Ø§Ø²Ø§ÙĨ
ĠØ³Ø§Ø®ØªØ§Ø± ÙĩØ§
ĠØ§Ø³ØªØ® Ø±ÙĩØ§ÛĮ
ĠØ³Ø§ÙĨ ØªØ±ÛĮ
ĠØ³Ø§ÙĨ ØªØ±Ø§ÙĦ
ĠÛ³Û¶ Û·
ĠÛ´Û¸ Û¸
ĠÛ³Û¸ Û²
ĠÛ³Û´ Û¶
ĠÛ´Û³ Û²
ĠÛ¶Ûµ Û¹
ĠÛ³Û¹ Û¹
ĠÛ´Û± Û¶
ÙĪØ° Ø±
ĠÛ¶Û² Û¸
ĠÛ·Û´ Û¸
ĠÛ¸Û² Ûµ
ĠØ´ÛĮÙĦ Ø¯
ĠÙ¤ Ù¢
ĠØ®ÙĦØ§ ÙģÛĮ
ĠÙ§ ÙłÙł
ĠØ§ØªØ§ÙĨ ÙĪÙĦ
ĠØ¢ÙģØª Ø§Ø¨ÛĮ
ĠÙĩØ§ ÚĨ
ĠØ§ÙĨØŃ Ø±Ø§ÙģÛĮ
ĠØ´Ø§Ú©ÛĮ Ø§ÙĨ
ĠØ·Ø§Ø± Ùħ
ĠÙĩÙ¾ Ú©ÙĪ
ĠÙĨÙħØ§ÛĮØ§ÙĨ Ú¯Ø±
ĠÙĨÛĮÙģØª Ø§Ø¯
ĠÙĦÛĮÙħ ÙĪØªØ±Ø´
ĠØ¯Ø§ÙĪ ÙĪØ¯ÛĮ
ĠØ¢Ø±ÙĪ ÛĮÙĨ
ĠÙĩØ§Ø¯ÛĮØ§ÙĨ ÙģØ±
ĠØªÙģØ±Ø¬ Ú¯Ø§Ùĩ
ĠÙĩØ±Ø¯ ÙĪ
ĠNG L
ĠÙ¾Ø§ÙĪÛĮ ÙĪÙĨ
ĠÙĪØ´ÙĩØ± Ø³Ø§Ø²ÛĮ
Ø± Ø´ØªÙĩ
Ø³ ÛĮØªÙĩ
ĠÙħ ÙĪØ±ÛĮ
ĠØ¯ ÙĨ
Ø³Øª Ø§
ÙĤ Ùģ
ĠÙĩ Ø±ÛĮ
ĠÙĩ Ø§ÙĦÙĩ
ĠÙĩ Ø§ÙĨÚ¯
ĠØ§Ø² ÙĨ
ĠØ§Ø³Øª ÙĨØ´
ĠØ§Ø³Øª Ú©Ø¨Ø§Ø±
Ø§Ø³ ÛĮØ±
ĠØ¨Ø±Ø§ÛĮ ØªÙĪÙĨ
ĠÙħÙĨ ÙĩØ§ÛĮ
Ù¾ Ø¯
ĠÙĨÛĮ Ø¬Ø±
ĠØ¯Ø§ ÙĪØ¯ÛĮ
Úĺ ÙĪ
ĠØ³Ø§ÙĦ Ø§Ø±
ĠØ®ÙĪØ¯ Øª
ĠØ®ÙĪØ¯ Ø¨Ø§
ĠØ§ÛĮØ± Ø§Ø¯ÛĮ
ĠÙģØ± ÙĨØ§ÙĨØ¯
ĠØ¯ÙĪ Ø·Ø±Ùģ
ĠØ§Ø¯ ÙĪØ§Ø±Ø¯
ĠØ§ÛĮ ÙĪØ¨
ĠÙĩØ± Ø§Ø³ÛĮ
ĠÙħØ§ Ú©Ø³
ĠØªØ± ÙħÛĮÙħÛĮ
ĠØ« Ø§ÙĨÛĮØ§
ĠÙĨØ§ Ø¬ÙĪØ§ÙĨ
ĠØ®Ø§Ø± Ú¯
Ø¯Ø§Ø± Ø®Ø§ÙĨÙĩ
ĠÙ¾ØªØ±ÙĪØ´ÛĮÙħÛĮ Ø§ÛĮÛĮ
ĠØ§ÙĨØªÙĤ Ø§Ø¯ÙĩØ§ÛĮ
ĠÙĨØ§Ùħ Ø¹ÙĦÙĪÙħ
Ø´Ùħ Ø§ÙĦÛĮ
ĠÙħØ® Ø±ÙĪ
ĠÚ¯ÙĦ Ø§Ø¨
ĠÛ±Û¹ Û¸Û°
Ú©ÛĮÙĦ ÙĪÙħØªØ±
ÙĨØ´ Ø§ÙĦ
ĠØµØ¨ Ø§ØŃ
ĠÙĦÙĪ Ø¦ÛĮØ³
ĠØ¨Ø§Ø²Ø¯ÛĮØ¯ ÛĮ
ĠÛ²Û¸ Û±
ĠÛ³Û± Û±
ĠØµØ¯Ø§ ÙĩØ§ÛĮ
ĠÙħÙħÙĨ ÙĪØ¹Ùĩ
ĠA n
ĠØªØ®ÙĦÙģ Ø§ØªÛĮ
ĠÛ³Û¸ Û´
ĠÛ³Û´ Û³
ĠÛ´Û´ Û·
ĠÛµÛ´ Û³
ĠP l
ĠÚ¯Ø°Ø± ÙĨØ§ÙħÙĩ
ĠÛ´Û· Û¶
ĠÛ´Û± Û±
ĠÛ´Û± Û²
ĠÛ´Û± Û´
ĠÙĨÙģØªÚ©Ø´ ÙĩØ§
ĠØªÙĤØ³ÛĮÙħ Ø§Øª
ĠØ§Ø¯Ø¹Ø§ ÙĩØ§ÛĮÛĮ
ĠÛ¶Û¸ Û´
ĠÛ·Û³ Û·
ĠÙ© Ù£
ĠÛ±Û³Û· Û¹
Ø²Ø§Ø¯ Ú¯Ø§ÙĨ
ĠÙħÙĪÙĨ ÙĪÚ©Ø³ÛĮØ¯
ĠÙĩØ¬ Ø±ÛĮ
ĠØ¢Ø´Ú©Ø§Ø± Ø§
ĠÚ©ÙĪØ´ Ú©
ĠÙĨØ§ÙĤ Ø¶
ĠÙħØ³ÛĮØ±ÛĮ Ø§Ø¨ÛĮ
ĠÙħØ§ÙħÙĪØ± ÛĮÙĨ
ĠØ§ÙĨÙĤ Ø±Ø§Ø¶
ĠÙĤÙģ Ø³
ĠØ³Ø§ÛĮØ² ÙĩØ§ÛĮ
ĠÙĨÙ¾Ø°ÛĮØ± ÙģØªÙĩ
ĠÙ¾Ø´ ÛĮÙħØ§ÙĨ
ĠÚ©ÙĨØ³ÙĪÙĦ Ú¯Ø±ÛĮ
ĠØ¬Ø¨Ø± Ø§ÙĨÛĮ
ĠÙĨØ§ÛĮÙĦ ÙĪÙĨ
Ú©ÙĨØªØ± ÙĦ
ĠÙħÙĪÙħÛĮ Ø§ÛĮÛĮ
ĠØªØ±ÙģØª Ø§ÙĦØ§Øª
ĠØµÙĦÙĪ Ø§ØªÛĮ
ĠÙ¾Ø±Ø§ÙģØª Ø®Ø§Ø±
i al
o ur
t h
ÙĨ Ø³Ø¨
ĠÙħ Ø§ÛĮÙĨ
Ø§ÙĨ Ø±ÚĺÛĮ
Ú¯ Ø´Ø§ÛĮÛĮ
Ùģ Ú©ÙĨÛĮ
ĠØ¯Ø± Ø¹ÛĮÙĨ
ĠÙĨ ÙħÛĮÙĨ
ĠÙĨ Ø¯Ø§ÙĨØ³Øª
ĠØ¨Ø§ Ø®
ĠØ¨Ø§ Ø§Ø±Ø²Ø´
ĠÙĩ Ø§Ú©ÛĮ
Øµ Ø§Ø±
Øµ Ø§ÙĦ
Ø§Øª Ú©Ø§ÛĮÛĮ
ĠÙģ Ø§Ø¨
ĠÙĤ ÙĨÙĪ
ÚĨ ÙĨØ¯
ÚĨ ÙĪØ¨Ùĩ
ĠØ±ÙĪ Ùħ
ĠØ´Ø¯ ÛĮØ¯Ø§
ĠÙĦ ÙĪØ¯
ĠÙĦ Ú¯ÙĨ
ĠÙħØ¹ ØªØ¨
Ø¨Ø± Ø±Ø³ÛĮ
ĠØ³Ø± Ù¾Ø§
Ø±Ø³ ÛĮØ¯ÙĨ
ÙĪØ³ Ùģ
ĠØ§ÙĤØ¯Ø§Ùħ ÙĩØ§
ĠØ¯ÙĪØ± Ø§ÙģØªØ§Ø¯Ùĩ
ĠØ¸ Ø±Ø§ÙģØª
Ø¯Ø§Ø¯ ÙĨ
ĠØ¨ÙĨ ÙģØ´
Ú©Ø± ÙĪÙĨØ§
ĠÙ¾Ø± ÙĪØ±ÛĮ
ĠÙ¾Ø§ÙĦ ØªÙĪ
ĠÚ©ÙĪ ÛĮØªÛĮ
ĠØ¨ÙĦ Ú©
ĠÙħØ³Øª Ø«ÙĨØ§
ĠØ§ÙħÙĪØ± Ø§Øª
ĠØ¨Ø§ÙĦ Ø§Ø¨Ø±
ĠØ¨Ø§ÙĦ Ø³ØªÛĮÚ©
ĠÚ¯ÙĦ Ø§Ø³
ĠÚ¯ÙĦ Ø¨ÙĪÙĦ
ĠØ§Ø±Ø² Ø§ÙĨÛĮ
ĠØ®Ø§Ùħ Ú©Ø§ÙĨÛĮ
Ø¨Ø±ÛĮ Ø¬
ĠÚ©ÙĦÛĮ Ø¯ÙĩØ§ÛĮ
ĠØ±Ø¶ ÙĪØ§ÙĨÛĮ
ĠØ±Ø¶ Ø§Ø²Ø§Ø¯Ùĩ
ĠÛ¶Û° Û¹
ĠÙĪØ±Ø² ÙĤØ§ÙĨ
ĠØ®ÛĮ Ø²Ø´
ĠØµÙģ Ø§ÛĮÛĮ
ĠÙģØ¶Ø§ Ù¾ÛĮÙħØ§
ĠØªØ² Ø¦ÛĮÙĨ
ĠÙ¾ÙĦØ§Ø³ Ú©ÙĪ
ĠÙħØ§ÙĦÚ© Ø§ÙĨÙĩ
ĠÛµÛµ Û²
ĠÛµÛ¶ Û·
ĠÛ´Û¹ Û²
ĠÛ³Û¹ Û±
ÙĪÚ© Ø³ÛĮ
ĠØ¬Ø³ Ø§Ø±Øª
ĠÙ¾ÛĮÙĪØ³Øª ÙĨØ¯
ĠÙħØµØ§ØŃ Ø¨
Ø®Ø§ÙĨ Ú¯ÛĮ
ĠÙ¾Ø±Ùĩ Ø§Ùħ
ĠØ¢Ø¯ ÙħÛĮ
ĠÙħØ·ÙħØ¦ÙĨ Ùħ
ĠØ¢Ø¨Ø± Ø§ÙħØ²
ĠÙħØªØ®ÙĦÙģ ÛĮÙĨ
ĠÙħÙĨØŃ ÙĨÛĮ
ĠØ·Ø§ÙĦ Ø¨ÛĮØ§ÙĨ
ĠØ¨Ø±ÛĮØª Ø§ÙĨÛĮØ§ÛĮÛĮ
ĠÙ¦ Ù§
ĠØ¬Ø§Ø° Ø¨
ĠÙģÛĮÙĦÛĮ Ù¾
ĠÚ©Ø±ÙĪ Ø§Øª
Ø§Ø¨Ø§ÙĨ Ú©
ĠØ¹ÙĤÙĦ Ø§ÙĨÛĮ
ĠÙĨØ§ÙħØ´ Ø±ÙĪØ¹
ĠÙħØ§Ø±Ú©Øª ÛĮÙĨÚ¯
ĠÙ¾Ø§Ø³Øª ÙĪØ±ÛĮØ²Ùĩ
âĢĮâĢİ âĢĮ
ĠÙģØ±ÙĩÛĮ Ø®ØªÚ¯Ø§ÙĨ
ĠÚ©Ø§Ø² Ø±ÙĪÙĨ
ĠØ§ÙĦÚ©ØªØ±ÙĪÙħ ÙĪØªÙĪØ±
ĠØ°ÙĪØ§ÙĦÙģÙĤ Ø§Ø±ÛĮ
ÙħÙĩÙĨØ¯ Ø³ÛĮ
ĠØ§ÙĦÙĪØµ ÙĦ
ĠØ³ÙĨØ³ ÙĪØ±ÙĩØ§ÛĮ
ĠØ§ÙĦØ±Ùħ ØŃÛĮ
I n
ÙĨ ÙģØ¹
ÙĪ Ø³ØªÛĮ
ĠÙħ ÙĪÛĮ
ĠØ¯ ÙħØ§ÛĮÛĮ
ĠÚ© Ø«
ĠÚ© ÙĪØ±ØªÛĮ
ĠÙĩ Øª
ĠØ§Ø² Ø·
ĠØ§Ø² ÙĨØ¸Ø±
Ø® Ùħ
Ø® Ø±Ø¯Ø§Ø¯
ÙĨØ¯ Ø§
ĠÙħÛĮ Ø¯ÙĩØ¯
ĠÙģ ÙħÙĦÛĮ
ĠØ¬ ÙĪÙĨÛĮ
ĠØ±Ø§ ÙĪÛĮ
ĠÙĤ ØŃ
ĠÙĤ ÙĪØ±ÛĮ
ĠÙĤ Ø§Ùģ
ÚĨ ÛĮÙĨÛĮ
Ø§Ø¨ ÙĦØ§
Ø±ÙĪ Ø¦
ĠØ§Ùħ ÙĪØ±ÛĮ
ĠØ§ÙĨ ÙĩØ§Ø±
Ø¨Ùĩ Ø§Ø±
ĠØ¨ÛĮ Ú©
ĠÙħØŃ Ø¨
ĠØ®ÙĪØ¯ Ø§ØªÚ©Ø§ÛĮÛĮ
ĠØ®ÙĪ Ø²Ùĩ
Ø¢ Ù¾ÛĮ
ĠÚ¯Ø§Ø² ÙĩØ§
ĠØ§ÙĦ ÙĨØ¹
ĠÙħØ¯ÛĮØ± Ø´Ø±Ú©Øª
ØªÙĪØ§ÙĨ Ø³ØªÙħ
ĠÙħØ± ÙĨØ¯
ĠÚ©Ø§Ùĩ ÛĮ
ĠØ¢Ø¨ Ø±ÙĪ
ĠØªØ± ÙĤÛĮ
ĠÙĨØ³ Ø®
Ø§ÙħÛĮ Ø§ÙĨ
ĠØ¨Ø¹ ÙĦØ§ÙĪÙĩ
Ø¯Ø§ÙĨ Ø³ØªÙħ
ĠÙħØ³Øª Ø±
ĠÛĮØ§Ø¯ ÙħØ§ÙĨ
ĠØ¬ÙĩØ§ÙĨ Ú¯Ø±Ø¯ÛĮ
Ú©ÙĪ Ø¨ÛĮ
ĠØªÙģ Ø§Ø³ÛĮØ±
ĠÙģØ±Ø§ ÙģÚ©ÙĨÛĮ
ĠÙħØ§ÙĦ Ú©ÛĮ
ĠÙĩÙĨØ¯ ÙĪØ§ÙĨÙĩ
ĠÙħØªØ§Ø³ Ùģ
ĠÙĨÙĪØ´Øª ÙĨØ¯
Ø§ÙģØª ÙĨØ¯
ĠÙħØ§Ùħ Ø§ÛĮÛĮ
ĠØ³Ø§ÛĮ Ø¨Ø§ÙĨ
ĠØ¨Ø¯ÙĩÛĮ ÙĩØ§ÛĮ
ĠÙ¾ÙĨ Ø§ÙĩÛĮ
ĠÛ´Ûµ Ûµ
ĠÛ´Ûµ Û²
ĠÙĨØ¬Ø§Øª Ú¯Ø±Ø§ÙĨ
ĠØ®Ø¯Ø§ Ú©Ø±ÙħÛĮ
ĠÙ£ Ù¤
ĠÙģØ±Ø§Ø¨ ÙĨÙģØ´
ĠÙ¤ Ù¡
ĠÙħØ¯Ø¯ Ú©Ø§Ø±Ø§ÙĨ
ĠØªØ±Ø´ ØŃØ§Øª
ĠÙħÙĪØ§Ø² ÙĨÙĩ
ĠØ§Ø³ÛĮØ¯ Ú©Ø§Ø±ÛĮ
Ù¾Ø±ÙĪ Ø§Ø²
ĠØ¨Ø´ÙĨØ§Ø³ ÙĨØ¯
ĠØ§Ø·ÙģØ§ Ø¡
ĠØ¨Ø³Ø· Ø§ÙħÛĮ
ĠØ§Ú¯Ø² ÙħØ§
ĠÙ¾Ø§Ú©ÛĮ Ø²Ú¯ÛĮ
ĠÚ¯Ø±Ø§ÛĮ Ø§ÙĨÙĩ
ÙĨÛĮØ±ÙĪ Ú¯Ø§ÙĩÛĮ
Ø¢ÙĨØ¬ ÙĦØ³
ĠÙħÛĮÙĩ ÙħØ§ÙĨÛĮ
ĠØ¬Ø§Ø¯ ÙĪÛĮÛĮ
ĠÙĩØ§ÛĮÙ¾ Ø±Ø§Ø³ØªØ§Ø±
ĠÚ¯ÙĪØ³Ùģ ÙĨØ¯ÛĮ
ĠØŃÛĮØ± Øª
o st
Ø± ÙģØªÙĩ
ÙĨ Ø³ÛĮØ§
Ø¯ Ø§ÙĨÛĮ
ĠØ§ ÙĦØ§Ùħ
ÙĦ ÙĪÙĨ
Ø³ ÙĦØ§Ùħ
Ø² Ø§ÛĮØ¯
ĠÙĪ Ø§Ø¯Ø§
Ø¨ Ø±ÙĪ
Ø¨ Ø§ÙĦÛĮ
ĠØ± Ø¨Ø§
ĠØ¨Ø§ Ø´ÛĮ
Ø® Ø¯Ø§
Øµ Ø¯Ø§
ĠØ¬ Ø±Ø¬
ĠÙĤ ØµÙĪØ±
ĠØªÙĪ ÙĩÙħ
ĠÙħÙĨ ÙģØ¹
ĠØªØ§ Ø«Ø±
ĠØ¨ÛĮ Ú¯
ĠØ¨ÛĮ Ø§ÙĨÛĮ
ĠØ¨ÛĮ Ø§Ø¨Ø¯
ĠÚ©ÙĨ Ø¯Ùĩ
Ø¨ÛĮ ØŃ
ĠØ§Ø± Øº
ĠÚ¯Ø± Ú¯
ĠÙĨØ´ ÙĪÛĮØ¯
ÙĪØ³ ÙĪÙħÛĮÙĨ
ĠØ¨ÛĮÙĨ Ø´
ĠÛ¶ Û²Û±
ĠÛ¶ Û±Ûµ
ÙħÙĨØ¯ Ø§ÙĨÙĩ
Ø§ÙħÛĮ Ú©ÛĮ
ĠÙĨØ§ ÚĨÛĮØ²ÛĮ
Ø¢ÙĪØ± Ø§ÙĨ
Ø¢ÙĪØ± ÛĮÙħ
ĠØ±ÙĪÛĮ Ø´
ĠØ§Ø¨ Ø±Ú©ÙĪÙĩ
ĠÙħØ³Ø§ Ø¹ÛĮ
ĠØ¢ÙĦ Ú©ÙĨÙĪ
ĠØªÙĪØ§ÙģÙĤ Ø§ØªÛĮ
ĠÛµÛ° Ûµ
ĠØµÙĨØ¯ÙĪÙĤ ÙĩØ§ÛĮ
ĠÙ¾ÙĦ ÙħÙ¾
ĠÛ±Û· Û°Û°
Ø¨Ø±Ø¯ ÙĨØ¯
ĠÚ©Ø§Ø±ÛĮ Ø§Ø¨ÛĮ
ĠÛ·Û° Ûµ
ĠÛ·Û° Û¸
ĠÛ³Ûµ Û¸
ĠC h
ĠÛ³Û¶ Û¹
ĠØºØ°Ø§ ÙĩØ§ÛĮÛĮ
ĠÛ´Û² Û´
ĠÛ´Û³ Û¹
ĠØ§Ø³ØªØ±Ø§ØªÚĺÛĮ Ø³Øª
ĠÛ´Û¹ Û¹
ĠØ§ÙģØ²Ø§Ø± ÙĩØ§
ĠÙĨÙĪÛĮØ³ ÙĨØ¯Ú¯ÛĮ
ĠÛµÛ¸ Ûµ
ĠÚĨÛĮØ² ÙĩØ§
ĠÛ¶Û¶ Û±
ĠÛ·Û´ Û´
ĠØ²Ø±Ø¯ ÚĨÙĪØ¨Ùĩ
ĠØ¯ÛĮÙĪØ§Ø± ÙĩØ§
ĠÙħØ¬Ø¯ Ø§ÙĨÙĩ
ĠØŃØ± ÛĮØ±ÛĮ
ĠØ¯Ø±ÛĮØ§ÙĨ ÙĪØ±Ø¯Ø§ÙĨ
ĠÙħÙĨÙĪ Ú©Ø³ÛĮØ¯
ĠÙħØ®ÙģÛĮ Ø§ÙĨÙĩ
ĠØ¢ÙħÙĪ Ø®Øª
ĠÙ¾Ø±ÚĨ ÙħØ¯Ø§Ø±
ĠÙģÙĦØ§ØŃ ÛĮ
ĠÙĨØ§Ø² ÙĨÛĮÙĨ
op er
ĠØ±ÛĮØª ÛĮÙĨÚ¯
ĠØªÙĨÚ¯Ø§Øª ÙĨÚ¯ÛĮ
ĠØ¯Ø§ÙĨÛĮ Ø§ÙĦ
ĠÚ©Ø§ØªØ¯ÛĮ Ú©
ĠØ¨ÙĨØ´ÛĮÙĨ ÙĨØ¯
Ø§Ø³ÙħØ§Ø¹ÛĮ ÙĦ
ĠØ¯Ø§Ø¯ÙĪØ³Øª Ø¯
ĠÙ¾ÙĪØ³ ÛĮØ¯Ú¯ÛĮ
ĠØµØŃÛĮ ØŃÛĮ
ĠØ®ÙĪØ¯Ø¨Ø§ ÙĪØ±ÛĮ
a f
Ùħ ÙĪØ¬
ĠØ¨ Ø§ÛĮØª
Ø² ÙģØ±ÛĮ
ĠÙĨ Ø°Ø±
ĠÙĨ Ø®ÙĪØ§ÙĩÛĮØ¯
ÙĪØ± Ø§ÛĮ
ĠØ§Ø² ÙĪÙĨ
ĠØ¢ ÙĦØ§Ùħ
Ø±ÙĪ Øª
ĠÙĩÙħ ÛĮÙĦ
ĠÙĩÙħ ÛĮØ§Ø±
ĠØ§Ùģ Ø¶ÙĦÛĮ
ÙĩØ± ÙħØ²
ĠÙĨÛĮ ÙĪÙħ
ĠÙħØ¯ ÛĮ
ĠØ§ÙĦ Øº
ĠØµÙĨ Ø¹
ĠØ§ÛĮ ÚĨ
ĠØ§ÛĮ Ø§Ø¨
ĠØ±ÛĮ ÙĪ
ĠÛĮØ§ ÙĪØ±ÛĮ
Ø§ØªÛĮ Ø§ÙĨ
ĠØ¨Ø§Ø² Ù¾Ø³
ĠØ¯ÙĦ Ú¯Ø±ÙħÛĮ
ĠØ¯ÙĪØ± ØªØ±ÛĮÙĨ
ĠØ¨Ø¯ ØŃØ§ÙĦ
ĠÙĨÙĪ Ú©
ĠØªÛĮÙħ ÙĪØ±
ĠØªÙĤ ØµÛĮØ±
Ø®Ø§Ø¨ ÛĮ
ĠÚĨÙĩØ§Ø± Ø³Ø§ÙĦÙĩ
ĠØªØ¨ Ø¹Ùĩ
ĠØ§Ø±Ø§Ø¦Ùĩ Ú©
ĠØ´Ø§ Ø®
ĠØ´Ø§ Ú¯Ø±Ø¯
ĠØ§Ø¨ ÙĪØ°Ø±
ĠØªÙħØ§Ùħ Ø§
ĠØ§ÙģØª Ø§Ø¯Ú¯ÛĮ
ĠÙħÙĦ Ø§ÙĨ
ĠÙģØ±Ø¯ ÙĪØ³
ĠÛµÛ° Û²
ĠØµØ¯ Ø¯Ø±ØµØ¯ÛĮ
Ø§ÙĦØ¨ Ø¯ÙĦ
Ú¯Ø°Ø§Ø± Ùħ
ĠÛ¶Û° Û¶
Ù¾Ø°ÛĮØ± ÙĨØ¯
ĠØªØ¹ÙĩØ¯ Ø§ØªÛĮ
ĠÙħÙĪØ§ÙģÙĤ Ø§ÙĨ
ĠÙħØº ÙĪÙĦ
ĠØµÙģØ± Ø¹ÙĦÛĮ
ĠÙĤØ§ÚĨØ§ÙĤ ÚĨÛĮ
ĠÙģÙĦ ÙĪÛĮØ¯
ĠÙħÙĪØ«Ø± ØªØ±
ĠØ§ÙħØ¯Ø§Ø¯ Ú¯Ø±
ĠÛ³Û¸ Û³
ĠÛ³Û´ Û´
ĠÛ´Û¶ Ûµ
ĠÚ©Ùģ Ø§Ùģ
ĠÛµÛ· Ûµ
ĠØ±Ø¶Ø§ÛĮØª ÙĨØ§ÙħÙĩ
ĠÛ´Û± Ûµ
ĠÛµÛ¸ Û¶
Ø´ÙĨØ§Ø³ ÛĮÙħ
ĠÛ±Û³Û¸ Û²
ĠØªØ±Ø³ ÙĨØ§Ú©
Ø§ÙģØ² ÙĪØ¯Ùĩ
ĠÛ¸Û³ Ûµ
ĠØ§Ø³ØªÛĮ ÙĪ
ĠØ±Ø² Ø§Ø²
ĠØ³ÙĦØ· ÙĨØª
ĠØªÙĪØ³Ø¹ÙĩØ§ ÙģØªÚ¯ÛĮ
ĠÙĪØ§ÙĦ Ø§ÛĮ
ĠÚ©ÙĦØ§Ùĩ Ú©
ĠØ¨Ø±Ø§Ø¯Ø± Ø´
ĠÙĨÙħØ§ÛĮØ´Ú¯Ø± ÙĩØ§ÛĮ
ĠØ¢ÙĨÙģÙĦÙĪØ§ÙĨ Ø²Ø§ÛĮ
ac t
ĠØµÛĮ ÙģÛĮ
ĠÙ¡Ù© Ù©
ĠØªÙĨØ§ Úĺ
ĠØ³ÙĪØ¦ÛĮ ÚĨ
ĠØ³ÙĪÚ¯ ÙĨØ¯
ĠØ¢ÙĨØ§ÙĦ ÙĪÚ¯
ĠÙģØ§ÛĮÙĨ ÙĨØ´Ø§ÙĦ
ĠØºÛĮØ±ÙħØª Ø¹Ø§Ø±Ùģ
ĠØ§ÙĨÙĤØ¨ Ø§Ø¶
Ø¢ÙħÙĪ Ø®ØªÚ¯Ø§ÙĨ
ĠØ®Ø§Ø³Øª Ú¯Ø§Ùĩ
ĠØ¨ÛĮØ²ÛĮÙĨ Ø³
ĠÚ©Ø§Ø±Ú©ÙĨ Ø§ÙĨÛĮ
ĠØªÙĨÚ©Ø§Ø¨ ÙĨ
A ir
O P
S t
y n
Ø§ ÙĪÙĩ
Ø§ ÚĺÛĮ
Ø¯ ÛĮØª
Ú© Ø«Ø±
Ø´ ÙĨÛĮ
Ø´ Ø§Ù¾
ĠÙĪ ÙĦØ§ÛĮ
ĠÙĪ ØªÙĪ
ĠØ± ÙĨØ¯
ĠØ± Ø²ÙĨ
ĠÙĩ Ø§Ù¾
ĠØ§ÛĮÙĨ Ùģ
ĠÚ¯ ÙĪÙĨ
ĠØ¨Ø± Ø«Ø§ÙĨÛĮÙĩ
ĠÙħÛĮ Ú©ÙĨÙĨØ¯
ĠØ¹ Ø²ÙĦ
Ø±ÛĮ Ø²Ø¯
ĠØ¨ÛĮ Ú¯Ø§ÙĨ
ĠÙĦ ÙĪØ±
ĠÙĦ ÙĪØ¨
ĠØ³Ø± ÙĪØ¯
ĠØ³Ø± ÙĦÚ©
ĠÙħØ¬ Ø§Ø¨
ĠØ±ÙĪØ² Ú¯Ø§Ø±ÛĮ
ĠØ§ÛĮ Ø°Ùĩ
ĠÙĩØ± Ø²
ĠØ¨Ø§Ø² Ø®ÙĪØ±
Ø§Ø³Øª Ø±ÛĮØª
ĠÙħØ· ÙĩØ±
ĠØ³Ø§Ø®Øª Ú¯ÛĮ
ĠÙĩÛĮ ÙĪØ²
ĠÙĩÛĮ Ø§ØªÛĮ
ĠØ¬ÙĦ ÙģØ§
ĠÛ· Û±Ûµ
Ú©Ø± Ø¬
Ú©Ø± ÙħØ§ÙĨ
ÚĺÛĮ Ú©
ĠÙ¾Ø± Ø¨Ø§Ø²
ĠØºÛĮØ± ØµÙĨØ¹ØªÛĮ
[...]
