{
  "!": 5,
  "!!": 20198,
  "!)": 30127,
  "!.": 28600,
  "!Â»": 24322,
  "!ØĮ": 41813,
  "!ØŁ": 16491,
  "\"": 6,
  "#": 7,
  "$": 8,
  "%": 9,
  "&": 10,
  "'": 11,
  "'s": 18695,
  "'ØĮ": 31952,
  "(": 12,
  ")": 13,
  "))": 21570,
  ").": 8392,
  "):": 10746,
  ")Â»": 28152,
  ")ØĮ": 1631,
  ")ØĽ": 15715,
  "*": 14,
  "**": 14959,
  "****": 24022,
  "+": 15,
  "+ØĮ": 38684,
  ",": 16,
  "-": 17,
  "-)": 32662,
  "-ØĮ": 29078,
  "-âĢĮ": 23778,
  ".": 18,
  ".)": 14960,
  "..": 9432,
  ".Â»": 4814,
  ".ØĮ": 25205,
  ".ØĽ": 34307,
  "/": 19,
  "//": 30697,
  "/âĢĮ": 24906,
  "/âĢı": 9706,
  "0": 20,
  "1": 21,
  "2": 22,
  "3": 23,
  "4": 24,
  "5": 25,
  "6": 26,
  "7": 27,
  "8": 28,
  "9": 29,
  ":": 30,
  ":.": 36209,
  "::": 22835,
  ":Â»": 20199,
  ":ØĮ": 21571,
  ";": 31,
  "<": 32,
  "</s>": 2,
  "<mask>": 4,
  "<pad>": 1,
  "<s>": 0,
  "<unk>": 3,
  "=": 33,
  ">": 34,
  ">>": 9832,
  "?": 35,
  "@": 36,
  "A": 37,
  "AB": 31295,
  "AC": 12125,
  "ACE": 34151,
  "AD": 20973,
  "AF": 41814,
  "AFC": 41816,
  "AG": 28153,
  "AI": 30128,
  "AL": 21572,
  "AM": 20045,
  "AMA": 31296,
  "AN": 13437,
  "ANG": 41815,
  "AP": 17653,
  "API": 31953,
  "AR": 9001,
  "ARK": 34105,
  "ARS": 13044,
  "ART": 39798,
  "AS": 9500,
  "ASA": 43163,
  "ASF": 43164,
  "ASP": 28508,
  "AT": 13049,
  "ATA": 37189,
  "ATF": 9859,
  "ATK": 29016,
  "AVL": 36212,
  "AW": 26163,
  "AWEI": 37307,
  "AX": 36210,
  "AZ": 26533,
  "Ad": 35199,
  "Air": 17031,
  "Al": 23080,
  "Am": 40164,
  "An": 21783,
  "App": 36211,
  "Ar": 26892,
  "Ast": 37393,
  "Az": 38685,
  "B": 38,
  "BA": 14403,
  "BAC": 34309,
  "BB": 26164,
  "BBY": 32615,
  "BC": 16105,
  "BD": 25206,
  "BE": 21573,
  "BI": 19881,
  "BITI": 36094,
  "BM": 24323,
  "BMI": 28602,
  "BO": 35200,
  "BOT": 37394,
  "BP": 34308,
  "BR": 17432,
  "BS": 13097,
  "BV": 41817,
  "Ben": 41818,
  "Bio": 38686,
  "Bl": 28601,
  "Book": 34310,
  "Br": 33447,
  "Buds": 25849,
  "C": 39,
  "CA": 25513,
  "CAS": 26165,
  "CB": 31954,
  "CC": 24324,
  "CD": 17548,
  "CDC": 26534,
  "CDM": 41573,
  "CE": 33448,
  "CER": 41821,
  "CF": 31297,
  "CGS": 31955,
  "CH": 38687,
  "CI": 17549,
  "CIS": 37395,
  "CL": 29585,
  "CN": 19568,
  "CNBC": 35108,
  "CNG": 19570,
  "CNPCI": 30081,
  "CO": 14526,
  "COP": 37209,
  "COVID": 30614,
  "CP": 21391,
  "CR": 9401,
  "CRM": 43158,
  "CS": 19569,
  "CSR": 33449,
  "CT": 20648,
  "Cam": 36213,
  "Can": 38688,
  "Cap": 41820,
  "Cas": 31298,
  "Cel": 38689,
  "Ch": 19735,
  "Co": 12761,
  "CoV": 13622,
  "Com": 41819,
  "Covid": 41822,
  "D": 40,
  "DA": 15945,
  "DB": 38690,
  "DC": 14713,
  "DE": 41823,
  "DF": 22836,
  "DH": 37396,
  "DI": 15487,
  "DL": 23537,
  "DN": 37397,
  "DP": 14897,
  "DPE": 41538,
  "DR": 18696,
  "DS": 13911,
  "DSL": 17136,
  "DV": 29586,
  "Dec": 18832,
  "Declaration": 19265,
  "Do": 29587,
  "E": 41,
  "EA": 15572,
  "EB": 33450,
  "EC": 10034,
  "ECD": 19388,
  "ECF": 26451,
  "ECH": 35013,
  "ECO": 43194,
  "ED": 10035,
  "EE": 31299,
  "EF": 29079,
  "EG": 16182,
  "EI": 29080,
  "EIA": 23779,
  "EL": 26166,
  "EM": 30698,
  "EN": 33451,
  "EO": 27283,
  "EOR": 34311,
  "EP": 24043,
  "EPA": 37398,
  "EPC": 26893,
  "EPD": 25514,
  "EPDS": 43451,
  "ER": 12762,
  "ERS": 31853,
  "ES": 13912,
  "ESP": 41525,
  "ET": 14838,
  "ETF": 17856,
  "ETI": 40165,
  "EU": 23324,
  "EX": 24325,
  "En": 30699,
  "Euro": 32663,
  "Ex": 26167,
  "F": 42,
  "FA": 24326,
  "FAS": 40166,
  "FATF": 28155,
  "FC": 7208,
  "FCC": 27188,
  "FDA": 28156,
  "FE": 34312,
  "FG": 36214,
  "FI": 28154,
  "FID": 33452,
  "FL": 23538,
  "FP": 25207,
  "FR": 22395,
  "FREG": 33386,
  "FS": 26535,
  "FT": 17256,
  "FTSE": 37243,
  "Fi": 20347,
  "Flar": 37399,
  "For": 36215,
  "G": 43,
  "GAS": 40167,
  "GB": 38691,
  "GC": 22396,
  "GDP": 30130,
  "GE": 23539,
  "GECF": 31956,
  "GIS": 29589,
  "GM": 33453,
  "GP": 30129,
  "GPS": 34313,
  "GR": 29588,
  "GS": 12969,
  "GSB": 38422,
  "GT": 21392,
  "Gas": 38692,
  "Ge": 32664,
  "Gl": 37400,
  "Go": 36216,
  "Google": 31300,
  "H": 44,
  "HA": 34314,
  "HC": 34315,
  "HD": 17257,
  "HF": 40168,
  "HO": 12970,
  "HOA": 24016,
  "HOT": 34316,
  "HP": 18548,
  "HS": 16492,
  "HSAS": 24878,
  "HSE": 15306,
  "HT": 21784,
  "He": 37401,
  "High": 37402,
  "Hu": 35201,
  "Huawei": 41732,
  "I": 45,
  "IA": 14527,
  "IASP": 41826,
  "IBBY": 41827,
  "IC": 11008,
  "ICC": 37154,
  "ICE": 34140,
  "ICS": 41445,
  "ICT": 27657,
  "ICU": 43232,
  "ID": 10048,
  "IE": 18549,
  "IEA": 27285,
  "IEC": 28157,
  "IEF": 39966,
  "IF": 21574,
  "IG": 25850,
  "IGU": 43456,
  "II": 26894,
  "IL": 20492,
  "ILL": 43395,
  "IM": 24907,
  "IMF": 43444,
  "IMO": 37404,
  "IMS": 24327,
  "IN": 15209,
  "INE": 32544,
  "INF": 38465,
  "ING": 27284,
  "IO": 23081,
  "IOC": 31957,
  "IOR": 36217,
  "IOT": 31301,
  "IP": 12590,
  "IPC": 33454,
  "IPF": 21954,
  "IR": 25208,
  "IS": 7932,
  "ISC": 43105,
  "ISO": 21141,
  "ISPR": 28969,
  "IT": 17654,
  "ITU": 43365,
  "IV": 15249,
  "IVB": 35071,
  "IW": 41824,
  "In": 16770,
  "Index": 33352,
  "International": 43350,
  "IoT": 40169,
  "Iran": 37403,
  "Is": 41825,
  "J": 46,
  "JMMC": 15210,
  "JO": 40170,
  "JTC": 24328,
  "K": 47,
  "KG": 38693,
  "L": 48,
  "LA": 19115,
  "LC": 15716,
  "LE": 26895,
  "LED": 13814,
  "LL": 30700,
  "LM": 41828,
  "LNA": 41829,
  "LNG": 26896,
  "LPG": 22837,
  "LS": 22617,
  "LT": 32665,
  "LTE": 17761,
  "La": 36218,
  "Lace": 37405,
  "Li": 35202,
  "Link": 37406,
  "M": 49,
  "MA": 16106,
  "MC": 11185,
  "MCI": 39865,
  "MDP": 33455,
  "ME": 13572,
  "MEA": 34168,
  "MEG": 35052,
  "MF": 30701,
  "MI": 13010,
  "MIT": 29499,
  "ML": 37407,
  "MMC": 14459,
  "MMS": 23540,
  "MO": 14578,
  "MOLED": 26480,
  "MOS": 30132,
  "MOT": 34317,
  "MOU": 41534,
  "MP": 15643,
  "MR": 22838,
  "MS": 9250,
  "MT": 26168,
  "MW": 30131,
  "Mar": 38694,
  "Med": 36219,
  "Mo": 41830,
  "Mod": 37408,
  "My": 40171,
  "N": 50,
  "NA": 9142,
  "NBC": 40174,
  "NC": 28603,
  "NE": 22839,
  "NG": 6798,
  "NGL": 35898,
  "NI": 23325,
  "NITC": 41632,
  "NL": 38695,
  "NO": 26897,
  "NOC": 26536,
  "NOR": 40172,
  "NP": 35203,
  "NT": 18550,
  "NTech": 36085,
  "Nature": 41831,
  "New": 40173,
  "Ni": 35204,
  "O": 51,
  "OA": 30133,
  "OB": 30134,
  "OC": 11186,
  "OD": 21575,
  "OECD": 26169,
  "OF": 31302,
  "OL": 21177,
  "OM": 27734,
  "OMARK": 40040,
  "ON": 17258,
  "OP": 17032,
  "OPEC": 36069,
  "OR": 12344,
  "OS": 10396,
  "OT": 11134,
  "OV": 34318,
  "OW": 29081,
  "OX": 37409,
  "On": 35205,
  "P": 52,
  "PA": 17141,
  "PC": 7777,
  "PCI": 27192,
  "PCR": 34964,
  "PD": 10567,
  "PDC": 28084,
  "PE": 26170,
  "PER": 37411,
  "PET": 31303,
  "PG": 11050,
  "PH": 37410,
  "PI": 12010,
  "PL": 29590,
  "PM": 15792,
  "PN": 18425,
  "PO": 30702,
  "PP": 27735,
  "PR": 17762,
  "PS": 8868,
  "PSI": 39794,
  "PSO": 28977,
  "PT": 14235,
  "PU": 22190,
  "PVC": 21984,
  "Pad": 41833,
  "Per": 40175,
  "Pet": 40176,
  "Ph": 20046,
  "Pl": 28604,
  "Pr": 41832,
  "Pre": 40177,
  "Pro": 26537,
  "Q": 53,
  "QM": 33456,
  "QR": 37412,
  "Qu": 38696,
  "R": 54,
  "RA": 32666,
  "RC": 28605,
  "RE": 34319,
  "RES": 38698,
  "RI": 13624,
  "RIM": 43307,
  "RK": 36220,
  "RL": 29591,
  "RNA": 20348,
  "RO": 13269,
  "RON": 43293,
  "RP": 20493,
  "RS": 31304,
  "RT": 18079,
  "Re": 40178,
  "Res": 38697,
  "Rev": 40179,
  "Ro": 41834,
  "S": 55,
  "SA": 16493,
  "SARS": 30704,
  "SB": 32667,
  "SC": 21785,
  "SD": 15573,
  "SE": 6405,
  "SI": 21985,
  "SM": 25851,
  "SME": 37413,
  "SO": 25852,
  "SP": 21986,
  "SR": 14961,
  "SRP": 39930,
  "SS": 20649,
  "ST": 26171,
  "SU": 27286,
  "SW": 31958,
  "Sh": 21576,
  "Sil": 38700,
  "Silicon": 43568,
  "Sin": 38699,
  "Sk": 30703,
  "Skid": 41696,
  "Sp": 20494,
  "Space": 26509,
  "St": 17033,
  "Stoxx": 35088,
  "T": 56,
  "TA": 29082,
  "TBS": 33457,
  "TC": 11406,
  "TCH": 36000,
  "TD": 36221,
  "TE": 11009,
  "TER": 41446,
  "TEX": 34141,
  "TF": 7425,
  "TG": 30705,
  "TI": 9942,
  "TION": 38366,
  "TO": 14639,
  "TP": 13913,
  "TPP": 28103,
  "TR": 26898,
  "TS": 22618,
  "TT": 26899,
  "TU": 26538,
  "TUBAC": 41661,
  "TUBACEX": 41812,
  "TV": 38701,
  "Th": 28158,
  "The": 17966,
  "Tr": 38702,
  "U": 57,
  "UC": 40180,
  "UI": 20974,
  "UN": 19736,
  "UNWTO": 30083,
  "UP": 38703,
  "UR": 37414,
  "US": 18080,
  "UT": 37415,
  "UV": 40181,
  "Un": 25853,
  "V": 58,
  "VA": 23326,
  "VAR": 34320,
  "VAX": 41633,
  "VC": 11823,
  "VD": 29083,
  "VE": 26539,
  "VI": 36222,
  "VID": 11942,
  "VL": 24908,
  "VM": 22840,
  "VPN": 36224,
  "VR": 21577,
  "Vac": 36223,
  "W": 59,
  "WA": 28606,
  "WB": 34321,
  "WD": 28159,
  "WHO": 23541,
  "WS": 36225,
  "WT": 38704,
  "WTI": 13573,
  "WTO": 23082,
  "WW": 34322,
  "World": 35206,
  "X": 60,
  "Y": 61,
  "YO": 41835,
  "YRO": 40182,
  "Z": 62,
  "[": 63,
  "\\": 64,
  "]": 65,
  "].": 25515,
  "][": 6619,
  "]Â»": 33459,
  "]ØĮ": 33458,
  "^": 66,
  "_": 67,
  "`": 68,
  "a": 69,
  "aar": 37416,
  "ab": 9675,
  "abasrm": 28073,
  "ability": 37127,
  "able": 23286,
  "ac": 6816,
  "ace": 13390,
  "ach": 33234,
  "ack": 15936,
  "act": 17016,
  "acter": 41288,
  "actor": 41560,
  "acy": 43051,
  "ad": 8345,
  "ade": 24839,
  "adem": 34975,
  "ading": 28503,
  "ae": 29592,
  "af": 16939,
  "ag": 10773,
  "age": 20632,
  "ager": 43223,
  "ah": 15644,
  "ahr": 41544,
  "ai": 20650,
  "ail": 29593,
  "ain": 15421,
  "aint": 43333,
  "air": 28160,
  "aj": 25854,
  "ak": 13485,
  "ake": 27234,
  "akinra": 43301,
  "al": 4305,
  "ala": 38165,
  "alam": 25397,
  "alamat": 26158,
  "alax": 21113,
  "alaxy": 21176,
  "ale": 19520,
  "alert": 42877,
  "alk": 36950,
  "all": 14939,
  "allenge": 43327,
  "allery": 34185,
  "alse": 35798,
  "alt": 42875,
  "alth": 42876,
  "alve": 30520,
  "am": 7082,
  "ame": 28483,
  "ames": 43062,
  "amily": 28054,
  "amin": 22567,
  "amm": 35905,
  "amp": 25428,
  "ams": 28953,
  "amsung": 38599,
  "an": 3942,
  "ana": 38133,
  "anc": 17509,
  "ance": 24214,
  "ancell": 33361,
  "ancer": 36076,
  "ancet": 36077,
  "and": 10005,
  "andard": 39828,
  "ane": 39533,
  "ang": 12335,
  "ange": 24857,
  "anger": 39883,
  "anj": 32368,
  "ank": 21106,
  "ano": 33966,
  "ans": 24800,
  "ant": 13560,
  "any": 30506,
  "ao": 40183,
  "ap": 11114,
  "apid": 39861,
  "app": 29001,
  "ar": 4233,
  "ara": 23708,
  "arak": 38160,
  "arb": 21710,
  "arbazi": 36111,
  "arbon": 38545,
  "ard": 12918,
  "are": 18645,
  "arg": 21313,
  "arge": 32383,
  "argin": 32585,
  "arh": 38159,
  "ari": 25727,
  "arity": 41130,
  "ark": 16229,
  "arl": 33977,
  "arm": 21505,
  "armony": 43406,
  "ars": 22997,
  "art": 13802,
  "arth": 41523,
  "ary": 27150,
  "as": 7130,
  "asci": 41308,
  "ase": 21740,
  "ased": 43065,
  "ases": 43064,
  "ash": 21931,
  "ashhad": 41620,
  "ask": 39719,
  "asrm": 28055,
  "ass": 18531,
  "ast": 16023,
  "aster": 37232,
  "at": 4321,
  "ata": 21506,
  "atch": 19071,
  "ate": 10459,
  "ated": 35800,
  "ater": 19232,
  "aterial": 34216,
  "aterials": 38640,
  "ath": 25730,
  "atin": 36952,
  "ation": 7755,
  "ational": 18061,
  "ations": 25771,
  "ative": 32388,
  "ator": 21115,
  "atory": 38538,
  "att": 38166,
  "atter": 35801,
  "ature": 20161,
  "au": 21987,
  "av": 14281,
  "ave": 43315,
  "avy": 43316,
  "aw": 10104,
  "awei": 10772,
  "ax": 14183,
  "ay": 10623,
  "ays": 28515,
  "az": 13960,
  "azi": 33334,
  "b": 70,
  "band": 41836,
  "be": 31305,
  "ber": 26540,
  "berg": 41837,
  "bi": 29594,
  "bidi": 41838,
  "bl": 30135,
  "bo": 20047,
  "book": 35111,
  "box": 31306,
  "by": 30706,
  "c": 71,
  "cal": 40185,
  "call": 41839,
  "cc": 40184,
  "ce": 11162,
  "cell": 35208,
  "cent": 35207,
  "cess": 26172,
  "ch": 7296,
  "che": 37064,
  "chem": 41316,
  "cher": 43078,
  "ci": 13486,
  "cience": 28535,
  "cil": 37417,
  "cl": 22191,
  "cle": 28161,
  "cm": 34323,
  "co": 15717,
  "col": 32668,
  "com": 11437,
  "con": 31959,
  "cop": 23083,
  "copus": 34248,
  "cr": 20200,
  "ct": 13532,
  "ction": 22807,
  "cul": 25855,
  "cular": 34266,
  "cyt": 41840,
  "d": 72,
  "da": 36226,
  "dc": 38705,
  "de": 10118,
  "der": 35209,
  "dex": 14955,
  "df": 27736,
  "dle": 37418,
  "dro": 19882,
  "droid": 26146,
  "drome": 37266,
  "du": 33460,
  "e": 73,
  "ead": 33462,
  "eal": 17550,
  "ealth": 24882,
  "ear": 12890,
  "earch": 19553,
  "eat": 27737,
  "eb": 15021,
  "ec": 8961,
  "ech": 14780,
  "echn": 23050,
  "echnology": 29059,
  "ect": 14636,
  "ection": 29513,
  "ecur": 30580,
  "ed": 7597,
  "edu": 43094,
  "ee": 21988,
  "eed": 33461,
  "eek": 32589,
  "een": 32669,
  "eep": 37419,
  "eg": 15645,
  "eh": 16107,
  "ehr": 43344,
  "ehran": 24876,
  "ei": 9956,
  "ein": 38706,
  "el": 6651,
  "ela": 41282,
  "ele": 30136,
  "elf": 34056,
  "ell": 11500,
  "ella": 37160,
  "ellig": 41456,
  "ello": 43245,
  "els": 43038,
  "em": 9420,
  "ement": 24562,
  "en": 4917,
  "ena": 41179,
  "enc": 21127,
  "ence": 15776,
  "ences": 32584,
  "ency": 32583,
  "end": 20607,
  "ene": 29414,
  "enec": 41180,
  "eneca": 43594,
  "eng": 28024,
  "enge": 41181,
  "ens": 17838,
  "ent": 9338,
  "enter": 25445,
  "entific": 37111,
  "enz": 38212,
  "ep": 11618,
  "ept": 41459,
  "er": 3494,
  "era": 41062,
  "eral": 33132,
  "erc": 42777,
  "erg": 18159,
  "ergy": 23057,
  "eries": 33940,
  "ering": 27551,
  "erm": 30490,
  "ern": 21895,
  "ero": 25710,
  "ers": 11905,
  "erse": 36007,
  "ert": 18505,
  "erv": 15189,
  "ervices": 23303,
  "ery": 22311,
  "es": 5028,
  "esarbazi": 36984,
  "esh": 24226,
  "esign": 39626,
  "ess": 11790,
  "est": 12880,
  "estival": 39894,
  "et": 6452,
  "eta": 35891,
  "etab": 26417,
  "etabol": 35153,
  "etabolism": 37365,
  "eter": 31774,
  "etf": 43031,
  "eth": 26416,
  "ether": 31775,
  "ets": 37040,
  "ett": 28476,
  "ety": 29442,
  "ev": 13714,
  "ew": 13715,
  "ews": 21958,
  "ex": 15646,
  "ext": 36057,
  "ey": 22841,
  "f": 74,
  "fa": 36227,
  "fah": 22192,
  "fahan": 24603,
  "family": 33463,
  "fer": 32670,
  "ff": 17655,
  "ffic": 38502,
  "fin": 30137,
  "fizer": 33464,
  "fl": 28162,
  "fo": 24329,
  "font": 28163,
  "form": 26900,
  "formation": 40030,
  "ft": 29084,
  "g": 75,
  "gan": 28607,
  "ge": 14460,
  "gen": 36228,
  "get": 40186,
  "gl": 31960,
  "gov": 16024,
  "gram": 37420,
  "gy": 34324,
  "h": 76,
  "ha": 27738,
  "hab": 32672,
  "habar": 35184,
  "habaresarbazi": 37366,
  "had": 38707,
  "han": 32671,
  "he": 8563,
  "her": 14640,
  "here": 37210,
  "herm": 43320,
  "hs": 41841,
  "ht": 13396,
  "htt": 23757,
  "i": 77,
  "ia": 11767,
  "ial": 16675,
  "ian": 17259,
  "iang": 41842,
  "iat": 25209,
  "ib": 14353,
  "ibility": 37204,
  "ible": 38450,
  "ibri": 38451,
  "ic": 5132,
  "ica": 31742,
  "ical": 15406,
  "ice": 15555,
  "ices": 21131,
  "ich": 28454,
  "icial": 33191,
  "icile": 42957,
  "icine": 20166,
  "icircle": 34867,
  "ick": 24820,
  "ico": 41201,
  "icon": 38220,
  "icro": 18278,
  "ics": 17522,
  "ict": 27164,
  "id": 8065,
  "ide": 17946,
  "ideo": 38505,
  "idge": 41345,
  "idi": 38322,
  "ids": 41344,
  "ie": 19116,
  "ied": 38708,
  "iel": 27739,
  "ield": 32627,
  "ier": 26901,
  "ies": 18426,
  "iew": 28608,
  "if": 12636,
  "ife": 25163,
  "iff": 37178,
  "ific": 28092,
  "ift": 41486,
  "ifts": 41487,
  "ig": 10066,
  "igation": 41417,
  "igh": 26452,
  "ight": 18415,
  "igital": 43196,
  "ign": 28989,
  "ik": 16494,
  "ike": 39949,
  "il": 7507,
  "ild": 30564,
  "ile": 16495,
  "ility": 23987,
  "ill": 13808,
  "iller": 36030,
  "illing": 35054,
  "ilm": 43089,
  "ily": 22777,
  "im": 10177,
  "ima": 43201,
  "ime": 23751,
  "imes": 31178,
  "in": 3495,
  "ina": 27133,
  "inac": 42778,
  "inal": 35755,
  "ind": 18901,
  "ine": 9918,
  "ines": 41063,
  "iness": 29369,
  "ing": 6770,
  "ings": 25426,
  "ini": 29905,
  "ink": 20151,
  "ino": 29368,
  "inra": 42779,
  "ins": 28421,
  "int": 20587,
  "io": 15718,
  "ion": 6057,
  "ip": 12465,
  "ipa": 43276,
  "ipe": 43277,
  "ipel": 43278,
  "ips": 39887,
  "ir": 4584,
  "iran": 26784,
  "ircle": 32400,
  "ire": 27154,
  "irel": 32399,
  "ireless": 32661,
  "irin": 20926,
  "irmware": 38182,
  "irst": 35815,
  "irus": 33990,
  "is": 7261,
  "ise": 29984,
  "isfahan": 43076,
  "ish": 21335,
  "ision": 31138,
  "isk": 43075,
  "ism": 25766,
  "iss": 28958,
  "ist": 15022,
  "istry": 43329,
  "it": 5606,
  "ital": 29429,
  "itch": 31759,
  "ite": 19372,
  "itect": 42984,
  "ited": 41229,
  "ith": 26796,
  "itiat": 41230,
  "itiative": 41809,
  "ities": 32433,
  "ition": 21133,
  "itish": 39653,
  "ito": 41228,
  "itor": 31101,
  "itter": 37011,
  "ity": 10258,
  "ium": 23327,
  "iv": 9632,
  "ival": 35970,
  "ive": 15848,
  "ivers": 21749,
  "iversity": 25189,
  "ives": 39819,
  "ivity": 39820,
  "ix": 25856,
  "iy": 29085,
  "iz": 14282,
  "ization": 29511,
  "ize": 35062,
  "izer": 29510,
  "j": 78,
  "ject": 30138,
  "k": 79,
  "ka": 33465,
  "ke": 38709,
  "kei": 41843,
  "ker": 30139,
  "ko": 34325,
  "l": 80,
  "la": 30707,
  "land": 29595,
  "lar": 16419,
  "laration": 19261,
  "las": 34326,
  "ld": 20975,
  "le": 6015,
  "lean": 38258,
  "lear": 32442,
  "lect": 25747,
  "led": 43000,
  "leep": 33210,
  "lege": 34907,
  "ler": 37421,
  "les": 40187,
  "less": 37422,
  "let": 32441,
  "leum": 34906,
  "lex": 22765,
  "lexa": 31908,
  "ley": 39672,
  "lin": 21578,
  "line": 22619,
  "lines": 36110,
  "ling": 40188,
  "linical": 37274,
  "lo": 19571,
  "load": 39973,
  "lock": 40190,
  "log": 40189,
  "loud": 29535,
  "ly": 22193,
  "m": 81,
  "ma": 30708,
  "mall": 40191,
  "man": 23328,
  "margin": 33466,
  "mart": 19884,
  "me": 19883,
  "med": 29086,
  "medu": 43490,
  "ment": 19267,
  "mer": 17551,
  "meric": 22176,
  "mi": 31961,
  "micro": 40192,
  "min": 35211,
  "mm": 35210,
  "mon": 38710,
  "mp": 30709,
  "ms": 30710,
  "mun": 24330,
  "munic": 35138,
  "mware": 37423,
  "my": 30711,
  "n": 82,
  "na": 35212,
  "nal": 20495,
  "nb": 36229,
  "ne": 18081,
  "ner": 41844,
  "net": 26541,
  "ney": 41580,
  "nik": 37424,
  "ning": 26902,
  "no": 34327,
  "nu": 34328,
  "o": 83,
  "oT": 29596,
  "oad": 36230,
  "ob": 12011,
  "obal": 28526,
  "obile": 27223,
  "oc": 10839,
  "occ": 41437,
  "oci": 28997,
  "ocial": 43226,
  "ock": 19102,
  "ocus": 43225,
  "od": 12403,
  "ode": 37425,
  "ody": 31850,
  "of": 8614,
  "off": 27641,
  "official": 37317,
  "oft": 27642,
  "og": 9544,
  "oh": 23084,
  "ohn": 29552,
  "oint": 24617,
  "ok": 15946,
  "ol": 7006,
  "olar": 34941,
  "olby": 43059,
  "old": 23270,
  "ole": 29087,
  "olice": 34060,
  "olog": 14342,
  "ological": 36037,
  "ology": 16104,
  "oly": 38290,
  "om": 6826,
  "oma": 43053,
  "ome": 25133,
  "omet": 34934,
  "omi": 34933,
  "omy": 39708,
  "on": 3973,
  "ona": 28438,
  "ond": 23703,
  "one": 17824,
  "ones": 39535,
  "oney": 39960,
  "ong": 21311,
  "onn": 26062,
  "onnect": 31927,
  "ons": 20754,
  "ont": 14692,
  "ony": 33154,
  "oo": 38711,
  "ood": 23330,
  "oog": 17142,
  "oogle": 17430,
  "ook": 25858,
  "ool": 27287,
  "oom": 31962,
  "oon": 28164,
  "oor": 25857,
  "oot": 31307,
  "op": 8693,
  "opdc": 41368,
  "oper": 16928,
  "operation": 18197,
  "oph": 27203,
  "or": 4792,
  "ora": 39607,
  "ord": 20602,
  "ore": 13759,
  "org": 21719,
  "ork": 22133,
  "orld": 22548,
  "orm": 19845,
  "ormal": 36093,
  "orn": 33181,
  "orona": 39608,
  "orp": 42924,
  "ors": 24815,
  "ort": 12398,
  "ortex": 29009,
  "orth": 38408,
  "orts": 26844,
  "ory": 27581,
  "os": 9722,
  "osa": 38362,
  "ose": 35972,
  "osh": 31172,
  "osis": 39822,
  "oss": 43179,
  "ost": 16853,
  "ot": 9368,
  "otal": 41391,
  "ote": 28981,
  "otion": 34997,
  "ott": 29477,
  "ou": 22842,
  "ound": 30712,
  "our": 16676,
  "ournal": 22380,
  "ous": 25210,
  "ouse": 41646,
  "out": 23085,
  "outh": 31912,
  "ov": 8834,
  "ova": 20315,
  "ove": 35954,
  "over": 34101,
  "ovid": 20781,
  "ow": 11135,
  "ower": 22796,
  "own": 26117,
  "ows": 28087,
  "ox": 15793,
  "oxx": 34192,
  "oy": 23329,
  "p": 84,
  "pad": 37426,
  "par": 40193,
  "para": 32674,
  "pe": 29597,
  "pen": 27288,
  "per": 23780,
  "ph": 16496,
  "pha": 41551,
  "pi": 34329,
  "pl": 17656,
  "play": 35094,
  "pons": 37427,
  "ponsibility": 43552,
  "port": 38713,
  "pos": 38712,
  "pp": 14283,
  "ppm": 26853,
  "ppo": 34177,
  "pr": 34330,
  "press": 38714,
  "pro": 32673,
  "ps": 18697,
  "psi": 41586,
  "pt": 18308,
  "q": 85,
  "qu": 20201,
  "que": 36231,
  "r": 86,
  "ra": 10312,
  "rac": 36233,
  "rack": 40197,
  "rad": 40196,
  "rag": 31830,
  "ragon": 40080,
  "rain": 25157,
  "ral": 36232,
  "ram": 21178,
  "rame": 43403,
  "ran": 14461,
  "rans": 31859,
  "raph": 35985,
  "ration": 40195,
  "re": 6995,
  "read": 41297,
  "ream": 31783,
  "reat": 30553,
  "red": 33241,
  "redit": 37351,
  "ree": 18175,
  "reement": 41298,
  "reen": 27186,
  "ren": 41845,
  "res": 30140,
  "ress": 20496,
  "ret": 38715,
  "rew": 38287,
  "ri": 13533,
  "ric": 21786,
  "rid": 30141,
  "rin": 31963,
  "ris": 28165,
  "rist": 41515,
  "rit": 40194,
  "rition": 41846,
  "rm": 27289,
  "ro": 6085,
  "rol": 28044,
  "rom": 24546,
  "ron": 25516,
  "ront": 37428,
  "rop": 39675,
  "roup": 28473,
  "row": 29433,
  "rown": 40054,
  "ru": 26903,
  "ruct": 40031,
  "rud": 22397,
  "ry": 17260,
  "rypt": 39955,
  "s": 87,
  "sa": 36234,
  "sc": 27290,
  "se": 21179,
  "ser": 35213,
  "set": 37429,
  "sh": 28609,
  "si": 31964,
  "size": 38716,
  "sk": 34331,
  "so": 15574,
  "soft": 34332,
  "son": 31965,
  "sp": 18698,
  "ss": 18082,
  "st": 6266,
  "ster": 39681,
  "stit": 32450,
  "stitute": 35182,
  "style": 27605,
  "sy": 26173,
  "sych": 32616,
  "t": 88,
  "ta": 31308,
  "td": 37430,
  "te": 26542,
  "ter": 11163,
  "tern": 18068,
  "ternational": 22820,
  "ternet": 38507,
  "th": 16677,
  "the": 31966,
  "theme": 37346,
  "ti": 36235,
  "to": 34333,
  "ton": 29598,
  "tra": 30713,
  "ts": 23781,
  "tu": 40198,
  "ty": 33467,
  "u": 89,
  "ua": 37431,
  "ual": 15075,
  "ub": 15250,
  "ube": 43331,
  "ubl": 35072,
  "ublic": 38647,
  "uc": 22398,
  "ud": 11136,
  "uds": 23292,
  "ue": 17552,
  "uel": 36236,
  "ug": 18202,
  "ugh": 39963,
  "uid": 34334,
  "uk": 28166,
  "ul": 10985,
  "ulation": 41444,
  "ull": 21946,
  "ult": 23291,
  "um": 11337,
  "umab": 35030,
  "ump": 31185,
  "un": 9533,
  "uncil": 39812,
  "und": 19545,
  "une": 38358,
  "ung": 28985,
  "unt": 25151,
  "up": 13574,
  "uper": 38435,
  "ur": 8298,
  "ura": 41355,
  "ural": 31153,
  "ure": 13914,
  "urg": 39772,
  "urn": 34094,
  "uro": 17967,
  "urr": 41356,
  "ury": 38328,
  "us": 8574,
  "use": 35948,
  "ush": 34096,
  "usiness": 30575,
  "uss": 34979,
  "ust": 20048,
  "ut": 9759,
  "ute": 30010,
  "ution": 27209,
  "utnik": 41407,
  "ux": 40199,
  "v": 90,
  "vc": 26543,
  "ve": 26544,
  "vel": 35214,
  "vent": 37433,
  "ver": 24909,
  "verge": 40014,
  "vest": 38717,
  "vey": 41847,
  "vir": 37432,
  "w": 91,
  "ward": 27291,
  "ware": 30714,
  "ways": 35215,
  "work": 29088,
  "ww": 19737,
  "www": 35110,
  "x": 92,
  "y": 93,
  "ya": 40200,
  "yber": 41850,
  "yc": 34335,
  "ydro": 41849,
  "yl": 25211,
  "yle": 24618,
  "ym": 41848,
  "yn": 17034,
  "ynam": 38492,
  "ynamic": 41767,
  "ynos": 33356,
  "yp": 20497,
  "ype": 30635,
  "yper": 38531,
  "yr": 38718,
  "ys": 19117,
  "yst": 20498,
  "ystem": 24598,
  "yt": 23086,
  "z": 94,
  "ze": 41851,
  "{": 95,
  "|": 96,
  "}": 97,
  "}:": 31309,
  "~": 98,
  "¡": 99,
  "¢": 100,
  "£": 101,
  "¤": 102,
  "¥": 103,
  "¦": 104,
  "§": 105,
  "¨": 106,
  "©": 107,
  "ª": 108,
  "«": 109,
  "¬": 110,
  "®": 111,
  "¯": 112,
  "°": 113,
  "±": 114,
  "²": 115,
  "³": 116,
  "´": 117,
  "µ": 118,
  "¶": 119,
  "·": 120,
  "¸": 121,
  "¹": 122,
  "º": 123,
  "»": 124,
  "¼": 125,
  "½": 126,
  "¾": 127,
  "¿": 128,
  "À": 129,
  "Á": 130,
  "Â": 131,
  "Â«": 24910,
  "Â¬": 21579,
  "Â»": 1170,
  "Â».": 11195,
  "Â»ØĮ": 4234,
  "Â»ØĽ": 37884,
  "ÂĿ": 28610,
  "ÂŃ": 3272,
  "ÂŃâĢĮ": 6040,
  "ÂŃâĢİ": 39481,
  "Ã": 132,
  "Ã¤": 41852,
  "Ã©": 28167,
  "ÃĹ": 20976,
  "Ä": 133,
  "Å": 134,
  "Æ": 135,
  "Ç": 136,
  "È": 137,
  "É": 138,
  "Ê": 139,
  "Ë": 140,
  "Ì": 141,
  "Í": 142,
  "Î": 143,
  "Ï": 144,
  "Ð": 145,
  "Ñ": 146,
  "Ò": 147,
  "Ó": 148,
  "Ô": 149,
  "Õ": 150,
  "Ö": 151,
  "×": 152,
  "Ø": 153,
  "Ø¡": 1633,
  "Ø¢": 455,
  "Ø¢Ø¨": 2503,
  "Ø¢Ø¨Ø§Ø¯": 3322,
  "Ø¢Ø¨Ø§Ø¯Ø§ÙĨ": 38089,
  "Ø¢Ø¨Ø§Ø¯Ú©ØªÙĪÙĦ": 41048,
  "Ø¢Ø¨Ø§Ø¯ÛĮ": 6241,
  "Ø¢Ø¨Ø§ÙĨ": 15158,
  "Ø¢Ø¨Ø§ÙĨÙĩ": 40956,
  "Ø¢Ø¨Ùĩ": 21225,
  "Ø¢Ø¨ÛĮ": 10554,
  "Ø¢Øª": 39010,
  "Ø¢ØªØ´": 25272,
  "Ø¢ØªØ´Ù¾Ø§Ø¯": 40018,
  "Ø¢ØªÙĦØ§ÙĨ": 27835,
  "Ø¢ØªÛĮ": 24119,
  "Ø¢ØªÛĮÙĩ": 43437,
  "Ø¢Ø®Ø±ÛĮÙĨ": 26624,
  "Ø¢Ø°Ø±": 13980,
  "Ø¢Ø°Ø±Ø¨Ø§ÛĮØ¬Ø§ÙĨ": 21428,
  "Ø¢Ø°Ø±ÙħØ§Ùĩ": 29508,
  "Ø¢Ø°Ø±ÛĮ": 32851,
  "Ø¢Ø±": 7184,
  "Ø¢Ø±Ø¢ÛĮ": 35908,
  "Ø¢Ø±Ø§": 22240,
  "Ø¢Ø±Ø§Ùħ": 27619,
  "Ø¢Ø±Ø§ÙĨ": 24681,
  "Ø¢Ø±Ø§ÛĮ": 37695,
  "Ø¢Ø±Ø§ÛĮÛĮ": 22241,
  "Ø¢Ø±Øª": 30279,
  "Ø¢Ø±ØªØ±ÛĮØª": 43068,
  "Ø¢Ø±ØªÛĮ": 29458,
  "Ø¢Ø±Ø´": 12922,
  "Ø¢Ø±ÙħØ§ÙĨ": 39723,
  "Ø¢Ø±ÙĨØ¯": 29457,
  "Ø¢Ø±ÛĮØ§": 20528,
  "Ø¢Ø±ÛĮÙĨ": 40508,
  "Ø¢Ø²": 33641,
  "Ø¢Ø²Ø§Ø¯": 21226,
  "Ø¢Ø²Ø§Ø±": 37694,
  "Ø¢Ø²Ø§Ø±ÛĮ": 22034,
  "Ø¢Ø²Ùħ": 25945,
  "Ø¢Ø²ÙħØ§ÛĮØ´": 40022,
  "Ø¢Ø²ÙħØ§ÛĮÛĮ": 14852,
  "Ø¢Ø²ÙħÙĪÙĨ": 43458,
  "Ø¢Ø³": 39011,
  "Ø¢Ø³Ø§": 24980,
  "Ø¢Ø³Ø§Ø±": 37696,
  "Ø¢Ø³Ø§ÙĨÛĮ": 42215,
  "Ø¢Ø³Ø§ÛĮ": 32849,
  "Ø¢Ø³Øª": 36463,
  "Ø¢Ø³ØªØ§ÙĨÙĩ": 32850,
  "Ø¢Ø³ÙħØ§Ø±ÛĮ": 42218,
  "Ø¢Ø³ÙħØ§ÙĨ": 42216,
  "Ø¢Ø³ÛĮ": 18452,
  "Ø¢Ø³ÛĮØ§": 22457,
  "Ø¢Ø³ÛĮØ§ÛĮÛĮ": 25490,
  "Ø¢Ø³ÛĮØ¨": 31230,
  "Ø¢Ø³ÛĮÙĩ": 26992,
  "Ø¢Ø´": 25592,
  "Ø¢Ø´ÙĨØ§ÛĮ": 42217,
  "Ø¢ØºØ§Ø²": 27396,
  "Ø¢Ù¾": 5901,
  "Ø¢Ù¾Ø§Ø±ØªÙħØ§ÙĨ": 30540,
  "Ø¢Ù¾Ú©": 30838,
  "Ø¢Ù¾ÛĮ": 16800,
  "Ø¢Ùģ": 15439,
  "Ø¢ÙģØª": 34499,
  "Ø¢ÙģØ±": 2754,
  "Ø¢ÙģØ±ÛĮÙĨ": 4998,
  "Ø¢ÙģØ±ÛĮÙĨØ§ÙĨ": 18171,
  "Ø¢ÙģØ±ÛĮÙĨØ¯": 39424,
  "Ø¢ÙģØ±ÛĮÙĨÛĮ": 3466,
  "Ø¢ÙĤ": 24978,
  "Ø¢ÙĤØ§": 31453,
  "Ø¢ÙĤØ§ÛĮ": 24120,
  "Ø¢ÙĤØ§ÛĮÛĮ": 36465,
  "Ø¢ÙĤØ¯Ø§Ùħ": 38573,
  "Ø¢ÙĦ": 8232,
  "Ø¢ÙĦØ§": 30836,
  "Ø¢ÙĦØ§Øª": 5260,
  "Ø¢ÙĦØ§ÛĮ": 32848,
  "Ø¢ÙĦØ§ÛĮÙĨØ¯Ùĩ": 38630,
  "Ø¢ÙĦÙħØ§ÙĨ": 20010,
  "Ø¢ÙĦÙĪ": 22242,
  "Ø¢ÙĦÙĪØ¯": 20468,
  "Ø¢ÙĦÙĪØ¯Ú¯ÛĮ": 29468,
  "Ø¢ÙĦÙĪÙħ": 39770,
  "Ø¢ÙĦÛĮ": 26622,
  "Ø¢Ùħ": 2281,
  "Ø¢ÙħØ§Ø¯Ùĩ": 34717,
  "Ø¢ÙħØ§Ø¯Ú¯ÛĮ": 35679,
  "Ø¢ÙħØ§Ø±": 33063,
  "Ø¢ÙħØ¯": 3313,
  "Ø¢ÙħØ¯Ùħ": 30994,
  "Ø¢ÙħØ¯ÙĨ": 29363,
  "Ø¢ÙħØ¯ÙĨØ¯": 19974,
  "Ø¢ÙħØ¯Ùĩ": 9557,
  "Ø¢ÙħØ¯ÙĩØ§": 24490,
  "Ø¢ÙħØ¯ÙĩØ§ÛĮ": 30995,
  "Ø¢ÙħØ¯ÛĮ": 6837,
  "Ø¢ÙħØ¯ÛĮÙħ": 42761,
  "Ø¢ÙħØ±ÛĮÚ©": 19038,
  "Ø¢ÙħØ±ÛĮÚ©Ø§": 12367,
  "Ø¢ÙħØ±ÛĮÚ©Ø§ÛĮÛĮ": 20342,
  "Ø¢ÙħÙ¾": 40509,
  "Ø¢ÙħÙ¾Ø±": 29866,
  "Ø¢ÙħÙĪ": 15909,
  "Ø¢ÙħÙĪØ®ØªÙĩ": 20138,
  "Ø¢ÙħÙĪØ®ØªÚ¯Ø§ÙĨ": 17026,
  "Ø¢ÙħÙĪØ²": 3142,
  "Ø¢ÙħÙĪØ²Ø§ÙĨ": 3828,
  "Ø¢ÙħÙĪØ²Ø§ÙĨÛĮ": 19668,
  "Ø¢ÙħÙĪØ²Ø¯": 26361,
  "Ø¢ÙħÙĪØ²Ø´": 20740,
  "Ø¢ÙħÙĪØ²Ø´ÛĮ": 31034,
  "Ø¢ÙħÙĪØ²ÙĨØ¯": 32329,
  "Ø¢ÙħÙĪØ²ÛĮ": 7140,
  "Ø¢ÙħÛĮ": 36464,
  "Ø¢ÙħÛĮØ²": 6044,
  "Ø¢ÙħÛĮØ²ÛĮ": 12211,
  "Ø¢ÙĨ": 2576,
  "Ø¢ÙĨØ§": 30837,
  "Ø¢ÙĨØª": 28272,
  "Ø¢ÙĨØªÛĮ": 34736,
  "Ø¢ÙĨØ¬": 13406,
  "Ø¢ÙĨØ¬ÙĦØ³": 16847,
  "Ø¢ÙĨØ¯": 42214,
  "Ø¢ÙĨØ¯Ø§": 39012,
  "Ø¢ÙĨØ²": 6971,
  "Ø¢ÙĨÙĦØ§ÛĮÙĨ": 3412,
  "Ø¢ÙĨÙĩØ§": 38028,
  "Ø¢ÙĨÚ©ØªØ§Ø¯": 42681,
  "Ø¢ÙĨÚ©Ùĩ": 32296,
  "Ø¢ÙĨÚ¯": 26623,
  "Ø¢ÙĨÚ¯ÙĪØ§": 41664,
  "Ø¢ÙĨÚĨÙĩ": 23933,
  "Ø¢ÙĨÛĮ": 10228,
  "Ø¢Ùĩ": 35416,
  "Ø¢ÙĩÙĨ": 4799,
  "Ø¢ÙĩÙĨÚ¯": 22456,
  "Ø¢ÙĩÙĨÛĮ": 37697,
  "Ø¢ÙĪØ±": 855,
  "Ø¢ÙĪØ±Ø§ÙĨ": 16888,
  "Ø¢ÙĪØ±Ø§ÙĨÙĩ": 37821,
  "Ø¢ÙĪØ±Ø¯": 2662,
  "Ø¢ÙĪØ±Ø¯ÙĨ": 28392,
  "Ø¢ÙĪØ±Ø¯ÙĨØ¯": 22109,
  "Ø¢ÙĪØ±Ø¯Ùĩ": 1130,
  "Ø¢ÙĪØ±Ø¯ÙĩØ§ÛĮ": 39165,
  "Ø¢ÙĪØ±Ø¯ÛĮ": 42398,
  "Ø¢ÙĪØ±Ø¯ÛĮÙħ": 42696,
  "Ø¢ÙĪØ±Ùħ": 25022,
  "Ø¢ÙĪØ±ÙĨØ¯": 8339,
  "Ø¢ÙĪØ±ÙĨØ¯Ùĩ": 39164,
  "Ø¢ÙĪØ±ÛĮ": 1642,
  "Ø¢ÙĪØ±ÛĮØ¯": 27043,
  "Ø¢ÙĪØ±ÛĮÙĦ": 29304,
  "Ø¢ÙĪØ±ÛĮÙħ": 16889,
  "Ø¢ÙĪÛĮ": 6549,
  "Ø¢ÙĪÛĮÙĪ": 18932,
  "Ø¢Ú©": 42213,
  "Ø¢Ú¯Ø§Ùĩ": 17992,
  "Ø¢Ú¯Ø§ÙĩÛĮ": 24979,
  "Ø¢Ú¯ÙĩÛĮ": 10533,
  "Ø¢ÛĮ": 6061,
  "Ø¢ÛĮØ§": 26991,
  "Ø¢ÛĮØ¯": 2564,
  "Ø¢ÛĮÙħ": 24118,
  "Ø¢ÛĮÙĨØ¯": 5221,
  "Ø¢ÛĮÙĨØ¯Ùĩ": 25944,
  "Ø¢ÛĮÛĮ": 28273,
  "Ø¢ÛĮÛĮØ¯": 37025,
  "Ø¢ÛĮÛĮÙħ": 21731,
  "Ø¢ÛĮÛĮÙĨ": 28043,
  "Ø£": 24331,
  "Ø¤": 1592,
  "Ø¤Ø§Ø¯": 34668,
  "Ø¤ÙħÙĨÛĮÙĨ": 25338,
  "Ø¥": 35216,
  "Ø¦": 391,
  "Ø¦Ø§": 23589,
  "Ø¦Ø§Øª": 18220,
  "Ø¦Ø§Ø³Ø§": 40455,
  "Ø¦Ø§ÙĦ": 21824,
  "Ø¦Ø§ÙĦÛĮØ³Ùħ": 38954,
  "Ø¦Øª": 1498,
  "Ø¦Ø¯": 17781,
  "Ø¦Ø±": 26977,
  "Ø¦Ø³": 20082,
  "Ø¦Ø³Ú©Ø§": 36095,
  "Ø¦Ø³Ú¯ÛĮ": 24312,
  "Ø¦Ùģ": 35376,
  "Ø¦ÙĦ": 1710,
  "Ø¦ÙĦÛĮ": 6567,
  "Ø¦Ùħ": 2410,
  "Ø¦ÙħÛĮ": 4221,
  "Ø¦ÙĨ": 40454,
  "Ø¦Ùĩ": 914,
  "Ø¦ÙĪ": 2401,
  "Ø¦ÙĪØª": 33609,
  "Ø¦ÙĪØ±": 26978,
  "Ø¦ÙĪØ±Ú¯ÛĮ": 30113,
  "Ø¦ÙĪØ³": 23143,
  "Ø¦ÙĪÙĦ": 8231,
  "Ø¦ÙĪÙĨ": 10018,
  "Ø¦ÙĪÙĨÙĩ": 37649,
  "Ø¦ÙĪÙĨÛĮ": 23824,
  "Ø¦ÙĪÚ©": 40942,
  "Ø¦ÛĮ": 1857,
  "Ø¦ÛĮØ§Øª": 35652,
  "Ø¦ÛĮØ§ÙĨ": 10241,
  "Ø¦ÛĮØª": 15878,
  "Ø¦ÛĮØ¯": 5951,
  "Ø¦ÛĮØ¯Ùĩ": 39337,
  "Ø¦ÛĮØ¯ÙĩØ§": 33032,
  "Ø¦ÛĮØ¯ÙĩØ§ÛĮ": 39338,
  "Ø¦ÛĮØ³": 692,
  "Ø¦ÛĮØ³ÛĮ": 7071,
  "Ø¦ÛĮÙĦ": 22228,
  "Ø¦ÛĮÙħ": 37648,
  "Ø¦ÛĮÙĨ": 2848,
  "Ø¦ÛĮÙĨÛĮ": 8426,
  "Ø¦ÛĮÙĩ": 5310,
  "Ø¦ÛĮÚ©": 11956,
  "Ø¦ÛĮÚ©Ùĩ": 30423,
  "Ø§": 261,
  "Ø§Ø¡": 6533,
  "Ø§Ø¦": 4368,
  "Ø§Ø¦Ø¨": 18396,
  "Ø§Ø¦Øª": 41857,
  "Ø§Ø¦Ø±": 24805,
  "Ø§Ø¦Ùģ": 32392,
  "Ø§Ø¦ÙĤ": 34829,
  "Ø§Ø¦ÙĦ": 16336,
  "Ø§Ø¦ÙĦÙĩ": 24806,
  "Ø§Ø¦ÙĪ": 9975,
  "Ø§Ø¦ÛĮ": 13212,
  "Ø§Ø¦ÛĮØ§ÙĨ": 28009,
  "Ø§Ø¦ÛĮÙĦ": 19523,
  "Ø§Ø¦ÛĮÙĩ": 28914,
  "Ø§Ø¨": 352,
  "Ø§Ø¨Ø§": 13818,
  "Ø§Ø¨Ø§Ø¯": 11564,
  "Ø§Ø¨Ø§Ø¯ÛĮ": 26968,
  "Ø§Ø¨Ø§ÙĤØ±": 32787,
  "Ø§Ø¨Ø§ÙħØ§": 26222,
  "Ø§Ø¨Ø§ÙĨ": 6965,
  "Ø§Ø¨Ø§ÙĨÚ©": 16756,
  "Ø§Ø¨Ø§ÛĮÛĮ": 30804,
  "Ø§Ø¨Øª": 1343,
  "Ø§Ø¨ØªØ§ÙĨ": 39273,
  "Ø§Ø¨ØªØ¯Ø§": 37912,
  "Ø§Ø¨ØªØ¯Ø§ÛĮ": 24745,
  "Ø§Ø¨ØªÛĮ": 4168,
  "Ø§Ø¨Ø®Ø´": 25561,
  "Ø§Ø¨Ø¯": 1570,
  "Ø§Ø¨Ø¯ÛĮÙĨ": 35630,
  "Ø§Ø¨Ø±": 1159,
  "Ø§Ø¨Ø±Ø§Ø±": 25320,
  "Ø§Ø¨Ø±Ø§Ùĩ": 8425,
  "Ø§Ø¨Ø±Ø§ÙĩÛĮÙħ": 10682,
  "Ø§Ø¨Ø±Ø§ÙĩÛĮÙħÛĮ": 13093,
  "Ø§Ø¨Ø±Ø¯": 32785,
  "Ø§Ø¨Ø±ÙĦÛĮÙĨ": 35578,
  "Ø§Ø¨Ø±ÛĮ": 3855,
  "Ø§Ø¨Ø²Ø§Ø±": 37609,
  "Ø§Ø¨Ø·": 1213,
  "Ø§Ø¨Ø·Ùĩ": 31583,
  "Ø§Ø¨Ø¹": 1085,
  "Ø§Ø¨Ø¹ÛĮ": 9695,
  "Ø§Ø¨ØŃÙĩ": 15259,
  "Ø§Ø¨ÙĤ": 1329,
  "Ø§Ø¨ÙĤÙĩ": 1991,
  "Ø§Ø¨ÙĦ": 884,
  "Ø§Ø¨ÙĦØ§": 16791,
  "Ø§Ø¨ÙĦØ§Øº": 43351,
  "Ø§Ø¨ÙĦØ§ØºÛĮ": 41555,
  "Ø§Ø¨ÙĦØ§ÙĨ": 35539,
  "Ø§Ø¨ÙĦØ§ÛĮ": 42408,
  "Ø§Ø¨ÙĦÙĩ": 1671,
  "Ø§Ø¨ÙĦÙĪ": 24437,
  "Ø§Ø¨ÙĦÛĮ": 11349,
  "Ø§Ø¨ÙĨØ¯": 5078,
  "Ø§Ø¨ÙĨØ¯Ø±": 31088,
  "Ø§Ø¨Ùĩ": 1485,
  "Ø§Ø¨ÙĩÛĮ": 39282,
  "Ø§Ø¨ÙĪ": 26967,
  "Ø§Ø¨ÙĪØ§ÙĦ": 16120,
  "Ø§Ø¨ÙĪØ§ÙĦÙģØ¶ÙĦ": 18948,
  "Ø§Ø¨ÙĪØ·": 42093,
  "Ø§Ø¨ÙĪÙĨ": 10137,
  "Ø§Ø¨Ú©ÙĪÙģ": 20675,
  "Ø§Ø¨ÛĮ": 1099,
  "Ø§Ø¨ÛĮØ±": 38903,
  "Ø§Ø¨ÛĮØ³": 35343,
  "Ø§Ø¨ÛĮØ´": 25035,
  "Ø§Ø¨ÛĮÙĦ": 32786,
  "Ø§Ø¨ÛĮÙĨ": 9727,
  "Ø§Ø¨ÛĮÙĨÛĮ": 36402,
  "Ø§Ø¨ÛĮÚ¯ÛĮ": 27066,
  "Ø§Øª": 334,
  "Ø§ØªØ§": 5431,
  "Ø§ØªØ§ÙĤ": 32051,
  "Ø§ØªØ§ÙĤØ§ÙĨ": 24094,
  "Ø§ØªØ§ÙĨ": 19900,
  "Ø§ØªØ±": 1792,
  "Ø§ØªØ±Ø§Ù¾ÛĮ": 23126,
  "Ø§ØªØ±Ø§Ú©": 19287,
  "Ø§ØªØ±ÙĪÙĨÛĮÚ©": 40865,
  "Ø§ØªØ±ÛĮ": 12020,
  "Ø§ØªØ±ÛĮÙĨ": 18721,
  "Ø§ØªØ³": 7690,
  "Ø§ØªØŃ": 8286,
  "Ø§ØªØŃØ§Ø¯": 18292,
  "Ø§ØªØŃØ§Ø¯ÛĮÙĩ": 26103,
  "Ø§ØªÙģØ§ÙĤ": 38875,
  "Ø§ØªÙĦ": 8467,
  "Ø§ØªÙĦÙĪÙĨ": 25778,
  "Ø§ØªÙħØ§": 36375,
  "Ø§ØªÙħØ§Ø¬Ø§": 43538,
  "Ø§ØªÙĨ": 42064,
  "Ø§ØªÙĩ": 5897,
  "Ø§ØªÙĪ": 12681,
  "Ø§ØªÙĪØ¨ÙĪØ³": 33564,
  "Ø§ØªÙĪØ±": 6643,
  "Ø§ØªÙĪØ±ÙĩØ§ÛĮ": 16509,
  "Ø§ØªÙĪØ±ÛĮ": 11657,
  "Ø§ØªÙĪÙģ": 40368,
  "Ø§ØªÙĪÙĦÛĮ": 40367,
  "Ø§ØªÙĪÙħ": 25550,
  "Ø§ØªÙĪÙĨ": 42065,
  "Ø§ØªÙĪÚ¯Ø±Ø§ÙģÛĮ": 40369,
  "Ø§ØªÚ©": 13281,
  "Ø§ØªÚ©Ø§ÛĮÛĮ": 16691,
  "Ø§ØªÚ©ÙĦÛĮ": 9004,
  "Ø§ØªÚ©ÙĦÛĮÙģ": 26442,
  "Ø§ØªÛĮ": 594,
  "Ø§ØªÛĮØ§": 32900,
  "Ø§ØªÛĮØ§ÙĨ": 16961,
  "Ø§ØªÛĮØª": 9488,
  "Ø§ØªÛĮØ±": 24946,
  "Ø§ØªÛĮÙĦÙĨ": 10799,
  "Ø§ØªÛĮÙĨ": 7094,
  "Ø§ØªÛĮÙĩ": 37755,
  "Ø§ØªÛĮÙĪ": 15599,
  "Ø§ØªÛĮÚ©": 3628,
  "Ø§ØªÛĮÚ©ÛĮ": 18001,
  "Ø§Ø«": 2779,
  "Ø§Ø«Ø±": 5611,
  "Ø§Ø¬": 3295,
  "Ø§Ø¬ØªÙħØ§Ø¹ÛĮ": 15400,
  "Ø§Ø¬Ø±": 11534,
  "Ø§Ø¬Ø±Ø§": 34776,
  "Ø§Ø¬Ø±Ø§ÛĮ": 23941,
  "Ø§Ø¬Ø±Ø§ÛĮÛĮ": 31677,
  "Ø§Ø¬Ùĩ": 11730,
  "Ø§Ø¬ÛĮ": 5170,
  "Ø§Ø®": 2587,
  "Ø§Ø®Ø§Ø¨Ø±": 26546,
  "Ø§Ø®Ø§ÙĨ": 35699,
  "Ø§Ø®Ø§ÙĨÙĩ": 27294,
  "Ø§Ø®Ø§ÙĨÛĮ": 22300,
  "Ø§Ø®Øª": 524,
  "Ø§Ø®ØªØ§Ø±": 23393,
  "Ø§Ø®ØªØµØ§Øµ": 37728,
  "Ø§Ø®ØªÙĦØ§Ùģ": 39054,
  "Ø§Ø®ØªÙĩ": 14162,
  "Ø§Ø®ØªÚ¯Ø§ÙĨ": 7772,
  "Ø§Ø®ØªÛĮØ§Ø±": 15106,
  "Ø§Ø®Ø°": 40969,
  "Ø§Ø®Ø±": 3701,
  "Ø§Ø®ÙĦØ§ÙĤ": 38029,
  "Ø§Ø®ÙĦØ§ÙĤÛĮ": 19346,
  "Ø§Ø®ÙĪØ±": 36813,
  "Ø§Ø®ÙĪØ±ÛĮ": 15394,
  "Ø§Ø®ÛĮ": 34339,
  "Ø§Ø¯": 328,
  "Ø§Ø¯Ø¢ÙĪØ±": 10017,
  "Ø§Ø¯Ø¢ÙĪØ±Ø´Ø¯": 41415,
  "Ø§Ø¯Ø¢ÙĪØ±ÛĮ": 29669,
  "Ø§Ø¯Ø§": 3661,
  "Ø§Ø¯Ø§Øª": 5067,
  "Ø§Ø¯Ø§Ø±": 2959,
  "Ø§Ø¯Ø§Ø±Ø§ÙĨ": 3770,
  "Ø§Ø¯Ø§Ø±Ùĩ": 32771,
  "Ø§Ø¯Ø§Ø±ÛĮ": 12642,
  "Ø§Ø¯Ø§Ø´ÛĮ": 25712,
  "Ø§Ø¯Ø§ÙħÙĩ": 16428,
  "Ø§Ø¯Ø§ÙĨ": 6140,
  "Ø§Ø¯Ø§ÙĨØ§": 18057,
  "Ø§Ø¯Ø§ÙĨÙĩ": 30224,
  "Ø§Ø¯Ø¨Ø§Ø®": 22213,
  "Ø§Ø¯Ø¨ÙĪØ¯": 36370,
  "Ø§Ø¯Øª": 4900,
  "Ø§Ø¯ØªÛĮ": 26956,
  "Ø§Ø¯Ø«": 1668,
  "Ø§Ø¯Ø«Ùĩ": 22090,
  "Ø§Ø¯Ø®Ø§ÙĨÙĩ": 26213,
  "Ø§Ø¯Ø¯Ø§Ø´Øª": 21812,
  "Ø§Ø¯Ø±": 670,
  "Ø§Ø¯Ø±Ø§Øª": 36561,
  "Ø§Ø¯Ø±Ø§ÙĨ": 7746,
  "Ø§Ø¯Ø±Ø§ÙĨÛĮ": 32148,
  "Ø§Ø¯Ø±Øª": 10811,
  "Ø§Ø¯Ø±ÙħØ§ÙĨÛĮ": 36562,
  "Ø§Ø¯Ø±ÛĮ": 6217,
  "Ø§Ø¯Ø±ÛĮØ¯": 29152,
  "Ø§Ø¯Ø²Ùĩ": 25906,
  "Ø§Ø¯Ø´Øª": 42058,
  "Ø§Ø¯Ø´Ø¯Ùĩ": 9071,
  "Ø§Ø¯Ùģ": 4804,
  "Ø§Ø¯ÙĦ": 1376,
  "Ø§Ø¯ÙĦØ§Øª": 33811,
  "Ø§Ø¯ÙĦØ§ÙĨÙĩ": 34649,
  "Ø§Ø¯ÙĦÙģÛĮØ§": 21474,
  "Ø§Ø¯ÙĦÙĩ": 5595,
  "Ø§Ø¯ÙĦÙĪ": 30950,
  "Ø§Ø¯ÙĦÛĮ": 8143,
  "Ø§Ø¯Ùħ": 10278,
  "Ø§Ø¯ÙħÛĮ": 6079,
  "Ø§Ø¯ÙħÛĮÙĪÙħ": 43005,
  "Ø§Ø¯ÙĨ": 2695,
  "Ø§Ø¯ÙĨØ¯": 30785,
  "Ø§Ø¯ÙĨÙĪÚ©": 38872,
  "Ø§Ø¯Ùĩ": 443,
  "Ø§Ø¯ÙĩØ§": 3838,
  "Ø§Ø¯ÙĩØ§Ø³Øª": 37686,
  "Ø§Ø¯ÙĩØ§ÛĮ": 1955,
  "Ø§Ø¯ÙĩØ§ÛĮÛĮ": 7485,
  "Ø§Ø¯ÙĩÛĮ": 33638,
  "Ø§Ø¯ÙĪ": 10592,
  "Ø§Ø¯ÙĪØ±": 8369,
  "Ø§Ø¯ÙĪØ³Øª": 34430,
  "Ø§Ø¯ÙĪÙĦ": 38870,
  "Ø§Ø¯ÙĪÙĦÛĮØ¯": 38871,
  "Ø§Ø¯ÙĪÙħ": 40363,
  "Ø§Ø¯ÙĪÙĨ": 28663,
  "Ø§Ø¯ÙĪÛĮ": 20511,
  "Ø§Ø¯Ú¯Ø§ÙĨ": 10366,
  "Ø§Ø¯Ú¯ÛĮ": 1930,
  "Ø§Ø¯Ú¯ÛĮØ±ÛĮ": 16195,
  "Ø§Ø¯ÛĮ": 457,
  "Ø§Ø¯ÛĮØ²": 25946,
  "Ø§Ø¯ÛĮØ²ÙĦ": 39013,
  "Ø§Ø¯ÛĮÙħ": 6964,
  "Ø§Ø¯ÛĮÙħÛĮØ±": 7533,
  "Ø§Ø¯ÛĮÙĨ": 4920,
  "Ø§Ø¯ÛĮÙĩ": 1977,
  "Ø§Ø¯ÛĮÙĪÙħ": 23837,
  "Ø§Ø°": 2638,
  "Ø§Ø°Ø±": 35701,
  "Ø§Ø±": 284,
  "Ø§Ø±Ø¦Ø§ÙĦ": 27309,
  "Ø§Ø±Ø§": 4768,
  "Ø§Ø±Ø§Ø¦Ùĩ": 23007,
  "Ø§Ø±Ø§Øª": 1553,
  "Ø§Ø±Ø§ØªÛĮ": 10431,
  "Ø§Ø±Ø§ÙĨ": 704,
  "Ø§Ø±Ø§ÙĨØªÛĮ": 10469,
  "Ø§Ø±Ø§ÙĨÙĩ": 12467,
  "Ø§Ø±Ø§ÙĨÛĮ": 38782,
  "Ø§Ø±Ø§Ú©": 21399,
  "Ø§Ø±Ø§Úĺ": 22132,
  "Ø§Ø±Ø§ÛĮ": 29625,
  "Ø§Ø±Ø¨": 20986,
  "Ø§Ø±Øª": 790,
  "Ø§Ø±ØªØ§": 13645,
  "Ø§Ø±ØªØ§Ø±": 18235,
  "Ø§Ø±ØªØ§Ø³": 19477,
  "Ø§Ø±ØªØ§ÙĨ": 19315,
  "Ø§Ø±ØªØ¨Ø§Ø·": 21592,
  "Ø§Ø±ØªØ±ÛĮ": 31521,
  "Ø§Ø±ØªÙħØ§ÙĨ": 6942,
  "Ø§Ø±ØªÙĩ": 40661,
  "Ø§Ø±ØªÛĮ": 3112,
  "Ø§Ø±Ø¬": 10648,
  "Ø§Ø±Ø¬ÙħÙĨØ¯": 43216,
  "Ø§Ø±Ø¯": 376,
  "Ø§Ø±Ø¯Ø¦ÙĪÙĨÛĮ": 27811,
  "Ø§Ø±Ø¯Ø§Ø±": 27810,
  "Ø§Ø±Ø¯Ø§Ø±Ø§ÙĨ": 38936,
  "Ø§Ø±Ø¯Ø§Ø±ÛĮ": 15875,
  "Ø§Ø±Ø¯Ø§Ø´Øª": 5194,
  "Ø§Ø±Ø¯Ø¨ÛĮÙĦ": 35364,
  "Ø§Ø±Ø¯Ø±": 25920,
  "Ø§Ø±Ø¯Ø´Øª": 42126,
  "Ø§Ø±Ø¯ÙĪ": 18104,
  "Ø§Ø±Ø¯ÙĪØ³Øª": 36416,
  "Ø§Ø±Ø¯ÛĮ": 10448,
  "Ø§Ø±Ø¯ÛĮØ¨ÙĩØ´Øª": 20472,
  "Ø§Ø±Ø²": 20355,
  "Ø§Ø±Ø²Ø§Ø¯Ùĩ": 21794,
  "Ø§Ø±Ø²Ø¯": 34373,
  "Ø§Ø±Ø²Ø´": 11655,
  "Ø§Ø±Ø²Ø´Ú¯Ø°Ø§Ø±ÛĮ": 43252,
  "Ø§Ø±Ø²Ø´ÛĮ": 27699,
  "Ø§Ø±Ø²ÛĮ": 20210,
  "Ø§Ø±Ø²ÛĮØ§Ø¨ÛĮ": 21979,
  "Ø§Ø±Ø³": 921,
  "Ø§Ø±Ø³Ø§ÙĦ": 35260,
  "Ø§Ø±Ø³Ø§ÛĮÛĮ": 40707,
  "Ø§Ø±Ø³ØªØ§ÙĨ": 6414,
  "Ø§Ø±Ø³ØªØ§ÙĨÛĮ": 24346,
  "Ø§Ø±Ø³ÙĦØ§ÙĨ": 28778,
  "Ø§Ø±Ø³ÙĨØ¬": 36631,
  "Ø§Ø±Ø³ÙĨØ¬ÛĮ": 11777,
  "Ø§Ø±Ø´": 3363,
  "Ø§Ø±Ø´Ø¯": 27308,
  "Ø§Ø±Ø´ÛĮ": 12496,
  "Ø§Ø±Ø´ÛĮÙ¾": 25805,
  "Ø§Ø±Ø¶": 7037,
  "Ø§Ø±Ø¶ÛĮ": 20357,
  "Ø§Ø±Ùģ": 3415,
  "Ø§Ø±ÙģØ¹": 32709,
  "Ø§Ø±ÙģÛĮ": 23556,
  "Ø§Ø±ÙĤ": 33513,
  "Ø§Ø±ÙĤØª": 34374,
  "Ø§Ø±Ùħ": 14357,
  "Ø§Ø±ÙħØ§": 41935,
  "Ø§Ø±ÙħÙĨØ³ØªØ§ÙĨ": 31991,
  "Ø§Ø±ÙħÙĪÙĨÛĮÚ©": 34180,
  "Ø§Ø±ÙĨ": 11379,
  "Ø§Ø±ÙĨØ¯": 20356,
  "Ø§Ø±ÙĨØ³Ø¨": 41453,
  "Ø§Ø±Ùĩ": 430,
  "Ø§Ø±ÙĩØ§": 12893,
  "Ø§Ø±ÙĩØ§ÛĮ": 13358,
  "Ø§Ø±ÙĪ": 7563,
  "Ø§Ø±ÙĪØ§ÛĮØª": 23988,
  "Ø§Ø±ÙĪØ¯": 23793,
  "Ø§Ø±ÙĪÙ¾Ø§": 37075,
  "Ø§Ø±ÙĪÙħØ§": 36289,
  "Ø§Ø±ÙĪÙħÛĮÙĩ": 40265,
  "Ø§Ø±ÙĪÙĨ": 12763,
  "Ø§Ø±ÙĪÙĪØ§": 22354,
  "Ø§Ø±Ú©": 29624,
  "Ø§Ø±Ú©ÛĮ": 9861,
  "Ø§Ø±Ú¯": 8964,
  "Ø§Ø±Ú¯Ø§Ø¯": 10193,
  "Ø§Ø±Ú¯Ø§ÙĨÛĮ": 12592,
  "Ø§Ø±ÚĨ": 2745,
  "Ø§Ø±Úĺ": 21398,
  "Ø§Ø±ÛĮ": 354,
  "Ø§Ø±ÛĮØ§": 14410,
  "Ø§Ø±ÛĮØ§ÙĨ": 12977,
  "Ø§Ø±ÛĮØ¯": 10180,
  "Ø§Ø±ÛĮØ³": 21612,
  "Ø§Ø±ÛĮØ³ØªÙĪ": 34445,
  "Ø§Ø±ÛĮÙħ": 22628,
  "Ø§Ø±ÛĮÙĨ": 23792,
  "Ø§Ø±ÛĮÙĩ": 11625,
  "Ø§Ø±ÛĮÙĪ": 28679,
  "Ø§Ø±ÛĮÙĪÙħ": 25258,
  "Ø§Ø±ÛĮÚ©": 40409,
  "Ø§Ø²": 340,
  "Ø§Ø²Ø¢ÙĨ": 28668,
  "Ø§Ø²Ø§": 30793,
  "Ø§Ø²Ø§Ø¯Ùĩ": 8694,
  "Ø§Ø²Ø§ÙĨ": 17674,
  "Ø§Ø²Ø§Ú©ÛĮ": 30229,
  "Ø§Ø²Ø§ÛĮ": 25912,
  "Ø§Ø²Ø§ÛĮÙĨ": 27352,
  "Ø§Ø²Ø¯": 9522,
  "Ø§Ø²Ø¯Ùĩ": 7510,
  "Ø§Ø²Ø¯ÙĩÙħ": 2769,
  "Ø§Ø²Ø¯ÙĩÙħÛĮÙĨ": 6310,
  "Ø§Ø²Ø¯Ú¯ÛĮ": 18824,
  "Ø§Ø²Ø±Ùĩ": 31417,
  "Ø§Ø²Ø´": 42075,
  "Ø§Ø²ØŃØ¯": 37594,
  "Ø§Ø²Ù¾ÛĮØ´": 26961,
  "Ø§Ø²ÙĦ": 4225,
  "Ø§Ø²Ùħ": 966,
  "Ø§Ø²ÙħÙĪØ±ÛĮØ§ÙĨ": 36642,
  "Ø§Ø²ÙĨ": 2675,
  "Ø§Ø²ÙĨØ¯": 7628,
  "Ø§Ø²ÙĨÚ©Ø§": 20145,
  "Ø§Ø²ÙĨÛĮ": 16429,
  "Ø§Ø²Ùĩ": 1246,
  "Ø§Ø²ÙĩØ§ÛĮ": 42076,
  "Ø§Ø²ÙĩÛĮ": 30932,
  "Ø§Ø²ÙĪÙĦ": 31416,
  "Ø§Ø²ÙĪÙĨ": 7914,
  "Ø§Ø²Ú¯ÛĮ": 3998,
  "Ø§Ø²ÛĮ": 550,
  "Ø§Ø²ÛĮØ¯": 36388,
  "Ø§Ø²ÛĮØ³": 26217,
  "Ø§Ø²ÛĮÙĨ": 27800,
  "Ø§Ø²ÛĮÙĪ": 29746,
  "Ø§Ø³": 362,
  "Ø§Ø³Ø§": 37617,
  "Ø§Ø³Ø§Øª": 38911,
  "Ø§Ø³Ø§Ø¯Ø§Øª": 22221,
  "Ø§Ø³Ø§Ø±": 37618,
  "Ø§Ø³Ø§Ø²": 24957,
  "Ø§Ø³Ø§Ø²ÛĮ": 4660,
  "Ø§Ø³Ø§Ø³": 1727,
  "Ø§Ø³Ø§Ø³ÙĪÙĦ": 19952,
  "Ø§Ø³Ø§Ø³ÛĮ": 26599,
  "Ø§Ø³Ø§ÙħÛĮ": 27806,
  "Ø§Ø³Ø§ÙĨ": 1362,
  "Ø§Ø³Ø§ÙĨÛĮ": 15260,
  "Ø§Ø³Ø§ÛĮ": 30808,
  "Ø§Ø³Ø§ÛĮÚ©ÙĦÛĮÙĨ": 36167,
  "Ø§Ø³Ø¨": 1149,
  "Ø§Ø³Ø¨Øª": 35348,
  "Ø§Ø³Ø¨ÙĤ": 36680,
  "Ø§Ø³Ø¨ÙĪØ±Ú¯": 32211,
  "Ø§Ø³Ø¨ÛĮ": 9137,
  "Ø§Ø³Øª": 623,
  "Ø§Ø³ØªØ§ØªÛĮÚ©": 23169,
  "Ø§Ø³ØªØ§Ø¯": 33696,
  "Ø§Ø³ØªØ§Ø±": 40615,
  "Ø§Ø³ØªØ§Ø±Øª": 28752,
  "Ø§Ø³ØªØ§ÙĨ": 8438,
  "Ø§Ø³ØªØ§ÙĨØ¯Ø§Ø±": 38332,
  "Ø§Ø³ØªØ§ÙĨØ¯Ø§Ø±Ø¯": 14777,
  "Ø§Ø³ØªØ§ÙĨÛĮ": 34555,
  "Ø§Ø³ØªØ§Ú©Ø³": 27427,
  "Ø§Ø³ØªØ§ÛĮØ±ÙĨ": 36549,
  "Ø§Ø³ØªØ«": 22264,
  "Ø§Ø³ØªØ«ÙĨØ§ÛĮ": 24604,
  "Ø§Ø³ØªØ±": 12816,
  "Ø§Ø³ØªØ±Ø§Øª": 32903,
  "Ø§Ø³ØªØ±ÙĪ": 29238,
  "Ø§Ø³ØªØ±ÙĪØ¦ÛĮØ¯ÛĮ": 36550,
  "Ø§Ø³ØªØ±ÛĮØª": 17062,
  "Ø§Ø³ØªØ±ÛĮÙħ": 33697,
  "Ø§Ø³ØªØµÙĨØ§": 36551,
  "Ø§Ø³ØªÙģØ§Ø¯Ùĩ": 6502,
  "Ø§Ø³ØªÙĤÙĦØ§ÙĦ": 34556,
  "Ø§Ø³ØªÙĩ": 17692,
  "Ø§Ø³ØªÙĪØ±": 35475,
  "Ø§Ø³ØªÙĪÙĨ": 42317,
  "Ø§Ø³ØªÛĮ": 30874,
  "Ø§Ø³ØªÛĮÙĨ": 17887,
  "Ø§Ø³ØªÛĮÚ©": 33698,
  "Ø§Ø³Ø¯": 8491,
  "Ø§Ø³Ø¯Ø§ÙĦÙĦÙĩ": 19096,
  "Ø§Ø³Ø¯ÛĮ": 42104,
  "Ø§Ø³Ø±": 8719,
  "Ø§Ø³Ø±Ø§ÙģÛĮÙĦ": 37620,
  "Ø§Ø³Ø±ÛĮ": 32067,
  "Ø§Ø³Ø·": 5982,
  "Ø§Ø³Ù¾": 19442,
  "Ø§Ø³Ù¾Ø§ÙĨÛĮØ§": 30080,
  "Ø§Ø³Ù¾ÛĮ": 32069,
  "Ø§Ø³Ùģ": 27365,
  "Ø§Ø³ÙģØ±": 42105,
  "Ø§Ø³ÙģÙĨØ¯": 15370,
  "Ø§Ø³ÙģÙĨØ¯ÙħØ§Ùĩ": 32545,
  "Ø§Ø³ÙģÙĩ": 37619,
  "Ø§Ø³ÙĦ": 18725,
  "Ø§Ø³ÙĦØ§Ùħ": 5089,
  "Ø§Ø³ÙĦØ§ÙħÛĮ": 20165,
  "Ø§Ø³ÙĦÙĪ": 34452,
  "Ø§Ø³ÙĦÛĮ": 29166,
  "Ø§Ø³Ùħ": 2240,
  "Ø§Ø³ÙħØ§Ø¹ÛĮ": 14068,
  "Ø§Ø³ÙħØ§Ø¹ÛĮÙĦ": 16934,
  "Ø§Ø³ÙħØ§Ø¹ÛĮÙĦÛĮ": 23517,
  "Ø§Ø³ÙħÛĮ": 4425,
  "Ø§Ø³ÙĨ": 17163,
  "Ø§Ø³ÙĨØ§Ø¯": 38913,
  "Ø§Ø³ÙĨØ¬": 17776,
  "Ø§Ø³ÙĨÙ¾": 38495,
  "Ø§Ø³Ùĩ": 33591,
  "Ø§Ø³ÙĪ": 22881,
  "Ø§Ø³ÙĪØ¬": 27807,
  "Ø§Ø³ÙĪÙĦ": 14111,
  "Ø§Ø³ÙĪÙħ": 38912,
  "Ø§Ø³ÙĪÙĨØ§": 31427,
  "Ø§Ø³ÙĪÙĨÛĮÚ©": 15960,
  "Ø§Ø³Ú©": 16351,
  "Ø§Ø³Ú©Ø§": 15959,
  "Ø§Ø³Ú©ÙĦ": 32068,
  "Ø§Ø³Ú©ÙĦØ±ÙĪØ²": 33437,
  "Ø§Ø³Ú©ÙĨ": 22882,
  "Ø§Ø³Ú©ÙĨØ§Ø³": 43419,
  "Ø§Ø³Ú©ÙĪ": 42106,
  "Ø§Ø³Ú©ÛĮ": 26225,
  "Ø§Ø³Ú¯Ø§ÙĨ": 16430,
  "Ø§Ø³ÛĮ": 681,
  "Ø§Ø³ÛĮØ§": 7531,
  "Ø§Ø³ÛĮØ§ÙĨ": 12169,
  "Ø§Ø³ÛĮØª": 34451,
  "Ø§Ø³ÛĮØ¯": 25919,
  "Ø§Ø³ÛĮØ±": 16597,
  "Ø§Ø³ÛĮØ³": 33592,
  "Ø§Ø³ÛĮÙĨ": 28239,
  "Ø§Ø³ÛĮÙĪ": 33709,
  "Ø§Ø³ÛĮÙĪÙĨ": 1542,
  "Ø§Ø³ÛĮÙĪÙĨÛĮ": 24709,
  "Ø§Ø³ÛĮÚ©": 31506,
  "Ø§Ø´": 1501,
  "Ø§Ø´Ø§Øª": 17903,
  "Ø§Ø´Ø§Ø±Ùĩ": 19024,
  "Ø§Ø´Ø§ÙĨ": 25859,
  "Ø§Ø´Ø¨": 39284,
  "Ø§Ø´Ø¨Ø§Ø¹": 40819,
  "Ø§Ø´Øª": 4101,
  "Ø§Ø´ØªØ±Ø§Ú©": 38150,
  "Ø§Ø´ØªÙĨ": 25391,
  "Ø§Ø´ØªÙĩ": 10929,
  "Ø§Ø´ØªÙĩØ§ÛĮÛĮ": 34822,
  "Ø§Ø´Ø®Ø§Øµ": 35621,
  "Ø§Ø´Ø¯Ùĩ": 40818,
  "Ø§Ø´Ø±": 18083,
  "Ø§Ø´Ø±Øª": 20966,
  "Ø§Ø´Ø±Ùģ": 37928,
  "Ø§Ø´Ø±ÙģÛĮ": 17301,
  "Ø§Ø´ÙĤ": 7152,
  "Ø§Ø´ÙĨÛĮ": 22955,
  "Ø§Ø´ÙĪÛĮÙĦÛĮ": 25334,
  "Ø§Ø´ÛĮ": 5877,
  "Ø§Ø´ÛĮÙĩ": 17143,
  "Ø§Øµ": 714,
  "Ø§ØµØ¨": 19473,
  "Ø§ØµØ±": 4668,
  "Ø§ØµØ±Ùĩ": 9609,
  "Ø§ØµØ·ÙĦØ§ØŃ": 35501,
  "Ø§ØµØºØ±": 10348,
  "Ø§ØµÙģÙĩ": 13930,
  "Ø§ØµÙģÙĩØ§ÙĨ": 14233,
  "Ø§ØµÙĦ": 2089,
  "Ø§ØµÙĦØ§ØŃ": 28312,
  "Ø§ØµÙĦÙĩ": 1725,
  "Ø§ØµÙĦÛĮ": 27883,
  "Ø§ØµÙħ": 29763,
  "Ø§ØµÙĨØ¹Øª": 39137,
  "Ø§ØµÙĪÙĦ": 35500,
  "Ø§ØµÛĮ": 14660,
  "Ø§ØµÛĮÙĦ": 40645,
  "Ø§Ø¶": 723,
  "Ø§Ø¶Ø§ÙģÙĩ": 34577,
  "Ø§Ø¶Ø·Ø±Ø§Ø±ÛĮ": 39139,
  "Ø§Ø¶Ø¹": 6471,
  "Ø§Ø¶ØŃ": 34576,
  "Ø§Ø¶ÙĦ": 3806,
  "Ø§Ø¶ÙĦØ§Ø¨": 29916,
  "Ø§Ø¶ÙĦÛĮ": 32157,
  "Ø§Ø¶ÛĮ": 3928,
  "Ø§Ø¶ÛĮØ§ÙĨ": 32158,
  "Ø§Ø·": 516,
  "Ø§Ø·Ø§ÙĩØ±": 32124,
  "Ø§Ø·Øª": 26261,
  "Ø§Ø·Ø±": 1062,
  "Ø§Ø·Ø¹": 4029,
  "Ø§Ø·Ø¹ÛĮ": 17184,
  "Ø§Ø·Ùģ": 20856,
  "Ø§Ø·ÙĦØ§": 13447,
  "Ø§Ø·ÙĦØ§Ø¹": 21554,
  "Ø§Ø·ÙĦØ§Ø¹Ø§Øª": 26849,
  "Ø§Ø·ÙĦØ§Ø¹ÛĮ": 20636,
  "Ø§Ø·ÙĦØ§Ø¹ÛĮÙĩ": 38532,
  "Ø§Ø·ÙĦØ³": 11511,
  "Ø§Ø·ÙħÙĩ": 7413,
  "Ø§Ø·ÙħÛĮÙĨ": 20392,
  "Ø§Ø·ÙħÛĮÙĨØ§ÙĨÛĮ": 21779,
  "Ø§Ø·Ùĩ": 18993,
  "Ø§Ø·ÛĮ": 4370,
  "Ø§Ø·ÛĮÙĨ": 22251,
  "Ø§Ø¸": 2088,
  "Ø§Ø¸ÙħÛĮ": 10269,
  "Ø§Ø¸ÙĩØ§Ø±": 23446,
  "Ø§Ø¸ÙĩØ§Ø±ÛĮ": 14262,
  "Ø§Ø¹": 4091,
  "Ø§Ø¹Ø§Øª": 29089,
  "Ø§Ø¹Ø§Ø¯Ùĩ": 21503,
  "Ø§Ø¹Øª": 8516,
  "Ø§Ø¹ØªØ¨Ø§Ø±": 23992,
  "Ø§Ø¹ØªØ¨Ø§Ø±ÛĮ": 27638,
  "Ø§Ø¹ØªÙħØ§Ø¯": 27200,
  "Ø§Ø¹ØªÙħØ§Ø¯ÛĮ": 17243,
  "Ø§Ø¹ØªÙĨØ§": 39779,
  "Ø§Ø¹ØªÙĨØ§ÛĮÛĮ": 23993,
  "Ø§Ø¹ØªÛĮ": 28611,
  "Ø§Ø¹Ø¯": 10380,
  "Ø§Ø¹Ø¯ÛĮ": 19514,
  "Ø§Ø¹Ø¶Ø§ÛĮ": 27565,
  "Ø§Ø¹ÙĦØ§Ùħ": 22750,
  "Ø§Ø¹Ùħ": 13897,
  "Ø§Ø¹ÙħØ§ÙĦ": 31061,
  "Ø§Ø¹Ùĩ": 11703,
  "Ø§Ø¹ÙĪÙĨ": 22541,
  "Ø§Ø¹ÛĮ": 13534,
  "Ø§Øº": 16420,
  "Ø§ØºÙĦØ¨": 39947,
  "Ø§ØºÙĦÙĩ": 34197,
  "Ø§ØºÚĨÙĩ": 43346,
  "Ø§ØŃ": 970,
  "Ø§ØŃØ¨": 10340,
  "Ø§ØŃØ¨Ùĩ": 39201,
  "Ø§ØŃØª": 3654,
  "Ø§ØŃØªØ±": 23633,
  "Ø§ØŃØªØ±Ø§ÙħÛĮ": 26878,
  "Ø§ØŃØªÙħ": 20876,
  "Ø§ØŃØªÙħØ§ÙĦ": 34228,
  "Ø§ØŃØªÙħØ§ÙĦØ§": 41612,
  "Ø§ØŃØªÛĮ": 7327,
  "Ø§ØŃØªÛĮØ§Ø·ÛĮ": 28959,
  "Ø§ØŃØ¯": 27903,
  "Ø§ØŃØ¯Ø§Ø«": 24152,
  "Ø§ØŃØ³Ø§Ø¨": 30361,
  "Ø§ØŃØ³Ø§ÙĨ": 21652,
  "Ø§ØŃÙĤÛĮÙĤØª": 14864,
  "Ø§ØŃÙĦ": 4985,
  "Ø§ØŃÙĦÛĮ": 8995,
  "Ø§ØŃÙħØ¯": 4512,
  "Ø§ØŃÙħØ¯Ø±Ø¶Ø§": 23715,
  "Ø§ØŃÙħØ¯ÛĮ": 16528,
  "Ø§ØŃÙħØ±": 11553,
  "Ø§ØŃÙĪØ§ÙĦ": 36643,
  "Ø§ØŃÛĮ": 4380,
  "Ø§Ù¾": 1138,
  "Ø§Ù¾Ø§": 17901,
  "Ø§Ù¾ØªØ§ÙĨ": 20120,
  "Ø§Ù¾Ø±Ø§ØªÙĪØ±": 30927,
  "Ø§Ù¾Ø³Øª": 21657,
  "Ø§Ù¾ÙĦ": 27912,
  "Ø§Ù¾ÙĦØ§Ø³": 26298,
  "Ø§Ù¾ÙĦÛĮÚ©ÛĮØ´ÙĨ": 33781,
  "Ø§Ù¾ÙĨ": 17083,
  "Ø§Ù¾Ùĩ": 20718,
  "Ø§Ù¾ÙĪØ±": 5718,
  "Ø§Ù¾ÙĪØ±ÛĮ": 23420,
  "Ø§Ù¾ÛĮ": 4958,
  "Ø§Ù¾ÛĮÙħ": 42470,
  "Ø§Ù¾ÛĮÚ©": 35572,
  "Ø§Ù¾ÛĮÚ©Ø³": 9364,
  "Ø§Ùģ": 519,
  "Ø§ÙģØ§ÙĨ": 42267,
  "Ø§ÙģØ§ÙĨÙĩ": 30300,
  "Ø§ÙģØª": 2386,
  "Ø§ÙģØªØ§Ø¯": 14380,
  "Ø§ÙģØªØ§Ø¯ÙĨ": 40941,
  "Ø§ÙģØªØ§Ø¯Ùĩ": 14381,
  "Ø§ÙģØªØ§Ø¯Ú¯Ø§ÙĨ": 42651,
  "Ø§ÙģØªØ§Ø¯Ú¯ÛĮ": 22516,
  "Ø§ÙģØªØ¯": 5083,
  "Ø§ÙģØªÙĨ": 23450,
  "Ø§ÙģØªÙĨØ¯": 16823,
  "Ø§ÙģØªÙĩ": 11591,
  "Ø§ÙģØªÛĮÙħ": 38013,
  "Ø§ÙģØ±Ø§": 18459,
  "Ø§ÙģØ±Ø§Ø¯": 30144,
  "Ø§ÙģØ±ÙĪØ´ÛĮ": 37726,
  "Ø§ÙģØ±ÛĮ": 7722,
  "Ø§ÙģØ²": 4491,
  "Ø§ÙģØ²Ø§": 27410,
  "Ø§ÙģØ²Ø§Ø±": 4573,
  "Ø§ÙģØ²Ø§Ø±ÙĩØ§": 20452,
  "Ø§ÙģØ²Ø§Ø±ÙĩØ§ÛĮ": 11844,
  "Ø§ÙģØ²Ø§Ø±ÛĮ": 7328,
  "Ø§ÙģØ²Ø§ÛĮ": 36510,
  "Ø§ÙģØ²Ø§ÛĮØ¯": 6196,
  "Ø§ÙģØ²Ø§ÛĮØ´": 14003,
  "Ø§ÙģØ²Ø§ÛĮÙĨØ¯": 32883,
  "Ø§ÙģØ²Ø§ÛĮÛĮ": 8078,
  "Ø§ÙģØ²ÙĪØ¯": 20924,
  "Ø§ÙģØ²ÙĪØ¯Ùĩ": 17005,
  "Ø§ÙģØ´Ø§Ø±": 33675,
  "Ø§ÙģØ´Ø§ÙĨ": 34531,
  "Ø§ÙģØ´Ø§ÙĨÛĮ": 27849,
  "Ø§ÙģØ´ÛĮÙĨ": 34532,
  "Ø§ÙģØ¶ÙĦÛĮ": 31483,
  "Ø§ÙģØ¹": 2477,
  "Ø§ÙģØ¹ÛĮ": 11688,
  "Ø§ÙģØºØ§ÙĨ": 29740,
  "Ø§ÙģØºØ§ÙĨØ³ØªØ§ÙĨ": 31283,
  "Ø§ÙģÙĤ": 1101,
  "Ø§ÙģÙĤÛĮ": 6362,
  "Ø§ÙģÙĦ": 6972,
  "Ø§ÙģÙĩ": 16130,
  "Ø§ÙģÙĪÛĮÙĩ": 37725,
  "Ø§ÙģÚ©ÙĨ": 23392,
  "Ø§ÙģÚ©ÙĨÛĮ": 31482,
  "Ø§ÙģÛĮ": 2072,
  "Ø§ÙģÛĮØª": 33674,
  "Ø§ÙģÛĮÙĦÙħ": 37727,
  "Ø§ÙĤ": 694,
  "Ø§ÙĤØ§ÙĨ": 18474,
  "Ø§ÙĤØ¨": 6922,
  "Ø§ÙĤØ¨Ø§": 9902,
  "Ø§ÙĤØ¨ÛĮ": 27028,
  "Ø§ÙĤØª": 21039,
  "Ø§ÙĤØªØµ": 12442,
  "Ø§ÙĤØªØµØ§Ø¯": 20328,
  "Ø§ÙĤØªØµØ§Ø¯ÛĮ": 15302,
  "Ø§ÙĤØªÛĮ": 40633,
  "Ø§ÙĤØ¯Ø§Ùħ": 22675,
  "Ø§ÙĤØ¯Ø§ÙħØ§Øª": 30092,
  "Ø§ÙĤØ±": 26657,
  "Ø§ÙĤØ³ØªØ§ÙĨ": 39128,
  "Ø§ÙĤØµ": 8153,
  "Ø§ÙĤØ¹": 4886,
  "Ø§ÙĤØ¹ÛĮ": 10368,
  "Ø§ÙĤÙĦ": 11691,
  "Ø§ÙĤÙĦÛĮ": 36568,
  "Ø§ÙĤÙĩ": 40205,
  "Ø§ÙĤÛĮ": 4000,
  "Ø§ÙĤÛĮØ§ÙĨ": 14885,
  "Ø§ÙĤÛĮØ§ÙĨÙĪØ³ÛĮ": 23302,
  "Ø§ÙĤÛĮØ§ÙĨÙĪØ³ÛĮÙĩ": 23534,
  "Ø§ÙĦ": 312,
  "Ø§ÙĦØ¦ÙĪÙĨ": 34413,
  "Ø§ÙĦØ§": 12069,
  "Ø§ÙĦØ§Øª": 1925,
  "Ø§ÙĦØ§ØªÛĮ": 21201,
  "Ø§ÙĦØ§Ø«Ø±": 40322,
  "Ø§ÙĦØ§Ø¬": 11751,
  "Ø§ÙĦØ§Ø¬Ø±Ø§": 13910,
  "Ø§ÙĦØ§Ø¬Ø±Ø§Ø¡": 29506,
  "Ø§ÙĦØ§Ø¬Ø±Ø§Ø¡Ø´Ø¯ÙĨ": 41687,
  "Ø§ÙĦØ§Ø¬Ø±Ø§Ø³Øª": 28522,
  "Ø§ÙĦØ§Ø¬ÙĦ": 31189,
  "Ø§ÙĦØ§Ø®ØªÛĮØ§Ø±": 28647,
  "Ø§ÙĦØ§Ø±": 26579,
  "Ø§ÙĦØ§Ø±Ø¶": 42017,
  "Ø§ÙĦØ§Ø±Ø¶ÛĮ": 31386,
  "Ø§ÙĦØ§Ø³ÙĦØ§Ùħ": 8740,
  "Ø§ÙĦØ§Ø³ÙĦØ§ÙħÛĮ": 43132,
  "Ø§ÙĦØ§ØµÙĦ": 40321,
  "Ø§ÙĦØ§ØŃØ¯Ø§Ø«": 32023,
  "Ø§ÙĦØ§Ùģ": 29652,
  "Ø§ÙĦØ§ÙģØºØ§ÙĨÛĮ": 31939,
  "Ø§ÙĦØ§ÙħÙ¾ÙĪØ±": 21202,
  "Ø§ÙĦØ§ÙħÚ©Ø§ÙĨ": 19429,
  "Ø§ÙĦØ§ÙĨ": 5659,
  "Ø§ÙĦØ§ÙĨØªØ§": 20303,
  "Ø§ÙĦØ§ÙĪÙĦ": 38846,
  "Ø§ÙĦØ§ÛĮÙĨ": 38845,
  "Ø§ÙĦØ¨": 1674,
  "Ø§ÙĦØ¨Ø§": 12244,
  "Ø§ÙĦØ¨ØªÙĩ": 20064,
  "Ø§ÙĦØ¨Ø¯ÙĦ": 16982,
  "Ø§ÙĦØ¨Ø±Ø²": 24363,
  "Ø§ÙĦØ¨ÛĮ": 10727,
  "Ø§ÙĦØª": 1423,
  "Ø§ÙĦØªØ¯Ø±ÛĮØ³": 21867,
  "Ø§ÙĦØªØ¯Ø±ÛĮØ³ÛĮ": 35612,
  "Ø§ÙĦØªØ¹Ø¸ÛĮÙħ": 42529,
  "Ø§ÙĦØªØŃØ±ÛĮØ±": 25046,
  "Ø§ÙĦØªØŃØµ": 9778,
  "Ø§ÙĦØªØŃØµÛĮÙĦ": 15706,
  "Ø§ÙĦØªØŃØµÛĮÙĦØ§ÙĨ": 12838,
  "Ø§ÙĦØªØŃØµÛĮÙĦÛĮ": 26449,
  "Ø§ÙĦØªÙģØ§ÙĪØª": 12991,
  "Ø§ÙĦØªÙĩØ§Ø¨": 33005,
  "Ø§ÙĦØªÛĮ": 4919,
  "Ø§ÙĦØ¬": 42016,
  "Ø§ÙĦØ®Ø±ÙĪØ¬": 38847,
  "Ø§ÙĦØ®ØµÙĪØµ": 33543,
  "Ø§ÙĦØ¯": 2332,
  "Ø§ÙĦØ¯Ø¦ÛĮØ¯": 33869,
  "Ø§ÙĦØ¯ÙĪ": 31643,
  "Ø§ÙĦØ¯ÙĪÙĦÙĩ": 25684,
  "Ø§ÙĦØ¯ÙĪÙħ": 40935,
  "Ø§ÙĦØ¯ÛĮÙĨ": 4423,
  "Ø§ÙĦØ¯ÛĮÙĨÛĮ": 14996,
  "Ø§ÙĦØ°Ú©Ø±": 14787,
  "Ø§ÙĦØ±Ø¶Ø§": 32751,
  "Ø§ÙĦØ±ÛĮ": 32021,
  "Ø§ÙĦØ±ÛĮÙĩ": 26946,
  "Ø§ÙĦØ²": 15254,
  "Ø§ÙĦØ²Ø§Ùħ": 29137,
  "Ø§ÙĦØ²ØŃÙħÙĩ": 20805,
  "Ø§ÙĦØ²ÙĪØ±": 38468,
  "Ø§ÙĦØ³": 8858,
  "Ø§ÙĦØ³Ø§Ø¹Ùĩ": 37563,
  "Ø§ÙĦØ³ÙĦØ§Ùħ": 27644,
  "Ø§ÙĦØ³ÙĦØ·ÙĨÙĩ": 27785,
  "Ø§ÙĦØ³ÙĩÙħ": 40323,
  "Ø§ÙĦØ³ÛĮØ±": 34412,
  "Ø§ÙĦØ´": 24078,
  "Ø§ÙĦØ´Ø±ÛĮØ¹Ùĩ": 31919,
  "Ø§ÙĦØ´Ø¹": 16035,
  "Ø§ÙĦØ´Ø¹Ø§Ø¹": 19729,
  "Ø§ÙĦØ´Ø¹Ø¨ÛĮ": 33348,
  "Ø§ÙĦØµ": 3493,
  "Ø§ÙĦØ·Ø§Ø±ÙĤ": 30205,
  "Ø§ÙĦØ¹": 2139,
  "Ø§ÙĦØ¹Ø§Ø¨Ø¯ÛĮÙĨ": 42627,
  "Ø§ÙĦØ¹Ø§Ø¯Ùĩ": 5374,
  "Ø§ÙĦØ¹Ø¨ÙĪØ±": 24079,
  "Ø§ÙĦØ¹Ø¸ÛĮÙħ": 12792,
  "Ø§ÙĦØ¹ÙĦØ§Ø¬": 27507,
  "Ø§ÙĦØ¹ÙħØ±": 29325,
  "Ø§ÙĦØ¹ÙħÙĦ": 14314,
  "Ø§ÙĦØ¹ÙħÙĪÙħ": 42626,
  "Ø§ÙĦØŃ": 3583,
  "Ø§ÙĦØŃØ±Ø§Ùħ": 35759,
  "Ø§ÙĦØŃØ³Ø§Ø¨": 19585,
  "Ø§ÙĦØŃØ³ÙĨÙĩ": 8849,
  "Ø§ÙĦØŃØ³ÙĨÙĩÚ©": 39792,
  "Ø§ÙĦØŃÙĤ": 38107,
  "Ø§ÙĦØŃÙħÛĮØ¯": 18383,
  "Ø§ÙĦØŃÙĩ": 12131,
  "Ø§ÙĦØŃÛĮ": 5622,
  "Ø§ÙĦÙģ": 11219,
  "Ø§ÙĦÙģÛĮÙĨ": 33544,
  "Ø§ÙĦÙĤÙĪÙĦ": 36343,
  "Ø§ÙĦÙĦÙĩ": 2689,
  "Ø§ÙĦÙĦÙĩÛĮ": 12453,
  "Ø§ÙĦÙĦÙĩÛĮØ§ÙĨ": 32304,
  "Ø§ÙĦÙħ": 3546,
  "Ø§ÙĦÙħØ§ÙĦ": 14881,
  "Ø§ÙĦÙħØ§ÙĨÙĩ": 6353,
  "Ø§ÙĦÙħØª": 10197,
  "Ø§ÙĦÙħØ«ÙĦ": 25380,
  "Ø§ÙĦÙħØ¬ÛĮØ¯": 19213,
  "Ø§ÙĦÙħØ³ÙĦÙħÛĮÙĨ": 42783,
  "Ø§ÙĦÙħØ¹": 30203,
  "Ø§ÙĦÙħØ¹Ø§Ø±Ùģ": 32641,
  "Ø§ÙĦÙħÙ¾": 8633,
  "Ø§ÙĦÙħÙ¾ÛĮÚ©": 31160,
  "Ø§ÙĦÙħÙĤØ¯ÙĪØ±": 41077,
  "Ø§ÙĦÙħÙĦÙĦ": 4134,
  "Ø§ÙĦÙħÙĦÙĦÛĮ": 1624,
  "Ø§ÙĦÙħÙĦÚ©": 21604,
  "Ø§ÙĦÙħÙĦÛĮ": 34791,
  "Ø§ÙĦÙħÙĨØ§ÙģØ¹": 38105,
  "Ø§ÙĦÙħÙĨÙģØ¹Ùĩ": 17155,
  "Ø§ÙĦÙħÙĩ": 11220,
  "Ø§ÙĦÙħÛĮ": 38843,
  "Ø§ÙĦÙĨ": 26578,
  "Ø§ÙĦÙĨØ§Ø³": 30204,
  "Ø§ÙĦÙĨÛĮ": 23808,
  "Ø§ÙĦÙĩ": 1948,
  "Ø§ÙĦÙĩØ§": 33542,
  "Ø§ÙĦÙĩØ§Ùħ": 28821,
  "Ø§ÙĦÙĩÙħ": 29317,
  "Ø§ÙĦÙĩÛĮ": 11520,
  "Ø§ÙĦÙĪ": 13054,
  "Ø§ÙĦÙĪØ¯": 26204,
  "Ø§ÙĦÙĪØ±": 17773,
  "Ø§ÙĦÙĪØ±ÚĺÛĮ": 21971,
  "Ø§ÙĦÙĪØµÙĪÙĦ": 37564,
  "Ø§ÙĦÙĪÙĤÙĪØ¹": 32022,
  "Ø§ÙĦÙĪÚ¯": 23809,
  "Ø§ÙĦÙĪÚĺÛĮ": 32525,
  "Ø§ÙĦÚ©": 28215,
  "Ø§ÙĦÚ©ØªØ±": 25243,
  "Ø§ÙĦÚ©ØªØ±ÙĪÙĨÛĮÚ©": 34263,
  "Ø§ÙĦÚ©ØªØ±ÙĪÙĨÛĮÚ©ÛĮ": 38575,
  "Ø§ÙĦÚ©Ø³": 29653,
  "Ø§ÙĦÚ©ÙĦÛĮ": 37562,
  "Ø§ÙĦÚ©ÙĪ": 22010,
  "Ø§ÙĦÚ©ÛĮ": 36342,
  "Ø§ÙĦÚ¯ÙĪÛĮ": 38844,
  "Ø§ÙĦÛĮ": 481,
  "Ø§ÙĦÛĮØ§": 2525,
  "Ø§ÙĦÛĮØ§Ùģ": 32869,
  "Ø§ÙĦÛĮØ§ÛĮ": 33650,
  "Ø§ÙĦÛĮØ§ÛĮÛĮ": 6178,
  "Ø§ÙĦÛĮØ¯": 29651,
  "Ø§ÙĦÛĮØ²": 7168,
  "Ø§ÙĦÛĮØ²ÛĮ": 36486,
  "Ø§ÙĦÛĮØ³Øª": 4511,
  "Ø§ÙĦÛĮØ³ØªÛĮ": 10490,
  "Ø§ÙĦÛĮØ³Ùħ": 14599,
  "Ø§ÙĦÛĮÙ¾ØªÙĪØ³": 23601,
  "Ø§ÙĦÛĮÙģ": 6409,
  "Ø§ÙĦÛĮÙģÛĮ": 15969,
  "Ø§ÙĦÛĮÙĨ": 18090,
  "Ø§ÙĦÛĮÙĩ": 24123,
  "Ø§ÙĦÛĮÙĪÙħ": 39025,
  "Ø§ÙĦÛĮÚ©": 29202,
  "Ø§Ùħ": 308,
  "Ø§ÙħØ§": 4583,
  "Ø§ÙħØ§Øª": 34411,
  "Ø§ÙħØ§ÙĦ": 29135,
  "Ø§ÙħØ§ÙĨ": 12845,
  "Ø§ÙħØ§ÙĨÙĩ": 29136,
  "Ø§ÙħØ§ÛĮ": 32747,
  "Ø§ÙħØ¨Ø±": 2184,
  "Ø§ÙħØª": 3456,
  "Ø§ÙħØªØ´": 37559,
  "Ø§ÙħØªÛĮ": 8229,
  "Ø§ÙħØªÛĮØ§Ø²": 27636,
  "Ø§ÙħØ¯": 6068,
  "Ø§ÙħØ¯Ø§Ø¯": 38834,
  "Ø§ÙħØ¯ÛĮ": 28645,
  "Ø§ÙħØ±": 18715,
  "Ø§ÙħØ±ÙĪØ²": 14721,
  "Ø§ÙħØ±ÛĮ": 36339,
  "Ø§ÙħØ²": 12557,
  "Ø§ÙħØ³Ø§ÙĦ": 32748,
  "Ø§ÙħØ¶Ø§": 31383,
  "Ø§ÙħØ¹": 4592,
  "Ø§ÙħØ¹ÛĮ": 28210,
  "Ø§ÙħØŃ": 22862,
  "Ø§ÙħØŃÙĩ": 26576,
  "Ø§ÙħØŃÙĪØ±": 36119,
  "Ø§ÙħÙ¾": 1365,
  "Ø§ÙħÙ¾ØªÙĪÙĨ": 35606,
  "Ø§ÙħÙ¾ÙĪØ±": 19946,
  "Ø§ÙħÙ¾Ú©ÙĪ": 33001,
  "Ø§ÙħÙ¾ÛĮ": 29823,
  "Ø§ÙħÙ¾ÛĮÙĪØªØ±": 40059,
  "Ø§ÙħÙĦ": 528,
  "Ø§ÙħÙĦÛĮ": 4185,
  "Ø§ÙħÙĨ": 7494,
  "Ø§ÙħÙĨØ§": 36340,
  "Ø§ÙħÙĨÛĮ": 12430,
  "Ø§ÙħÙĨÛĮØª": 34072,
  "Ø§ÙħÙĨÛĮØªÛĮ": 41327,
  "Ø§ÙħÙĩ": 420,
  "Ø§ÙħÙĪ": 15952,
  "Ø§ÙħÙĪØªÙĪØ±": 25894,
  "Ø§ÙħÙĪØ±": 21602,
  "Ø§ÙħÙĪØ³": 28211,
  "Ø§ÙħÚ©Ø§ÙĨ": 16034,
  "Ø§ÙħÛĮ": 836,
  "Ø§ÙħÛĮØ§ÙĨ": 16810,
  "Ø§ÙħÛĮØ§ÙĨÚ¯": 29783,
  "Ø§ÙħÛĮØ¯": 5848,
  "Ø§ÙħÛĮØ¯ØŃ": 39664,
  "Ø§ÙħÛĮØ¯ÙĨÛĮ": 7614,
  "Ø§ÙħÛĮØ¯ÙĪØ§Ø±ÛĮ": 38251,
  "Ø§ÙħÛĮØ±": 9836,
  "Ø§ÙħÛĮØ±Ø¢Ø¨Ø§Ø¯": 43184,
  "Ø§ÙħÛĮØ±Ø§ØŃÙħØ¯": 35009,
  "Ø§ÙħÛĮØ±ØŃØ³ÛĮÙĨ": 20785,
  "Ø§ÙħÛĮØ±ÛĮ": 23359,
  "Ø§ÙħÛĮØ³": 37558,
  "Ø§ÙħÛĮÙĦÛĮ": 21049,
  "Ø§ÙħÛĮÙĨ": 724,
  "Ø§ÙħÛĮÙĨØ§": 13332,
  "Ø§ÙħÛĮÙĨÙĪ": 31514,
  "Ø§ÙħÛĮÙĨÙĪÙģÙĨ": 28760,
  "Ø§ÙħÛĮÙĨÛĮ": 31513,
  "Ø§ÙħÛĮÚ©": 8276,
  "Ø§ÙħÛĮÚ©Ø³": 35530,
  "Ø§ÙħÛĮÚ©ÛĮ": 16886,
  "Ø§ÙĨ": 280,
  "Ø§ÙĨØ§": 11537,
  "Ø§ÙĨØ§Øª": 2569,
  "Ø§ÙĨØ§Ø±ÛĮ": 32702,
  "Ø§ÙĨØ§ÙħÙĩ": 38769,
  "Ø§ÙĨØ§ÙĨ": 8915,
  "Ø§ÙĨØ¨Ø§Ø±": 13400,
  "Ø§ÙĨØ¨Ø§Ø±ÙĩØ§": 22805,
  "Ø§ÙĨØ¨Ø§Ø±ÙĩØ§ÛĮ": 32528,
  "Ø§ÙĨØª": 2763,
  "Ø§ÙĨØªØ§ÙĨ": 24499,
  "Ø§ÙĨØªØ§ÛĮ": 42704,
  "Ø§ÙĨØªØ®Ø§Ø¨": 20739,
  "Ø§ÙĨØªØ®Ø§Ø¨Ø§Øª": 32581,
  "Ø§ÙĨØªØ®Ø§Ø¨Ø§ØªÛĮ": 36102,
  "Ø§ÙĨØªØ²": 7764,
  "Ø§ÙĨØªØ²ÛĮ": 16461,
  "Ø§ÙĨØªØ³": 23452,
  "Ø§ÙĨØªØ´Ø§Ø±": 13519,
  "Ø§ÙĨØªØ¸Ø§Ø±": 29878,
  "Ø§ÙĨØªÙĤØ§ÙĦ": 26914,
  "Ø§ÙĨØªÙĩØ§": 42705,
  "Ø§ÙĨØªÙĪØ³": 35709,
  "Ø§ÙĨØªÛĮÙĨ": 36825,
  "Ø§ÙĨØªÛĮÙĨÙĪ": 23938,
  "Ø§ÙĨØ¬Ø§Ùħ": 20657,
  "Ø§ÙĨØ¬Ø§ÙħØ¯": 10527,
  "Ø§ÙĨØ¬Ø§ÙħÛĮØ¯": 41611,
  "Ø§ÙĨØ¬ÙħÙĨ": 29622,
  "Ø§ÙĨØ¯": 495,
  "Ø§ÙĨØ¯Ø§": 22408,
  "Ø§ÙĨØ¯Ø§Ø®Øª": 34244,
  "Ø§ÙĨØ¯Ø§Ø®ØªÙĨØ¯": 36115,
  "Ø§ÙĨØ¯Ø§Ø±": 18456,
  "Ø§ÙĨØ¯Ø§Ø±ÛĮ": 30292,
  "Ø§ÙĨØ¯Ø§Ø²": 4015,
  "Ø§ÙĨØ¯Ø§Ø²Ø¯": 9518,
  "Ø§ÙĨØ¯Ø§Ø²ÙĨØ¯": 13704,
  "Ø§ÙĨØ¯Ø§Ø²Ùĩ": 17789,
  "Ø§ÙĨØ¯Ø§Ø²ÙĩØ§": 34817,
  "Ø§ÙĨØ¯Ø§Ø²ÙĩØ§ÛĮ": 17726,
  "Ø§ÙĨØ¯Ø§Ø²ÛĮ": 2256,
  "Ø§ÙĨØ¯Ø§Ø²ÛĮØ¯": 31057,
  "Ø§ÙĨØ¯Ø§Ø²ÛĮÙħ": 22122,
  "Ø§ÙĨØ¯Ø§Ùħ": 35433,
  "Ø§ÙĨØ¯Ø§ÛĮ": 39033,
  "Ø§ÙĨØ¯Ø±": 6614,
  "Ø§ÙĨØ¯Ø±Ø¦Ø§": 38278,
  "Ø§ÙĨØ¯Ø±Ø§": 26635,
  "Ø§ÙĨØ¯Ø±ÙĪ": 23158,
  "Ø§ÙĨØ¯Ø±Ú©Ø§Ø±": 32115,
  "Ø§ÙĨØ¯Ø±Ú©Ø§Ø±Ø§ÙĨ": 11570,
  "Ø§ÙĨØ¯Ù¾ÛĮ": 17290,
  "Ø§ÙĨØ¯ÙĨ": 5288,
  "Ø§ÙĨØ¯ÙĨØ¯": 26999,
  "Ø§ÙĨØ¯Ùĩ": 9450,
  "Ø§ÙĨØ¯ÙĪØ²": 28289,
  "Ø§ÙĨØ¯ÙĪØ²ÛĮ": 39034,
  "Ø§ÙĨØ¯ÙĪØ³ØªØ§ÙĨÙĩ": 40538,
  "Ø§ÙĨØ¯ÛĮ": 7636,
  "Ø§ÙĨØ¯ÛĮØ´": 17945,
  "Ø§ÙĨØ¯ÛĮØ´Ø¯": 33254,
  "Ø§ÙĨØ¯ÛĮØ´ÙĨØ¯": 26496,
  "Ø§ÙĨØ¯ÛĮØ´Ùĩ": 33255,
  "Ø§ÙĨØ¯ÛĮØ´ÛĮ": 9468,
  "Ø§ÙĨØ¯ÛĮØ´ÛĮØ¯": 39750,
  "Ø§ÙĨØ¯ÛĮÙĨ": 24685,
  "Ø§ÙĨØ±ÚĺÛĮ": 16680,
  "Ø§ÙĨØ²": 3716,
  "Ø§ÙĨØ²Ø§": 32704,
  "Ø§ÙĨØ²Ùĩ": 30165,
  "Ø§ÙĨØ²ÛĮØª": 34802,
  "Ø§ÙĨØ³": 1397,
  "Ø§ÙĨØ³Ø§ÙĨ": 32230,
  "Ø§ÙĨØ³Ø§ÙĨÛĮ": 15754,
  "Ø§ÙĨØ³ØªØ±ÛĮ": 35256,
  "Ø§ÙĨØ³Ø±": 11996,
  "Ø§ÙĨØ³ÙĪØ±": 8817,
  "Ø§ÙĨØ³ÙĪÙĨ": 40803,
  "Ø§ÙĨØ³Ú©ÛĮ": 33817,
  "Ø§ÙĨØ³ÛĮ": 4150,
  "Ø§ÙĨØ³ÛĮÙĦ": 5229,
  "Ø§ÙĨØ´": 8060,
  "Ø§ÙĨØµØ§ÙģÛĮ": 34369,
  "Ø§ÙĨØ¹": 10913,
  "Ø§ÙĨÙĤÙĦØ§Ø¨": 40250,
  "Ø§ÙĨÙĦØ§ÛĮÙĨ": 30166,
  "Ø§ÙĨÙĦÙĪ": 29621,
  "Ø§ÙĨÙħ": 34368,
  "Ø§ÙĨÙĨØ¯": 27302,
  "Ø§ÙĨÙĩ": 423,
  "Ø§ÙĨÙĩØ§": 22851,
  "Ø§ÙĨÙĪ": 6431,
  "Ø§ÙĨÙĪØ§Ø¹": 25875,
  "Ø§ÙĨÙĪØ±": 33500,
  "Ø§ÙĨÙĪØ³": 31349,
  "Ø§ÙĨÙĪÙģ": 14839,
  "Ø§ÙĨÙĪÙĦ": 32703,
  "Ø§ÙĨÙĪÙĨØ¯": 10544,
  "Ø§ÙĨÙĪÛĮ": 8167,
  "Ø§ÙĨÙĪÛĮÙĩ": 3559,
  "Ø§ÙĨÚ©": 15079,
  "Ø§ÙĨÚ¯": 6227,
  "Ø§ÙĨÚ¯Ø§Ø±ÛĮ": 17661,
  "Ø§ÙĨÚ¯Ø§ÙĨ": 18960,
  "Ø§ÙĨÚ¯ÙĦÛĮØ³": 22342,
  "Ø§ÙĨÚ¯ÙĦÛĮØ³ÛĮ": 28941,
  "Ø§ÙĨÚ¯Ùĩ": 24342,
  "Ø§ÙĨÚ¯ÛĮ": 13580,
  "Ø§ÙĨÚ¯ÛĮØ²": 9030,
  "Ø§ÙĨÚ¯ÛĮØ²ØªØ±ÛĮÙĨ": 34107,
  "Ø§ÙĨÚ¯ÛĮØ²Ø¯": 37195,
  "Ø§ÙĨÚ¯ÛĮØ²Ùĩ": 23046,
  "Ø§ÙĨÚ¯ÛĮØ²ÛĮ": 22166,
  "Ø§ÙĨÚĨÙĩ": 22626,
  "Ø§ÙĨÚĺØ§Ø¯": 31985,
  "Ø§ÙĨÛĮ": 382,
  "Ø§ÙĨÛĮØ§": 2883,
  "Ø§ÙĨÛĮØ§ÙĨ": 4174,
  "Ø§ÙĨÛĮØ§ÙĩÙĪ": 10987,
  "Ø§ÙĨÛĮØ§ÛĮ": 34466,
  "Ø§ÙĨÛĮØ§ÛĮÛĮ": 8301,
  "Ø§ÙĨÛĮØª": 11116,
  "Ø§ÙĨÛĮØ¯": 27303,
  "Ø§ÙĨÛĮØ¯Ùĩ": 42135,
  "Ø§ÙĨÛĮØ³": 31432,
  "Ø§ÙĨÛĮÙħ": 33501,
  "Ø§ÙĨÛĮÙĨ": 38768,
  "Ø§ÙĨÛĮÙĩ": 2224,
  "Ø§ÙĨÛĮÙĪØ²": 35369,
  "Ø§ÙĨÛĮÙĪÙħ": 11543,
  "Ø§ÙĨÛĮÚ©": 32082,
  "Ø§Ùĩ": 329,
  "Ø§ÙĩØ§": 1855,
  "Ø§ÙĩØ§Øª": 21813,
  "Ø§ÙĩØ§Ø¯ÛĮ": 35325,
  "Ø§ÙĩØ§Ø³Øª": 20370,
  "Ø§ÙĩØ§Ùħ": 25250,
  "Ø§ÙĩØ§ÙĨ": 24373,
  "Ø§ÙĩØ§ÛĮ": 15359,
  "Ø§ÙĩØ¨": 20671,
  "Ø§ÙĩØª": 6694,
  "Ø§ÙĩØªÛĮ": 24944,
  "Ø§ÙĩØ¯": 4832,
  "Ø§ÙĩØ¯Ø§ÙĨ": 21608,
  "Ø§ÙĩØ¯Ùĩ": 8654,
  "Ø§ÙĩØ¯ÛĮ": 12432,
  "Ø§ÙĩØ±": 4315,
  "Ø§ÙĩØ±Ø§": 8182,
  "Ø§ÙĩØ±Ø§Øª": 9050,
  "Ø§ÙĩØ±ÛĮ": 5098,
  "Ø§ÙĩØ±ÛĮØ§ÙĨ": 22432,
  "Ø§ÙĩØ´": 23125,
  "Ø§ÙĩÙĦ": 14647,
  "Ø§ÙĩÙĦÛĮ": 12767,
  "Ø§ÙĩÙħ": 1128,
  "Ø§ÙĩÙħØ§": 24738,
  "Ø§ÙĩÙħÙĩ": 19325,
  "Ø§ÙĩÙħÛĮØª": 14669,
  "Ø§ÙĩÙħÛĮØªÛĮ": 35571,
  "Ø§ÙĩÙĨ": 9003,
  "Ø§ÙĩÙĨÚ¯": 19765,
  "Ø§ÙĩÙĩ": 21413,
  "Ø§ÙĩÙĪ": 9223,
  "Ø§ÙĩÛĮ": 1713,
  "Ø§ÙĩÛĮØ±": 11258,
  "Ø§ÙĪ": 1820,
  "Ø§ÙĪØ§": 8346,
  "Ø§ÙĪØ§Øª": 17199,
  "Ø§ÙĪØ§ØªÛĮ": 40868,
  "Ø§ÙĪØ§Ø®Ø±": 26827,
  "Ø§ÙĪØ§Ø±ÛĮØ§ÙĨ": 32257,
  "Ø§ÙĪØ§Ø³Ø·": 19027,
  "Ø§ÙĪØ§ÛĮ": 14872,
  "Ø§ÙĪØ§ÛĮÙĦ": 27083,
  "Ø§ÙĪØª": 20977,
  "Ø§ÙĪØ¯ÛĮ": 33470,
  "Ø§ÙĪØ±": 1025,
  "Ø§ÙĪØ±Ø§ÙĤ": 19481,
  "Ø§ÙĪØ±Ø§ÙĦ": 35557,
  "Ø§ÙĪØ±Ø§ÙĨ": 25031,
  "Ø§ÙĪØ±Ø§ÙĨÙĩ": 32193,
  "Ø§ÙĪØ±Øª": 8464,
  "Ø§ÙĪØ±Ø¯": 4666,
  "Ø§ÙĪØ±Ø¯ÛĮ": 23637,
  "Ø§ÙĪØ±ÙħÛĮØ§ÙĨÙĩ": 36655,
  "Ø§ÙĪØ±Ùĩ": 22071,
  "Ø§ÙĪØ±ÙĩØ§ÙĦ": 33767,
  "Ø§ÙĪØ±ÛĮ": 11654,
  "Ø§ÙĪØ±ÛĮÙħ": 28789,
  "Ø§ÙĪØ²": 7598,
  "Ø§ÙĪØ²ÛĮ": 41858,
  "Ø§ÙĪØ³ÛĮ": 42590,
  "Ø§ÙĪØ¶Ùĩ": 20266,
  "Ø§ÙĪØºÙĦÙĪ": 32258,
  "Ø§ÙĪÙ¾Ú©": 3371,
  "Ø§ÙĪÙĦ": 9501,
  "Ø§ÙĪÙĦÙĪÛĮØª": 33286,
  "Ø§ÙĪÙĦÛĮ": 21787,
  "Ø§ÙĪÙĦÛĮÙĨ": 33471,
  "Ø§ÙĪÙĦÛĮÙĩ": 26876,
  "Ø§ÙĪÙħ": 2119,
  "Ø§ÙĪÙĨ": 844,
  "Ø§ÙĪÙĨØ¯": 24912,
  "Ø§ÙĪÙĨÛĮ": 5020,
  "Ø§ÙĪÙĩ": 17035,
  "Ø§ÙĪÙĪ": 35649,
  "Ø§ÙĪÙĪØ±": 37959,
  "Ø§ÙĪÚ©": 24473,
  "Ø§ÙĪÚ©Ø±Ø§ÛĮÙĨ": 29556,
  "Ø§ÙĪÚ©Ø±ØªØ±ÙĨØ³": 40869,
  "Ø§ÙĪÛĮ": 4457,
  "Ø§ÙĪÛĮØ±": 13791,
  "Ø§ÙĪÛĮØ±ÙĪØ³": 39907,
  "Ø§ÙĪÛĮØ²": 30524,
  "Ø§ÙĪÛĮÙĦ": 23087,
  "Ø§ÙĪÛĮÙħØ§ÙĤ": 33840,
  "Ø§ÙĪÛĮÚ©": 26779,
  "Ø§Ú©": 717,
  "Ø§Ú©Ø§": 23174,
  "Ø§Ú©Ø§Ø±": 22056,
  "Ø§Ú©Ø§Ø±Øª": 34575,
  "Ø§Ú©Ø§Ø±ÙĪØªÙĨ": 27261,
  "Ø§Ú©Ø§Ø±ÙĪÙĨ": 42358,
  "Ø§Ú©Ø§Ø±ÛĮ": 20698,
  "Ø§Ú©Ø§ÙĦØ§": 32925,
  "Ø§Ú©Ø§ÙĨ": 6871,
  "Ø§Ú©Ø§ÙĨÛĮØ§ÙĨ": 35502,
  "Ø§Ú©Ø¨": 42356,
  "Ø§Ú©Ø¨Ø±": 14032,
  "Ø§Ú©Ø¨Ø±ÛĮ": 36577,
  "Ø§Ú©Øª": 10418,
  "Ø§Ú©ØªØ§ÙĨ": 42357,
  "Ø§Ú©ØªØ¨Ø±": 24850,
  "Ø§Ú©ØªØ´": 30890,
  "Ø§Ú©ØªØ´Ø§Ùģ": 31292,
  "Ø§Ú©ØªÙĪØ±": 6113,
  "Ø§Ú©ØªÙĪØ±ÛĮ": 31832,
  "Ø§Ú©ØªÙĪØ³": 34132,
  "Ø§Ú©Ø±": 7844,
  "Ø§Ú©Ø±Øª": 37783,
  "Ø§Ú©Ø±Ø¯Ùĩ": 28495,
  "Ø§Ú©Ø±ÙĪØ²": 30889,
  "Ø§Ú©Ø±ÛĮ": 12171,
  "Ø§Ú©Ø³": 4729,
  "Ø§Ú©Ø³ÛĮ": 32922,
  "Ø§Ú©Ø³ÛĮØ¯": 11400,
  "Ø§Ú©Ø³ÛĮØ¯Ø§ÙĨ": 17116,
  "Ø§Ú©Ø³ÛĮØ¯Ø§ÙĨÛĮ": 29491,
  "Ø§Ú©Ø³ÛĮØ¯Ú©Ø±Ø¨ÙĨ": 19390,
  "Ø§Ú©Ø´": 28758,
  "Ø§Ú©Ø´ÙĨ": 32924,
  "Ø§Ú©ÙĦ": 23331,
  "Ø§Ú©ÙĦØ§Ùħ": 30888,
  "Ø§Ú©ÙĨÙĪÙĨ": 3542,
  "Ø§Ú©ÙĪ": 9346,
  "Ø§Ú©ÙĪØ§Ø¯ÙĪØ±": 39806,
  "Ø§Ú©ÙĪØ±": 11176,
  "Ø§Ú©ÙĪØ³": 28313,
  "Ø§Ú©ÙĪÙģ": 30331,
  "Ø§Ú©ÙĪÙħØ§Ø¨": 42359,
  "Ø§Ú©ÛĮ": 4083,
  "Ø§Ú©ÛĮØ¯": 32155,
  "Ø§Ú©ÛĮØ³": 32923,
  "Ø§Ú©ÛĮÙĨ": 29247,
  "Ø§Ú¯": 22844,
  "Ø§Ú¯Ø±": 2954,
  "Ø§Ú¯Ø±Ø§Ùħ": 41017,
  "Ø§Ú¯Ø±Ø¯": 20499,
  "Ø§Ú¯Ø±ÚĨÙĩ": 42729,
  "Ø§Ú¯Ø²": 40206,
  "Ø§Ú¯Ùĩ": 30716,
  "Ø§Ú¯ÙĪ": 21788,
  "Ø§Ú¯ÙĪÙĨ": 9237,
  "Ø§ÚĨ": 9402,
  "Ø§Úĺ": 6361,
  "Ø§ÚĺÛĮ": 17036,
  "Ø§ÛĮ": 282,
  "Ø§ÛĮØ§": 17862,
  "Ø§ÛĮØ§Øª": 11948,
  "Ø§ÛĮØ§Ø±": 20985,
  "Ø§ÛĮØ§ÙĦØ§Øª": 37485,
  "Ø§ÛĮØ§ÙĨ": 4442,
  "Ø§ÛĮØ§ÙĨÙĩ": 32705,
  "Ø§ÛĮØ§ÛĮ": 40254,
  "Ø§ÛĮØ¨": 3695,
  "Ø§ÛĮØª": 771,
  "Ø§ÛĮØªØ§ÙĦÛĮØ§": 29772,
  "Ø§ÛĮØªØ§ÙĨ": 20407,
  "Ø§ÛĮØªØ¯": 9347,
  "Ø§ÛĮØªÛĮ": 10948,
  "Ø§ÛĮØ¬": 1225,
  "Ø§ÛĮØ¬Ø§Ø¯": 17803,
  "Ø§ÛĮØ¬Ø§ÙĨ": 25038,
  "Ø§ÛĮØ¯": 479,
  "Ø§ÛĮØ¯Ø±": 18454,
  "Ø§ÛĮØ¯Ø±ÙĪ": 24412,
  "Ø§ÛĮØ¯ÙĨ": 22461,
  "Ø§ÛĮØ¯Ùĩ": 28188,
  "Ø§ÛĮØ¯ÙĪ": 24985,
  "Ø§ÛĮØ¯Ú©": 24684,
  "Ø§ÛĮØ¯ÛĮ": 8798,
  "Ø§ÛĮØ±": 1035,
  "Ø§ÛĮØ±Ø§ÙĨ": 8665,
  "Ø§ÛĮØ±Ø§ÙĨØ´ÙĩØ±": 39787,
  "Ø§ÛĮØ±Ø§ÙĨÛĮ": 12821,
  "Ø§ÛĮØ±Ø¬": 23415,
  "Ø§ÛĮØ±ÙĨ": 7887,
  "Ø§ÛĮØ±ÙĨØ§": 25032,
  "Ø§ÛĮØ±ÛĮ": 7492,
  "Ø§ÛĮØ±ÛĮÙĨ": 37862,
  "Ø§ÛĮØ²": 6575,
  "Ø§ÛĮØ²Ø±": 15575,
  "Ø§ÛĮØ²ÛĮ": 18556,
  "Ø§ÛĮØ³": 27305,
  "Ø§ÛĮØ³Øª": 13132,
  "Ø§ÛĮØ³ØªØ¯": 28098,
  "Ø§ÛĮØ³ØªÙĨØ¯": 29500,
  "Ø§ÛĮØ³ØªÚ¯Ø§Ùĩ": 28532,
  "Ø§ÛĮØ³ØªÛĮ": 36284,
  "Ø§ÛĮØ³Ùĩ": 2207,
  "Ø§ÛĮØ´": 434,
  "Ø§ÛĮØ´Ø§ÙĨ": 11829,
  "Ø§ÛĮØ´Ú¯Ø§Ùĩ": 936,
  "Ø§ÛĮØ´ÛĮ": 4889,
  "Ø§ÛĮØµ": 18555,
  "Ø§ÛĮØµÛĮ": 41924,
  "Ø§ÛĮØ·": 23341,
  "Ø§ÛĮØ¹": 962,
  "Ø§ÛĮØ¹ÛĮ": 11593,
  "Ø§ÛĮÙģ": 2936,
  "Ø§ÛĮÙģÛĮ": 13723,
  "Ø§ÛĮÙĤ": 4894,
  "Ø§ÛĮÙĤÛĮ": 23342,
  "Ø§ÛĮÙĦ": 1347,
  "Ø§ÛĮÙĦØ§Ùħ": 41923,
  "Ø§ÛĮÙĦØ¯": 29293,
  "Ø§ÛĮÙĦÙĪ": 32227,
  "Ø§ÛĮÙĦÙĪØª": 42516,
  "Ø§ÛĮÙĦÛĮ": 6180,
  "Ø§ÛĮÙĦÛĮÙĨ": 12361,
  "Ø§ÛĮÙħ": 1660,
  "Ø§ÛĮÙħÙĨ": 13581,
  "Ø§ÛĮÙħÙĨØ§": 33018,
  "Ø§ÛĮÙħÙĨÛĮ": 20419,
  "Ø§ÛĮÙħÙĪÙĨ": 21064,
  "Ø§ÛĮÙħÚ©Ø³": 21673,
  "Ø§ÛĮÙħÛĮ": 37484,
  "Ø§ÛĮÙħÛĮØ¯Ø±ÙĪ": 20724,
  "Ø§ÛĮÙĨ": 2886,
  "Ø§ÛĮÙĨØ§Øª": 10786,
  "Ø§ÛĮÙĨØªØ±": 26746,
  "Ø§ÛĮÙĨØªØ±ÙĨØª": 40027,
  "Ø§ÛĮÙĨØ¬Ø§": 23100,
  "Ø§ÛĮÙĨØ¯": 6379,
  "Ø§ÛĮÙĨØ¯Ùĩ": 20658,
  "Ø§ÛĮÙĨØ¯ÛĮ": 19420,
  "Ø§ÛĮÙĨØ³": 20279,
  "Ø§ÛĮÙĨÚ©": 18148,
  "Ø§ÛĮÙĨÚ©Ùĩ": 17819,
  "Ø§ÛĮÙĨÚĨ": 32318,
  "Ø§ÛĮÙĩ": 1648,
  "Ø§ÛĮÙĪ": 37482,
  "Ø§ÛĮÙĪØ§ÙĨ": 41922,
  "Ø§ÛĮÙĪØ¨": 34372,
  "Ø§ÛĮÚ©": 14715,
  "Ø§ÛĮÚ©Ø³": 22852,
  "Ø§ÛĮÛĮ": 408,
  "Ø§ÛĮÛĮØ¯": 38772,
  "Ø§ÛĮÛĮÙĦ": 26983,
  "Ø§ÛĮÛĮÙħ": 37483,
  "Ø§ÛĮÛĮÙĩ": 28707,
  "Ø§ÛĮÛĮÚ©": 42164,
  "Ø¨": 286,
  "Ø¨Ø§": 1143,
  "Ø¨Ø§Ø¡": 24451,
  "Ø¨Ø§Ø¦ÙĪ": 34628,
  "Ø¨Ø§Ø¨": 4856,
  "Ø¨Ø§Ø¨Ø§": 20765,
  "Ø¨Ø§Ø¨Ø§ÛĮÛĮ": 20605,
  "Ø¨Ø§Ø¨ÙĪÙĩ": 29411,
  "Ø¨Ø§Ø¨Ú©": 19691,
  "Ø¨Ø§Ø¨ÛĮ": 14580,
  "Ø¨Ø§Øª": 1694,
  "Ø¨Ø§ØªØ§ÙĨ": 27496,
  "Ø¨Ø§ØªØ±ÛĮ": 35643,
  "Ø¨Ø§ØªÙĪØ¬Ùĩ": 40854,
  "Ø¨Ø§ØªÛĮ": 7794,
  "Ø¨Ø§ØªÛĮÚ©": 41940,
  "Ø¨Ø§Ø®": 19632,
  "Ø¨Ø§Ø®Øª": 31355,
  "Ø¨Ø§Ø®ØªÙĩ": 32717,
  "Ø¨Ø§Ø®ØªÚ¯Ø§ÙĨ": 11012,
  "Ø¨Ø§Ø¯": 6940,
  "Ø¨Ø§Ø¯ÙĩØ§": 37502,
  "Ø¨Ø§Ø¯ÙĩØ§ÛĮ": 24927,
  "Ø¨Ø§Ø¯ÛĮ": 12679,
  "Ø¨Ø§Ø±": 1528,
  "Ø¨Ø§Ø±Ø§ÙĨ": 25526,
  "Ø¨Ø§Ø±Ø¯": 26559,
  "Ø¨Ø§Ø±Ø³": 40269,
  "Ø¨Ø§Ø±Ø´": 37931,
  "Ø¨Ø§Ø±Ùĩ": 825,
  "Ø¨Ø§Ø±ÙĩØ§": 19638,
  "Ø¨Ø§Ø±ÙĩØ§ÛĮ": 28348,
  "Ø¨Ø§Ø±ÛĮ": 4406,
  "Ø¨Ø§Ø²": 3697,
  "Ø¨Ø§Ø²Ø§Ø±": 8395,
  "Ø¨Ø§Ø²Ø§ÙĨ": 9259,
  "Ø¨Ø§Ø²Ø¯": 27555,
  "Ø¨Ø§Ø²Ø¯Ùĩ": 25096,
  "Ø¨Ø§Ø²Ø¯ÛĮØ¯": 38118,
  "Ø¨Ø§Ø²Ø±": 34801,
  "Ø¨Ø§Ø²Ø³Ø§Ø²ÛĮ": 35768,
  "Ø¨Ø§Ø²ÙĨØ¯": 42801,
  "Ø¨Ø§Ø²ÙĩØ§": 39512,
  "Ø¨Ø§Ø²Ú¯Ø´Øª": 33954,
  "Ø¨Ø§Ø²ÛĮ": 5400,
  "Ø¨Ø§Ø²ÛĮÚ©ÙĨ": 34026,
  "Ø¨Ø§Ø²ÛĮÚ©ÙĨØ§ÙĨ": 39640,
  "Ø¨Ø§Ø³": 12312,
  "Ø¨Ø§Ø´": 4044,
  "Ø¨Ø§Ø´Ø¯": 2295,
  "Ø¨Ø§Ø´ÙĨØ¯": 5244,
  "Ø¨Ø§Ø´Ú¯Ø§Ùĩ": 27999,
  "Ø¨Ø§Ø´ÛĮ": 17594,
  "Ø¨Ø§Ø´ÛĮÙħ": 29385,
  "Ø¨Ø§Ø·": 19278,
  "Ø¨Ø§Ø·ÛĮ": 30743,
  "Ø¨Ø§Ø¹": 9967,
  "Ø¨Ø§Øº": 6384,
  "Ø¨Ø§ØºÙĩ": 35573,
  "Ø¨Ø§ØŃ": 37499,
  "Ø¨Ø§Ù¾Ùĩ": 22411,
  "Ø¨Ø§Ùģ": 4984,
  "Ø¨Ø§ÙģØ§ÙĨ": 41187,
  "Ø¨Ø§ÙģØª": 17084,
  "Ø¨Ø§ÙģØªÙĩ": 31570,
  "Ø¨Ø§ÙģÛĮ": 13677,
  "Ø¨Ø§ÙĤ": 5494,
  "Ø¨Ø§ÙĤØ±": 7338,
  "Ø¨Ø§ÙĤØ±ÛĮ": 24539,
  "Ø¨Ø§ÙĤÛĮ": 17593,
  "Ø¨Ø§ÙĦ": 1042,
  "Ø¨Ø§ÙĦØ§": 16529,
  "Ø¨Ø§ÙĦØ§ØªØ±ÛĮÙĨ": 40731,
  "Ø¨Ø§ÙĦØ§ÛĮ": 33770,
  "Ø¨Ø§ÙĦØ§ÛĮÛĮ": 25998,
  "Ø¨Ø§ÙĦØª": 31562,
  "Ø¨Ø§ÙĦØ¯": 39218,
  "Ø¨Ø§ÙĦØº": 30923,
  "Ø¨Ø§ÙĦÙĩ": 3365,
  "Ø¨Ø§ÙĦÙĪ": 20551,
  "Ø¨Ø§ÙĦÛĮ": 16863,
  "Ø¨Ø§ÙĦÛĮØ³Øª": 36299,
  "Ø¨Ø§ÙĦÛĮÙħ": 35558,
  "Ø¨Ø§ÙĦÛĮÙĨÛĮ": 39219,
  "Ø¨Ø§Ùħ": 16257,
  "Ø¨Ø§ÙħØ¯Ø§Ø¯": 30061,
  "Ø¨Ø§ÙĨ": 1095,
  "Ø¨Ø§ÙĨØ§ÙĨ": 8034,
  "Ø¨Ø§ÙĨØ¯": 18838,
  "Ø¨Ø§ÙĨØ¯Ùĩ": 31566,
  "Ø¨Ø§ÙĨÙĩ": 18709,
  "Ø¨Ø§ÙĨÙĪØ§ÙĨ": 35568,
  "Ø¨Ø§ÙĨÚ©": 11244,
  "Ø¨Ø§ÙĨÚ©Ø±ÛĮÙĨÚ¯": 33774,
  "Ø¨Ø§ÙĨÚ©ÛĮ": 6547,
  "Ø¨Ø§ÙĨÛĮ": 1982,
  "Ø¨Ø§Ùĩ": 37498,
  "Ø¨Ø§ÙĪØ±": 36296,
  "Ø¨Ø§Ú©": 13133,
  "Ø¨Ø§Ú©ØªØ±ÛĮ": 22804,
  "Ø¨Ø§Ú©ØªØ±ÛĮØ§ÙĦ": 27716,
  "Ø¨Ø§Ú©Ø³": 20659,
  "Ø¨Ø§ÚĨÙģ": 27469,
  "Ø¨Ø§ÛĮ": 4854,
  "Ø¨Ø§ÛĮØ¬Ø§ÙĨ": 29628,
  "Ø¨Ø§ÛĮØ¯": 14016,
  "Ø¨Ø§ÛĮØ¯ÙĨ": 31206,
  "Ø¨Ø§ÛĮØ±Ø§Ú©": 31732,
  "Ø¨Ø§ÛĮØ³Øª": 6210,
  "Ø¨Ø§ÛĮØ³ØªÛĮ": 42931,
  "Ø¨Ø§ÛĮÙģ": 24348,
  "Ø¨Ø§ÛĮÛĮ": 7386,
  "Ø¨Øª": 435,
  "Ø¨ØªØ§": 34493,
  "Ø¨ØªØ§ÙĨ": 37677,
  "Ø¨ØªÙĩ": 1434,
  "Ø¨ØªÛĮ": 3452,
  "Ø¨Ø¬Ø±": 24062,
  "Ø¨Ø®": 8067,
  "Ø¨Ø®Ø§Ø±": 31994,
  "Ø¨Ø®Ø§Ø±ÛĮ": 34086,
  "Ø¨Ø®Øª": 2860,
  "Ø¨Ø®ØªØ§ÙĨÙĩ": 26744,
  "Ø¨Ø®ØªÛĮØ§Ø±": 40996,
  "Ø¨Ø®ØªÛĮØ§Ø±ÛĮ": 35720,
  "Ø¨Ø®Ø´": 3418,
  "Ø¨Ø®Ø´Ø¯": 8450,
  "Ø¨Ø®Ø´ÙĨØ¯": 23463,
  "Ø¨Ø®Ø´ÛĮ": 4840,
  "Ø¨Ø¯": 3492,
  "Ø¨Ø¯Ø§ÙĨ": 22630,
  "Ø¨Ø¯ÙĨ": 41938,
  "Ø¨Ø¯ÙĨÛĮ": 17768,
  "Ø¨Ø¯ÙĪÙĨ": 12298,
  "Ø¨Ø¯ÛĮ": 7801,
  "Ø¨Ø¯ÛĮÙĦ": 19890,
  "Ø¨Ø¯ÛĮÙĦÛĮ": 32469,
  "Ø¨Ø±": 440,
  "Ø¨Ø±Ø§": 21999,
  "Ø¨Ø±Ø§Ø¨Ø±": 10778,
  "Ø¨Ø±Ø§Ø¨Ø±ÛĮ": 23592,
  "Ø¨Ø±Ø§Ø¯Ø±": 42196,
  "Ø¨Ø±Ø§Ø³": 10398,
  "Ø¨Ø±Ø§Ø³Ø§Ø³": 16044,
  "Ø¨Ø±Ø§ÙĨ": 1939,
  "Ø¨Ø±Ø§ÙĨØª": 34695,
  "Ø¨Ø±Ø§ÙĨÙĩ": 23151,
  "Ø¨Ø±Ø§ÙĨÚ¯ÛĮØ²": 16458,
  "Ø¨Ø±Ø§ÛĮ": 9113,
  "Ø¨Ø±Ø§ÛĮÙĨ": 37680,
  "Ø¨Ø±Ø¨Ø§ÙĨÚ©": 40499,
  "Ø¨Ø±Øª": 8161,
  "Ø¨Ø±ØªØ±": 31452,
  "Ø¨Ø±ØªÙĪÙĨ": 30833,
  "Ø¨Ø±Ø¬": 30276,
  "Ø¨Ø±Ø¬Ø§Ùħ": 10300,
  "Ø¨Ø±Ø®Ø·": 32104,
  "Ø¨Ø±Ø®ÙĪØ±Ø¯": 14851,
  "Ø¨Ø±Ø®ÙĪØ±Ø¯Ø§Ø±": 17545,
  "Ø¨Ø±Ø®ÛĮ": 24115,
  "Ø¨Ø±Ø¯": 1938,
  "Ø¨Ø±Ø¯Ø§Ø±": 9144,
  "Ø¨Ø±Ø¯Ø§Ø±Ø§ÙĨ": 10158,
  "Ø¨Ø±Ø¯Ø§Ø±ÛĮ": 1689,
  "Ø¨Ø±Ø¯Ø§Ø´Øª": 29850,
  "Ø¨Ø±Ø¯Ø§ÛĮ": 31622,
  "Ø¨Ø±Ø¯Ø³Øª": 40887,
  "Ø¨Ø±Ø¯Ùħ": 34694,
  "Ø¨Ø±Ø¯ÙĨ": 22967,
  "Ø¨Ø±Ø¯ÙĨØ¯": 16899,
  "Ø¨Ø±Ø¯Ùĩ": 11465,
  "Ø¨Ø±Ø¯Ú¯ÛĮ": 30978,
  "Ø¨Ø±Ø¯ÛĮ": 2414,
  "Ø¨Ø±Ø¯ÛĮÙħ": 28363,
  "Ø¨Ø±Ø±Ø³ÛĮ": 16701,
  "Ø¨Ø±Ø²": 3253,
  "Ø¨Ø±Ø²ÙĨ": 37679,
  "Ø¨Ø±Ø²ÙĪÛĮÙĩ": 39480,
  "Ø¨Ø±Ø²ÛĮÙĦ": 39003,
  "Ø¨Ø±Ù¾Ø§ÛĮÙĩ": 42197,
  "Ø¨Ø±ÙĤ": 11059,
  "Ø¨Ø±ÙĤÛĮ": 15881,
  "Ø¨Ø±ÙĦÛĮÙĨ": 37681,
  "Ø¨Ø±Ùħ": 11630,
  "Ø¨Ø±ÙĨ": 40497,
  "Ø¨Ø±ÙĨØ§Ùħ": 32843,
  "Ø¨Ø±ÙĨØ§ÙħÙĩ": 12474,
  "Ø¨Ø±ÙĨØ§ÙħÚ¯ÛĮ": 34300,
  "Ø¨Ø±ÙĨØª": 25589,
  "Ø¨Ø±ÙĨØ¬": 39002,
  "Ø¨Ø±ÙĨØ¯": 4207,
  "Ø¨Ø±ÙĨØ¯Ùĩ": 28270,
  "Ø¨Ø±Ùĩ": 13062,
  "Ø¨Ø±ÙĩØ§": 39001,
  "Ø¨Ø±ÙĩØ§ÛĮ": 40498,
  "Ø¨Ø±ÙĪ": 16862,
  "Ø¨Ø±ÙĪÙĨ": 21017,
  "Ø¨Ø±ÙĪÚĺ": 41557,
  "Ø¨Ø±Ú©Øª": 27760,
  "Ø¨Ø±Ú¯": 5167,
  "Ø¨Ø±Ú¯Ø±": 28269,
  "Ø¨Ø±Ú¯Ø±Ø¯ÙĪÙĨ": 26620,
  "Ø¨Ø±Ú¯Ø²Ø§Ø±": 35406,
  "Ø¨Ø±Ú¯Ø²Ø§Ø±ÛĮ": 29191,
  "Ø¨Ø±ÚĺÙĩ": 19454,
  "Ø¨Ø±ÛĮ": 1294,
  "Ø¨Ø±ÛĮØ§ÙĨ": 37500,
  "Ø¨Ø±ÛĮØª": 42504,
  "Ø¨Ø±ÛĮØªÛĮ": 20556,
  "Ø¨Ø±ÛĮØ¬": 16723,
  "Ø¨Ø±ÛĮØ¯": 10998,
  "Ø¨Ø±ÛĮØ¯ÛĮ": 12417,
  "Ø¨Ø±ÛĮØ²": 23428,
  "Ø¨Ø±ÛĮÙħ": 5805,
  "Ø¨Ø±ÛĮÙĨÚ¯": 14733,
  "Ø¨Ø²": 21594,
  "Ø¨Ø²Ø±": 11622,
  "Ø¨Ø²Ø±Ú¯": 12122,
  "Ø¨Ø²Ø±Ú¯ØªØ±ÛĮÙĨ": 31193,
  "Ø¨Ø²Ø±Ú¯ÛĮ": 39873,
  "Ø¨Ø²Ùĩ": 40271,
  "Ø¨Ø³": 5680,
  "Ø¨Ø³Ø§": 38788,
  "Ø¨Ø³Øª": 8440,
  "Ø¨Ø³ØªØ§ÙĨ": 34379,
  "Ø¨Ø³ØªÙĩ": 8718,
  "Ø¨Ø³ØªÚ¯ÛĮ": 8465,
  "Ø¨Ø³ØªÛĮ": 38787,
  "Ø¨Ø³Ø·": 34033,
  "Ø¨Ø³ÛĮ": 20820,
  "Ø¨Ø³ÛĮØ§Ø±": 30637,
  "Ø¨Ø³ÛĮØ§Ø±ÛĮ": 34227,
  "Ø¨Ø´": 16256,
  "Ø¨Ø´Ø±ÛĮ": 35083,
  "Ø¨Ø´Ú©Ùĩ": 23054,
  "Ø¨Ø¶": 28628,
  "Ø¨Ø¶Ø§Ø¹Øª": 27315,
  "Ø¨Ø·": 3669,
  "Ø¨Ø¹": 1846,
  "Ø¨Ø¹Ø¯": 20563,
  "Ø¨Ø¹Ø¯ÛĮ": 12506,
  "Ø¨Ø¹Ø¶ÛĮ": 40874,
  "Ø¨Ø¹ÙĦÛĮ": 30422,
  "Ø¨Ø¹ÛĮ": 14465,
  "Ø¨Øº": 36295,
  "Ø¨ØŃ": 15147,
  "Ø¨ØŃØ±Ø§ÙĨ": 37217,
  "Ø¨Ù¾Ø§Ø³": 38790,
  "Ø¨Ù¾ÛĮÙĪÙĨØ¯": 36300,
  "Ø¨ÙĤ": 5291,
  "Ø¨ÙĦ": 4046,
  "Ø¨ÙĦØ§": 15577,
  "Ø¨ÙĦØ§Ø³Øª": 28111,
  "Ø¨ÙĦØ§Øº": 19728,
  "Ø¨ÙĦØ§ÛĮÛĮ": 41116,
  "Ø¨ÙĦØ¯": 23704,
  "Ø¨ÙĦØ¹Ø¯": 33969,
  "Ø¨ÙĦØº": 25389,
  "Ø¨ÙĦØºØ§Ø±Ø³ØªØ§ÙĨ": 43450,
  "Ø¨ÙĦÙĨØ¯": 7192,
  "Ø¨ÙĦÙĩ": 22629,
  "Ø¨ÙĦÙĪ": 29113,
  "Ø¨ÙĦÚĺÛĮÚ©": 39537,
  "Ø¨ÙĦÛĮ": 14718,
  "Ø¨Ùħ": 34378,
  "Ø¨ÙĨ": 3367,
  "Ø¨ÙĨØ§": 10381,
  "Ø¨ÙĨØ§Ø¨": 33932,
  "Ø¨ÙĨØ§Ø¨Ø±": 33933,
  "Ø¨ÙĨØ§Ø¨Ø±Ø§ÛĮÙĨ": 36188,
  "Ø¨ÙĨØ§ÙĨ": 36297,
  "Ø¨ÙĨØ¯": 4222,
  "Ø¨ÙĨØ¯Ø§ÙĨ": 9787,
  "Ø¨ÙĨØ¯Ø¯": 17831,
  "Ø¨ÙĨØ¯Ø±": 20450,
  "Ø¨ÙĨØ¯Ø±Ø¹Ø¨Ø§Ø³": 28123,
  "Ø¨ÙĨØ¯ÙĨØ¯": 19833,
  "Ø¨ÙĨØ¯Ùĩ": 41937,
  "Ø¨ÙĨØ¯ÙĩØ§": 25229,
  "Ø¨ÙĨØ¯ÙĩØ§ÛĮ": 25879,
  "Ø¨ÙĨØ¯ÛĮ": 2363,
  "Ø¨ÙĨØ¯ÛĮÙħ": 29391,
  "Ø¨ÙĨØ²": 36298,
  "Ø¨ÙĨØ²ÛĮÙĨ": 12793,
  "Ø¨ÙĨØ¸Ø±Ø§ÙĨ": 12707,
  "Ø¨ÙĨÙĪ": 41939,
  "Ø¨ÙĨÛĮ": 3502,
  "Ø¨ÙĨÛĮØ§Ø¯": 41064,
  "Ø¨ÙĨÛĮØ§ÙĨ": 3751,
  "Ø¨ÙĨÛĮØ§ÙĨÛĮ": 21700,
  "Ø¨Ùĩ": 393,
  "Ø¨ÙĩØ§": 8368,
  "Ø¨ÙĩØ§Ø¯Ø§Ø±": 32823,
  "Ø¨ÙĩØ§Ø¯Ø±Ø§ÙĨ": 18447,
  "Ø¨ÙĩØ§Ø±": 16795,
  "Ø¨ÙĩØ§ÛĮ": 13214,
  "Ø¨ÙĩØ§ÛĮÛĮ": 17975,
  "Ø¨ÙĩØ¨ÙĪØ¯": 31436,
  "Ø¨ÙĩØªØ±ÛĮÙĨ": 42147,
  "Ø¨ÙĩØ¯Ø§Ø´Øª": 20681,
  "Ø¨ÙĩØ¯Ø§Ø´ØªÛĮ": 25186,
  "Ø¨ÙĩØ±": 14015,
  "Ø¨ÙĩØ±Ø§Ùħ": 14577,
  "Ø¨ÙĩØ±Ùĩ": 13535,
  "Ø¨ÙĩØ±ÙĪØ²": 29699,
  "Ø¨ÙĩØ²Ø§Ø¯": 27819,
  "Ø¨ÙĩØ³Ø§Ø²": 38955,
  "Ø¨ÙĩØ´Øª": 2547,
  "Ø¨ÙĩØ´ØªÛĮ": 25923,
  "Ø¨ÙĩÙħÙĨ": 14591,
  "Ø¨ÙĩÙĨØ§Ùħ": 32824,
  "Ø¨ÙĩÙĩ": 6236,
  "Ø¨ÙĩÛĮÙĨÙĩ": 42148,
  "Ø¨ÙĪ": 6860,
  "Ø¨ÙĪØ¨": 4951,
  "Ø¨ÙĪØª": 28629,
  "Ø¨ÙĪØ¯": 1008,
  "Ø¨ÙĪØ¯Ø¬Ùĩ": 27056,
  "Ø¨ÙĪØ¯ÙĨ": 13456,
  "Ø¨ÙĪØ¯ÙĨØ¯": 27904,
  "Ø¨ÙĪØ¯Ùĩ": 27314,
  "Ø¨ÙĪØ¯ÛĮ": 21654,
  "Ø¨ÙĪØ±": 2770,
  "Ø¨ÙĪØ±Ø§": 32309,
  "Ø¨ÙĪØ±Ø¯": 15725,
  "Ø¨ÙĪØ±Ø¯ÛĮ": 18893,
  "Ø¨ÙĪØ±Ø³": 19889,
  "Ø¨ÙĪØ±Ø³ÛĮ": 39431,
  "Ø¨ÙĪØ±ÙĨ": 16463,
  "Ø¨ÙĪØ±Ú¯": 7377,
  "Ø¨ÙĪØ±ÛĮ": 8454,
  "Ø¨ÙĪØ²": 35264,
  "Ø¨ÙĪØ³": 8938,
  "Ø¨ÙĪØ³Øª": 12044,
  "Ø¨ÙĪØ³Ùħ": 33281,
  "Ø¨ÙĪØ´": 40270,
  "Ø¨ÙĪØ´ÙĩØ±": 40272,
  "Ø¨ÙĪØ¹": 4811,
  "Ø¨ÙĪÙĦ": 5438,
  "Ø¨ÙĪÙĦØ§ÙĨ": 37501,
  "Ø¨ÙĪÙĦØ§ÙĨØ³": 8807,
  "Ø¨ÙĪÙĦÛĮ": 23557,
  "Ø¨ÙĪÙħ": 5546,
  "Ø¨ÙĪÙħÛĮ": 10362,
  "Ø¨ÙĪÙĨ": 18433,
  "Ø¨ÙĪÚ©": 6861,
  "Ø¨ÙĪÚ©ÙħÙ¾": 11452,
  "Ø¨ÙĪÛĮ": 36294,
  "Ø¨ÙĪÛĮÙĩ": 27761,
  "Ø¨Ú©": 4175,
  "Ø¨Ú©Ø§Ùħ": 39554,
  "Ø¨Ú©Ø±Ø§ÙĨ": 38789,
  "Ø¨Ú©Ø³": 11239,
  "Ø¨Ú©Ùĩ": 31993,
  "Ø¨Ú¯": 21795,
  "Ø¨Ú¯ÛĮØ±": 19421,
  "Ø¨Ú¯ÛĮØ±Ø§ÙĨ": 13917,
  "Ø¨Ú¯ÛĮÙĦØ§ÙĨ": 38546,
  "Ø¨ÚĨÙĩ": 24926,
  "Ø¨ÛĮ": 452,
  "Ø¨ÛĮØ§": 6197,
  "Ø¨ÛĮØ§Øª": 3410,
  "Ø¨ÛĮØ§ÙĨ": 6869,
  "Ø¨ÛĮØ¨": 18986,
  "Ø¨ÛĮØª": 2774,
  "Ø¨ÛĮØªÛĮ": 8168,
  "Ø¨ÛĮØ¬Ø§Ø±": 24116,
  "Ø¨ÛĮØ¯": 28193,
  "Ø¨ÛĮØ±": 1637,
  "Ø¨ÛĮØ±ÛĮ": 9472,
  "Ø¨ÛĮØ²": 19156,
  "Ø¨ÛĮØ³Øª": 35413,
  "Ø¨ÛĮØ´": 16125,
  "Ø¨ÛĮØ´ØªØ±": 24117,
  "Ø¨ÛĮØ´ØªØ±ÛĮÙĨ": 36461,
  "Ø¨ÛĮØŃ": 16877,
  "Ø¨ÛĮØŃÛĮ": 40503,
  "Ø¨ÛĮÙĦ": 2426,
  "Ø¨ÛĮÙĦØª": 40947,
  "Ø¨ÛĮÙĦÙĩ": 19301,
  "Ø¨ÛĮÙĦÛĮ": 13184,
  "Ø¨ÛĮÙħ": 17439,
  "Ø¨ÛĮÙħØ§Ø±Ø§ÙĨ": 43361,
  "Ø¨ÛĮÙħØ§Ø±Ø³ØªØ§ÙĨ": 35092,
  "Ø¨ÛĮÙħØ§Ø±Ø³ØªØ§ÙĨÛĮ": 43362,
  "Ø¨ÛĮÙħØ§Ø±ÛĮ": 26142,
  "Ø¨ÛĮÙħÙĩ": 16341,
  "Ø¨ÛĮÙĨ": 1734,
  "Ø¨ÛĮÙĨØ§": 33837,
  "Ø¨ÛĮÙĨØ§ÙĨÙĩ": 10472,
  "Ø¨ÛĮÙĨØ¯": 6950,
  "Ø¨ÛĮÙĨÙħ": 12701,
  "Ø¨ÛĮÙĨÙĨØ¯": 9023,
  "Ø¨ÛĮÙĨÛĮ": 1902,
  "Ø¨ÛĮÙĨÛĮØ¯": 11608,
  "Ø¨ÛĮÙĨÛĮÙħ": 7395,
  "Ø¨ÛĮÙĨÛĮÙĩØ§": 40883,
  "Ø¨ÛĮÙĩ": 4191,
  "Ø¨ÛĮÙĪ": 30834,
  "Ø¨ÛĮÙĪØªÛĮÚ©": 13290,
  "Ø¨ÛĮÙĪØªÛĮÚ©ÛĮ": 35414,
  "Ø¨ÛĮÙĪÙĨ": 30277,
  "Ø¨ÛĮÚ©": 21620,
  "Ø¨ÛĮÚ¯": 37690,
  "Ø¨ÛĮÚ¯ÛĮ": 14973,
  "Ø¨ÛĮÚĺÙĨ": 24680,
  "Ø©": 11308,
  "Øª": 270,
  "ØªØ¦": 23335,
  "ØªØ¦Ø§ØªØ±": 25503,
  "ØªØ§": 2472,
  "ØªØ§Ø¦ÙĪ": 38020,
  "ØªØ§Ø¦ÛĮÚ©": 31003,
  "ØªØ§Ø¨": 1308,
  "ØªØ§Ø¨Ø§ÙĨ": 40791,
  "ØªØ§Ø¨Ø¯": 25327,
  "ØªØ§Ø¨Ø³ØªØ§ÙĨ": 39269,
  "ØªØ§Ø¨Ø¹ÛĮØªÛĮ": 33802,
  "ØªØ§Ø¨ÙĨØ¯": 33801,
  "ØªØ§Øª": 41879,
  "ØªØ§Ø«ÛĮØ±": 13834,
  "ØªØ§Ø¬": 7445,
  "ØªØ§Ø¬ÛĮ": 34725,
  "ØªØ§Ø±": 21184,
  "ØªØ§Ø±ÛĮ": 16109,
  "ØªØ§Ø±ÛĮØ®": 30621,
  "ØªØ§Ø±ÛĮØ®ÛĮ": 20806,
  "ØªØ§Ø²Ùĩ": 36252,
  "ØªØ§Ø²ÙĪÙĨ": 23092,
  "ØªØ§Ø²Ú¯ÛĮ": 10947,
  "ØªØ§Ø²ÛĮ": 40218,
  "ØªØ§Ø³": 19270,
  "ØªØ§Ø³ÛĮØ³": 24030,
  "ØªØ§Ø³ÛĮØ³Ø§Øª": 36128,
  "ØªØ§Ø´": 25865,
  "ØªØ§ØŃ": 2362,
  "ØªØ§Ù¾": 12804,
  "ØªØ§Ù¾ÛĮ": 17763,
  "ØªØ§Ù¾ÛĮÚ©ÙĪ": 20038,
  "ØªØ§ÙĦ": 33477,
  "ØªØ§Ùħ": 9097,
  "ØªØ§ÙħØ¨Ø±": 4027,
  "ØªØ§ÙħÛĮÙĨ": 18833,
  "ØªØ§ÙĨ": 4003,
  "ØªØ§ÙĨØ§Ù¾": 38140,
  "ØªØ§ÙĨÚ©Ø±": 42836,
  "ØªØ§Ú©": 14013,
  "ØªØ§Ú©Ø³ÛĮ": 21369,
  "ØªØ§Ú©ÙĨÙĪÙĨ": 36801,
  "ØªØ§Ú©ÛĮ": 22519,
  "ØªØ§Ú©ÛĮØ¯": 24579,
  "ØªØ§Úĺ": 8297,
  "ØªØ§ÚĺÛĮ": 23221,
  "ØªØ§ÛĮ": 9449,
  "ØªØ§ÛĮÙħØ²": 23284,
  "ØªØ§ÛĮÛĮ": 18311,
  "ØªØ§ÛĮÛĮØ¯": 33284,
  "ØªØ¨": 632,
  "ØªØ¨Ø§Ø±": 20104,
  "ØªØ¨Ø§Ø·": 1203,
  "ØªØ¨Ø§ÙĦ": 1552,
  "ØªØ¨Ø¯ÛĮÙĦ": 23398,
  "ØªØ¨Ø±ÛĮØ²": 27874,
  "ØªØ¨ØµØ±Ùĩ": 22471,
  "ØªØ¨Ø·": 22266,
  "ØªØ¨Ø¹": 21446,
  "ØªØ¨Ùĩ": 2399,
  "ØªØ¨ÛĮ": 5076,
  "ØªØ¬": 32679,
  "ØªØ¬Ø§Ø±Øª": 31324,
  "ØªØ¬Ø§Ø±ÛĮ": 26178,
  "ØªØ¬Ø±Ø¨Ùĩ": 27295,
  "ØªØ¬ÙĩÛĮØ²Ø§Øª": 36253,
  "ØªØ®": 40216,
  "ØªØ®Øª": 3360,
  "ØªØ®ØµØµ": 28616,
  "ØªØ®ØµØµÛĮ": 14529,
  "ØªØ®ØµÛĮØµ": 37454,
  "ØªØ®Ùħ": 31325,
  "ØªØ®ÛĮÙĦÛĮ": 41883,
  "ØªØ¯": 17263,
  "ØªØ¯Ø¨ÛĮØ±ÛĮ": 29034,
  "ØªØ¯Ø±ÛĮØ¬": 11731,
  "ØªØ¯ÙĪÛĮÙĨ": 36070,
  "ØªØ±": 400,
  "ØªØ±Ø§": 10966,
  "ØªØ±Ø§Ø²": 17568,
  "ØªØ±Ø§Ø³ÙĪÙĨÛĮÚ©": 32089,
  "ØªØ±Ø§Ø³ÛĮÙĪÙĨ": 32088,
  "ØªØ±Ø§Ø´": 41440,
  "ØªØ±Ø§Ø´ÛĮ": 22365,
  "ØªØ±Ø§ÙĦ": 12812,
  "ØªØ±Ø§ÙħÙ¾": 18854,
  "ØªØ±Ø§ÙĨØ²ÛĮØª": 42156,
  "ØªØ±Ø§ÙĨØ³": 32087,
  "ØªØ±Ø§Ú©": 34346,
  "ØªØ±Ø§Ú©ÙĨØ´": 39856,
  "ØªØ±Ø¨ØªÛĮ": 17357,
  "ØªØ±Øª": 17173,
  "ØªØ±ØªÛĮØ¨": 13634,
  "ØªØ±Ø¬ÙħÙĩ": 29701,
  "ØªØ±Ø¬ÛĮ": 30821,
  "ØªØ±Ø¬ÛĮØŃØ§": 34287,
  "ØªØ±Ø¯": 11341,
  "ØªØ±Ø¯Ø§Ø±": 31972,
  "ØªØ±Ø¯Ø§Ùħ": 21352,
  "ØªØ±Ø¯ÛĮØ¯": 13170,
  "ØªØ±Ø³": 15321,
  "ØªØ±Ø³Ø§ÙĨ": 42155,
  "ØªØ±Ø³Ø§ÙĨØ¯": 39934,
  "ØªØ±Ø³Ø¯": 26236,
  "ØªØ±Ø³Ùħ": 34479,
  "ØªØ±Ø³ÙĨØ¯": 18684,
  "ØªØ±Ø³ÛĮØ¯": 26235,
  "ØªØ±Ø³ÛĮÙħ": 29702,
  "ØªØ±Ø´": 13141,
  "ØªØ±Ùħ": 3907,
  "ØªØ±ÙħØ±Ø¨Ø¹": 33964,
  "ØªØ±ÙħÚ©Ø¹Ø¨": 26382,
  "ØªØ±ÙħÛĮÙħ": 38967,
  "ØªØ±ÙĨ": 37657,
  "ØªØ±ÙĨØ¯": 32829,
  "ØªØ±ÙĨØ³": 30822,
  "ØªØ±Ùĩ": 9322,
  "ØªØ±ÙĩØ§": 13405,
  "ØªØ±ÙĩØ§ÛĮ": 8774,
  "ØªØ±ÙĪ": 24046,
  "ØªØ±ÙĪÙĨ": 40465,
  "ØªØ±ÙĪÙĨÛĮ": 29700,
  "ØªØ±Ú©": 10864,
  "ØªØ±Ú©ÙħÙĨ": 25458,
  "ØªØ±Ú©ÙħÙĨØ³ØªØ§ÙĨ": 43229,
  "ØªØ±Ú©ÛĮØ¨ÛĮ": 30595,
  "ØªØ±Ú©ÛĮÙĩ": 23507,
  "ØªØ±ÛĮ": 1459,
  "ØªØ±ÛĮØª": 21059,
  "ØªØ±ÛĮØ¯Ø±": 26311,
  "ØªØ±ÛĮÙĨ": 686,
  "ØªØ±ÛĮÙĨÚ¯": 13872,
  "ØªØ±ÛĮÚ©": 28175,
  "ØªØ²": 13131,
  "ØªØ²Ø±ÛĮÙĤ": 43292,
  "ØªØ³": 11944,
  "ØªØ³Øª": 24918,
  "ØªØ³Ùĩ": 22847,
  "ØªØ³ÙĩÛĮÙĦØ§Øª": 37284,
  "ØªØ´": 1504,
  "ØªØ´Ø±ÛĮØŃ": 40820,
  "ØªØ´Ú©ÛĮÙĦ": 34662,
  "ØªØµ": 616,
  "ØªØµØ§Ø¯Ùģ": 42315,
  "ØªØµØ±ÛĮØŃ": 28307,
  "ØªØµÙģÛĮÙĩ": 31499,
  "ØªØµÙħÛĮÙħ": 35472,
  "ØªØµÙĪÛĮØ¨": 28750,
  "ØªØµÙĪÛĮØ±": 35473,
  "ØªØ¶ÛĮ": 13051,
  "ØªØ¹": 7793,
  "ØªØ¹Ø§Ø¯ÙĦÛĮ": 35923,
  "ØªØ¹Ø§ÙĪÙĨÛĮ": 34080,
  "ØªØ¹Ø¯Ø§Ø¯": 23989,
  "ØªØ¹Ø±ÛĮÙģ": 17128,
  "ØªØ¹Ø²ÛĮØ±Ø§Øª": 41331,
  "ØªØ¹Ø·": 34079,
  "ØªØ¹ÙħÛĮØ±": 34966,
  "ØªØ¹ÙħÛĮØ±Ø§Øª": 40116,
  "ØªØ¹ÙĩØ¯": 40219,
  "ØªØ¹ÛĮÛĮÙĨ": 27750,
  "ØªØºØ°ÛĮÙĩ": 21395,
  "ØªØºÛĮÛĮØ±": 24047,
  "ØªØŃ": 4022,
  "ØªØŃØª": 38141,
  "ØªØŃØ±": 26385,
  "ØªØŃØ±Ú©": 38142,
  "ØªØŃØ±Ú©ÛĮ": 28440,
  "ØªØŃØ±ÛĮÙħ": 23243,
  "ØªØŃØ±ÛĮÙħÛĮ": 30662,
  "ØªØŃØµ": 41882,
  "ØªØŃÙĤÙĤ": 42839,
  "ØªØŃÙĤÛĮÙĤ": 31058,
  "ØªØŃÙĦÛĮÙĦ": 30510,
  "ØªØŃÙĪÛĮÙĦ": 35780,
  "ØªÙ¾Ø¯": 32680,
  "ØªÙ¾Ùĩ": 18552,
  "ØªÙģ": 14405,
  "ØªÙģØ§ÙĩÙħ": 24021,
  "ØªÙģØ§ÙĪØª": 19575,
  "ØªÙģØ§ÙĪØªÛĮ": 22402,
  "ØªÙģÙĦÛĮØ³": 34181,
  "ØªÙĤ": 1290,
  "ØªÙĤØ§Ø¶": 26305,
  "ØªÙĤØ§Ø¶Ø§": 32619,
  "ØªÙĤØ§Ø¶Ø§ÛĮ": 43462,
  "ØªÙĤØ§ÙĦ": 9512,
  "ØªÙĤØ§ÙĦØ§Øª": 28798,
  "ØªÙĤØ§ÙĨ": 30394,
  "ØªÙĤØ¯Ùħ": 32993,
  "ØªÙĤØ±ÛĮØ¨Ø§": 30944,
  "ØªÙĤÙĪÛĮØª": 28797,
  "ØªÙĤÛĮ": 19272,
  "ØªÙĦ": 3078,
  "ØªÙĦØ§Ø´": 28176,
  "ØªÙĦØ§ÙĨ": 25369,
  "ØªÙĦÙģÙĩ": 23687,
  "ØªÙĦÙĨØ¯": 33913,
  "ØªÙĦÙĩ": 36251,
  "ØªÙĦÙĪ": 41881,
  "ØªÙħ": 620,
  "ØªÙħØ§": 971,
  "ØªÙħØ§Ø³ÛĮ": 36548,
  "ØªÙħØ§Ø¹ÛĮ": 14611,
  "ØªÙħØ§Ùħ": 2837,
  "ØªÙħØ§ÙħÛĮ": 21841,
  "ØªÙħØ¯ÛĮØ¯": 42316,
  "ØªÙħØ±Ø§": 32902,
  "ØªÙħØ±Ú©Ø²": 19612,
  "ØªÙħØ±ÛĮÙĨ": 39106,
  "ØªÙħÙĦÛĮ": 25623,
  "ØªÙħÙĨ": 27870,
  "ØªÙħÙĨØ¯": 4624,
  "ØªÙħÙĨØ¯Ø§ÙĨ": 19611,
  "ØªÙħÙĨØ¯Ø§ÙĨÙĩ": 24526,
  "ØªÙħÙĨØ¯ÛĮ": 7040,
  "ØªÙħÛĮ": 15251,
  "ØªÙĨ": 2291,
  "ØªÙĨØ¨Ø±Ú¯": 27963,
  "ØªÙĨØ¯": 22623,
  "ØªÙĨØ¯Ú¯ÙĪÛĮØ§ÙĨ": 26153,
  "ØªÙĨØ¸ÛĮÙħ": 27516,
  "ØªÙĨÙģ": 35680,
  "ØªÙĨÙĩØ§": 11202,
  "ØªÙĨÙĩØ§ÛĮÛĮ": 23215,
  "ØªÙĨÛĮ": 19271,
  "ØªÙĩ": 10840,
  "ØªÙĩØ±Ø§ÙĨ": 12841,
  "ØªÙĩÛĮÙĩ": 39853,
  "ØªÙĪ": 2115,
  "ØªÙĪØ§ÙģÙĤ": 26724,
  "ØªÙĪØ§ÙĨ": 512,
  "ØªÙĪØ§ÙĨØ¨Ø®Ø´ÛĮ": 42262,
  "ØªÙĪØ§ÙĨØ¯": 868,
  "ØªÙĪØ§ÙĨØ³Øª": 3387,
  "ØªÙĪØ§ÙĨØ³ØªÙħ": 16804,
  "ØªÙĪØ§ÙĨØ³ØªÙĨØ¯": 9516,
  "ØªÙĪØ§ÙĨØ³ØªÙĩ": 26260,
  "ØªÙĪØ§ÙĨØ³ØªÛĮØ¯": 41058,
  "ØªÙĪØ§ÙĨØ³ØªÛĮÙħ": 9397,
  "ØªÙĪØ§ÙĨÙħ": 7185,
  "ØªÙĪØ§ÙĨÙħÙĨØ¯Ø³Ø§Ø²ÛĮ": 42263,
  "ØªÙĪØ§ÙĨÙĨØ¯": 1156,
  "ØªÙĪØ§ÙĨÛĮ": 13995,
  "ØªÙĪØ§ÙĨÛĮØ¯": 3680,
  "ØªÙĪØ§ÙĨÛĮØ±": 33672,
  "ØªÙĪØ§ÙĨÛĮÙħ": 1801,
  "ØªÙĪØ¬Ùĩ": 4128,
  "ØªÙĪØ¬ÙĩÛĮ": 7560,
  "ØªÙĪØ±": 2150,
  "ØªÙĪØ±Ø¨ÛĮÙĨ": 33855,
  "ØªÙĪØ±Ùħ": 14315,
  "ØªÙĪØ±ÙħÛĮ": 29860,
  "ØªÙĪØ²": 40217,
  "ØªÙĪØ²ÛĮØ¹": 34347,
  "ØªÙĪØ³": 13013,
  "ØªÙĪØ³Ø·": 34164,
  "ØªÙĪØ³Ø¹Ùĩ": 15015,
  "ØªÙĪØµ": 38734,
  "ØªÙĪÙ¾": 40902,
  "ØªÙĪÙĦÛĮØ¯": 11187,
  "ØªÙĪÙĦÛĮØ¯Ú©ÙĨÙĨØ¯Ú¯Ø§ÙĨ": 43237,
  "ØªÙĪÙĦÛĮØ¯ÛĮ": 41884,
  "ØªÙĪÙħ": 28174,
  "ØªÙĪÙħØ§Ø³": 43482,
  "ØªÙĪÙħØ§ÙĨ": 10217,
  "ØªÙĪÙħØ§ÙĨÛĮ": 19034,
  "ØªÙĪÙĨ": 5619,
  "ØªÙĪÙĨÙĩ": 25864,
  "ØªÙĪÙĨÛĮØ¯": 42987,
  "ØªÙĪÙĨÛĮÙħ": 42986,
  "ØªÙĪÙĨÛĮÙĨ": 25408,
  "ØªÙĪÛĮ": 26177,
  "ØªÚ©": 9265,
  "ØªÚ©Ø³": 31323,
  "ØªÚ©ÙĦÛĮÙģ": 26906,
  "ØªÚ©ÙħÛĮÙĦ": 34112,
  "ØªÚ©ÙĨ": 33478,
  "ØªÚ©Ùĩ": 41880,
  "ØªÛĮ": 418,
  "ØªÛĮØ§": 24669,
  "ØªÛĮØ§ÙĨ": 12684,
  "ØªÛĮØ¨": 13547,
  "ØªÛĮØ¬Ùĩ": 1424,
  "ØªÛĮØ±": 14528,
  "ØªÛĮØ±ÙħØ§Ùĩ": 23300,
  "ØªÛĮØ³": 20085,
  "ØªÛĮØº": 28711,
  "ØªÛĮÙ¾": 11223,
  "ØªÛĮÙģØ§ÛĮØ±": 40487,
  "ØªÛĮÙħ": 10965,
  "ØªÛĮÙħÙĪØ±": 28518,
  "ØªÛĮÙħÛĮ": 20980,
  "ØªÛĮÙĨ": 6996,
  "ØªÛĮÙĨÙĪ": 26093,
  "ØªÛĮÙĨÚ¯": 38735,
  "ØªÛĮÙĪ": 13688,
  "ØªÛĮÚ©": 5973,
  "ØªÛĮÚ©Ø§ÙĦ": 28262,
  "ØªÛĮÚ©Ø³": 31451,
  "ØªÛĮÚ©ÙĪ": 18857,
  "ØªÛĮÚ©ÛĮ": 11224,
  "Ø«": 433,
  "Ø«Ø§Ø¨Øª": 28265,
  "Ø«Ø§Ø®Øª": 42191,
  "Ø«Ø§Ø±": 11384,
  "Ø«Ø§Ø±ÛĮ": 25269,
  "Ø«Ø§ÙĦ": 12979,
  "Ø«Ø§ÙĨÛĮ": 30274,
  "Ø«Ø§ÙĨÛĮÙĩ": 14540,
  "Ø«Ø¨Ø§Øª": 12134,
  "Ø«Ø¨Ø§ØªÛĮ": 12604,
  "Ø«Ø¨Øª": 18224,
  "Ø«Øª": 13288,
  "Ø«Ø±": 979,
  "Ø«Ø±Ø§": 14850,
  "Ø«Ø±ÛĮ": 2579,
  "Ø«ÙĤ": 10652,
  "Ø«ÙĤÛĮÙĦ": 13432,
  "Ø«ÙĦ": 19300,
  "Ø«Ùħ": 25586,
  "Ø«ÙħØ±": 18225,
  "Ø«ÙĨØ§": 16043,
  "Ø«ÙĨÛĮ": 7236,
  "Ø«Ùĩ": 12772,
  "Ø«ÙĪØ±": 34492,
  "Ø«ÛĮ": 5271,
  "Ø«ÛĮØ±": 1281,
  "Ø«ÛĮØ±ÛĮ": 5667,
  "Ø«ÛĮÙĩ": 32101,
  "Ø¬": 305,
  "Ø¬Ø§": 1533,
  "Ø¬Ø§Ø¨": 20363,
  "Ø¬Ø§Øª": 4367,
  "Ø¬Ø§ØªÛĮ": 20992,
  "Ø¬Ø§Ø¬": 22710,
  "Ø¬Ø§Ø¯": 25535,
  "Ø¬Ø§Ø¯Ùĩ": 26574,
  "Ø¬Ø§Ø°Ø¨Ùĩ": 33825,
  "Ø¬Ø§Ø±": 4354,
  "Ø¬Ø§Ø±Øª": 12497,
  "Ø¬Ø§Ø±Ø³ØªØ§ÙĨ": 41136,
  "Ø¬Ø§Ø±ÛĮ": 5051,
  "Ø¬Ø§Ø²": 5435,
  "Ø¬Ø§Ø²ÛĮ": 37554,
  "Ø¬Ø§Ø³Øª": 7148,
  "Ø¬Ø§Ø³Ú©": 29646,
  "Ø¬Ø§Ø¹": 4041,
  "Ø¬Ø§Ø¹ÛĮ": 30406,
  "Ø¬Ø§ÙĦØ³": 38829,
  "Ø¬Ø§ÙĦÛĮ": 33536,
  "Ø¬Ø§Ùħ": 520,
  "Ø¬Ø§ÙħØ¯": 7909,
  "Ø¬Ø§ÙħØ¹": 42268,
  "Ø¬Ø§ÙħØ¹Ùĩ": 28294,
  "Ø¬Ø§ÙħÛĮÙĨ": 30301,
  "Ø¬Ø§ÙĨ": 2247,
  "Ø¬Ø§ÙĨØ¨": 9387,
  "Ø¬Ø§ÙĨØ¨Ùĩ": 3459,
  "Ø¬Ø§ÙĨÛĮ": 5832,
  "Ø¬Ø§ÙĪØ±": 32015,
  "Ø¬Ø§ÙĪÙĨØ¯": 33824,
  "Ø¬Ø§ÙĪÙĩ": 18136,
  "Ø¬Ø§ÛĮ": 6272,
  "Ø¬Ø§ÛĮØ²Ùĩ": 29969,
  "Ø¬Ø§ÛĮÚ¯Ø§Ùĩ": 21325,
  "Ø¬Ø§ÛĮÛĮ": 3012,
  "Ø¬Ø¨": 7116,
  "Ø¬Ø¨Ø§Ø±": 19754,
  "Ø¬Ø¨Ø±": 34406,
  "Ø¬Ø¨Ø±Ø§ÛĮÙĦ": 36194,
  "Ø¬Ø¨ÛĮ": 37553,
  "Ø¬Øª": 6320,
  "Ø¬ØªÛĮ": 40310,
  "Ø¬Ø¯": 3195,
  "Ø¬Ø¯Ø§Ø±Ùĩ": 28405,
  "Ø¬Ø¯Ø§Ø³Ø§Ø²ÛĮ": 42750,
  "Ø¬Ø¯Ø¹Ø§ÙĨ": 39478,
  "Ø¬Ø¯ÙĪÙĦ": 32332,
  "Ø¬Ø¯ÛĮ": 14466,
  "Ø¬Ø¯ÛĮØ¯": 20061,
  "Ø¬Ø°Ø¨": 35294,
  "Ø¬Ø±": 1517,
  "Ø¬Ø±Ø§Øª": 30769,
  "Ø¬Ø±Ø¨Ùĩ": 9011,
  "Ø¬Ø±Øª": 30405,
  "Ø¬Ø±Ø¯": 30766,
  "Ø¬Ø±Ø¯ÛĮ": 21403,
  "Ø¬Ø±Ùħ": 14425,
  "Ø¬Ø±Ùĩ": 17667,
  "Ø¬Ø±ÛĮ": 25892,
  "Ø¬Ø±ÛĮØ§ÙĨ": 35293,
  "Ø¬Ø±ÛĮÙĩ": 4807,
  "Ø¬Ø²": 9875,
  "Ø¬Ø²Ø¡": 35975,
  "Ø¬Ø²Ø¦ÛĮØ§Øª": 43188,
  "Ø¬Ø²ÛĮØ±Ùĩ": 25787,
  "Ø¬Ø³Øª": 34405,
  "Ø¬Ø³ØªØ§ÙĨ": 6493,
  "Ø¬Ø´ÙĨ": 26575,
  "Ø¬Ø´ÙĨÙĪØ§Ø±Ùĩ": 31269,
  "Ø¬Ø¹": 4122,
  "Ø¬Ø¹ÙģØ±": 17400,
  "Ø¬Ø¹ÙģØ±ÛĮ": 32741,
  "Ø¬Ø¹ÙĦÛĮ": 38828,
  "Ø¬ÙĦ": 10068,
  "Ø¬ÙĦØ§ÙĦ": 13320,
  "Ø¬ÙĦØ¯ÛĮ": 37133,
  "Ø¬ÙĦØ³": 26942,
  "Ø¬ÙĦØ³Ùĩ": 12719,
  "Ø¬ÙĦÙĪÚ¯ÛĮØ±ÛĮ": 32742,
  "Ø¬ÙĦÛĮÙĦ": 30768,
  "Ø¬Ùħ": 1134,
  "Ø¬ÙħØ§ÙĦ": 26688,
  "Ø¬ÙħØ§ÙĨ": 17441,
  "Ø¬ÙħØ´ÛĮØ¯": 20883,
  "Ø¬ÙħØ¹": 14490,
  "Ø¬ÙħØ¹Ø§": 42468,
  "Ø¬ÙħØ¹Ùĩ": 6563,
  "Ø¬ÙħØ¹ÛĮ": 22943,
  "Ø¬ÙħØ¹ÛĮØª": 10248,
  "Ø¬ÙħÙĦÙĩ": 6514,
  "Ø¬ÙħÙĨ": 23358,
  "Ø¬ÙħÙĨØª": 42004,
  "Ø¬ÙħÙĩ": 2026,
  "Ø¬ÙħÙĩÙĪØ±": 4561,
  "Ø¬ÙħÙĩÙĪØ±ÛĮ": 3969,
  "Ø¬ÙħÛĮ": 8397,
  "Ø¬ÙĨ": 4709,
  "Ø¬ÙĨØ§": 30195,
  "Ø¬ÙĨØ§Ø¨": 27157,
  "Ø¬ÙĨØ§ØŃÛĮ": 32639,
  "Ø¬ÙĨØ¨Ø§ÙĨ": 42914,
  "Ø¬ÙĨØª": 30197,
  "Ø¬ÙĨØ³": 25402,
  "Ø¬ÙĨÙĪØ¨": 15773,
  "Ø¬ÙĨÙĪØ¨ÛĮ": 7481,
  "Ø¬ÙĨÚ¯": 11951,
  "Ø¬ÙĨÚ¯Ø¯": 37166,
  "Ø¬ÙĨÚ¯ÙĦ": 34149,
  "Ø¬ÙĨÚ¯Ùħ": 43261,
  "Ø¬ÙĨÚ¯ÙĨØ¯": 29005,
  "Ø¬ÙĨÚ¯ÛĮÙħ": 32511,
  "Ø¬Ùĩ": 436,
  "Ø¬ÙĩØ§": 26941,
  "Ø¬ÙĩØ§ÙĨ": 18982,
  "Ø¬ÙĩØ§ÙĨÛĮ": 17175,
  "Ø¬ÙĩØ§ÙĨÛĮØ§ÙĨ": 29188,
  "Ø¬ÙĩØª": 18451,
  "Ø¬ÙĩØ±": 35292,
  "Ø¬ÙĩØ±ÙħÛĮ": 36199,
  "Ø¬ÙĩØ´": 25587,
  "Ø¬ÙĩÛĮØ²": 27389,
  "Ø¬ÙĩÛĮØ²Ø§Øª": 30667,
  "Ø¬ÙĪ": 3699,
  "Ø¬ÙĪØ§Ø¯": 5762,
  "Ø¬ÙĪØ§Ø¯ÛĮ": 42802,
  "Ø¬ÙĪØ§Ø±": 26943,
  "Ø¬ÙĪØ§ÙĨ": 3635,
  "Ø¬ÙĪØ§ÙĨØ§ÙĨ": 28424,
  "Ø¬ÙĪØ§ÙĨÛĮ": 14364,
  "Ø¬ÙĪØ¨Ùĩ": 37555,
  "Ø¬ÙĪØ¬Ùĩ": 35769,
  "Ø¬ÙĪØ¯": 619,
  "Ø¬ÙĪØ±": 19130,
  "Ø¬ÙĪØ±ÛĮ": 30196,
  "Ø¬ÙĪØ´": 15651,
  "Ø¬ÙĪÙħ": 38826,
  "Ø¬ÙĪÙĨ": 42003,
  "Ø¬ÙĪÙĨØ²": 36334,
  "Ø¬ÙĪÙĨÛĮ": 30767,
  "Ø¬ÙĪÛĮ": 8149,
  "Ø¬ÙĪÛĮØ§ÙĨ": 5882,
  "Ø¬ÙĪÛĮØ§ÙĨÙĩ": 21343,
  "Ø¬ÙĪÛĮÛĮ": 3908,
  "Ø¬Ú©": 42001,
  "Ø¬ÛĮ": 906,
  "Ø¬ÛĮØ§": 38827,
  "Ø¬ÛĮØ§ÙĨ": 24727,
  "Ø¬ÛĮØ§ÙĨÚ¯": 30917,
  "Ø¬ÛĮØ¨": 17194,
  "Ø¬ÛĮØ¨ÛĮ": 32962,
  "Ø¬ÛĮØª": 3173,
  "Ø¬ÛĮØ¯": 11013,
  "Ø¬ÛĮØ¹": 27049,
  "Ø¬ÛĮÙ¾ØªÙĪ": 39182,
  "Ø¬ÛĮÙĦ": 10166,
  "Ø¬ÛĮÙħ": 42002,
  "Ø¬ÛĮÙĨ": 9963,
  "Ø¬ÛĮÙĨØ§ÙĦ": 25450,
  "Ø¬ÛĮÙĨÚ¯": 23567,
  "Ø¬ÛĮÙĩ": 5103,
  "Ø¬ÛĮÙĩØ§ÙĨ": 27163,
  "Ø¬ÛĮÙĪ": 19791,
  "Ø®": 310,
  "Ø®Ø§": 33538,
  "Ø®Ø§Ø¨": 861,
  "Ø®Ø§Ø¨Ø±": 20409,
  "Ø®Ø§Ø¨Ø±Ø§Øª": 36613,
  "Ø®Ø§Ø¨ÛĮ": 16969,
  "Ø®Ø§Ø°": 38838,
  "Ø®Ø§Ø±": 3808,
  "Ø®Ø§Ø±Ø¬": 29917,
  "Ø®Ø§Ø±Ø¬Ùĩ": 6671,
  "Ø®Ø§Ø±Ø¬ÛĮ": 31696,
  "Ø®Ø§Ø±Ø²Ùħ": 41098,
  "Ø®Ø§Ø±Ú©": 41097,
  "Ø®Ø§Ø±ÛĮ": 33539,
  "Ø®Ø§Ø²ÙĨ": 38839,
  "Ø®Ø§Øµ": 4390,
  "Ø®Ø§ØµÛĮØª": 27572,
  "Ø®Ø§Ø·Ø±": 11188,
  "Ø®Ø§ÙĦ": 8762,
  "Ø®Ø§ÙĦØ¯": 40320,
  "Ø®Ø§ÙĦØµ": 32020,
  "Ø®Ø§ÙĦÙĤ": 31812,
  "Ø®Ø§ÙĦÛĮ": 21807,
  "Ø®Ø§Ùħ": 6669,
  "Ø®Ø§ÙĨ": 4203,
  "Ø®Ø§ÙĨÙĦÙĪ": 31709,
  "Ø®Ø§ÙĨÙħ": 33160,
  "Ø®Ø§ÙĨÙħØ§ÙĨ": 20757,
  "Ø®Ø§ÙĨÙħØ§ÙĨÛĮ": 38154,
  "Ø®Ø§ÙĨÙĩ": 1100,
  "Ø®Ø§ÙĨÙĩØ§": 26775,
  "Ø®Ø§ÙĨÙĪ": 25107,
  "Ø®Ø§ÙĨÙĪØ§Ø¯Ùĩ": 28579,
  "Ø®Ø§ÙĨÙĪØ§Ø±": 26387,
  "Ø®Ø§ÙĨÚ©ÙĨØ¯ÛĮ": 42863,
  "Ø®Ø§ÙĨÚ¯ÛĮ": 16743,
  "Ø®Ø§ÙĨÛĢ": 39556,
  "Ø®Ø§ÙĨÛĮ": 6117,
  "Ø®Ø§ÙĩÙĨ": 37560,
  "Ø®Ø§Ú©": 19756,
  "Ø®Ø§Ú©ÛĮ": 33541,
  "Ø®Ø¨": 35300,
  "Ø®Ø¨Ø±": 9666,
  "Ø®Ø¨Ø±ÙĨÚ¯Ø§Ø±": 33290,
  "Ø®Ø¨Ø±ÙĪØ±Ø²Ø´ÛĮ": 26447,
  "Ø®Ø¨Ø±Ú¯Ø²Ø§Ø±ÛĮ": 19387,
  "Ø®Øª": 378,
  "Ø®ØªØ§Ø±": 29692,
  "Ø®ØªØ±Ø§Ú©": 42128,
  "Ø®ØªØŃ": 36420,
  "Ø®ØªÙĨ": 8785,
  "Ø®ØªÙĨØ¯": 15099,
  "Ø®ØªÙĩ": 2052,
  "Ø®ØªÙĪØ±": 28694,
  "Ø®ØªÙĪØ±ØŃ": 43489,
  "Ø®ØªÚ¯Ø§ÙĨ": 9035,
  "Ø®ØªÚ¯ÛĮ": 13777,
  "Ø®ØªÛĮ": 9825,
  "Ø®ØªÛĮØ§Ø±": 22441,
  "Ø®ØªÛĮØ§Ø±ÛĮ": 40435,
  "Ø®Ø¯Ø§": 16866,
  "Ø®Ø¯Ø§ÛĮÛĮ": 38840,
  "Ø®Ø¯Ùħ": 15149,
  "Ø®Ø¯ÙħØ§Øª": 21165,
  "Ø®Ø¯ÙħØª": 26133,
  "Ø®Ø°Ùĩ": 30201,
  "Ø®Ø±": 7039,
  "Ø®Ø±Ø§Ø¬": 32750,
  "Ø®Ø±Ø§Ø³Ø§ÙĨ": 25136,
  "Ø®Ø±Ø§Ø´": 16261,
  "Ø®Ø±Ø§ÙĨ": 38836,
  "Ø®Ø±Ø¨": 42012,
  "Ø®Ø±Ø¯": 15213,
  "Ø®Ø±Ø¯Ø§Ø¯": 16781,
  "Ø®Ø±Ø¯Ø§Ø¯ÙħØ§Ùĩ": 29031,
  "Ø®Ø±Ø¯Ø§ÙĨÙĩ": 30618,
  "Ø®Ø±Ùħ": 23806,
  "Ø®Ø±ÙĨØ¯": 15627,
  "Ø®Ø±Ùĩ": 6960,
  "Ø®Ø±ÙĪØ¬": 28214,
  "Ø®Ø±ÛĮ": 22425,
  "Ø®Ø±ÛĮØ§ÙĨ": 27784,
  "Ø®Ø±ÛĮØ®ØªØŃ": 38552,
  "Ø®Ø±ÛĮØ¯": 8525,
  "Ø®Ø±ÛĮØ¯ÙĨØ¯": 33273,
  "Ø®Ø±ÛĮÙħ": 20827,
  "Ø®Ø±ÛĮÙĨ": 25537,
  "Ø®Ø²Ø§ÙĨÙĩ": 38841,
  "Ø®Ø²Ø±": 31384,
  "Ø®Ø³": 25895,
  "Ø®Ø³Ø§Ù¾Ø§": 32610,
  "Ø®Ø³Ø±ÙĪ": 31385,
  "Ø®Ø´": 497,
  "Ø®Ø´Ø§ÙĨ": 32872,
  "Ø®Ø´Ø¯": 30774,
  "Ø®Ø´ÙĨØ¯": 33660,
  "Ø®Ø´Ú©": 19303,
  "Ø®Ø´Ú©ÛĮ": 33661,
  "Ø®Ø´ÛĮ": 13446,
  "Ø®Øµ": 592,
  "Ø®ØµØµ": 1314,
  "Ø®ØµØµÛĮ": 13245,
  "Ø®ØµÙĪØµ": 2616,
  "Ø®ØµÙĪØµÛĮ": 13889,
  "Ø®ØµÛĮ": 1812,
  "Ø®ØµÛĮØµ": 2724,
  "Ø®Ø·": 10363,
  "Ø®Ø·Ø§Ø¨": 31831,
  "Ø®Ø·Ø±": 15086,
  "Ø®Ø·Ø±Ø³Ø§Ø²ÛĮ": 27214,
  "Ø®Ø·Ùĩ": 38837,
  "Ø®Ø·ÙĪØ·": 23288,
  "Ø®ÙģÛĮÙģ": 28213,
  "Ø®ÙĦ": 8966,
  "Ø®ÙĦØ§Øª": 27335,
  "Ø®ÙĦÙģ": 35301,
  "Ø®ÙĦÙĤÛĮ": 39797,
  "Ø®ÙĦÛĮ": 17350,
  "Ø®ÙĦÛĮØ¬": 36074,
  "Ø®ÙĦÛĮÙĦ": 30200,
  "Ø®Ùħ": 16780,
  "Ø®ÙħÛĮ": 14194,
  "Ø®ÙħÛĮØ³": 25478,
  "Ø®ÙĨ": 32019,
  "Ø®ÙĨØ¯": 12846,
  "Ø®ÙĨØ¯Ø§ÙĨ": 40318,
  "Ø®Ùĩ": 3015,
  "Ø®ÙĪ": 801,
  "Ø®ÙĪØ§Ø¨": 12538,
  "Ø®ÙĪØ§Ø¨Ø¯": 28770,
  "Ø®ÙĪØ§Ø¨ÙĨØ¯": 23624,
  "Ø®ÙĪØ§Ø¨ÛĮ": 10953,
  "Ø®ÙĪØ§Ø±": 9212,
  "Ø®ÙĪØ§Ø±Ø§ÙĨ": 24139,
  "Ø®ÙĪØ§Ø±ÛĮ": 18872,
  "Ø®ÙĪØ§Ø³Øª": 1548,
  "Ø®ÙĪØ§Ø³ØªÙħ": 14376,
  "Ø®ÙĪØ§Ø³ØªÙĨØ¯": 11900,
  "Ø®ÙĪØ§Ø³ØªÙĩ": 9058,
  "Ø®ÙĪØ§Ø³ØªÛĮ": 39292,
  "Ø®ÙĪØ§Ø³ØªÛĮÙħ": 12869,
  "Ø®ÙĪØ§Ùħ": 31524,
  "Ø®ÙĪØ§ÙĨ": 2265,
  "Ø®ÙĪØ§ÙĨØ¯": 11086,
  "Ø®ÙĪØ§ÙĨØ¯Ùħ": 32282,
  "Ø®ÙĪØ§ÙĨØ¯ÙĨ": 39383,
  "Ø®ÙĪØ§ÙĨØ¯ÙĨØ¯": 31181,
  "Ø®ÙĪØ§ÙĨØ¯Ùĩ": 16545,
  "Ø®ÙĪØ§ÙĨØ¯Ú¯ÛĮ": 31840,
  "Ø®ÙĪØ§ÙĨÙħ": 33059,
  "Ø®ÙĪØ§ÙĨÙĨØ¯": 13304,
  "Ø®ÙĪØ§ÙĨÛĮ": 4701,
  "Ø®ÙĪØ§ÙĨÛĮØ¯": 5381,
  "Ø®ÙĪØ§ÙĨÛĮÙħ": 10218,
  "Ø®ÙĪØ§Ùĩ": 1188,
  "Ø®ÙĪØ§ÙĩØ§ÙĨ": 10203,
  "Ø®ÙĪØ§ÙĩØ§ÙĨÙĩ": 15335,
  "Ø®ÙĪØ§ÙĩØ¯": 1885,
  "Ø®ÙĪØ§ÙĩÙħ": 5557,
  "Ø®ÙĪØ§ÙĩÙĨØ¯": 3329,
  "Ø®ÙĪØ§ÙĩÛĮ": 6768,
  "Ø®ÙĪØ§ÙĩÛĮØ¯": 7123,
  "Ø®ÙĪØ§ÙĩÛĮÙħ": 3271,
  "Ø®ÙĪØ§ÛĮÙħ": 42381,
  "Ø®ÙĪØ¨": 36341,
  "Ø®ÙĪØ¨ÛĮ": 9292,
  "Ø®ÙĪØª": 22479,
  "Ø®ÙĪØ¬Ø§ÙĪÙĨØ¯": 37803,
  "Ø®ÙĪØ¯": 6058,
  "Ø®ÙĪØ¯Ø±ÙĪ": 6896,
  "Ø®ÙĪØ¯Ø±ÙĪÙĩØ§ÛĮ": 37047,
  "Ø®ÙĪØ¯Ø±ÙĪÛĮ": 39674,
  "Ø®ÙĪØ¯ÙĪØ³": 43002,
  "Ø®ÙĪØ¯ÛĮ": 33540,
  "Ø®ÙĪØ±": 6884,
  "Ø®ÙĪØ±Ø§Ø³Ú¯Ø§ÙĨ": 25427,
  "Ø®ÙĪØ±Ø§Ú©": 34937,
  "Ø®ÙĪØ±Ø§Ú©ÛĮ": 41290,
  "Ø®ÙĪØ±Ø¯": 4732,
  "Ø®ÙĪØ±Ø¯ÙĨ": 35824,
  "Ø®ÙĪØ±Ø¯ÙĨØ¯": 31729,
  "Ø®ÙĪØ±Ø¯Ùĩ": 14408,
  "Ø®ÙĪØ±Ø¯Ú¯Ø§ÙĨ": 38197,
  "Ø®ÙĪØ±Ø¯Ú¯ÛĮ": 8483,
  "Ø®ÙĪØ±Ø¯ÛĮ": 42013,
  "Ø®ÙĪØ±Ø´": 14535,
  "Ø®ÙĪØ±Ø´ÛĮØ¯": 41533,
  "Ø®ÙĪØ±Ø´ÛĮØ¯ÛĮ": 15248,
  "Ø®ÙĪØ±Ùħ": 43054,
  "Ø®ÙĪØ±ÙĨØ¯": 14051,
  "Ø®ÙĪØ±ÛĮ": 11683,
  "Ø®ÙĪØ±ÛĮØ¯": 31781,
  "Ø®ÙĪØ±ÛĮÙħ": 19538,
  "Ø®ÙĪØ²": 19282,
  "Ø®ÙĪØ²Ø³ØªØ§ÙĨ": 21976,
  "Ø®ÙĪØ´": 7059,
  "Ø®ÙĪØ´ÛĮ": 22929,
  "Ø®ÙĪÙģ": 26666,
  "Ø®ÙĪÙĨ": 9124,
  "Ø®ÙĪÙĨÙĩ": 28646,
  "Ø®ÙĪÙĨÛĮ": 10841,
  "Ø®ÙĪÛĮ": 29650,
  "Ø®ÙĪÛĮØ¯": 37802,
  "Ø®ÙĪÛĮÙĨ": 15605,
  "Ø®ÚĨØ§ÙĦ": 23807,
  "Ø®ÛĮ": 678,
  "Ø®ÛĮØ§Ø¨Ø§ÙĨ": 27433,
  "Ø®ÛĮØ§ÙĦ": 33708,
  "Ø®ÛĮØ±": 3571,
  "Ø®ÛĮØ±Ùĩ": 40319,
  "Ø®ÛĮØ±ÛĮ": 17442,
  "Ø®ÛĮØ²": 3095,
  "Ø®ÛĮØ²Ø¬ÙĨÙĪØ¨": 28867,
  "Ø®ÛĮØ²ÛĮ": 28310,
  "Ø®ÛĮØµ": 1772,
  "Ø®ÛĮÙģ": 28755,
  "Ø®ÛĮÙĦ": 42011,
  "Ø®ÛĮÙĦÛĮ": 15892,
  "Ø®ÛĮÙħ": 18842,
  "Ø®ÛĮÙĩ": 29242,
  "Ø®ÛĮÙĪ": 14860,
  "Ø¯": 268,
  "Ø¯Ø§": 463,
  "Ø¯Ø§Ø¦ÙĪ": 31455,
  "Ø¯Ø§Ø¨": 41869,
  "Ø¯Ø§Ø¨ÙĦÛĮ": 31320,
  "Ø¯Ø§Ø¨ÙĦÛĮÙĪ": 35175,
  "Ø¯Ø§Øª": 38728,
  "Ø¯Ø§Ø«": 1656,
  "Ø¯Ø§Ø®ØªÙĩ": 42222,
  "Ø¯Ø§Ø®ÙĦ": 37705,
  "Ø¯Ø§Ø®ÙĦÛĮ": 23839,
  "Ø¯Ø§Ø¯": 789,
  "Ø¯Ø§Ø¯Ùħ": 21048,
  "Ø¯Ø§Ø¯ÙĨ": 16708,
  "Ø¯Ø§Ø¯ÙĨØ¯": 8305,
  "Ø¯Ø§Ø¯Ùĩ": 15144,
  "Ø¯Ø§Ø¯ÛĮ": 2366,
  "Ø¯Ø§Ø¯ÛĮØ¯": 42378,
  "Ø¯Ø§Ø¯ÛĮÙħ": 15603,
  "Ø¯Ø§Ø±": 944,
  "Ø¯Ø§Ø±Ø§": 35546,
  "Ø¯Ø§Ø±Ø§ÙĨ": 2705,
  "Ø¯Ø§Ø±Ø§ÙĨÙĩ": 36634,
  "Ø¯Ø§Ø±Ø§ÙĨÛĮ": 30918,
  "Ø¯Ø§Ø±Ø§ÛĮ": 23410,
  "Ø¯Ø§Ø±Ø®Ø§ÙĨÙĩ": 16618,
  "Ø¯Ø§Ø±Ø¯": 6910,
  "Ø¯Ø§Ø±Ø²Ø§Ø¯Ùĩ": 40710,
  "Ø¯Ø§Ø±Ø³ÛĮÙĪÙĨ": 23880,
  "Ø¯Ø§Ø±Ùħ": 22484,
  "Ø¯Ø§Ø±ÙĨØ¯": 11966,
  "Ø¯Ø§Ø±ÙĨØ¯Ùĩ": 42421,
  "Ø¯Ø§Ø±ÙĨØ¯Ú¯Ø§ÙĨ": 42422,
  "Ø¯Ø§Ø±ÙĩØ§": 29796,
  "Ø¯Ø§Ø±ÙĪ": 32188,
  "Ø¯Ø§Ø±ÙĪÛĮÛĮ": 37835,
  "Ø¯Ø§Ø±ÛĮ": 976,
  "Ø¯Ø§Ø±ÛĮØ¯": 35547,
  "Ø¯Ø§Ø±ÛĮÙħ": 14742,
  "Ø¯Ø§Ø±ÛĮÙĪØ´": 22935,
  "Ø¯Ø§Ø³Øª": 17178,
  "Ø¯Ø§Ø³ØªØ§ÙĨ": 28274,
  "Ø¯Ø§Ø³ØªØ§ÙĨÛĮ": 42223,
  "Ø¯Ø§Ø´": 30282,
  "Ø¯Ø§Ø´Øª": 711,
  "Ø¯Ø§Ø´ØªÙĨ": 17696,
  "Ø¯Ø§Ø´ØªÙĨØ¯": 29246,
  "Ø¯Ø§Ø´ØªÙĨÛĮ": 22475,
  "Ø¯Ø§Ø´ØªÙĩ": 1936,
  "Ø¯Ø§Ø´ØªÛĮÙħ": 39134,
  "Ø¯Ø§Ø¹": 8519,
  "Ø¯Ø§Øº": 23596,
  "Ø¯Ø§ØºÛĮ": 34500,
  "Ø¯Ø§Ùģ": 1730,
  "Ø¯Ø§ÙĦ": 8393,
  "Ø¯Ø§ÙĦØ¨Ø±": 38330,
  "Ø¯Ø§ÙĦÛĮ": 29602,
  "Ø¯Ø§Ùħ": 646,
  "Ø¯Ø§ÙħØª": 25005,
  "Ø¯Ø§ÙħÙĨ": 27428,
  "Ø¯Ø§ÙħÛĮÙĨ": 22918,
  "Ø¯Ø§ÙĨ": 923,
  "Ø¯Ø§ÙĨØ§": 14801,
  "Ø¯Ø§ÙĨØ§ØŃ": 31549,
  "Ø¯Ø§ÙĨØ§ÙĨ": 17076,
  "Ø¯Ø§ÙĨØ¯": 4801,
  "Ø¯Ø§ÙĨØ³Øª": 7360,
  "Ø¯Ø§ÙĨØ³ØªÙħ": 16812,
  "Ø¯Ø§ÙĨØ³ØªÙĨØ¯": 11878,
  "Ø¯Ø§ÙĨØ³ØªÙĩ": 19627,
  "Ø¯Ø§ÙĨØ³ØªÛĮÙħ": 16323,
  "Ø¯Ø§ÙĨØ³Ú©": 32187,
  "Ø¯Ø§ÙĨØ´": 12693,
  "Ø¯Ø§ÙĨØ´Ú©Ø¯Ùĩ": 39187,
  "Ø¯Ø§ÙĨØ´Ú¯Ø§Ùĩ": 19718,
  "Ø¯Ø§ÙĨØ´Ú¯Ø§ÙĩÛĮ": 33324,
  "Ø¯Ø§ÙĨÙħ": 5410,
  "Ø¯Ø§ÙĨÙħÙĩØ±": 35853,
  "Ø¯Ø§ÙĨÙĨØ¯": 4532,
  "Ø¯Ø§ÙĨÙĩ": 17970,
  "Ø¯Ø§ÙĨÚ¯ÛĮ": 32964,
  "Ø¯Ø§ÙĨÛĮ": 16856,
  "Ø¯Ø§ÙĨÛĮØ¯": 8546,
  "Ø¯Ø§ÙĨÛĮÙħ": 5802,
  "Ø¯Ø§ÙĪØ¯": 28724,
  "Ø¯Ø§ÙĪØ±": 40513,
  "Ø¯Ø§ÙĪÙĪØ¯": 29194,
  "Ø¯Ø§ÙĪÛĮ": 20849,
  "Ø¯Ø§Ú©": 37704,
  "Ø¯Ø§ÛĮ": 1478,
  "Ø¯Ø§ÛĮÛĮ": 3000,
  "Ø¯Ø¨": 15489,
  "Ø¯Ø¨Ø§Ú©Ø³": 38471,
  "Ø¯Ø¨Ø³ØªØ§ÙĨ": 37222,
  "Ø¯Ø¨Ø³ØªØ§ÙĨÛĮ": 20034,
  "Ø¯Ø¨ÙĦÛĮ": 41873,
  "Ø¯Ø¨ÛĮØ±": 20651,
  "Ø¯Øª": 5573,
  "Ø¯ØªØ±Ø§ÙģÙĪØ±Ø¯": 37010,
  "Ø¯ØªÛĮ": 20352,
  "Ø¯Ø«": 25863,
  "Ø¯Ø®Øª": 11338,
  "Ø¯Ø®ØªØ±": 11881,
  "Ø¯Ø¯": 1720,
  "Ø¯Ø¯ÛĮ": 4279,
  "Ø¯Ø±": 833,
  "Ø¯Ø±Ø¢ÙħØ¯": 13238,
  "Ø¯Ø±Ø§": 25862,
  "Ø¯Ø±Ø§ÙĨ": 19787,
  "Ø¯Ø±Ø¨Ø§Ø±Ùĩ": 24722,
  "Ø¯Ø±Øª": 14608,
  "Ø¯Ø±Ø¬Ùĩ": 28773,
  "Ø¯Ø±Ø®Øª": 39160,
  "Ø¯Ø±Ø®Ø´Ø¯": 31529,
  "Ø¯Ø±Ø®ØµÙĪØµ": 40680,
  "Ø¯Ø±Ø®ÙĪØ§Ø³Øª": 42392,
  "Ø¯Ø±Ø¯": 25214,
  "Ø¯Ø±Ø¯Ø³Ø±": 43449,
  "Ø¯Ø±Ø³": 22846,
  "Ø¯Ø±Ø³ØªÛĮ": 18593,
  "Ø¯Ø±Ø´Øª": 36606,
  "Ø¯Ø±Ø´ÙħØ§ÙĦ": 32950,
  "Ø¯Ø±ØµØ¯": 5208,
  "Ø¯Ø±ØµØ¯ÛĮ": 9372,
  "Ø¯Ø±ØŃ": 41870,
  "Ø¯Ø±Ù¾ÛĮ": 30912,
  "Ø¯Ø±ÙħØ§ÙĨ": 30911,
  "Ø¯Ø±ÙħØ§ÙĨÛĮ": 14664,
  "Ø¯Ø±ÙĨÚ¯": 35528,
  "Ø¯Ø±Ùĩ": 13717,
  "Ø¯Ø±ÙĪ": 34344,
  "Ø¯Ø±ÙĪÙĨ": 11574,
  "Ø¯Ø±Ú©Ø§Ø±Ø§ÙĨ": 25518,
  "Ø¯Ø±ÚĨÛĮÙĨ": 19788,
  "Ø¯Ø±ÛĮ": 4704,
  "Ø¯Ø±ÛĮØ§": 42913,
  "Ø¯Ø±ÛĮØ§ÙģØª": 25401,
  "Ø¯Ø±ÛĮØ§ÙĨ": 35231,
  "Ø¯Ø±ÛĮØ§ÛĮ": 39602,
  "Ø¯Ø±ÛĮØ§ÛĮÛĮ": 12714,
  "Ø¯Ø±ÛĮØ¬": 10077,
  "Ø¯Ø±ÛĮØ³": 16086,
  "Ø¯Ø±ÛĮØ³ÛĮ": 22330,
  "Ø¯Ø±ÛĮØº": 36973,
  "Ø¯Ø³": 34343,
  "Ø¯Ø³Ø§ÙħØ¨Ø±": 41723,
  "Ø¯Ø³Ø¨ØŃØ§ÙĨ": 36249,
  "Ø¯Ø³Ø¨ØŃØ§ÙĨØŃ": 40124,
  "Ø¯Ø³Øª": 6051,
  "Ø¯Ø³ØªØ§ÙĨ": 30151,
  "Ø¯Ø³ØªØ±Ø³ÛĮ": 37024,
  "Ø¯Ø³ØªÙĩ": 25517,
  "Ø¯Ø³ØªÙĪØ±": 24237,
  "Ø¯Ø³ØªÙĪØ±Ø§ÙĦØ¹ÙħÙĦ": 30103,
  "Ø¯Ø³ØªÚ¯Ø§Ùĩ": 16316,
  "Ø¯Ø³ØªÚ¯Ø§ÙĩÛĮ": 32443,
  "Ø¯Ø³ØªÛĮ": 4452,
  "Ø¯Ø´Øª": 10238,
  "Ø¯Ø¹": 33475,
  "Ø¯ØºØ¯ØºÙĩ": 40212,
  "Ø¯Ùģ": 9208,
  "Ø¯ÙģØ§Ø¹": 24336,
  "Ø¯ÙģØªØ±": 26176,
  "Ø¯ÙģØ¹Ùĩ": 39803,
  "Ø¯ÙĤØª": 24916,
  "Ø¯ÙĤØªÛĮ": 27749,
  "Ø¯ÙĤÛĮÙĤ": 20500,
  "Ø¯ÙĤÛĮÙĤÙĩ": 11256,
  "Ø¯ÙĦ": 5822,
  "Ø¯ÙĦØ§Ø±": 21135,
  "Ø¯ÙĦØ§Ø±ÛĮ": 37018,
  "Ø¯ÙĦØ§ÛĮÙĦ": 41874,
  "Ø¯ÙĦÛĮ": 19886,
  "Ø¯ÙĦÛĮÙĦ": 7449,
  "Ø¯ÙĦÛĮÚ¯Ø§ÙĨÛĮ": 41602,
  "Ø¯Ùħ": 628,
  "Ø¯ÙħØ§ÙĪÙĨØ¯": 32905,
  "Ø¯ÙħØ§ÛĮ": 36247,
  "Ø¯ÙħØ³": 29755,
  "Ø¯ÙħØ³Ø¹ÙĪØ¯": 37334,
  "Ø¯ÙħØ¹": 40619,
  "Ø¯ÙħØŃÙħØ¯ÛĮ": 21842,
  "Ø¯ÙħÙĨ": 10263,
  "Ø¯ÙħÙĩØ¯ÛĮ": 9914,
  "Ø¯ÙħÙĪÚ©Ø±": 32140,
  "Ø¯ÙħÛĮ": 38729,
  "Ø¯ÙħÛĮØ±": 42319,
  "Ø¯ÙĨ": 1388,
  "Ø¯ÙĨØ¨Ø§ÙĦ": 11294,
  "Ø¯ÙĨØ¯": 41868,
  "Ø¯ÙĨØ¯Ø§ÙĨ": 23332,
  "Ø¯ÙĨØ¯Ùĩ": 40211,
  "Ø¯ÙĨØ³": 25331,
  "Ø¯ÙĨØµØ§Ø¨": 17600,
  "Ø¯ÙĨÙĪ": 29296,
  "Ø¯ÙĨÚĺØ§Ø¯": 34654,
  "Ø¯ÙĨÛĮ": 2918,
  "Ø¯ÙĨÛĮØ§": 27977,
  "Ø¯ÙĨÛĮØ²": 38058,
  "Ø¯Ùĩ": 306,
  "Ø¯ÙĩØ§": 1652,
  "Ø¯ÙĩØ§Ø¯ÛĮ": 21198,
  "Ø¯ÙĩØ§Ø³Øª": 26202,
  "Ø¯ÙĩØ§ÙĨ": 14786,
  "Ø¯ÙĩØ§ÙĨÙĪÙħ": 26484,
  "Ø¯ÙĩØ§ÛĮ": 784,
  "Ø¯ÙĩØ§ÛĮØ´": 32743,
  "Ø¯ÙĩØ§ÛĮØ´Ø§ÙĨ": 32744,
  "Ø¯ÙĩØ§ÛĮÛĮ": 5842,
  "Ø¯ÙĩØ¯": 983,
  "Ø¯ÙĩØ²Ø§Ø±": 20062,
  "Ø¯ÙĩÙħ": 1909,
  "Ø¯ÙĩÙħÛĮÙĨ": 3510,
  "Ø¯ÙĩÙĨØ¯": 1918,
  "Ø¯ÙĩÙĨØ¯Ùĩ": 4738,
  "Ø¯ÙĩÙĨØ¯Ú¯Ø§ÙĨ": 9240,
  "Ø¯ÙĩÙĩ": 38830,
  "Ø¯ÙĩÚ©Ø±Ø¯ÛĮ": 38831,
  "Ø¯ÙĩÛĮ": 1458,
  "Ø¯ÙĩÛĮØ¯": 9924,
  "Ø¯ÙĩÛĮÙħ": 3302,
  "Ø¯ÙĪ": 2917,
  "Ø¯ÙĪØ§Ø²Ø¯ÙĩÙħ": 42727,
  "Ø¯ÙĪØ¨ÛĮ": 38730,
  "Ø¯ÙĪØ¯": 696,
  "Ø¯ÙĪØ±": 9860,
  "Ø¯ÙĪØ±Ø§ÙĨ": 37449,
  "Ø¯ÙĪØ±Ø¨ÛĮÙĨ": 43187,
  "Ø¯ÙĪØ±Ùģ": 27651,
  "Ø¯ÙĪØ±Ùĩ": 13915,
  "Ø¯ÙĪØ±ÛĮØ§": 38731,
  "Ø¯ÙĪØ²": 29601,
  "Ø¯ÙĪØ²ÛĮ": 26905,
  "Ø¯ÙĪØ³Øª": 16498,
  "Ø¯ÙĪØ³ØªØ§ÙĨ": 24505,
  "Ø¯ÙĪØ³ØªØ§ÙĨÙĩ": 20815,
  "Ø¯ÙĪØ³ØªÛĮ": 25086,
  "Ø¯ÙĪØ´ÙĨØ¨Ùĩ": 4247,
  "Ø¯ÙĪØŃÙĩ": 34761,
  "Ø¯ÙĪÙĦØª": 17436,
  "Ø¯ÙĪÙĦØªÛĮ": 5460,
  "Ø¯ÙĪÙħ": 9584,
  "Ø¯ÙĪÙħÛĮÙĨ": 34120,
  "Ø¯ÙĪÙĨ": 20351,
  "Ø¯ÙĪÙĨØ§ÙĦØ¯": 29537,
  "Ø¯ÙĪÚ©": 34760,
  "Ø¯ÙĪÚ©Ø³": 42726,
  "Ø¯ÙĪÛĮ": 37448,
  "Ø¯ÙĪÛĮØ¯": 41871,
  "Ø¯Ú©": 37447,
  "Ø¯Ú©ØªØ±": 9994,
  "Ø¯Ú©Ø³": 36248,
  "Ø¯Ú¯ÛĮ": 30152,
  "Ø¯Úĺ": 36246,
  "Ø¯ÛĮ": 461,
  "Ø¯ÛĮØ§": 27837,
  "Ø¯ÛĮØ§ÙĨ": 13291,
  "Ø¯ÛĮØª": 17037,
  "Ø¯ÛĮØªØ§": 41872,
  "Ø¯ÛĮØ¬ÛĮØª": 37701,
  "Ø¯ÛĮØ¬ÛĮØªØ§ÙĦ": 43556,
  "Ø¯ÛĮØ®": 40510,
  "Ø¯ÛĮØ¯": 614,
  "Ø¯ÛĮØ¯Ø§Ø±": 35470,
  "Ø¯ÛĮØ¯Ùħ": 22470,
  "Ø¯ÛĮØ¯ÙĨ": 27426,
  "Ø¯ÛĮØ¯ÙĨØ¯": 22053,
  "Ø¯ÛĮØ¯Ùĩ": 3431,
  "Ø¯ÛĮØ¯ÙĩØ§": 9037,
  "Ø¯ÛĮØ¯ÙĩØ§ÛĮ": 6704,
  "Ø¯ÛĮØ¯ÙĩØ§ÛĮÛĮ": 18264,
  "Ø¯ÛĮØ¯Ú¯Ø§ÙĨ": 15271,
  "Ø¯ÛĮØ¯Ú¯ÛĮ": 16134,
  "Ø¯ÛĮØ¯ÛĮ": 17578,
  "Ø¯ÛĮØ¯ÛĮÙħ": 30317,
  "Ø¯ÛĮØ±": 8347,
  "Ø¯ÛĮØ±Ø§ÙĨ": 31804,
  "Ø¯ÛĮØ±ÙĪØ²": 37089,
  "Ø¯ÛĮØ²": 24121,
  "Ø¯ÛĮØ³": 20848,
  "Ø¯ÛĮØ´": 13292,
  "Ø¯ÛĮØ´Ø¯": 20239,
  "Ø¯ÛĮØ´ÛĮ": 29723,
  "Ø¯ÛĮØ´ÛĮØ¯": 37702,
  "Ø¯ÛĮÙ¾ÙĦÙħ": 30281,
  "Ø¯ÛĮÙĦ": 1594,
  "Ø¯ÛĮÙĦÛĮ": 12435,
  "Ø¯ÛĮÙħ": 36245,
  "Ø¯ÛĮÙĨ": 13771,
  "Ø¯ÛĮÙĨÚ¯": 4877,
  "Ø¯ÛĮÙĨÛĮ": 35230,
  "Ø¯ÛĮÙĩ": 6327,
  "Ø¯ÛĮÙĪ": 26248,
  "Ø¯ÛĮÙĪÙħ": 40511,
  "Ø¯ÛĮÚ©": 23838,
  "Ø¯ÛĮÚ¯Ø±": 2819,
  "Ø¯ÛĮÚ¯ÙĪ": 42220,
  "Ø°": 372,
  "Ø°Ø§": 23583,
  "Ø°Ø§Ø¨": 22886,
  "Ø°Ø§Ø¨Ùĩ": 22887,
  "Ø°Ø§Øª": 38932,
  "Ø°Ø§ÙģÛĮ": 19294,
  "Ø°Ø§Ú©": 31429,
  "Ø°Ø¨": 7441,
  "Ø°Ø¨Ùĩ": 32077,
  "Ø°Ø¨ÛĮ": 42119,
  "Ø°Ø®ÛĮØ±Ùĩ": 40429,
  "Ø°Ø±": 5681,
  "Ø°Ø±Ø§Øª": 15874,
  "Ø°Ø±Ø¨Ø§ÛĮØ¬Ø§ÙĨ": 20839,
  "Ø°Ø±Øª": 29430,
  "Ø°Ø±ÛĮ": 15733,
  "Ø°ÙĦ": 13223,
  "Ø°ÙĦÙĪÙĦ": 23298,
  "Ø°ÙĨ": 24388,
  "Ø°ÙĨÛĮ": 24103,
  "Ø°Ùĩ": 11753,
  "Ø°ÙĩØ§Ø¨": 26227,
  "Ø°ÙĪØ¨": 19447,
  "Ø°ÙĪØ±": 14589,
  "Ø°ÙĪØ±Ø§Øª": 23520,
  "Ø°ÙĪØ±ÛĮØª": 42120,
  "Ø°ÙĪÙĦ": 24389,
  "Ø°Ú©Ø±": 4200,
  "Ø°ÛĮ": 9305,
  "Ø°ÛĮØ±": 1240,
  "Ø°ÛĮØ±ÛĮ": 3397,
  "Ø°ÛĮÙĨ": 40428,
  "Ø±": 264,
  "Ø±Ø¦ÛĮØ³": 7688,
  "Ø±Ø¦ÛĮØ³Ùĩ": 21743,
  "Ø±Ø§": 392,
  "Ø±Ø§Ø¡": 24966,
  "Ø±Ø§Ø¦": 4865,
  "Ø±Ø§Ø¦ÛĮÙĦ": 38208,
  "Ø±Ø§Ø¨": 13050,
  "Ø±Ø§Ø¨Ø·Ùĩ": 36240,
  "Ø±Ø§Ø¨ÛĮ": 27741,
  "Ø±Ø§Øª": 1113,
  "Ø±Ø§ØªÙĩ": 37869,
  "Ø±Ø§ØªÙĪØ±": 5273,
  "Ø±Ø§ØªÙĪØ±ÙĩØ§ÛĮ": 9934,
  "Ø±Ø§ØªÙĪØ±ÛĮ": 15041,
  "Ø±Ø§ØªÛĮ": 4875,
  "Ø±Ø§Ø¬": 2868,
  "Ø±Ø§Ø¬ÛĮ": 12072,
  "Ø±Ø§Ø¯": 12097,
  "Ø±Ø§Ø¯ÛĮ": 22620,
  "Ø±Ø§Ø±": 2039,
  "Ø±Ø§Ø±ØªÛĮ": 5945,
  "Ø±Ø§Ø±ÛĮ": 3805,
  "Ø±Ø§Ø²": 4950,
  "Ø±Ø§Ø²ÛĮ": 32676,
  "Ø±Ø§Ø³": 26548,
  "Ø±Ø§Ø³Øª": 5401,
  "Ø±Ø§Ø³ØªØ§": 21918,
  "Ø±Ø§Ø³ØªØ§Ø±": 16477,
  "Ø±Ø§Ø³ØªØ§ÛĮ": 29423,
  "Ø±Ø§Ø³ØªØ§ÛĮÛĮ": 42970,
  "Ø±Ø§Ø³ØªÛĮ": 37651,
  "Ø±Ø§Ø³ÛĮÙĪÙĨ": 31315,
  "Ø±Ø§Ø´": 11800,
  "Ø±Ø§Ø´ÛĮ": 37650,
  "Ø±Ø§ØµÙģÙĩ": 11776,
  "Ø±Ø§Ø¶": 3194,
  "Ø±Ø§Ø¶ÛĮ": 10728,
  "Ø±Ø§Ø·": 29698,
  "Ø±Ø§Ø¹": 7582,
  "Ø±Ø§Ø¹ÙĦØ§Ùħ": 28491,
  "Ø±Ø§Øº": 13404,
  "Ø±Ø§ØŃ": 3522,
  "Ø±Ø§ØŃØª": 5054,
  "Ø±Ø§ØŃØªÛĮ": 13341,
  "Ø±Ø§ØŃÛĮ": 1534,
  "Ø±Ø§Ù¾": 21424,
  "Ø±Ø§Ù¾ÛĮ": 7875,
  "Ø±Ø§Ùģ": 2659,
  "Ø±Ø§ÙģØª": 10688,
  "Ø±Ø§ÙģØ´Ø§ÙĨ": 33089,
  "Ø±Ø§ÙģÙĩ": 20521,
  "Ø±Ø§ÙģÙĪØ±Ø¯": 32303,
  "Ø±Ø§ÙģÛĮ": 2914,
  "Ø±Ø§ÙģÛĮØ§ÛĮÛĮ": 41014,
  "Ø±Ø§ÙģÛĮÙĦ": 30463,
  "Ø±Ø§ÙģÛĮÚ©": 22306,
  "Ø±Ø§ÙģÛĮÚ©ÛĮ": 36844,
  "Ø±Ø§ÙĤ": 7721,
  "Ø±Ø§ÙĤÛĮ": 17680,
  "Ø±Ø§ÙĤÛĮÙĩ": 40456,
  "Ø±Ø§ÙĦ": 8717,
  "Ø±Ø§Ùħ": 21181,
  "Ø±Ø§ÙħÛĮÙĨ": 31314,
  "Ø±Ø§ÙĨ": 991,
  "Ø±Ø§ÙĨØ§ÙĨ": 34613,
  "Ø±Ø§ÙĨØª": 22936,
  "Ø±Ø§ÙĨØ¯": 31968,
  "Ø±Ø§ÙĨØ²ÙĦÛĮ": 16285,
  "Ø±Ø§ÙĨÛĮ": 1911,
  "Ø±Ø§Ùĩ": 1110,
  "Ø±Ø§ÙĩØ§": 11358,
  "Ø±Ø§ÙĩÙĨÚ¯": 40743,
  "Ø±Ø§ÙĩÙĩ": 25645,
  "Ø±Ø§ÙĩÛĮ": 17802,
  "Ø±Ø§ÙĪØª": 17172,
  "Ø±Ø§ÙĪÛĮ": 36433,
  "Ø±Ø§Ú©": 4595,
  "Ø±Ø§Ú©ØªÙĪØ±": 40457,
  "Ø±Ø§Ú©Ø²": 33610,
  "Ø±Ø§Ú©ÛĮ": 24399,
  "Ø±Ø§Ú©ÛĮÙĨÚ¯": 38183,
  "Ø±Ø§Úĺ": 18221,
  "Ø±Ø§ÛĮ": 502,
  "Ø±Ø§ÛĮØª": 31475,
  "Ø±Ø§ÛĮØ²": 19605,
  "Ø±Ø§ÛĮØ·": 765,
  "Ø±Ø§ÛĮÙħ": 27846,
  "Ø±Ø§ÛĮÙĨ": 1502,
  "Ø±Ø§ÛĮÛĮ": 1210,
  "Ø±Ø¨": 946,
  "Ø±Ø¨Ø§": 28781,
  "Ø±Ø¨Ø§Ùģ": 34609,
  "Ø±Ø¨Ø§ÙĨ": 29265,
  "Ø±Ø¨Ø§ÙĨÚ©": 37840,
  "Ø±Ø¨Ø§ÛĮØ¬": 1803,
  "Ø±Ø¨Ø§ÛĮØ¬Ø§ÙĨ": 18138,
  "Ø±Ø¨Ø§ÛĮÛĮ": 30919,
  "Ø±Ø¨Ø®Ø´": 5880,
  "Ø±Ø¨Ø±": 36238,
  "Ø±Ø¨Ø·": 7346,
  "Ø±Ø¨Ø¹": 4451,
  "Ø±Ø¨Ø¹ÛĮ": 25027,
  "Ø±Ø¨ÙĨ": 40711,
  "Ø±Ø¨Ùĩ": 30146,
  "Ø±Ø¨ÙĪØ´": 39193,
  "Ø±Ø¨ÙĪØ·": 19480,
  "Ø±Ø¨ÚĨÙĩ": 28782,
  "Ø±Ø¨ÛĮ": 2225,
  "Ø±Ø¨ÛĮÙĦØª": 39375,
  "Ø±Øª": 6891,
  "Ø±ØªØ§": 37441,
  "Ø±ØªØ§Ø¢": 40137,
  "Ø±ØªØ¨Ùĩ": 15308,
  "Ø±Ø¬": 5560,
  "Ø±Ø¬Ø§Øª": 23543,
  "Ø±Ø¬Ø§ÛĮÛĮ": 28170,
  "Ø±Ø¬ÙĪØ¹": 31756,
  "Ø±Ø®": 1108,
  "Ø±Ø®Ø§ÙĨ": 29279,
  "Ø±Ø®Ø§ÙĨÛĮ": 11838,
  "Ø±Ø®Ùĩ": 2932,
  "Ø±Ø®ÛĮ": 30147,
  "Ø±Ø¯": 332,
  "Ø±Ø¯Ø§Ø¯": 5549,
  "Ø±Ø¯Ø§Ø±": 1776,
  "Ø±Ø¯Ø§Ø±ÙĨØ¯Ùĩ": 29310,
  "Ø±Ø¯Ø§Ø±ÛĮ": 730,
  "Ø±Ø¯Ø§Ùħ": 14726,
  "Ø±Ø¯Ø§ÙĨ": 10298,
  "Ø±Ø¯Ø§ÙĪÙĦ": 36374,
  "Ø±Ø¯Ø¯": 9789,
  "Ø±Ø¯Ø±": 25907,
  "Ø±Ø¯Ø´Øª": 32773,
  "Ø±Ø¯ÙĨ": 8414,
  "Ø±Ø¯Ùĩ": 8084,
  "Ø±Ø¯Ú¯Ø§ÙĨ": 38874,
  "Ø±Ø¯Ú¯ÛĮ": 5190,
  "Ø±Ø¯ÛĮ": 1269,
  "Ø±Ø¯ÛĮÙģ": 35595,
  "Ø±Ø¯ÛĮÙĨ": 42063,
  "Ø±Ø²": 5338,
  "Ø±Ø²Ø§ÙĤ": 17734,
  "Ø±Ø²Ø±ÙĪ": 22136,
  "Ø±Ø²ÙħÛĮÙĨÛĮ": 34341,
  "Ø±Ø²ÛĮ": 15307,
  "Ø±Ø²ÛĮØ§ÙĨ": 41865,
  "Ø±Ø³": 585,
  "Ø±Ø³Ø§Ø²": 14918,
  "Ø±Ø³Ø§Ø²ÛĮ": 9794,
  "Ø±Ø³Ø§ÙĨ": 4581,
  "Ø±Ø³Ø§ÙĨØ¯": 5712,
  "Ø±Ø³Ø§ÙĨØ¯ÙĨ": 40605,
  "Ø±Ø³Ø§ÙĨØ¯ÙĨØ¯": 33203,
  "Ø±Ø³Ø§ÙĨØ¯Ùĩ": 30525,
  "Ø±Ø³Ø§ÙĨÙħ": 33172,
  "Ø±Ø³Ø§ÙĨÙĨØ¯": 12396,
  "Ø±Ø³Ø§ÙĨÙĩ": 18468,
  "Ø±Ø³Ø§ÙĨÛĮ": 1298,
  "Ø±Ø³Ø§ÙĨÛĮÙħ": 18806,
  "Ø±Ø³ØªÙĩ": 35222,
  "Ø±Ø³Ø¯": 1616,
  "Ø±Ø³Ø±Ø§ÙĩØ§": 39089,
  "Ø±Ø³Ùħ": 35453,
  "Ø±Ø³ÙħÛĮ": 8220,
  "Ø±Ø³ÙĨ": 27861,
  "Ø±Ø³ÙĨØ¬ÛĮ": 4612,
  "Ø±Ø³ÙĨØ¯": 7196,
  "Ø±Ø³ÙĨØ¯ÛĮ": 40604,
  "Ø±Ø³ÙĪ": 25002,
  "Ø±Ø³ÙĪØ±": 6501,
  "Ø±Ø³ÙĪØ±ÙĩØ§ÛĮ": 11960,
  "Ø±Ø³ÙĪÙĦ": 13869,
  "Ø±Ø³ÙĪÙĨ": 15377,
  "Ø±Ø³ÛĮ": 703,
  "Ø±Ø³ÛĮØ¯": 4240,
  "Ø±Ø³ÛĮØ¯ÙĨ": 16703,
  "Ø±Ø³ÛĮØ¯ÙĨØ¯": 26776,
  "Ø±Ø³ÛĮØ¯Ùĩ": 5524,
  "Ø±Ø³ÛĮØ¯Ú¯ÛĮ": 29393,
  "Ø±Ø³ÛĮØ¯ÛĮÙħ": 33978,
  "Ø±Ø³ÛĮÙħ": 11663,
  "Ø±Ø´": 30145,
  "Ø±Ø´Øª": 32675,
  "Ø±Ø´ØªÙĩ": 16585,
  "Ø±Ø´Ø¯": 18084,
  "Ø±Ø´ÛĮØ¯": 24913,
  "Ø±ØµØ¯": 38723,
  "Ø±Ø¶": 3384,
  "Ø±Ø¶Ø§": 2245,
  "Ø±Ø¶Ø§ÛĮÛĮ": 33472,
  "Ø±Ø¶ÙĪÛĮ": 18631,
  "Ø±Ø¶ÛĮ": 38725,
  "Ø±Ø¹": 6122,
  "Ø±Ø¹Ø§ÛĮØª": 43007,
  "Ø±Ø¹Øª": 11438,
  "Ø±Øº": 14011,
  "Ø±ØºÙħ": 7163,
  "Ø±ØŃ": 487,
  "Ø±ØŃØ§ÙĦ": 13640,
  "Ø±ØŃÙĦÙĩ": 18861,
  "Ø±ØŃÙħ": 21833,
  "Ø±ØŃÙħØ§ÙĨ": 26631,
  "Ø±ØŃÙħØ§ÙĨÙĩ": 27840,
  "Ø±ØŃÙħØª": 33656,
  "Ø±ØŃÙħÙĨ": 15035,
  "Ø±ØŃÙħÛĮ": 32870,
  "Ø±ØŃÛĮÙħ": 11261,
  "Ø±ØŃÛĮÙħÛĮ": 36490,
  "Ø±Ùģ": 446,
  "Ø±ÙģØ§Ú©Ø³": 23832,
  "Ø±ÙģØª": 4437,
  "Ø±ÙģØªØ§Ø±": 39582,
  "Ø±ÙģØªØ§Ø±ÛĮ": 23714,
  "Ø±ÙģØªÙħ": 23474,
  "Ø±ÙģØªÙĨ": 24220,
  "Ø±ÙģØªÙĨØ¯": 19524,
  "Ø±ÙģØªÙĩ": 16854,
  "Ø±ÙģØªÛĮ": 34834,
  "Ø±ÙģØªÛĮÙħ": 22323,
  "Ø±ÙģØ±": 27393,
  "Ø±ÙģØ³": 35411,
  "Ø±ÙģØ³ÙĨØ¬Ø§ÙĨ": 38655,
  "Ø±ÙģØ¹": 37688,
  "Ø±ÙģÙĨÛĮ": 11754,
  "Ø±ÙģÙĩ": 1449,
  "Ø±ÙģÙĪØ±Ø¯": 39006,
  "Ø±ÙģÛĮ": 1715,
  "Ø±ÙģÛĮØ¹": 27936,
  "Ø±ÙĤ": 9403,
  "Ø±ÙĤØ§Ø¨Øª": 34999,
  "Ø±ÙĤØ§Ø¨ØªÛĮ": 32487,
  "Ø±ÙĤÙħÛĮ": 28507,
  "Ø±ÙĤÛĮØ¨": 36239,
  "Ø±Ùħ": 1899,
  "Ø±ÙħØ§ÙĨ": 40207,
  "Ø±ÙħØ§ÛĮÙĩ": 35221,
  "Ø±ÙħØ²": 32677,
  "Ø±ÙħØ¶Ø§ÙĨ": 25060,
  "Ø±ÙħØ¶Ø§ÙĨØ¹ÙĦÛĮ": 35147,
  "Ø±ÙħÙ¾ÙĨØ§": 28361,
  "Ø±ÙħÙĨ": 12012,
  "Ø±ÙħÙĪ": 18618,
  "Ø±ÙħÛĮ": 37440,
  "Ø±ÙĨ": 23088,
  "Ø±ÙĨØ¬": 29090,
  "Ø±ÙĨØ¯": 13576,
  "Ø±ÙĨÚ¯": 5887,
  "Ø±Ùĩ": 635,
  "Ø±ÙĩØ§": 7426,
  "Ø±ÙĩØ§ÛĮ": 6036,
  "Ø±ÙĩÙĨÙħØ§": 36555,
  "Ø±ÙĩÚ¯ÛĮØ±ÛĮ": 22472,
  "Ø±ÙĩÛĮØ²": 15169,
  "Ø±ÙĪ": 356,
  "Ø±ÙĪØ¦": 16792,
  "Ø±ÙĪØ¦ÙĨ": 21969,
  "Ø±ÙĪØ¦ÛĮØ¯ÛĮ": 25817,
  "Ø±ÙĪØ§": 21215,
  "Ø±ÙĪØ§Ø¨Ø·": 27805,
  "Ø±ÙĪØ§ÙĦ": 30805,
  "Ø±ÙĪØ§ÙĨ": 15805,
  "Ø±ÙĪØ§ÙĨÚĨÛĮ": 26139,
  "Ø±ÙĪØ§ÙĨÛĮ": 40410,
  "Ø±ÙĪØ§ÛĮÛĮ": 18325,
  "Ø±ÙĪØ¨": 12978,
  "Ø±ÙĪØ¨ÛĮ": 7194,
  "Ø±ÙĪØª": 16948,
  "Ø±ÙĪØ¬": 20516,
  "Ø±ÙĪØ¬ÛĮ": 32062,
  "Ø±ÙĪØ¯": 1621,
  "Ø±ÙĪØ¯Ùĩ": 34447,
  "Ø±ÙĪØ¯ÛĮ": 41863,
  "Ø±ÙĪØ±": 23089,
  "Ø±ÙĪØ±ÛĮ": 13012,
  "Ø±ÙĪØ²": 743,
  "Ø±ÙĪØ²Ø§Ø¯Ùĩ": 27884,
  "Ø±ÙĪØ²Ø§ÙĨÙĩ": 23867,
  "Ø±ÙĪØ²ØªØ±ÛĮÙĨ": 31516,
  "Ø±ÙĪØ²Ø±Ø³Ø§ÙĨÛĮ": 9438,
  "Ø±ÙĪØ²ÙĨØ§ÙħÙĩ": 9552,
  "Ø±ÙĪØ²Ùĩ": 13985,
  "Ø±ÙĪØ²ÙĩØ§": 29767,
  "Ø±ÙĪØ²ÙĩØ§ÛĮ": 37788,
  "Ø±ÙĪØ²ÛĮ": 5385,
  "Ø±ÙĪØ³": 15219,
  "Ø±ÙĪØ³Ø§Ø²ÛĮ": 19139,
  "Ø±ÙĪØ³Øª": 11286,
  "Ø±ÙĪØ³ØªØ§": 24851,
  "Ø±ÙĪØ³ØªØ§ÙĩØ§ÛĮ": 39867,
  "Ø±ÙĪØ³ØªØ§ÛĮ": 25798,
  "Ø±ÙĪØ³ÛĮØª": 33344,
  "Ø±ÙĪØ³ÛĮÙĩ": 15153,
  "Ø±ÙĪØ´": 645,
  "Ø±ÙĪØ´Ø§ÙĨ": 21635,
  "Ø±ÙĪØ´ÙĨ": 37611,
  "Ø±ÙĪØ´ÛĮ": 23374,
  "Ø±ÙĪØ´ÛĮÙħÛĮ": 984,
  "Ø±ÙĪØ¶": 21416,
  "Ø±ÙĪØ¹": 15094,
  "Ø±ÙĪØ¹ÛĮ": 10951,
  "Ø±ÙĪØŃ": 20073,
  "Ø±ÙĪÙ¾": 29684,
  "Ø±ÙĪÙģ": 3932,
  "Ø±ÙĪÙģÙĨ": 36932,
  "Ø±ÙĪÙģÛĮ": 18848,
  "Ø±ÙĪÙģÛĮÙĦ": 38131,
  "Ø±ÙĪÙĤ": 34446,
  "Ø±ÙĪÙĤÙĩ": 14536,
  "Ø±ÙĪÙĤÛĮ": 30236,
  "Ø±ÙĪÙĦ": 8577,
  "Ø±ÙĪÙħ": 2795,
  "Ø±ÙĪÙħØªØ±": 13087,
  "Ø±ÙĪÙĨ": 10964,
  "Ø±ÙĪÙĨØ¯": 5156,
  "Ø±ÙĪÙĨØ¯Ùĩ": 41864,
  "Ø±ÙĪÙĨØ¯ÛĮ": 29685,
  "Ø±ÙĪÙĨÙĤ": 21754,
  "Ø±ÙĪÙĨÛĮ": 38724,
  "Ø±ÙĪÙĩ": 965,
  "Ø±ÙĪÙĩØ§": 12936,
  "Ø±ÙĪÙĩØ§ÛĮ": 18218,
  "Ø±ÙĪÚĺÙĨ": 8683,
  "Ø±ÙĪÚĺÙĩ": 19766,
  "Ø±ÙĪÛĮ": 2641,
  "Ø±ÙĪÛĮØª": 24954,
  "Ø±ÙĪÛĮØ¯": 21417,
  "Ø±ÙĪÛĮØ³": 27804,
  "Ø±ÙĪÛĮÙħ": 10465,
  "Ø±ÙĪÛĮÙĩ": 10650,
  "Ø±ÙĪÛĮÛĮ": 24190,
  "Ø±Ú©": 364,
  "Ø±Ú©Ø§Øª": 8062,
  "Ø±Ú©Ø§Ø±": 20232,
  "Ø±Ú©Ø§Ø±Ø§ÙĨ": 7823,
  "Ø±Ú©Ø§Ø±Øª": 18570,
  "Ø±Ú©Ø§Ø±ÛĮ": 32798,
  "Ø±Ú©Ø§Ù¾": 38915,
  "Ø±Ú©Ø§Ùħ": 33596,
  "Ø±Ú©Ø§ÙĨ": 13496,
  "Ø±Ú©Ø§ÙĨØ§ÙĦ": 33333,
  "Ø±Ú©Øª": 415,
  "Ø±Ú©Ø±Ø¯": 42110,
  "Ø±Ú©Ø±Ø¯ÙĨ": 38916,
  "Ø±Ú©Ø±Ø¯Ùĩ": 33597,
  "Ø±Ú©Ø²": 19140,
  "Ø±Ú©Ø´": 33595,
  "Ø±Ú©Ø´ÙĪØ±": 42111,
  "Ø±Ú©Ø´ÛĮ": 27808,
  "Ø±Ú©ÙĦ": 32070,
  "Ø±Ú©ÙĦØ³ØªØ±ÙĪÙĦÙħÛĮ": 40085,
  "Ø±Ú©ÙĨ": 2633,
  "Ø±Ú©ÙĨÙĨØ¯Ùĩ": 22523,
  "Ø±Ú©ÙĨÙĨØ¯Ú¯Ø§ÙĨ": 25080,
  "Ø±Ú©Ùĩ": 15872,
  "Ø±Ú©ÙĪÙĩ": 16431,
  "Ø±Ú©ÛĮ": 14198,
  "Ø±Ú©ÛĮØ´": 41527,
  "Ø±Ú¯": 8678,
  "Ø±Ú¯Ø§Ø²ÛĮ": 23033,
  "Ø±Ú¯ÛĮ": 41862,
  "Ø±ÚĨ": 34340,
  "Ø±Úĺ": 24333,
  "Ø±ÚĺÛĮ": 975,
  "Ø±ÚĺÛĮÚ©": 40718,
  "Ø±ÛĮ": 345,
  "Ø±ÛĮØ§": 14649,
  "Ø±ÛĮØ§Ø³Øª": 37602,
  "Ø±ÛĮØ§ÙĦ": 6918,
  "Ø±ÛĮØ§ÙĦÛĮ": 26964,
  "Ø±ÛĮØ§ÙĨ": 1288,
  "Ø±ÛĮØ¨": 2310,
  "Ø±ÛĮØ¨Ø§": 29161,
  "Ø±ÛĮØ¨ÛĮ": 9726,
  "Ø±ÛĮØª": 7984,
  "Ø±ÛĮØ®Øª": 30796,
  "Ø±ÛĮØ®ØªÙĩ": 40392,
  "Ø±ÛĮØ¯": 2931,
  "Ø±ÛĮØ¯ÙĨ": 30232,
  "Ø±ÛĮØ¯Ùĩ": 18099,
  "Ø±ÛĮØ²": 2459,
  "Ø±ÛĮØ²Ø§Ø³ÛĮÙĪÙĨ": 12293,
  "Ø±ÛĮØ²Ø§ÙĨ": 13383,
  "Ø±ÛĮØ²Ø¯": 17051,
  "Ø±ÛĮØ²Ø´": 19290,
  "Ø±ÛĮØ²ÙĨØ¯": 24492,
  "Ø±ÛĮØ²ÛĮ": 1882,
  "Ø±ÛĮØ²ÛĮÙĩØ§ÛĮ": 39342,
  "Ø±ÛĮØ³": 9587,
  "Ø±ÛĮØ³Ùħ": 30233,
  "Ø±ÛĮØ³Ú©": 17353,
  "Ø±ÛĮØ³ÛĮ": 35335,
  "Ø±ÛĮØ´": 5224,
  "Ø±ÛĮØ´ØªØ±": 27355,
  "Ø±ÛĮØ´ÛĮ": 9680,
  "Ø±ÛĮØ¶": 10334,
  "Ø±ÛĮØ¹": 42082,
  "Ø±ÛĮØ¹Ùĩ": 18846,
  "Ø±ÛĮØŃ": 774,
  "Ø±ÛĮØŃÙĩ": 21644,
  "Ø±ÛĮÙ¾ÙĪ": 40393,
  "Ø±ÛĮÙģ": 1735,
  "Ø±ÛĮÙģÛĮ": 13685,
  "Ø±ÛĮÙĤ": 933,
  "Ø±ÛĮÙĤÙĩ": 19439,
  "Ø±ÛĮÙĤÛĮ": 10226,
  "Ø±ÛĮÙĦ": 11984,
  "Ø±ÛĮÙĦÛĮ": 37601,
  "Ø±ÛĮÙħ": 1096,
  "Ø±ÛĮÙĨ": 1196,
  "Ø±ÛĮÙĨØ§ÙĨ": 42484,
  "Ø±ÛĮÙĨÚ¯": 12448,
  "Ø±ÛĮÙĨÛĮ": 9618,
  "Ø±ÛĮÙĩ": 2717,
  "Ø±ÛĮÙĪÙħ": 28234,
  "Ø±ÛĮÚ©": 669,
  "Ø±ÛĮÚ©Ø§": 10200,
  "Ø±ÛĮÚ©Ø³": 21447,
  "Ø±ÛĮÚ©Ùĩ": 30797,
  "Ø±ÛĮÚ©ÙĪ": 26654,
  "Ø±ÛĮÚĨ": 30231,
  "Ø±ÛĮÛĮØ³": 17565,
  "Ø²": 278,
  "Ø²Ø§": 2935,
  "Ø²Ø§Ø¨": 7025,
  "Ø²Ø§Ø¨ÛĮ": 38761,
  "Ø²Ø§Øª": 24057,
  "Ø²Ø§Ø¯": 5313,
  "Ø²Ø§Ø¯Ø§Ø±ÛĮ": 13345,
  "Ø²Ø§Ø¯Ùĩ": 2485,
  "Ø²Ø§Ø¯ÙĩØ§Ø¯Ø¢ÙĪØ±": 33078,
  "Ø²Ø§Ø¯Ú¯Ø§ÙĨ": 16654,
  "Ø²Ø§Ø¯ÛĮ": 12347,
  "Ø²Ø§Ø±": 342,
  "Ø²Ø§Ø±Øª": 13588,
  "Ø²Ø§Ø±Ø´": 449,
  "Ø²Ø§Ø±Ùħ": 42077,
  "Ø²Ø§Ø±ÙĩØ§": 21611,
  "Ø²Ø§Ø±ÙĩØ§ÛĮ": 22217,
  "Ø²Ø§Ø±ÛĮ": 15092,
  "Ø²Ø§Ø³": 25873,
  "Ø²Ø§Ø³Øª": 24925,
  "Ø²Ø§Ø³ÛĮÙĪÙĨ": 23338,
  "Ø²Ø§Ø¹ÛĮ": 17387,
  "Ø²Ø§ÙĤÛĮ": 21294,
  "Ø²Ø§ÙĦ": 41912,
  "Ø²Ø§Ùħ": 2252,
  "Ø²Ø§ÙħØªØ§Ø²ÙĪÙĨ": 23214,
  "Ø²Ø§ÙħÛĮ": 4881,
  "Ø²Ø§ÙĨ": 3718,
  "Ø²Ø§ÙĨÙĩ": 21586,
  "Ø²Ø§ÙĩØ¯Ø§ÙĨ": 25225,
  "Ø²Ø§Ú¯Ø±Ø³": 27116,
  "Ø²Ø§ÛĮ": 3992,
  "Ø²Ø§ÛĮØ¯": 16860,
  "Ø²Ø§ÛĮØ´": 29104,
  "Ø²Ø§ÛĮÙħ": 41913,
  "Ø²Ø§ÛĮÙħØ±": 8475,
  "Ø²Ø§ÛĮÙĨØ¯": 21108,
  "Ø²Ø§ÛĮÙĨØ¯Ùĩ": 9247,
  "Ø²Ø§ÛĮÛĮ": 2654,
  "Ø²Ø§ÛĮÛĮÙħ": 28901,
  "Ø²Ø¨": 35252,
  "Ø²Ø¨Ø§ÙĨ": 17660,
  "Ø²Ø¨Ø§ÙĨØ§ÙĨ": 35254,
  "Ø²Ø¨Ø§ÙĨÛĮ": 32699,
  "Ø²Ø¨ÙĪØ±Ú¯": 11439,
  "Ø²Øª": 38759,
  "Ø²Ø¯": 1895,
  "Ø²Ø¯Ø§": 21792,
  "Ø²Ø¯Ø§ÙĨ": 34365,
  "Ø²Ø¯Ø§ÙĨÛĮ": 39343,
  "Ø²Ø¯Ø§ÛĮ": 31982,
  "Ø²Ø¯Ø§ÛĮÛĮ": 5440,
  "Ø²Ø¯Ùħ": 26555,
  "Ø²Ø¯ÙĨ": 22407,
  "Ø²Ø¯ÙĨØ¯": 21074,
  "Ø²Ø¯ÙĨÛĮ": 29314,
  "Ø²Ø¯Ùĩ": 5990,
  "Ø²Ø¯Ú¯Ø§ÙĨ": 13831,
  "Ø²Ø¯Ú¯ÛĮ": 14495,
  "Ø²Ø¯ÛĮ": 33496,
  "Ø²Ø¯ÛĮÙħ": 30429,
  "Ø²Ø±": 882,
  "Ø²Ø±Ø¯": 36279,
  "Ø²Ø±ØŃ": 37474,
  "Ø²Ø³ØªØ§ÙĨ": 2640,
  "Ø²Ø´": 633,
  "Ø²Ø´Ø§ÙĨ": 39112,
  "Ø²Ø´Ú©ÛĮ": 5142,
  "Ø²Ø´ÛĮ": 37475,
  "Ø²Ø¹Ùħ": 38762,
  "Ø²ÙģØ±ÛĮ": 16942,
  "Ø²ÙĦ": 3011,
  "Ø²ÙĦØ²ÙĦ": 15763,
  "Ø²ÙĦØ²ÙĦÙĩ": 41023,
  "Ø²ÙĦÙĨØ¯": 38063,
  "Ø²ÙĦÙĩ": 3710,
  "Ø²ÙĦÛĮ": 6255,
  "Ø²Ùħ": 2582,
  "Ø²ÙħØ§ÙĨ": 2337,
  "Ø²ÙħØ§ÙĨÛĮ": 11137,
  "Ø²ÙħØ§ÛĮÛĮ": 9709,
  "Ø²ÙħØ³ØªØ§ÙĨ": 36811,
  "Ø²ÙħÙĦÛĮ": 31012,
  "Ø²ÙħÙĨ": 37476,
  "Ø²ÙħÚ¯": 40966,
  "Ø²ÙħÛĮ": 11073,
  "Ø²ÙħÛĮÙĨ": 3799,
  "Ø²ÙħÛĮÙĨÙĩ": 14762,
  "Ø²ÙħÛĮÙĨÛĮ": 6364,
  "Ø²ÙĨ": 2135,
  "Ø²ÙĨØ§ÙĨ": 13816,
  "Ø²ÙĨØ¬Ø§ÙĨ": 27756,
  "Ø²ÙĨØ¯": 5445,
  "Ø²ÙĨØ¯Ùĩ": 14901,
  "Ø²ÙĨØ¯Ú¯ÛĮ": 11310,
  "Ø²ÙĨÙħ": 15540,
  "Ø²ÙĨÙĨØ¯": 7587,
  "Ø²ÙĨÙĨØ¯Ùĩ": 40905,
  "Ø²ÙĨÚ¯": 21587,
  "Ø²ÙĨÚ¯Ø±": 29324,
  "Ø²ÙĨÚ¯ÙĨÙĩ": 41616,
  "Ø²ÙĨÚ¯ÛĮÙĦØ§ÙĨ": 37275,
  "Ø²ÙĨÛĮ": 3044,
  "Ø²ÙĨÛĮØ¯": 26729,
  "Ø²ÙĨÛĮÙħ": 14935,
  "Ø²Ùĩ": 1235,
  "Ø²ÙĩØ±Ø§": 14284,
  "Ø²ÙĩÛĮ": 32990,
  "Ø²ÙĪ": 25224,
  "Ø²ÙĪØ¯": 35253,
  "Ø²ÙĪØ¯ÛĮ": 6771,
  "Ø²ÙĪØ±": 34364,
  "Ø²ÙĪØ±ÛĮ": 28185,
  "Ø²ÙĪÙģØ±": 20054,
  "Ø²ÙĪÙģØ±ÙĨÛĮ": 20195,
  "Ø²ÙĪÙĦ": 23788,
  "Ø²ÙĪÙħ": 2438,
  "Ø²ÙĪÙĨ": 16111,
  "Ø²Ú¯ÛĮ": 16340,
  "Ø²ÛĮ": 413,
  "Ø²ÛĮØ§": 29708,
  "Ø²ÛĮØ§Ø±": 38980,
  "Ø²ÛĮØ§ÙĨ": 9606,
  "Ø²ÛĮØ§ÙĨØ§": 20318,
  "Ø²ÛĮØ¨Ø§": 38981,
  "Ø²ÛĮØ¯": 38760,
  "Ø²ÛĮØ¯Ùĩ": 5316,
  "Ø²ÛĮØ¯ÛĮ": 41914,
  "Ø²ÛĮØ±": 4909,
  "Ø²ÛĮØ±Ø§Øª": 41178,
  "Ø²ÛĮØ±ÙħØ¬ÙħÙĪØ¹Ùĩ": 36980,
  "Ø²ÛĮØ²": 11629,
  "Ø²ÛĮØ³": 24666,
  "Ø²ÛĮØ³Øª": 7303,
  "Ø²ÛĮØ³ØªÛĮ": 3585,
  "Ø²ÛĮÙĤ": 40478,
  "Ø²ÛĮÙĦ": 20381,
  "Ø²ÛĮÙħ": 40247,
  "Ø²ÛĮÙĨ": 695,
  "Ø²ÛĮÙĨÙĩ": 1002,
  "Ø²ÛĮÙĨÚ¯": 11895,
  "Ø²ÛĮÙĨÚ¯ÛĮ": 32150,
  "Ø²ÛĮÙĨÛĮ": 37777,
  "Ø²ÛĮÙĩ": 5825,
  "Ø²ÛĮÙĪ": 16435,
  "Ø²ÛĮÚ©": 4272,
  "Ø²ÛĮÚ©ÛĮ": 15374,
  "Ø³": 276,
  "Ø³Ø§": 4196,
  "Ø³Ø§Ø¦ÙĪ": 27568,
  "Ø³Ø§Ø¨": 3989,
  "Ø³Ø§Ø¨ÙĤÙĩ": 5904,
  "Ø³Ø§Ø¨ÛĮ": 16422,
  "Ø³Ø§Øª": 2137,
  "Ø³Ø§Ø®": 35247,
  "Ø³Ø§Ø®Øª": 2010,
  "Ø³Ø§Ø®ØªØ§Ø±": 29318,
  "Ø³Ø§Ø®ØªÙħØ§ÙĨ": 28366,
  "Ø³Ø§Ø®ØªÙĨØ¯": 35661,
  "Ø³Ø§Ø®ØªÙĩ": 18251,
  "Ø³Ø§Ø®ØªÛĮ": 28828,
  "Ø³Ø§Ø¯": 12427,
  "Ø³Ø§Ø¯Ø§Øª": 34361,
  "Ø³Ø§Ø¯Ú¯ÛĮ": 28621,
  "Ø³Ø§Ø±": 5774,
  "Ø³Ø§Ø±Ø§": 33493,
  "Ø³Ø§Ø±Ø§ÙĨ": 7093,
  "Ø³Ø§Ø±ÛĮ": 8326,
  "Ø³Ø§Ø²": 2186,
  "Ø³Ø§Ø²Ø§ÙĨ": 6984,
  "Ø³Ø§Ø²Ø¯": 6323,
  "Ø³Ø§Ø²ÙħØ§ÙĨ": 11671,
  "Ø³Ø§Ø²ÙħØ§ÙĨÛĮ": 19195,
  "Ø³Ø§Ø²ÙĨØ¯": 14496,
  "Ø³Ø§Ø²ÙĨØ¯Ùĩ": 27957,
  "Ø³Ø§Ø²Ùĩ": 24055,
  "Ø³Ø§Ø²ÙĩØ§": 27956,
  "Ø³Ø§Ø²ÙĩØ§ÛĮ": 33858,
  "Ø³Ø§Ø²ÛĮ": 787,
  "Ø³Ø§Ø²ÛĮÙħ": 25680,
  "Ø³Ø§Ø³": 31339,
  "Ø³Ø§Ø¹Øª": 10458,
  "Ø³Ø§Ø¹ØªÙĩ": 32497,
  "Ø³Ø§Ø¹Ø¯": 12549,
  "Ø³Ø§Ø¹Ùĩ": 26067,
  "Ø³Ø§ÙģØª": 8928,
  "Ø³Ø§ÙĦ": 672,
  "Ø³Ø§ÙĦØ§Ø±": 27430,
  "Ø³Ø§ÙĦØ§Ø±ÛĮ": 18472,
  "Ø³Ø§ÙĦØ§ÙĨ": 15601,
  "Ø³Ø§ÙĦØª": 20403,
  "Ø³Ø§ÙĦÙħ": 19166,
  "Ø³Ø§ÙĦÙĨ": 23862,
  "Ø³Ø§ÙĦÙĩ": 5474,
  "Ø³Ø§ÙĦÚ¯ÛĮ": 26655,
  "Ø³Ø§ÙĦÛĮ": 13720,
  "Ø³Ø§Ùħ": 6859,
  "Ø³Ø§ÙħØ§ÙĨ": 22565,
  "Ø³Ø§ÙħØ§ÙĨØ¯ÙĩÛĮ": 38554,
  "Ø³Ø§ÙħØ§ÙĨÙĩ": 14512,
  "Ø³Ø§ÙħØ§ÙĨÛĮ": 37046,
  "Ø³Ø§ÙĨ": 3461,
  "Ø³Ø§ÙĨØ§": 31681,
  "Ø³Ø§ÙĨØªØ±Ùĩ": 10905,
  "Ø³Ø§ÙĨØ¯": 38754,
  "Ø³Ø§ÙĨÛĮ": 5261,
  "Ø³Ø§ÙĪÙĩ": 36944,
  "Ø³Ø§ÛĮ": 5371,
  "Ø³Ø§ÛĮØª": 6740,
  "Ø³Ø§ÛĮØ¯": 14532,
  "Ø³Ø§ÛĮØ±": 36273,
  "Ø³Ø§ÛĮÙ¾Ø§": 29952,
  "Ø³Ø§ÛĮÙĩ": 33492,
  "Ø³Ø§ÛĮÛĮ": 17973,
  "Ø³Ø¨": 4868,
  "Ø³Ø¨Ø§": 38755,
  "Ø³Ø¨Ø¨": 38209,
  "Ø³Ø¨Ø²": 14766,
  "Ø³Ø¨Ø²Ø¢Ø¨": 39924,
  "Ø³Ø¨Ø²ÛĮ": 31082,
  "Ø³Ø¨ØŃØ§ÙĨ": 31734,
  "Ø³Ø¨Ùĩ": 22849,
  "Ø³Ø¨ÙĪØ±Ú¯": 30733,
  "Ø³Ø¨Ú©": 26913,
  "Ø³Ø¨ÛĮ": 37468,
  "Ø³Øª": 294,
  "Ø³ØªØ§": 16589,
  "Ø³ØªØ§Ø¯": 15429,
  "Ø³ØªØ§Ø±": 24067,
  "Ø³ØªØ§Ø±Ùĩ": 22204,
  "Ø³ØªØ§ÙĦ": 28633,
  "Ø³ØªØ§ÙħÛĮÙĨ": 29121,
  "Ø³ØªØ§ÙĨ": 486,
  "Ø³ØªØ§ÙĨÙĩ": 11682,
  "Ø³ØªØ§ÙĨÛĮ": 2145,
  "Ø³ØªØ§ÛĮÙĨ": 28196,
  "Ø³ØªØ±": 1205,
  "Ø³ØªØ±Ø§": 38804,
  "Ø³ØªØ±Ø§ÙĨ": 30181,
  "Ø³ØªØ±Ø³": 10884,
  "Ø³ØªØ±Ø³ÛĮØªÛĮ": 12425,
  "Ø³ØªØ±ÙĨ": 18013,
  "Ø³ØªØ±Ùĩ": 40285,
  "Ø³ØªØ±ÙĩØ§ÛĮ": 42488,
  "Ø³ØªØ±ÙĪ": 41963,
  "Ø³ØªØ±ÙĪÙĦ": 9874,
  "Ø³ØªØ±ÙĪÙĦÙħÛĮ": 39825,
  "Ø³ØªØ±ÙĪÙĨ": 21054,
  "Ø³ØªØ±ÛĮ": 4557,
  "Ø³ØªØ±ÛĮÙĨÚ¯": 23798,
  "Ø³ØªÙĤÛĮÙħ": 7535,
  "Ø³ØªÙħ": 1324,
  "Ø³ØªÙħÛĮ": 7158,
  "Ø³ØªÙĨ": 16031,
  "Ø³ØªÙĨØ¯": 20213,
  "Ø³ØªÙĨÛĮ": 30750,
  "Ø³ØªÙĩ": 1004,
  "Ø³ØªÙĪ": 19279,
  "Ø³ØªÙĪÙĦ": 26195,
  "Ø³ØªÙĪÙĨ": 13440,
  "Ø³ØªÚ¯Ø§ÙĨ": 4167,
  "Ø³ØªÚ¯Ø§Ùĩ": 38805,
  "Ø³ØªÚ¯ÛĮ": 2393,
  "Ø³ØªÛĮ": 1154,
  "Ø³ØªÛĮØª": 7055,
  "Ø³ØªÛĮØ²": 29634,
  "Ø³ØªÛĮØ²ÛĮ": 28332,
  "Ø³ØªÛĮÙħ": 28634,
  "Ø³ØªÛĮÙĨ": 16190,
  "Ø³ØªÛĮÚ©": 5071,
  "Ø³ØªÛĮÚ©Ø²": 40751,
  "Ø³ØªÛĮÚ©ÛĮ": 6698,
  "Ø³Ø¬Ø§Ø¯": 27300,
  "Ø³Ø®": 16027,
  "Ø³Ø®Øª": 26182,
  "Ø³Ø®ØªÛĮ": 27299,
  "Ø³Ø®Ø²Ø±ØŃ": 43342,
  "Ø³Ø®ÙĨÚ¯": 19108,
  "Ø³Ø®ÙĨÚ¯ÙĪ": 41592,
  "Ø³Ø®ÙĨÚ¯ÙĪÛĮ": 20969,
  "Ø³Ø¯": 11592,
  "Ø³Ø¯Ø³": 18187,
  "Ø³Ø¯ÙĪØ¯": 30730,
  "Ø³Ø±": 2859,
  "Ø³Ø±Ø§": 8524,
  "Ø³Ø±Ø§ÙĨ": 32695,
  "Ø³Ø±Ø§ÙĨØ¬Ø§Ùħ": 38624,
  "Ø³Ø±Ø§ÙĩØ§": 13964,
  "Ø³Ø±Ø§ÙĩØ§ÛĮ": 39780,
  "Ø³Ø±Ø§ÛĮ": 7476,
  "Ø³Ø±Ø§ÛĮÛĮ": 25223,
  "Ø³Ø±Ø¨": 33491,
  "Ø³Ø±Ø®": 20208,
  "Ø³Ø±Ø¯": 15798,
  "Ø³Ø±Ø¯Ø§Ø±": 17438,
  "Ø³Ø±Ø¯Ú¯ÛĮ": 37470,
  "Ø³Ø±Ø¯ÛĮ": 18086,
  "Ø³Ø±Ø²ÙħÛĮÙĨ": 39448,
  "Ø³Ø±Ø´Øª": 25698,
  "Ø³Ø±Ø¹Øª": 13250,
  "Ø³Ø±Ù¾Ø±Ø³Øª": 15049,
  "Ø³Ø±ÙħØ§ÛĮÙĩ": 12621,
  "Ø³Ø±ÙħØ±Ø¨ÛĮ": 34754,
  "Ø³Ø±ÙĨØ´ÛĮÙĨ": 40995,
  "Ø³Ø±Ùĩ": 9121,
  "Ø³Ø±ÙĩÙĨÚ¯": 10446,
  "Ø³Ø±ÙĪ": 14531,
  "Ø³Ø±ÙĪÛĮØ³": 24295,
  "Ø³Ø±ÛĮ": 8325,
  "Ø³Ø±ÛĮØ¹": 35941,
  "Ø³Ø²Ø§ÛĮÛĮ": 28622,
  "Ø³Ø³": 20983,
  "Ø³Ø³Ùĩ": 36272,
  "Ø³Ø´Ø±": 28620,
  "Ø³Ø·ØŃ": 14900,
  "Ø³Ø¹ÛĮØ¯": 9725,
  "Ø³Ù¾": 5428,
  "Ø³Ù¾Ø§Ø±": 23552,
  "Ø³Ù¾Ø§Ø±ÙĨØ¯": 35132,
  "Ø³Ù¾Ø§Ø±ÛĮ": 8248,
  "Ø³Ù¾ØªØ§ÙħØ¨Ø±": 21723,
  "Ø³Ù¾Ø±": 40243,
  "Ø³Ù¾Ø±Ø¯Ùĩ": 37472,
  "Ø³Ù¾ÙĩØ±": 35856,
  "Ø³Ùģ": 10208,
  "Ø³ÙģØ§Ø±Ø´": 37137,
  "Ø³ÙģØ±": 13274,
  "Ø³ÙģØ±ÛĮÚ©": 34128,
  "Ø³ÙģÛĮØ¯": 15136,
  "Ø³ÙĤÙģ": 37471,
  "Ø³ÙĦ": 2424,
  "Ø³ÙĦØ§Ùħ": 16859,
  "Ø³ÙĦØ§ÙħØª": 25487,
  "Ø³ÙĦØ§ÙĨ": 12225,
  "Ø³ÙĦØ§ÙĪ": 35249,
  "Ø³ÙĦØ±": 24187,
  "Ø³ÙĦØ·": 18029,
  "Ø³ÙĦØ·ÙĨÙĩ": 19875,
  "Ø³ÙĦÙħØ§ÙĨ": 21087,
  "Ø³ÙĦÙħÛĮÙĨ": 7079,
  "Ø³ÙĦÙĪÙĦ": 35690,
  "Ø³ÙĦÛĮ": 7880,
  "Ø³ÙĦÛĮÙħ": 15490,
  "Ø³ÙĦÛĮÙħØ§ÙĨ": 9469,
  "Ø³ÙĦÛĮÙħÛĮ": 41335,
  "Ø³Ùħ": 2916,
  "Ø³ÙħØ§Ø±ÛĮ": 34759,
  "Ø³ÙħØ§ÙĨ": 23787,
  "Ø³ÙħØª": 20504,
  "Ø³ÙħÙĨØ§ÙĨ": 37469,
  "Ø³ÙħÙĩ": 7502,
  "Ø³ÙħÚ¯Ø§": 39453,
  "Ø³ÙħÛĮ": 8758,
  "Ø³ÙħÛĮÙĩ": 31341,
  "Ø³ÙĨ": 7849,
  "Ø³ÙĨØ§": 18957,
  "Ø³ÙĨØª": 14533,
  "Ø³ÙĨØªØ±": 34967,
  "Ø³ÙĨØªÛĮ": 31980,
  "Ø³ÙĨØ¬": 12805,
  "Ø³ÙĨØ¬Ø¯": 37185,
  "Ø³ÙĨØ¬ÙĨØ¯": 37186,
  "Ø³ÙĨØ¬ÛĮ": 6701,
  "Ø³ÙĨØ¯": 26912,
  "Ø³ÙĨØ³": 16339,
  "Ø³ÙĨÙĨØ¯Ø¬": 33260,
  "Ø³ÙĨÚ¯": 8478,
  "Ø³ÙĨÚ¯Ø§ÙĨ": 43123,
  "Ø³ÙĨÚ¯ÛĮ": 30732,
  "Ø³ÙĨÚ¯ÛĮÙĨ": 15410,
  "Ø³Ùĩ": 631,
  "Ø³ÙĩØ§": 31979,
  "Ø³ÙĩØ§Ùħ": 27873,
  "Ø³ÙĩØ§ÙħÛĮ": 18342,
  "Ø³ÙĩØ±Ø§Ø¨": 41910,
  "Ø³ÙĩÙħ": 18341,
  "Ø³ÙĩÙħÛĮÙĩ": 34558,
  "Ø³ÙĩÛĮÙĦ": 35477,
  "Ø³ÙĪ": 6530,
  "Ø³ÙĪØ¦": 40244,
  "Ø³ÙĪØ§Ø¯": 23975,
  "Ø³ÙĪØ§Ø¯ÛĮ": 27610,
  "Ø³ÙĪØ§Ø±": 18958,
  "Ø³ÙĪØ§Ø±Ø§ÙĨ": 19999,
  "Ø³ÙĪØ§Ø±ÛĮ": 8452,
  "Ø³ÙĪØªØ§": 29616,
  "Ø³ÙĪØ®": 19377,
  "Ø³ÙĪØ®Øª": 18931,
  "Ø³ÙĪØ¯": 24054,
  "Ø³ÙĪØ±": 7008,
  "Ø³ÙĪØ±ÛĮ": 23099,
  "Ø³ÙĪØ²": 4365,
  "Ø³ÙĪØ²Ø§ÙĨØ¯": 30522,
  "Ø³ÙĪØ²Ø§ÙĨÙĨØ¯": 38168,
  "Ø³ÙĪØ²Ø¯": 24804,
  "Ø³ÙĪØ²ÙĨØ¯": 35804,
  "Ø³ÙĪØ²ÛĮ": 5565,
  "Ø³ÙĪØ³": 29615,
  "Ø³ÙĪÙ¾Ø±": 35248,
  "Ø³ÙĪÙĦ": 15647,
  "Ø³ÙĪÙĦÙģ": 43339,
  "Ø³ÙĪÙĦÙģÙĪØ±": 37226,
  "Ø³ÙĪÙħ": 6968,
  "Ø³ÙĪÙħÙĪ": 24245,
  "Ø³ÙĪÙħÛĮÙĨ": 30552,
  "Ø³ÙĪÙĨ": 4825,
  "Ø³ÙĪÙĨØ§ØªØ±Ø§Ú©": 42928,
  "Ø³ÙĪÙĨØ§Ø±ÙĪ": 26397,
  "Ø³ÙĪÙĨÚ¯": 7222,
  "Ø³ÙĪÙĨÛĮ": 31340,
  "Ø³ÙĪÚ©Ø§Ø±": 24340,
  "Ø³ÙĪÛĮ": 6390,
  "Ø³ÙĪÛĮÙĩ": 13856,
  "Ø³Ú©": 5404,
  "Ø³Ú©Ø§": 32696,
  "Ø³Ú©ÙĨ": 23337,
  "Ø³Ú©Ùĩ": 15311,
  "Ø³Ú©ÙĪ": 5912,
  "Ø³Ú©ÙĪÛĮ": 33198,
  "Ø³Ú©ÛĮ": 10037,
  "Ø³ÛĮ": 373,
  "Ø³ÛĮØ§": 10529,
  "Ø³ÛĮØ§Ø³Øª": 26973,
  "Ø³ÛĮØ§Ø³ÛĮ": 20375,
  "Ø³ÛĮØ§ÙĦ": 42122,
  "Ø³ÛĮØ§Ùħ": 42121,
  "Ø³ÛĮØ§ÙĨ": 14970,
  "Ø³ÛĮØ§ÙĨÛĮÙĨ": 43328,
  "Ø³ÛĮØ§Ùĩ": 33602,
  "Ø³ÛĮØ§ÙĪØ´": 39842,
  "Ø³ÛĮØ¨": 32807,
  "Ø³ÛĮØª": 21397,
  "Ø³ÛĮØªÙĩ": 16586,
  "Ø³ÛĮØªÛĮ": 34360,
  "Ø³ÛĮØ®ØªÙĩ": 13925,
  "Ø³ÛĮØ®ØªÚ¯ÛĮ": 24390,
  "Ø³ÛĮØ¯": 5813,
  "Ø³ÛĮØ¯Ø±Ø¶Ø§": 38248,
  "Ø³ÛĮØ¯Ø¹Ø¨Ø§Ø³": 38249,
  "Ø³ÛĮØ¯Ø¹ÙĦÛĮ": 28039,
  "Ø³ÛĮØ¯ÙħØŃÙħØ¯": 28469,
  "Ø³ÛĮØ¯ÙħØŃÙħØ¯Ø±Ø¶Ø§": 41244,
  "Ø³ÛĮØ¯ÙħÙĩØ¯ÛĮ": 34898,
  "Ø³ÛĮØ¯Ùĩ": 1336,
  "Ø³ÛĮØ¯ÙĩØ§": 33000,
  "Ø³ÛĮØ±": 3752,
  "Ø³ÛĮØ±ÛĮ": 11281,
  "Ø³ÛĮØ²": 36409,
  "Ø³ÛĮØ³": 14367,
  "Ø³ÛĮØ³ØªØ§ÙĨ": 32808,
  "Ø³ÛĮØ³ØªÙħ": 6919,
  "Ø³ÛĮØ³ØªÙħÛĮ": 27368,
  "Ø³ÛĮØ³Ú©ÙĪ": 23378,
  "Ø³ÛĮÙ¾ÙĦÛĮÙĨ": 38934,
  "Ø³ÛĮÙģ": 35361,
  "Ø³ÛĮÙĦ": 11627,
  "Ø³ÛĮÙĦÙĨØ¯": 32809,
  "Ø³ÛĮÙĦÙĨØ¯Ø±": 35185,
  "Ø³ÛĮÙĦÙĪ": 8479,
  "Ø³ÛĮÙĦÛĮ": 7537,
  "Ø³ÛĮÙħ": 3458,
  "Ø³ÛĮÙħØ§": 21993,
  "Ø³ÛĮÙħØ§ÙĨ": 40245,
  "Ø³ÛĮÙħÛĮ": 30731,
  "Ø³ÛĮÙħÛĮÙĨ": 33130,
  "Ø³ÛĮÙĨ": 6534,
  "Ø³ÛĮÙĨØ§": 18704,
  "Ø³ÛĮÙĨÙħØ§": 34919,
  "Ø³ÛĮÙĨÚ¯": 36274,
  "Ø³ÛĮÙĨÛĮ": 41909,
  "Ø³ÛĮÙĩ": 11857,
  "Ø³ÛĮÙĪ": 15961,
  "Ø³ÛĮÙĪØ±": 28245,
  "Ø³ÛĮÙĪØ³": 15661,
  "Ø³ÛĮÙĪÙĨ": 1145,
  "Ø³ÛĮÙĪÙĨÛĮ": 20078,
  "Ø³ÛĮÚ©": 35360,
  "Ø³ÛĮÚ©Ø§": 38933,
  "Ø³ÛĮÚ©ÙĦØª": 5201,
  "Ø³ÛĮÚ¯Ø§Ø±": 27809,
  "Ø³ÛĮÚ¯Ø§Ø±ÛĮ": 42123,
  "Ø´": 281,
  "Ø´Ø§": 3683,
  "Ø´Ø§Ø¡": 9768,
  "Ø´Ø§Ø¡Ø§ÙĦÙĦÙĩ": 11455,
  "Ø´Ø§Ø§ÙĦÙĦÙĩ": 14566,
  "Ø´Ø§Øª": 11215,
  "Ø´Ø§Ø®": 11706,
  "Ø´Ø§Ø®Øµ": 17623,
  "Ø´Ø§Ø®Ùĩ": 12156,
  "Ø´Ø§Ø¯": 3937,
  "Ø´Ø§Ø¯Ø§": 36283,
  "Ø´Ø§Ø¯Ùĩ": 24628,
  "Ø´Ø§Ø±": 1074,
  "Ø´Ø§Ø±Ø§ÙĨ": 33504,
  "Ø´Ø§Ø±Ú©Øª": 25644,
  "Ø´Ø§Ø±ÛĮ": 6979,
  "Ø´Ø§Ø·": 26185,
  "Ø´Ø§ØºÙĦ": 34799,
  "Ø´Ø§Ù¾": 17040,
  "Ø´Ø§Ù¾ÙĪØ±": 41921,
  "Ø´Ø§ÙĦ": 28187,
  "Ø´Ø§ÙĦÙĦÙĩ": 41919,
  "Ø´Ø§Ùħ": 15723,
  "Ø´Ø§ÙħÙĦ": 11705,
  "Ø´Ø§ÙĨ": 794,
  "Ø´Ø§ÙĨØ§": 19011,
  "Ø´Ø§ÙĨØ³": 30345,
  "Ø´Ø§ÙĨÙĨØ¯": 21645,
  "Ø´Ø§ÙĨÛĮ": 14534,
  "Ø´Ø§ÙĨÛĮÙħ": 29776,
  "Ø´Ø§Ùĩ": 2674,
  "Ø´Ø§ÙĩØ±Ø®": 34743,
  "Ø´Ø§ÙĩØ±ÙĪØ¯": 38035,
  "Ø´Ø§ÙĩÛĮ": 9620,
  "Ø´Ø§ÙĩÛĮÙĨ": 21494,
  "Ø´Ø§ÙĪØ§ÙĨ": 41090,
  "Ø´Ø§Ú©ÛĮ": 42798,
  "Ø´Ø§ÛĮ": 8821,
  "Ø´Ø§ÛĮØ¯": 18087,
  "Ø´Ø§ÛĮØ±": 29106,
  "Ø´Ø§ÛĮÛĮ": 3612,
  "Ø´Ø¨": 5037,
  "Ø´Ø¨Ø±ÛĮØ²": 38771,
  "Ø´Ø¨ÙĨØ¯": 13916,
  "Ø´Ø¨ÙĨØ¯Ø±": 24294,
  "Ø´Ø¨Ùĩ": 26184,
  "Ø´Ø¨Ú©Ùĩ": 17521,
  "Ø´Øª": 347,
  "Ø´ØªØ§": 23372,
  "Ø´ØªØ§Ø¨": 14968,
  "Ø´ØªØ§Ø¨ÛĮ": 40398,
  "Ø´ØªØ§ÛĮÙĨ": 21003,
  "Ø´ØªØ±": 9289,
  "Ø´ØªØ±Ø§ÙĨ": 22434,
  "Ø´ØªØ±ÛĮ": 15152,
  "Ø´ØªØ±ÛĮÙĨ": 24951,
  "Ø´ØªØºØ§ÙĦ": 42085,
  "Ø´ØªÙĨ": 33579,
  "Ø´ØªÙĨØ¯": 37604,
  "Ø´ØªÙĩ": 456,
  "Ø´ØªÚ¯Ø§ÙĨ": 28673,
  "Ø´ØªÚ¯ÙĨ": 26594,
  "Ø´ØªÛĮ": 1327,
  "Ø´ØªÛĮÙĨ": 18972,
  "Ø´Ø®Øµ": 33503,
  "Ø´Ø®ØµÛĮ": 40253,
  "Ø´Ø¯": 496,
  "Ø´Ø¯Ø§Ø±": 36498,
  "Ø´Ø¯Øª": 9281,
  "Ø´Ø¯Ùħ": 20530,
  "Ø´Ø¯ÙĨ": 7149,
  "Ø´Ø¯ÙĨØ¯": 7539,
  "Ø´Ø¯ÙĨÛĮ": 14483,
  "Ø´Ø¯Ùĩ": 1770,
  "Ø´Ø¯Ú¯Ø§ÙĨ": 7859,
  "Ø´Ø¯Ú¯ÛĮ": 20688,
  "Ø´Ø¯ÛĮ": 40251,
  "Ø´Ø¯ÛĮØ¯": 3807,
  "Ø´Ø¯ÛĮÙħ": 16437,
  "Ø´Ø±": 1487,
  "Ø´Ø±Ø§ÛĮØ·": 17766,
  "Ø´Ø±Øª": 40814,
  "Ø´Ø±Ø·": 21868,
  "Ø´Ø±Ø¹ÛĮ": 33823,
  "Ø´Ø±ØŃ": 21793,
  "Ø´Ø±ÙģØª": 35619,
  "Ø´Ø±ÙĤ": 10112,
  "Ø´Ø±ÙĤÛĮ": 11840,
  "Ø´Ø±ÙħØ§ÙĨÙĩ": 39283,
  "Ø´Ø±ÙĪØ¹": 34371,
  "Ø´Ø±Ú©Øª": 7378,
  "Ø´Ø±Ú©ØªÙĩØ§ÛĮ": 38305,
  "Ø´Ø±Ú©ØªÛĮ": 38304,
  "Ø´Ø±ÛĮ": 34370,
  "Ø´Ø±ÛĮÙģ": 38770,
  "Ø´Ø³Øª": 11425,
  "Ø´Ø³ØªØ§": 22159,
  "Ø´Ø´": 12310,
  "Ø´Ø´Ùħ": 15425,
  "Ø´Ø¹": 4094,
  "Ø´Ø¹Ø±": 38149,
  "Ø´ØºÙĦ": 41918,
  "Ø´Ù¾ÙĨØ§": 23554,
  "Ø´Ùģ": 18705,
  "Ø´ÙģØ§Ùģ": 20485,
  "Ø´ÙĤ": 12127,
  "Ø´ÙĦ": 26915,
  "Ø´ÙĦÙĪ": 27304,
  "Ø´ÙĦÛĮ": 23553,
  "Ø´ÙĦÛĮÙħ": 41920,
  "Ø´Ùħ": 1153,
  "Ø´ÙħØ§": 31572,
  "Ø´ÙħØ§Ø±": 8221,
  "Ø´ÙħØ§Ø±Ø¯": 42479,
  "Ø´ÙħØ§Ø±Ø´": 42480,
  "Ø´ÙħØ§Ø±ÙĨØ¯": 43114,
  "Ø´ÙħØ§Ø±Ùĩ": 10874,
  "Ø´ÙħØ§Ø±ÛĮ": 9511,
  "Ø´ÙħØ§ÙĦ": 14670,
  "Ø´ÙħØ§ÙĦÛĮ": 16622,
  "Ø´ÙħØ±": 14615,
  "Ø´ÙħØ±Ø¯": 40750,
  "Ø´ÙħØ³": 30382,
  "Ø´ÙħØ´": 42478,
  "Ø´ÙħØ´Ú©ÛĮ": 37879,
  "Ø´ÙħÙĨ": 41917,
  "Ø´ÙħÙĩ": 10267,
  "Ø´ÙħÙĪÙĦ": 36682,
  "Ø´ÙħÛĮ": 33502,
  "Ø´ÙĨ": 553,
  "Ø´ÙĨØ§": 9069,
  "Ø´ÙĨØ§Ø®Øª": 19384,
  "Ø´ÙĨØ§Ø®ØªÙħ": 33370,
  "Ø´ÙĨØ§Ø®ØªÙĨØ¯": 30582,
  "Ø´ÙĨØ§Ø®ØªÛĮ": 12064,
  "Ø´ÙĨØ§Ø³": 4163,
  "Ø´ÙĨØ§Ø³Ø§ÙĨ": 10212,
  "Ø´ÙĨØ§Ø³Ø§ÙĨÙĩ": 25726,
  "Ø´ÙĨØ§Ø³Ø§ÛĮÛĮ": 29388,
  "Ø´ÙĨØ§Ø³Ø¯": 13609,
  "Ø´ÙĨØ§Ø³Ùħ": 18338,
  "Ø´ÙĨØ§Ø³ÙĨØ¯": 11811,
  "Ø´ÙĨØ§Ø³ÛĮ": 2929,
  "Ø´ÙĨØ§Ø³ÛĮØ¯": 31063,
  "Ø´ÙĨØ§Ø³ÛĮÙħ": 17002,
  "Ø´ÙĨØ§ÙĦ": 12051,
  "Ø´ÙĨØ§Ùħ": 37741,
  "Ø´ÙĨØ§ÙĪØ±": 31166,
  "Ø´ÙĨØ§ÛĮ": 33681,
  "Ø´ÙĨØ§ÛĮÛĮ": 27854,
  "Ø´ÙĨØ¨Ùĩ": 893,
  "Ø´ÙĨØ¨ÙĩØ§": 42285,
  "Ø´ÙĨØ¨ÙĩÚ©Ùħ": 39178,
  "Ø´ÙĨØ¬": 13329,
  "Ø´ÙĨØ¯": 37480,
  "Ø´ÙĨØ¯Ùĩ": 7257,
  "Ø´ÙĨØ±": 18995,
  "Ø´ÙĨÙģØª": 27013,
  "Ø´ÙĨÙĩ": 10535,
  "Ø´ÙĨÙĩØ§Ø¯": 30018,
  "Ø´ÙĨÙĪØ§": 37742,
  "Ø´ÙĨÙĪØ¯": 27012,
  "Ø´ÙĨÙĪÙħ": 32889,
  "Ø´ÙĨÙĪÙĨØ¯": 26644,
  "Ø´ÙĨÙĪÛĮØ¯": 36532,
  "Ø´ÙĨÙĪÛĮÙħ": 20100,
  "Ø´ÙĨÚ©ÙĪ": 18465,
  "Ø´ÙĨÛĮ": 17039,
  "Ø´ÙĨÛĮØ¯": 42284,
  "Ø´Ùĩ": 1271,
  "Ø´ÙĩØ§Ø¨": 23789,
  "Ø´ÙĩØª": 27070,
  "Ø´ÙĩØ¯Ø§": 30942,
  "Ø´ÙĩØ±": 1808,
  "Ø´ÙĩØ±Ø§Ùħ": 13381,
  "Ø´ÙĩØ±Ø¯Ø§Ø±": 37904,
  "Ø´ÙĩØ±Ø¯Ø§Ø±ÛĮ": 21661,
  "Ø´ÙĩØ±Ø³ØªØ§ÙĨ": 20562,
  "Ø´ÙĩØ±ÙĩØ§": 15285,
  "Ø´ÙĩØ±ÙĩØ§ÛĮ": 22292,
  "Ø´ÙĩØ±ÙĩØ§ÛĮÛĮ": 37958,
  "Ø´ÙĩØ±ÙĪ": 34641,
  "Ø´ÙĩØ±Ú©": 32992,
  "Ø´ÙĩØ±ÛĮ": 5691,
  "Ø´ÙĩØ±ÛĮØ§Ø±": 29960,
  "Ø´ÙĩØ±ÛĮÙĪØ±": 15296,
  "Ø´ÙĩØ±ÛĮÙĪØ±ÙħØ§Ùĩ": 31865,
  "Ø´ÙĩÛĮØ¯": 24456,
  "Ø´ÙĩÛĮØ±": 40782,
  "Ø´ÙĪ": 6162,
  "Ø´ÙĪØ§Ø±": 36281,
  "Ø´ÙĪØª": 33505,
  "Ø´ÙĪØ¯": 465,
  "Ø´ÙĪØ¯ÙĨÛĮ": 37707,
  "Ø´ÙĪØ¯Ú©Ùĩ": 37706,
  "Ø´ÙĪØ¯Ú¯ÛĮ": 9901,
  "Ø´ÙĪØ±": 9710,
  "Ø´ÙĪØ±Ø§ÙĨ": 26556,
  "Ø´ÙĪØ±Ø§ÛĮ": 20320,
  "Ø´ÙĪØ±ÛĮ": 24343,
  "Ø´ÙĪÙħ": 11139,
  "Ø´ÙĪÙħØ§": 26118,
  "Ø´ÙĪÙĨ": 23340,
  "Ø´ÙĪÙĨØ¯": 1409,
  "Ø´ÙĪÙĨØ¯Ùĩ": 26916,
  "Ø´ÙĪÙĨØ¯Ú¯Ø§ÙĨ": 36716,
  "Ø´ÙĪÙĨØ¯Ú¯ÛĮ": 15536,
  "Ø´ÙĪÛĮ": 8949,
  "Ø´ÙĪÛĮØ¯": 8564,
  "Ø´ÙĪÛĮÙĦÛĮ": 31987,
  "Ø´ÙĪÛĮÙħ": 6244,
  "Ø´ÙĪÛĮÙĨØ¯": 41262,
  "Ø´ÙĪÛĮÙĩ": 26186,
  "Ø´ÙĪÛĮÛĮ": 5775,
  "Ø´Ú©": 2539,
  "Ø´Ú©Ø§ÙģÛĮ": 31648,
  "Ø´Ú©Ø¯Ùĩ": 13084,
  "Ø´Ú©Ø±": 11886,
  "Ø´Ú©Ø³Øª": 36808,
  "Ø´Ú©Ø³ØªÙĩ": 42673,
  "Ø´Ú©ÙĦ": 4456,
  "Ø´Ú©ÙĦØ§Øª": 28011,
  "Ø´Ú©ÙĦÛĮ": 36282,
  "Ø´Ú©ÙĨ": 12014,
  "Ø´Ú©ÙĨØ¯": 15252,
  "Ø´Ú©ÙĨÙĨØ¯": 40252,
  "Ø´Ú©ÙĨÛĮ": 14840,
  "Ø´Ú©ÛĮ": 24629,
  "Ø´Ú©ÛĮÙĨ": 36807,
  "Ø´Ú¯Ø±": 37481,
  "Ø´Ú¯Ø±ÛĮ": 17767,
  "Ø´Ú¯ÙĪÛĮØ§": 29107,
  "Ø´Ú¯ÛĮ": 8086,
  "Ø´ÛĮ": 586,
  "Ø´ÛĮØ§": 17461,
  "Ø´ÛĮØ§ÙĦ": 29749,
  "Ø´ÛĮØ§ÙĨ": 9478,
  "Ø´ÛĮØ¨": 19608,
  "Ø´ÛĮØ¨ÛĮ": 27862,
  "Ø´ÛĮØª": 20209,
  "Ø´ÛĮØ®": 21839,
  "Ø´ÛĮØ¯": 4287,
  "Ø´ÛĮØ¯Ùĩ": 4842,
  "Ø´ÛĮØ±": 6765,
  "Ø´ÛĮØ±Ø§Ø²": 23976,
  "Ø´ÛĮØ±Ø§Ø²ÛĮ": 22773,
  "Ø´ÛĮØ±Ø§ÙĨ": 34930,
  "Ø´ÛĮØ±ÙĪØ§ÙĨÛĮ": 43050,
  "Ø´ÛĮØ±ÛĮ": 17974,
  "Ø´ÛĮØ±ÛĮÙĨ": 12959,
  "Ø´ÛĮØ²": 20535,
  "Ø´ÛĮÙ¾": 15378,
  "Ø´ÛĮÙĦ": 31350,
  "Ø´ÛĮÙħ": 31986,
  "Ø´ÛĮÙħÛĮ": 22200,
  "Ø´ÛĮÙħÛĮØ§ÛĮÛĮ": 33385,
  "Ø´ÛĮÙĨ": 2359,
  "Ø´ÛĮÙĨÚ¯": 31351,
  "Ø´ÛĮÙĨÛĮ": 9742,
  "Ø´ÛĮÙĩ": 2175,
  "Ø´ÛĮÙĪØ¹": 24420,
  "Ø´ÛĮÙĪÙĩ": 29233,
  "Ø´ÛĮÚĨ": 29232,
  "Øµ": 316,
  "ØµØ§": 40327,
  "ØµØ§Ø¨": 5536,
  "ØµØ§Ø¨ÛĮ": 29143,
  "ØµØ§Ø¯": 11284,
  "ØµØ§Ø¯Ø±": 15088,
  "ØµØ§Ø¯Ø±Ø§Øª": 24583,
  "ØµØ§Ø¯Ø±Ø§ØªÛĮ": 35068,
  "ØµØ§Ø¯ÙĤ": 13352,
  "ØµØ§Ø¯ÙĤÛĮ": 27219,
  "ØµØ§Ø±": 16689,
  "ØµØ§Ø±ÛĮ": 23119,
  "ØµØ§Øµ": 1634,
  "ØµØ§ØŃØ¨": 23120,
  "ØµØ§Ùģ": 16115,
  "ØµØ§ÙģÛĮ": 32756,
  "ØµØ§ÙĦ": 16690,
  "ØµØ§ÙĦØŃ": 17669,
  "ØµØ§ÙĦØŃÛĮ": 25900,
  "ØµØ¨": 8906,
  "ØµØ¨Ø§": 29656,
  "ØµØ¨Ø§ØŃ": 14179,
  "ØµØ¨ØŃ": 24842,
  "ØµØª": 9623,
  "ØµØ¯": 521,
  "ØµØ¯Ø§": 16867,
  "ØµØ¯Ø§ÛĮ": 21029,
  "ØµØ¯Ø§ÛĮÛĮ": 30302,
  "ØµØ¯Ø±": 35443,
  "ØµØ¯Ø±Ø§": 22045,
  "ØµØ¯ÙĩØ²Ø§Ø±": 25244,
  "ØµØ¯ÙĪØ±": 32125,
  "ØµØ¯ÛĮ": 1515,
  "ØµØ±": 1941,
  "ØµØ±Ùģ": 15496,
  "ØµØ±ÙģØ§": 39938,
  "ØµØ±ÙģÙĩ": 15655,
  "ØµØ±ÙģÛĮ": 38852,
  "ØµØ±Ùĩ": 2752,
  "ØµØ±ÛĮ": 6485,
  "ØµØŃ": 31388,
  "ØµÙģ": 17157,
  "ØµÙģØ§": 28652,
  "ØµÙģØ§ÙĨÙĩ": 21605,
  "ØµÙģØ±": 29142,
  "ØµÙģØŃÙĩ": 30067,
  "ØµÙģÙĩ": 11408,
  "ØµÙģÙĩØ§": 41566,
  "ØµÙģÛĮ": 33548,
  "ØµÙĦ": 1312,
  "ØµÙĦØ§ØŃ": 8634,
  "ØµÙĦØ§ØŃÛĮ": 34981,
  "ØµÙĦØ§ØŃÛĮØª": 20314,
  "ØµÙĦØ§ÙĦ": 39271,
  "ØµÙĦØŃ": 42507,
  "ØµÙĦÙĩ": 11889,
  "ØµÙĦÛĮ": 5107,
  "ØµÙħØª": 26584,
  "ØµÙĨ": 10364,
  "ØµÙĨØ§": 36353,
  "ØµÙĨØ§ÛĮØ¹": 23752,
  "ØµÙĨØ¯ÙĪÙĤ": 22012,
  "ØµÙĨØ¹Øª": 20631,
  "ØµÙĨØ¹ØªÛĮ": 13619,
  "ØµÙĨÙģÛĮ": 41425,
  "ØµÙĩ": 1993,
  "ØµÙĩÛĮÙĪÙĨÛĮ": 30433,
  "ØµÙĩÛĮÙĪÙĨÛĮØ³ØªÛĮ": 30694,
  "ØµÙĪØ±": 7495,
  "ØµÙĪØ±Øª": 2606,
  "ØµÙĪØ±ØªÛĮ": 32757,
  "ØµÙĪÙģÛĮ": 40328,
  "ØµÙĪÙĦ": 1007,
  "ØµÙĪÙĦÛĮ": 32755,
  "ØµÛĢ": 34416,
  "ØµÛĮ": 10016,
  "ØµÛĮØ±": 11797,
  "ØµÛĮØ±ÛĮ": 20669,
  "ØµÛĮÙĨÙĪ": 29657,
  "Ø¶": 350,
  "Ø¶Ø§": 807,
  "Ø¶Ø§Ø¡": 42385,
  "Ø¶Ø§Øª": 40403,
  "Ø¶Ø§Ø¹": 4570,
  "Ø¶Ø§Ø¹Øª": 13455,
  "Ø¶Ø§ØŃ": 7943,
  "Ø¶Ø§ÙĨ": 4519,
  "Ø¶Ø§ÙĨÛĮ": 9925,
  "Ø¶Ø§ÛĮ": 864,
  "Ø¶Ø§ÛĮØªÛĮ": 7653,
  "Ø¶Ø§ÛĮÛĮ": 2358,
  "Ø¶Ø¨Ø·": 31423,
  "Ø¶Ø¯": 25915,
  "Ø¶Ø¯Ø§ÙĨ": 36399,
  "Ø¶Ø¯Ø§ÙĨØŃØµØ§Ø±": 37386,
  "Ø¶Ø±": 4713,
  "Ø¶Ø±Ø§ÙĨ": 37608,
  "Ø¶Ø±Ø¨": 14409,
  "Ø¶Ø±Ø¨Ùĩ": 42915,
  "Ø¶Ø±Ø±": 9425,
  "Ø¶Ø±ÙĪØ±Øª": 25734,
  "Ø¶Ø¹Ùģ": 8150,
  "Ø¶ÙĦ": 7985,
  "Ø¶ÙĦÛĮ": 13138,
  "Ø¶Ùħ": 11488,
  "Ø¶ÙħÙĨ": 33583,
  "Ø¶Ùĩ": 1031,
  "Ø¶ÙĪ": 5340,
  "Ø¶ÙĪØ§Ø¨Ø·": 40404,
  "Ø¶ÙĪØ±": 42089,
  "Ø¶ÙĪÛĮ": 13971,
  "Ø¶ÛĮ": 1276,
  "Ø¶ÛĮÙĦÛĮ": 19636,
  "Ø¶ÛĮÙĩ": 12101,
  "Ø·": 331,
  "Ø·Ø¦Ùĩ": 10686,
  "Ø·Ø§": 35326,
  "Ø·Ø§Ø¨ÙĤ": 11346,
  "Ø·Ø§Ø±": 6887,
  "Ø·Ø§Ø±ÙĤ": 28481,
  "Ø·Ø§Ø±ÛĮ": 35327,
  "Ø·Ø§Ø·": 28229,
  "Ø·Ø§Ø¹Øª": 31409,
  "Ø·Ø§Ùģ": 7496,
  "Ø·Ø§ÙĤ": 24374,
  "Ø·Ø§ÙĦ": 24945,
  "Ø·Ø§ÙĦØ¨": 33563,
  "Ø·Ø§ÙĨ": 29670,
  "Ø·Ø§ÙĨÛĮ": 29671,
  "Ø·Ø§ÛĮ": 40366,
  "Ø·Ø¨": 22867,
  "Ø·Ø¨Ø§": 37580,
  "Ø·Ø¨Ø¹": 22015,
  "Ø·Ø¨ÙĤ": 20371,
  "Ø·Ø¨ÙĤÙĩ": 25838,
  "Ø·Ø¨Ùĩ": 42061,
  "Ø·Ø¨ÙĪØ¹": 16348,
  "Ø·Ø¨ÛĮ": 4449,
  "Ø·Ø¨ÛĮØ¹Ùĩ": 33985,
  "Ø·Ø¨ÛĮØ¹ÛĮ": 6465,
  "Ø·Ø±": 2488,
  "Ø·Ø±Ø§Ø±ÛĮ": 36802,
  "Ø·Ø±Ø§ØŃ": 42062,
  "Ø·Ø±Ø§ØŃÛĮ": 15150,
  "Ø·Ø±Ø¨": 22643,
  "Ø·Ø±ØŃ": 10627,
  "Ø·Ø±Ùģ": 2919,
  "Ø·Ø±ÙģØ§ÙĨÙĩ": 25364,
  "Ø·Ø±ÙģÙĩ": 10550,
  "Ø·Ø±ÙģÛĮ": 20069,
  "Ø·Ø±ÙģÛĮÙĨ": 41015,
  "Ø·Ø±Ùĩ": 19435,
  "Ø·Ø±ÛĮ": 7637,
  "Ø·Ø¹": 30786,
  "Ø·Ø¹Ùħ": 36373,
  "Ø·ØŃ": 9135,
  "Ø·ØŃÛĮ": 13683,
  "Ø·Ùģ": 15657,
  "Ø·ÙģÛĮ": 4165,
  "Ø·ÙĤ": 23577,
  "Ø·ÙĦ": 5656,
  "Ø·ÙĦØ§": 26589,
  "Ø·ÙĦØ§ØŃ": 33562,
  "Ø·ÙĦØ¨": 6245,
  "Ø·ÙĦØ¨Ø§ÙĨ": 8009,
  "Ø·ÙĦØ¨Ø§ÙĨÙĩ": 19997,
  "Ø·ÙĦØ¨Ø¯": 9119,
  "Ø·ÙĦØ¨ÛĮ": 13164,
  "Ø·ÙĦØ¨ÛĮØ¯": 37031,
  "Ø·ÙĦÙĤ": 38873,
  "Ø·Ùħ": 10332,
  "Ø·ÙħØ¦": 24093,
  "Ø·ÙħØ¦ÙĨ": 25507,
  "Ø·Ùĩ": 1367,
  "Ø·ÙĪ": 24092,
  "Ø·ÙĪØ¨": 11827,
  "Ø·ÙĪØ±": 1852,
  "Ø·ÙĪØ±Ùĩ": 9830,
  "Ø·ÙĪØ±Ú©ÙĦÛĮ": 27500,
  "Ø·ÙĪØ±Ú©Ùĩ": 39334,
  "Ø·ÙĪØ±ÛĮ": 6600,
  "Ø·ÙĪØ±ÛĮÚ©Ùĩ": 39699,
  "Ø·ÙĪØ³": 29672,
  "Ø·ÙĪÙĦ": 21814,
  "Ø·ÙĪÙħ": 21609,
  "Ø·ÛĮ": 3180,
  "Ø·ÛĮØ§Øª": 33921,
  "Ø·ÛĮØ¨": 24511,
  "Ø·ÛĮØ³": 20998,
  "Ø·ÛĮØ³ÛĮ": 10877,
  "Ø·ÛĮØŃ": 11327,
  "Ø·ÛĮÙģ": 20741,
  "Ø·ÛĮÙħ": 42060,
  "Ø·ÛĮÙĩ": 32050,
  "Ø¸": 371,
  "Ø¸Ø§Øª": 7165,
  "Ø¸Ø§ØªÛĮ": 11985,
  "Ø¸Ø§Ø±": 19446,
  "Ø¸Ø§ÙĩØ±": 32076,
  "Ø¸Øª": 2112,
  "Ø¸ØªÛĮ": 6780,
  "Ø¸Ø±": 1833,
  "Ø¸Ø±Ø§ÙĨ": 7244,
  "Ø¸Ø±Ùģ": 18851,
  "Ø¸Ø±ÙģÛĮØª": 20810,
  "Ø¸Ø±ÛĮ": 35359,
  "Ø¸Ùģ": 26602,
  "Ø¸ÙĦÙĩ": 38931,
  "Ø¸Ùħ": 3983,
  "Ø¸ÙħÛĮ": 4692,
  "Ø¸Ùĩ": 2532,
  "Ø¸ÙĩØ§Ø±": 42118,
  "Ø¸ÙĩØ±": 6726,
  "Ø¸ÛĮ": 5627,
  "Ø¸ÛĮÙħ": 2065,
  "Ø¸ÛĮÙħÛĮ": 32806,
  "Ø¹": 295,
  "Ø¹Ø§": 10014,
  "Ø¹Ø§Ø¨": 16258,
  "Ø¹Ø§Øª": 831,
  "Ø¹Ø§ØªÛĮ": 5087,
  "Ø¹Ø§Ø¯ÙĦ": 11538,
  "Ø¹Ø§Ø¯ÛĮ": 38806,
  "Ø¹Ø§Ø±": 9676,
  "Ø¹Ø§Ø±Ùģ": 16259,
  "Ø¹Ø§Ø·": 41966,
  "Ø¹Ø§ÙĦ": 17149,
  "Ø¹Ø§ÙĦÛĮ": 7713,
  "Ø¹Ø§Ùħ": 19749,
  "Ø¹Ø§ÙħØ±ÛĮ": 26505,
  "Ø¹Ø§ÙħÙĦ": 1167,
  "Ø¹Ø§ÙħÙĦÙĩ": 40754,
  "Ø¹Ø§ÙħÙĦÛĮ": 11442,
  "Ø¹Ø§ÙĨ": 6521,
  "Ø¹Ø§ÙĪÙĨ": 26196,
  "Ø¹Ø§ÛĮ": 35274,
  "Ø¹Ø¨": 1214,
  "Ø¹Ø¨Ø§Ø±Øª": 30386,
  "Ø¹Ø¨Ø§Ø±ØªÛĮ": 37895,
  "Ø¹Ø¨Ø§Ø³": 3216,
  "Ø¹Ø¨Ø§Ø³Ø¹ÙĦÛĮ": 23459,
  "Ø¹Ø¨Ø§Ø³ÛĮ": 25323,
  "Ø¹Ø¨Ø¯": 11778,
  "Ø¹Ø¨Ø¯Ø§ÙĦ": 12323,
  "Ø¹Ø¨Ø¯Ø§ÙĦØ±Ø³ÙĪÙĦ": 21952,
  "Ø¹Ø¨Ø¯Ø§ÙĦØ±Ø¶Ø§": 24572,
  "Ø¹Ø¨Ø¯Ø§ÙĦØŃØ³ÛĮÙĨ": 36016,
  "Ø¹Ø¨Ø¯Ø§ÙĦØŃÙħÛĮØ¯": 32509,
  "Ø¹Ø¨Ø¯Ø§ÙĦÙĦÙĩ": 14349,
  "Ø¹Ø¨Ø¯Ø§ÙĦÙħØ¬ÛĮØ¯": 41463,
  "Ø¹Ø¨ÙĪØ±": 13787,
  "Ø¹Ø¨ÛĮ": 8739,
  "Ø¹Ø¨ÛĮØ¯": 42490,
  "Ø¹Øª": 554,
  "Ø¹ØªØ¨Ø±": 20244,
  "Ø¹ØªÛĮ": 1272,
  "Ø¹Ø«": 41965,
  "Ø¹Ø¬": 19423,
  "Ø¹Ø¯": 2726,
  "Ø¹Ø¯Ø§Ø¯": 21191,
  "Ø¹Ø¯Ø§ÙĦØª": 38036,
  "Ø¹Ø¯Ø§ÙĦØªÛĮ": 21091,
  "Ø¹Ø¯Ø¯": 25530,
  "Ø¹Ø¯Ø¯ÛĮ": 33890,
  "Ø¹Ø¯Ùħ": 22632,
  "Ø¹Ø¯Ùĩ": 3717,
  "Ø¹Ø¯ÛĮ": 10588,
  "Ø¹Ø±": 11441,
  "Ø¹Ø±Ø§ÙĤ": 27322,
  "Ø¹Ø±Ø¨": 24351,
  "Ø¹Ø±Ø¨Ø³ØªØ§ÙĨ": 29065,
  "Ø¹Ø±Ø¨ÛĮ": 32002,
  "Ø¹Ø±ØµÙĩ": 27660,
  "Ø¹Ø±Ø¶Ùĩ": 21757,
  "Ø¹Ø±Ùģ": 28635,
  "Ø¹Ø±ÙģØ§ÙĨ": 30678,
  "Ø¹Ø±ÙĪÙĤÛĮ": 37523,
  "Ø¹Ø²ÛĮ": 41964,
  "Ø¹Ø²ÛĮØ²": 38808,
  "Ø¹Ø³": 27321,
  "Ø¹Ø³ÙĦ": 24068,
  "Ø¹Ø³ÙĦÙĪÛĮÙĩ": 27266,
  "Ø¹Ø´": 5520,
  "Ø¹Ø´Ø¹": 41967,
  "Ø¹Ø´ÛĮ": 17267,
  "Ø¹ØµØ±": 12933,
  "Ø¹Ø¶ÙĪ": 17150,
  "Ø¹Ø¸ÛĮÙħ": 36313,
  "Ø¹Ùģ": 1922,
  "Ø¹ÙģØ±ÛĮ": 20426,
  "Ø¹ÙģØ±ÛĮØ§ÙĨ": 40885,
  "Ø¹ÙģÙĪÙĨØª": 42605,
  "Ø¹ÙģÙĪÙĨÛĮ": 3121,
  "Ø¹ÙģÛĮ": 12932,
  "Ø¹ÙĤ": 10463,
  "Ø¹ÙĦ": 3761,
  "Ø¹ÙĦØ§": 23799,
  "Ø¹ÙĦØ§ÙĤÙĩ": 28572,
  "Ø¹ÙĦØ§ÙĪÙĩ": 17666,
  "Ø¹ÙĦØª": 24069,
  "Ø¹ÙĦÙĤ": 29122,
  "Ø¹ÙĦÙħ": 31367,
  "Ø¹ÙĦÙħÛĮ": 24521,
  "Ø¹ÙĦÙĪÙħ": 12745,
  "Ø¹ÙĦÛĮ": 2700,
  "Ø¹ÙĦÛĮØ±": 8714,
  "Ø¹ÙĦÛĮØ±Ø¶Ø§": 8779,
  "Ø¹ÙĦÛĮØ²Ø§Ø¯Ùĩ": 40976,
  "Ø¹ÙĦÛĮÙĤ": 33888,
  "Ø¹ÙĦÛĮÙĩ": 28197,
  "Ø¹Ùħ": 5730,
  "Ø¹ÙħØ¯": 38807,
  "Ø¹ÙħØ¯ØªØ§": 43571,
  "Ø¹ÙħØ¯Ùĩ": 34893,
  "Ø¹ÙħÙĤ": 25742,
  "Ø¹ÙħÙĦ": 5817,
  "Ø¹ÙħÙĦÚ©Ø±Ø¯": 26798,
  "Ø¹ÙħÙĦÛĮ": 15556,
  "Ø¹ÙħÙĦÛĮØ§Øª": 21556,
  "Ø¹ÙħÙĦÛĮØ§ØªÛĮ": 34191,
  "Ø¹ÙħÙĪÙħÛĮ": 11401,
  "Ø¹ÙĨ": 32724,
  "Ø¹ÙĨÙĪØ§ÙĨ": 3145,
  "Ø¹ÙĨÛĮ": 2061,
  "Ø¹Ùĩ": 459,
  "Ø¹ÙĩØ¯": 1972,
  "Ø¹ÙĩØ¯Ùĩ": 3972,
  "Ø¹ÙĩØ¯ÙĩØ§": 29193,
  "Ø¹ÙĩØ¯ÛĮ": 18110,
  "Ø¹ÙĪ": 34385,
  "Ø¹ÙĪØ§Ø±Ø¶": 38809,
  "Ø¹ÙĪØ§ÙħÙĦ": 40107,
  "Ø¹ÙĪØ¯": 3120,
  "Ø¹ÙĪØ¯ÛĮ": 5626,
  "Ø¹ÙĪÙĦ": 31366,
  "Ø¹Ú©Ø³": 8192,
  "Ø¹ÛĮ": 493,
  "Ø¹ÛĮØ§": 30854,
  "Ø¹ÛĮØ§Ø±": 23843,
  "Ø¹ÛĮØ¨": 36496,
  "Ø¹ÛĮØ¨ÛĮ": 17688,
  "Ø¹ÛĮØª": 802,
  "Ø¹ÛĮØªÛĮ": 26667,
  "Ø¹ÛĮØ¯": 9032,
  "Ø¹ÛĮØ¯Ùĩ": 36497,
  "Ø¹ÛĮØ¯ÛĮ": 26563,
  "Ø¹ÛĮØ±": 14902,
  "Ø¹ÛĮØ³ÛĮ": 25602,
  "Ø¹ÛĮÙģ": 3537,
  "Ø¹ÛĮÙĨ": 13277,
  "Ø¹ÛĮÛĮÙĨ": 1436,
  "Øº": 411,
  "ØºØ§Ø²": 1041,
  "ØºØ§Ø²ÛĮ": 22231,
  "ØºØ§ÙĦ": 1838,
  "ØºØ§ÙĦÙĩ": 20267,
  "ØºØ§ÙĦÛĮ": 8378,
  "ØºØ§Ùħ": 6721,
  "ØºØ§ÙħÛĮ": 18730,
  "ØºØ§ÙĨ": 2093,
  "ØºØ§ÙĨÛĮ": 9090,
  "ØºØ¨Ø§Ø±": 22028,
  "ØºØ¯": 3406,
  "ØºØ¯ØºÙĩ": 3490,
  "ØºØ¯ÛĮ": 40476,
  "ØºØ¯ÛĮØ±": 16223,
  "ØºØ°": 2798,
  "ØºØ°Ø§ÙĩØ§ÛĮ": 40986,
  "ØºØ°Ø§ÛĮÛĮ": 17911,
  "ØºØ°ÛĮ": 25697,
  "ØºØ°ÛĮÙĩ": 3618,
  "ØºØ±": 4942,
  "ØºØ±Ø¨": 10632,
  "ØºØ±Ø¨ÛĮ": 10754,
  "ØºØ±ÙĦ": 41185,
  "ØºØ±ÛĮ": 8970,
  "ØºØ±ÛĮØ¨ÛĮ": 38344,
  "ØºØ´": 29180,
  "ØºØµÛĮÙĨÙĪ": 33623,
  "ØºÙģÙĪØ±": 35384,
  "ØºÙĦ": 2029,
  "ØºÙĦØ§Ùħ": 12603,
  "ØºÙĦØ§ÙħØ±Ø¶Ø§": 18417,
  "ØºÙĦØ§ÙħØ¹ÙĦÛĮ": 26469,
  "ØºÙĦØ§ÙħØŃØ³ÛĮÙĨ": 29011,
  "ØºÙĦØ§ÙħÛĮ": 41484,
  "ØºÙĦÙĩ": 27382,
  "ØºÙĦÙĪ": 14313,
  "ØºÙĦÛĮ": 4146,
  "ØºÙħ": 3312,
  "ØºÙħØ§": 31443,
  "ØºÙħØ§ÛĮÛĮ": 40477,
  "ØºÙħÙĩ": 21222,
  "ØºÙħÛĮ": 20235,
  "ØºÙĨ": 30824,
  "ØºÙĨØ§": 21426,
  "ØºÙĨÛĮ": 21221,
  "ØºÙĩ": 3237,
  "ØºÚ¯Ø±Ø¬ÛĮ": 38978,
  "ØºÛĮ": 1027,
  "ØºÛĮØ§ÙĨ": 23183,
  "ØºÛĮØ¨": 6509,
  "ØºÛĮØ±": 5582,
  "ØºÛĮÛĮØ±": 19630,
  "ØĮ": 299,
  "ØĮ.": 29125,
  "ØĮÂ»": 18317,
  "ØĮØĮ": 22004,
  "Øį": 22399,
  "ØĽ": 779,
  "ØŁ": 1500,
  "ØŁ!": 10129,
  "ØŁ.": 29825,
  "ØŁÂ»": 19806,
  "ØŁØĮ": 11064,
  "ØŁØĽ": 35620,
  "ØŁØŁ": 42540,
  "ØŃ": 315,
  "ØŃØ§": 20829,
  "ØŃØ§Ø¨": 8037,
  "ØŃØ§Øª": 7997,
  "ØŃØ§ØªÛĮ": 26205,
  "ØŃØ§ØªÛĮÙĩ": 41657,
  "ØŃØ§Ø¬": 38851,
  "ØŃØ§Ø¬ÛĮ": 30776,
  "ØŃØ§Ø¯": 9163,
  "ØŃØ§Ø¯Ø«Ùĩ": 33547,
  "ØŃØ§Ø±ÛĮ": 24365,
  "ØŃØ§Ø´ÛĮÙĩ": 32754,
  "ØŃØ§ØµÙĦ": 28217,
  "ØŃØ§Ø¶": 20365,
  "ØŃØ§Ø¶Ø±": 20972,
  "ØŃØ§Ùģ": 8782,
  "ØŃØ§ÙģØ¸": 29998,
  "ØŃØ§ÙģÛĮ": 37567,
  "ØŃØ§ÙĤ": 36351,
  "ØŃØ§ÙĦ": 8242,
  "ØŃØ§ÙĦØ§": 41350,
  "ØŃØ§ÙĦÛĮ": 28216,
  "ØŃØ§Ùħ": 9452,
  "ØŃØ§ÙħØ¯": 20995,
  "ØŃØ§ÙħÛĮ": 36352,
  "ØŃØ§ÙĨ": 8048,
  "ØŃØ§ÙĨÙĩ": 18439,
  "ØŃØ§ÙĨÛĮ": 12314,
  "ØŃØ§ÙĨÛĮØ§ÙĨ": 25540,
  "ØŃØ¨ÛĮØ¨": 20996,
  "ØŃØª": 12350,
  "ØŃØªÙħ": 36350,
  "ØŃØªÛĮ": 20510,
  "ØŃØ¬Øª": 11311,
  "ØŃØ¬Ùħ": 40326,
  "ØŃØ¯": 14584,
  "ØŃØ¯Ø§": 14240,
  "ØŃØ¯Ø§ÙĤÙĦ": 24019,
  "ØŃØ¯Ø§Ú©Ø«Ø±": 17543,
  "ØŃØ¯ÙĪØ¯": 8466,
  "ØŃØ¯ÛĮ": 13102,
  "ØŃØ°": 28651,
  "ØŃØ°Ùģ": 33417,
  "ØŃØ±": 8292,
  "ØŃØ±ÙģÙĩ": 35308,
  "ØŃØ±Ùħ": 30775,
  "ØŃØ±Ú©Øª": 25899,
  "ØŃØ±Ú©ØªÛĮ": 40021,
  "ØŃØ±ÛĮØ±": 15562,
  "ØŃØ²": 23117,
  "ØŃØ²Ø¨": 41626,
  "ØŃØ²Ø¨ÛĮ": 26521,
  "ØŃØ³": 2388,
  "ØŃØ³Ø§Ø¨": 6483,
  "ØŃØ³Ø§Ø¨Ø§ÙĨ": 43032,
  "ØŃØ³Ø§Ø¨Ø±Ø³ÛĮ": 14140,
  "ØŃØ³Ø§Ø¨ÛĮ": 24186,
  "ØŃØ³Ø§Ø³ÛĮØª": 39395,
  "ØŃØ³Ø§Ùħ": 39394,
  "ØŃØ³Ø¨": 13517,
  "ØŃØ³ÙĨ": 6746,
  "ØŃØ³ÙĨØ¹ÙĦÛĮ": 41285,
  "ØŃØ³ÙĨÙĩ": 6716,
  "ØŃØ³ÛĮ": 29141,
  "ØŃØ³ÛĮÙĨ": 3897,
  "ØŃØ³ÛĮÙĨØ¹ÙĦÛĮ": 20921,
  "ØŃØ³ÛĮÙĨÛĮ": 8979,
  "ØŃØ´": 29140,
  "ØŃØ´ÙħØª": 31937,
  "ØŃØµ": 3442,
  "ØŃØµØ§Ø±": 25377,
  "ØŃØµÙĦ": 15654,
  "ØŃØ¶": 5077,
  "ØŃØ¶Ø§Ø±": 13843,
  "ØŃØ¶ÙĪØ±": 19692,
  "ØŃØ¶ÙĪØ±ÛĮ": 5716,
  "ØŃÙģ": 23118,
  "ØŃÙģØ§Ø±ÛĮ": 31913,
  "ØŃÙģØ§Ø¸Øª": 31387,
  "ØŃÙģØ¸": 31251,
  "ØŃÙĤ": 7768,
  "ØŃÙĤÙĪÙĤ": 24837,
  "ØŃÙĤÙĪÙĤÛĮ": 27632,
  "ØŃÙĤÛĮ": 36349,
  "ØŃÙĦ": 2192,
  "ØŃÙĦØ§ÙĦ": 14497,
  "ØŃÙĦÙĤÙĩ": 37993,
  "ØŃÙĦÛĮ": 4750,
  "ØŃÙħ": 24364,
  "ØŃÙħØ§ÛĮØª": 19758,
  "ØŃÙħØ¯Ø§ÙĨ": 27337,
  "ØŃÙħØ¯ÛĮ": 14107,
  "ØŃÙħÙĦ": 24366,
  "ØŃÙħÙĩ": 15864,
  "ØŃÙħÛĮ": 30208,
  "ØŃÙħÛĮØ¯": 9321,
  "ØŃÙħÛĮØ¯Ø±Ø¶Ø§": 13203,
  "ØŃÙħÛĮØ¯ÛĮ": 34258,
  "ØŃÙĩ": 1418,
  "ØŃÙĩØ§": 34415,
  "ØŃÙĪ": 26583,
  "ØŃÙĪØ§Ø¯Ø«": 35154,
  "ØŃÙĪØ±": 35307,
  "ØŃÙĪØ²Ùĩ": 27336,
  "ØŃÙĪÙĦ": 32026,
  "ØŃÙĪÙĨ": 19757,
  "ØŃÚ©": 15255,
  "ØŃÚ©Ø´ØªÛĮ": 25812,
  "ØŃÚ©ÙħØª": 33345,
  "ØŃÚ©ÛĮÙħ": 33546,
  "ØŃÚ©ÛĮÙħÙĩ": 40101,
  "ØŃÛĮ": 1127,
  "ØŃÛĮØ¯": 9976,
  "ØŃÛĮØ¯Ø±": 24003,
  "ØŃÛĮØ¯Ø±Ø¹ÙĦÛĮ": 36127,
  "ØŃÛĮØ¯Ø±ÛĮ": 18414,
  "ØŃÛĮØ¯Ø±ÛĮÙĩ": 19862,
  "ØŃÛĮØŃ": 3731,
  "ØŃÛĮÙĦ": 14722,
  "ØŃÛĮÙĩ": 42026,
  "ØŃÛĮÛĮ": 7644,
  "Ù": 154,
  "Ù¡": 3199,
  "Ù¡Ù¡": 20581,
  "Ù¡Ù¢": 16219,
  "Ù¡Ù£": 14214,
  "Ù¡Ù£Ù©": 21961,
  "Ù¡Ù£Ù©Ù¥": 26514,
  "Ù¡Ù¤": 22532,
  "Ù¡Ù¥": 21892,
  "Ù¡Ù¦": 16300,
  "Ù¡Ù§": 20582,
  "Ù¡Ù¨": 18035,
  "Ù¡Ù©": 16079,
  "Ù¡Ùł": 14131,
  "Ù¡ÙłÙł": 21301,
  "Ù¡ÙłÙłÙł": 38539,
  "Ù¡Ûµ": 26046,
  "Ù¢": 3693,
  "Ù¢Ù¡": 18267,
  "Ù¢Ù¢": 20442,
  "Ù¢Ù£": 22537,
  "Ù¢Ù¤": 25713,
  "Ù¢Ù¥": 32356,
  "Ù¢Ù¦": 33953,
  "Ù¢Ù§": 34800,
  "Ù¢Ù¨": 26765,
  "Ù¢Ù©": 27138,
  "Ù¢Ùł": 11234,
  "Ù¢ÙłÙ¡Ù¦": 35997,
  "Ù¢ÙłÙł": 33952,
  "Ù¢Ûµ": 21307,
  "Ù£": 3929,
  "Ù£Ù¡": 24799,
  "Ù£Ù¢": 33152,
  "Ù£Ù£": 25718,
  "Ù£Ù¤": 34813,
  "Ù£Ù¥": 33153,
  "Ù£Ù¦": 31702,
  "Ù£Ù§": 27146,
  "Ù£Ù¨": 33965,
  "Ù£Ù©": 32367,
  "Ù£Ùł": 9854,
  "Ù£Ûµ": 34812,
  "Ù¤": 4436,
  "Ù¤Ù¡": 41145,
  "Ù¤Ù¢": 38175,
  "Ù¤Ù¤": 29930,
  "Ù¤Ù¥": 35810,
  "Ù¤Ù¨": 41146,
  "Ù¤Ùł": 21717,
  "Ù¥": 3878,
  "Ù¥Ù¡": 38129,
  "Ù¥Ù¤": 42821,
  "Ù¥Ù¦": 41107,
  "Ù¥Ù©": 31699,
  "Ù¥Ùł": 13660,
  "Ù¦": 4445,
  "Ù¦Ù¢": 28010,
  "Ù¦Ù©": 39583,
  "Ù¦Ùł": 22324,
  "Ù§": 4580,
  "Ù§Ù¥": 41158,
  "Ù§Ùł": 38181,
  "Ù¨": 4033,
  "Ù¨Ù£": 38143,
  "Ù©": 3039,
  "Ù©Ù¡": 41025,
  "Ù©Ù£": 41026,
  "Ù©Ù§": 42733,
  "Ù©Ù©": 28866,
  "Ù©ÙłÙł": 36853,
  "Ùª": 7911,
  "Ùª)": 15132,
  "ÙªØĮ": 38316,
  "Ù«": 747,
  "Ù¬": 13176,
  "Ù°": 31310,
  "Ù¾": 379,
  "Ù¾Ø¦ÙĪ": 26604,
  "Ù¾Ø§": 1389,
  "Ù¾Ø§Ø¦": 21866,
  "Ù¾Ø§Ø¦ÙĪÙĦ": 37919,
  "Ù¾Ø§Ø¦ÙĪÙĦÙĪ": 22609,
  "Ù¾Ø§Øª": 36421,
  "Ù¾Ø§ØªØ±": 40440,
  "Ù¾Ø§Ø¯": 16354,
  "Ù¾Ø§Ø±": 3920,
  "Ù¾Ø§Ø±Øª": 30248,
  "Ù¾Ø§Ø±Ø¯": 25574,
  "Ù¾Ø§Ø±Ø³": 7750,
  "Ù¾Ø§Ø±Ø³Ø§ÙĨ": 28493,
  "Ù¾Ø§Ø±Ø³ÛĮ": 42824,
  "Ù¾Ø§Ø±Ø³ÛĮØ§ÙĨ": 42825,
  "Ù¾Ø§Ø±ÙĦÙħØ§ÙĨ": 39532,
  "Ù¾Ø§Ø±Ùĩ": 28695,
  "Ù¾Ø§Ø±ÙĪÙģ": 33150,
  "Ù¾Ø§Ø±Ú©": 22317,
  "Ù¾Ø§Ø±ÚĨ": 9638,
  "Ù¾Ø§Ø±ÚĨÙĩ": 4364,
  "Ù¾Ø§Ø±ÚĨÚ¯ÛĮ": 9770,
  "Ù¾Ø§Ø±ÛĮ": 31431,
  "Ù¾Ø§Ø±ÛĮØ³": 35367,
  "Ù¾Ø§Ø²": 40438,
  "Ù¾Ø§Ø³": 12809,
  "Ù¾Ø§Ø³Ø§ØŃ": 38420,
  "Ù¾Ø§Ø³Øª": 13592,
  "Ù¾Ø§Ø³Ø®": 22370,
  "Ù¾Ø§Ø³Ú©ÙĪ": 27662,
  "Ù¾Ø§Ø³ÛĮ": 25265,
  "Ù¾Ø§Ø³ÛĮÙģÛĮÚ©": 28580,
  "Ù¾Ø§Ø´": 14749,
  "Ù¾Ø§Ø´Ø¯": 33815,
  "Ù¾Ø§Ø´ÛĮ": 7811,
  "Ù¾Ø§Ø´ÛĮØ¯": 37918,
  "Ù¾Ø§ÙĦ": 7630,
  "Ù¾Ø§ÙĦØ§ÛĮØ´": 23272,
  "Ù¾Ø§ÙĦØ§ÛĮØ´Ú¯Ø§Ùĩ": 15064,
  "Ù¾Ø§ÙĦØ§ÛĮØ´ÛĮ": 33253,
  "Ù¾Ø§ÙĨ": 16353,
  "Ù¾Ø§ÙĨØ²": 38940,
  "Ù¾Ø§ÙĪÙĦ": 32229,
  "Ù¾Ø§ÙĪÙĨ": 15662,
  "Ù¾Ø§Ú©": 15263,
  "Ù¾Ø§Ú©Ø³ØªØ§ÙĨ": 20963,
  "Ù¾Ø§Ú©Ø´ÙĪ": 34187,
  "Ù¾Ø§ÚĨÙĩ": 33816,
  "Ù¾Ø§ÚĨÛĮÙĨÚ¯": 23648,
  "Ù¾Ø§Úĺ": 10004,
  "Ù¾Ø§ÛĮ": 4076,
  "Ù¾Ø§ÛĮØ§ÙĨ": 13757,
  "Ù¾Ø§ÛĮØ§ÙĨÙĩ": 39544,
  "Ù¾Ø§ÛĮØª": 32079,
  "Ù¾Ø§ÛĮØªØ®Øª": 32656,
  "Ù¾Ø§ÛĮØ¯": 28248,
  "Ù¾Ø§ÛĮØ¯Ø§Ø±": 37322,
  "Ù¾Ø§ÛĮØ´": 42129,
  "Ù¾Ø§ÛĮÙ¾": 29925,
  "Ù¾Ø§ÛĮÙĩ": 4869,
  "Ù¾Ø§ÛĮÚ¯Ø§Ùĩ": 32378,
  "Ù¾Ø§ÛĮÛĮ": 2383,
  "Ù¾Ø§ÛĮÛĮÙĨ": 30512,
  "Ù¾Øª": 8773,
  "Ù¾ØªØ±": 21008,
  "Ù¾ØªØ±Ø²Ø¨ÙĪØ±Ú¯": 27259,
  "Ù¾ØªØ±ÙĪ": 17844,
  "Ù¾ØªØ±ÙĪØ¨Ø±Ø§Ø³": 34206,
  "Ù¾ØªØ±ÙĪØ´ÛĮÙħÛĮ": 22356,
  "Ù¾ØªØ±ÙĪÙĦ": 23502,
  "Ù¾ØªØ±ÙĪÙĦØŃ": 41577,
  "Ù¾ØªØ±ÙĪÙĦÛĮÙĪÙħ": 27252,
  "Ù¾ØªÙĪ": 20080,
  "Ù¾ØªÙĪØ±": 27814,
  "Ù¾ØªÙĪØ³": 23282,
  "Ù¾Ø®Øª": 35365,
  "Ù¾Ø®Ø´": 15963,
  "Ù¾Ø¯": 16600,
  "Ù¾Ø¯Ø±": 26603,
  "Ù¾Ø¯ÙĪØ³Ø§": 28552,
  "Ù¾Ø¯ÛĮ": 15962,
  "Ù¾Ø¯ÛĮØ³": 43341,
  "Ù¾Ø°ÛĮØ±": 2248,
  "Ù¾Ø°ÛĮØ±ØªØ±": 23925,
  "Ù¾Ø°ÛĮØ±ØªØ±ÛĮÙĨ": 27098,
  "Ù¾Ø°ÛĮØ±Ø¯": 6734,
  "Ù¾Ø°ÛĮØ±Ø´": 34712,
  "Ù¾Ø°ÛĮØ±ÙģØª": 27512,
  "Ù¾Ø°ÛĮØ±ÙģØªÙĩ": 42637,
  "Ù¾Ø°ÛĮØ±Ùħ": 26033,
  "Ù¾Ø°ÛĮØ±ÙĨØ¯": 16985,
  "Ù¾Ø°ÛĮØ±ÙĩØ§": 34713,
  "Ù¾Ø°ÛĮØ±ÛĮ": 4426,
  "Ù¾Ø°ÛĮØ±ÛĮÙħ": 20903,
  "Ù¾Ø±": 1479,
  "Ù¾Ø±Ø§": 24393,
  "Ù¾Ø±Ø§Ø³": 34661,
  "Ù¾Ø±Ø§Ú©ÙĨÛĮ": 28574,
  "Ù¾Ø±Ø§ÛĮØ²": 22022,
  "Ù¾Ø±Øª": 19949,
  "Ù¾Ø±ØªØ§ÙħÛĮÙĨØ§": 38523,
  "Ù¾Ø±ØªØºØ§ÙĦ": 39977,
  "Ù¾Ø±Ø®": 18573,
  "Ù¾Ø±Ø®Ø·Ø±": 18831,
  "Ù¾Ø±Ø¯": 2260,
  "Ù¾Ø±Ø¯Ø§Ø®Øª": 4642,
  "Ù¾Ø±Ø¯Ø§Ø®ØªÙĨØ¯": 22327,
  "Ù¾Ø±Ø¯Ø§Ø²": 2862,
  "Ù¾Ø±Ø¯Ø§Ø²Ø§ÙĨ": 23228,
  "Ù¾Ø±Ø¯Ø§Ø²Ø¯": 6561,
  "Ù¾Ø±Ø¯Ø§Ø²Ùħ": 26735,
  "Ù¾Ø±Ø¯Ø§Ø²ÙĨØ¯": 7579,
  "Ù¾Ø±Ø¯Ø§Ø²ÛĮ": 10058,
  "Ù¾Ø±Ø¯Ø§Ø²ÛĮÙħ": 9801,
  "Ù¾Ø±Ø¯Ùĩ": 23433,
  "Ù¾Ø±Ø¯ÛĮØ³": 40925,
  "Ù¾Ø±Ø³": 6544,
  "Ù¾Ø±Ø³Øª": 10420,
  "Ù¾Ø±Ø³ØªÛĮ": 13788,
  "Ù¾Ø±Ø³Ø¯": 26229,
  "Ù¾Ø±Ø³Ù¾ÙĪÙĦÛĮØ³": 41276,
  "Ù¾Ø±Ø³Ùħ": 24241,
  "Ù¾Ø±Ø³ÙĨØ¯": 22563,
  "Ù¾Ø±Ø³ÛĮ": 16433,
  "Ù¾Ø±Ø³ÛĮØ¯": 22443,
  "Ù¾Ø±Ùĩ": 32816,
  "Ù¾Ø±ÙĪ": 7096,
  "Ù¾Ø±ÙĪØ§": 43063,
  "Ù¾Ø±ÙĪØ§Ø²": 16839,
  "Ù¾Ø±ÙĪØ§Ø²ÛĮ": 34063,
  "Ù¾Ø±ÙĪØ§ÙĨÙĩ": 30556,
  "Ù¾Ø±ÙĪØª": 24836,
  "Ù¾Ø±ÙĪØªØ¦ÛĮÙĨ": 31264,
  "Ù¾Ø±ÙĪØ±": 23650,
  "Ù¾Ø±ÙĪØ±Ø§ÙĨØ¯": 40000,
  "Ù¾Ø±ÙĪØ±ÛĮ": 15337,
  "Ù¾Ø±ÙĪÙ¾": 13091,
  "Ù¾Ø±ÙĪÙ¾Ø§ÙĨ": 28531,
  "Ù¾Ø±ÙĪÙ¾ÛĮÙĦÙĨ": 14778,
  "Ù¾Ø±ÙĪÙģ": 30249,
  "Ù¾Ø±ÙĪÙħ": 6121,
  "Ù¾Ø±ÙĪÚĺÙĩ": 15201,
  "Ù¾Ø±ÙĪÛĮØ²": 22346,
  "Ù¾Ø±Ú©": 34463,
  "Ù¾Ø±Ú¯Ø±": 35616,
  "Ù¾Ø±ÛĮ": 13020,
  "Ù¾Ø±ÛĮØ§": 41498,
  "Ù¾Ø±ÛĮØ´ÛĮ": 38942,
  "Ù¾Ø±ÛĮÙĨ": 22442,
  "Ù¾Ø²": 8578,
  "Ù¾Ø²Ø´": 9910,
  "Ù¾Ø²Ø´Ú©": 12756,
  "Ù¾Ø²Ø´Ú©Ø§ÙĨ": 14519,
  "Ù¾Ø²Ø´Ú©ÛĮ": 6753,
  "Ù¾Ø²ÛĮ": 10651,
  "Ù¾Ø³": 4162,
  "Ù¾Ø³Øª": 20079,
  "Ù¾Ø³ØªÛĮ": 21009,
  "Ù¾Ø³Ø±": 42130,
  "Ù¾Ø³ÙĨØ¯": 7518,
  "Ù¾Ø³ÙĨØ¯Ø§ÙĨÙĩ": 25770,
  "Ù¾Ø³ÙĨØ¯Ø¯": 43090,
  "Ù¾Ø³ÙĨØ¯ÙĨØ¯": 30565,
  "Ù¾Ø³ÙĨØ¯ÛĮ": 38153,
  "Ù¾Ø³ÙĪÙĦ": 7648,
  "Ù¾Ø³ÛĮ": 38938,
  "Ù¾Ø³ÛĮÙĨ": 20756,
  "Ù¾Ø´": 40436,
  "Ù¾Ø´Øª": 23380,
  "Ù¾Ø´ØªÛĮ": 22225,
  "Ù¾Ùģ": 40437,
  "Ù¾ÙĦ": 5978,
  "Ù¾ÙĦØ§": 17985,
  "Ù¾ÙĦØ§Ø³": 12102,
  "Ù¾ÙĦØ§Ø³Øª": 26867,
  "Ù¾ÙĦØ§Ø³ØªÛĮÚ©": 27687,
  "Ù¾ÙĦØ§Ú©": 32080,
  "Ù¾ÙĦØªÙģØ±Ùħ": 40441,
  "Ù¾ÙĦØ±": 24236,
  "Ù¾ÙĦÙħ": 28696,
  "Ù¾ÙĦÙĨØª": 12517,
  "Ù¾ÙĦÙĨÚ¯": 21137,
  "Ù¾ÙĦÙĩ": 30815,
  "Ù¾ÙĦÙĪ": 23381,
  "Ù¾ÙĦÚ©Ø³": 38256,
  "Ù¾ÙĦÛĮ": 17168,
  "Ù¾ÙĦÛĮØ³": 21216,
  "Ù¾ÙĦÛĮÙħØ±": 38496,
  "Ù¾ÙĦÛĮÙĨ": 31112,
  "Ù¾ÙħÙ¾": 15877,
  "Ù¾ÙĨ": 7679,
  "Ù¾ÙĨØ§": 7365,
  "Ù¾ÙĨØ§Ùĩ": 11818,
  "Ù¾ÙĨØ§ÙĩÛĮ": 31145,
  "Ù¾ÙĨØ¬": 4997,
  "Ù¾ÙĨØ¬Ø§Ùĩ": 41189,
  "Ù¾ÙĨØ¬Ø±Ùĩ": 34861,
  "Ù¾ÙĨØ¬Ø´ÙĨØ¨Ùĩ": 7035,
  "Ù¾ÙĨØ¬Ùħ": 12230,
  "Ù¾ÙĨØ¬ÙħÛĮÙĨ": 22759,
  "Ù¾ÙĨØ¯": 13544,
  "Ù¾ÙĨØ¯Ø§Ø±ÙĨØ¯": 34167,
  "Ù¾ÙĨØ¯Ø§Ø´Øª": 41517,
  "Ù¾ÙĨØ¯Ø±": 37640,
  "Ù¾ÙĨØ¯ÙĨØª": 17650,
  "Ù¾ÙĨÚ¯": 38939,
  "Ù¾Ùĩ": 9354,
  "Ù¾ÙĪ": 3790,
  "Ù¾ÙĪØª": 35366,
  "Ù¾ÙĪØªÛĮÙĨ": 38941,
  "Ù¾ÙĪØ±": 2880,
  "Ù¾ÙĪØ±Øª": 12564,
  "Ù¾ÙĪØ±Ø²": 38054,
  "Ù¾ÙĪØ±ÛĮ": 24964,
  "Ù¾ÙĪØ²": 25921,
  "Ù¾ÙĪØ³": 16266,
  "Ù¾ÙĪØ³Øª": 11463,
  "Ù¾ÙĪØ³ØªØ§ÙĨ": 13895,
  "Ù¾ÙĪØ³ØªÛĮ": 28895,
  "Ù¾ÙĪØ´": 5562,
  "Ù¾ÙĪØ´Ø§ÙĨ": 5746,
  "Ù¾ÙĪØ´Ø§ÙĨØ¯": 31757,
  "Ù¾ÙĪØ´Ø§ÙĨÙĨØ¯": 42992,
  "Ù¾ÙĪØ´Ø§ÙĨÛĮ": 16314,
  "Ù¾ÙĪØ´Ø¯": 25382,
  "Ù¾ÙĪØ´Ø´": 11048,
  "Ù¾ÙĪØ´ÛĮ": 15290,
  "Ù¾ÙĪØ´ÛĮØ¯Ùĩ": 12036,
  "Ù¾ÙĪÙģ": 30816,
  "Ù¾ÙĪÙĦ": 7234,
  "Ù¾ÙĪÙĦØ¯ÙĪ": 43074,
  "Ù¾ÙĪÙĦÛĮ": 1866,
  "Ù¾ÙĪÙĦÛĮØ³": 22715,
  "Ù¾ÙĪÙĨ": 30814,
  "Ù¾ÙĪÙĨØ¯": 40439,
  "Ù¾ÙĪÙĨÛĮÚ©": 29693,
  "Ù¾ÙĪÚ¯Ø±Ø§ÙģÛĮ": 17922,
  "Ù¾ÙĪÛĮØ§": 34465,
  "Ù¾ÙĪÛĮØ´": 26230,
  "Ù¾ÙĪÛĮÙĨØª": 33607,
  "Ù¾Ú©": 1250,
  "Ù¾Ú©Ø³": 20519,
  "Ù¾Ú©ÙĪ": 17355,
  "Ù¾Ú©ÙĪÛĮØ±ØŃ": 37245,
  "Ù¾Ú©ÛĮ": 10318,
  "Ù¾Úĺ": 12651,
  "Ù¾ÚĺÙħØ§ÙĨ": 37181,
  "Ù¾ÚĺÙĪÙĩ": 15480,
  "Ù¾ÚĺÙĪÙĩØ§ÙĨ": 26122,
  "Ù¾ÚĺÙĪÙĩØ´": 26134,
  "Ù¾ÚĺÙĪÙĩØ´ÛĮ": 34190,
  "Ù¾ÚĺÙĪÙĩÛĮ": 23522,
  "Ù¾ÛĮ": 2474,
  "Ù¾ÛĮØ§Ø¯Ùĩ": 27105,
  "Ù¾ÛĮØ§Ùħ": 28381,
  "Ù¾ÛĮØªØ±": 34464,
  "Ù¾ÛĮØ¯": 38937,
  "Ù¾ÛĮØ±": 10000,
  "Ù¾ÛĮØ±Ø§ÙĪÛĮØ±": 21146,
  "Ù¾ÛĮØ±Ø§ÛĮÛĮ": 22790,
  "Ù¾ÛĮØ±ÙĪ": 42131,
  "Ù¾ÛĮØ±ÙĪØ²": 22791,
  "Ù¾ÛĮØ±ÙĪØ²ÛĮ": 24004,
  "Ù¾ÛĮØ´": 11363,
  "Ù¾ÛĮØ´ÙĨÙĩØ§Ø¯": 33875,
  "Ù¾ÛĮØ´Ùĩ": 17489,
  "Ù¾ÛĮØ´Ú¯ÛĮ": 33077,
  "Ù¾ÛĮØ´Ú¯ÛĮØ±ÛĮ": 31186,
  "Ù¾ÛĮØ´ÛĮÙĨÙĩ": 39869,
  "Ù¾ÛĮÙ¾Ø±": 40954,
  "Ù¾ÛĮÙħ": 8786,
  "Ù¾ÛĮÙħØ§": 14112,
  "Ù¾ÛĮÙħØ§ÙĨ": 10630,
  "Ù¾ÛĮÙħØ§ÙĨØ§ÙĨ": 28994,
  "Ù¾ÛĮÙħØ§ÙĨØ§ÙĨØ´": 37143,
  "Ù¾ÛĮÙħØ§ÙĨÚ©Ø§Ø±": 43215,
  "Ù¾ÛĮÙħØ§ÛĮ": 17331,
  "Ù¾ÛĮÙħØ§ÛĮØ¯": 28069,
  "Ù¾ÛĮÙħØ§ÛĮÙĨØ¯": 37101,
  "Ù¾ÛĮÙħØ§ÛĮÛĮ": 11422,
  "Ù¾ÛĮÙĨ": 7057,
  "Ù¾ÛĮÙĨÙĪ": 37053,
  "Ù¾ÛĮÙĨÚ¯": 20377,
  "Ù¾ÛĮÙĪØ³Øª": 27966,
  "Ù¾ÛĮÙĪØ³ØªÙĨ": 39402,
  "Ù¾ÛĮÙĪØ³ØªÙĩ": 13157,
  "Ù¾ÛĮÙĪÙĨØ¯": 8332,
  "Ù¾ÛĮÙĪÙĨØ¯Ø¯": 18179,
  "Ù¾ÛĮÙĪÙĨØ¯ÙĨØ¯": 23277,
  "Ù¾ÛĮÙĪÙĨØ¯ÛĮ": 35942,
  "Ù¾ÛĮÚ©": 24105,
  "Ù¾ÛĮÚ©Ø§ÙĨ": 40952,
  "Ù¾ÛĮÚ©Ø±": 14321,
  "Ù¾ÛĮÚ©ÙĪ": 40953,
  "Ù¾ÛĮÚ¯ÙĦ": 28382,
  "Ù¾ÛĮÚ¯ÛĮØ±ÛĮ": 34726,
  "Ù¾ÛĮÚĨ": 17714,
  "Ù¾ÛĮÚĨØ¯": 39958,
  "Ù¾ÛĮÚĨÛĮ": 17093,
  "Ùģ": 290,
  "ÙģØ§": 899,
  "ÙģØ§Ø¦ÙĦ": 14555,
  "ÙģØ§Ø¦ÙĪ": 32182,
  "ÙģØ§Ø¨ÛĮ": 41947,
  "ÙģØ§Øª": 37507,
  "ÙģØ§Ø¬ÛĮ": 34604,
  "ÙģØ§Ø¯": 30171,
  "ÙģØ§Ø¯Ùĩ": 637,
  "ÙģØ§Ø°Ø±": 42413,
  "ÙģØ§Ø±": 17148,
  "ÙģØ§Ø±Ø³": 6846,
  "ÙģØ§Ø±Ø³ÛĮ": 28554,
  "ÙģØ§Ø²": 16028,
  "ÙģØ§Ø²ÙĩØ§ÛĮ": 30058,
  "ÙģØ§Ø²ÛĮ": 37510,
  "ÙģØ§ØµÙĦÙĩ": 33519,
  "ÙģØ§Ø·ÙħÙĩ": 18435,
  "ÙģØ§Ø¸Øª": 27449,
  "ÙģØ§Ø¸ÛĮ": 14799,
  "ÙģØ§Ø¹": 14665,
  "ÙģØ§Ø¹ÛĮ": 10391,
  "ÙģØ§ÙĤ": 1771,
  "ÙģØ§ÙĤØ¯": 14378,
  "ÙģØ§ÙĤÛĮ": 5157,
  "ÙģØ§ÙĦ": 9761,
  "ÙģØ§ÙĦÙĨ": 37129,
  "ÙģØ§ÙĦÙĪ": 33292,
  "ÙģØ§Ùħ": 14581,
  "ÙģØ§ÙĨ": 9834,
  "ÙģØ§ÙĨÙĩ": 2205,
  "ÙģØ§ÙĨÛĮ": 22000,
  "ÙģØ§ÙĪØª": 2258,
  "ÙģØ§ÙĪØªÛĮ": 5029,
  "ÙģØ§ÙĪÛĮ": 25313,
  "ÙģØ§Ú©ØªÙĪØ±": 40274,
  "ÙģØ§Ú©Ø³": 37512,
  "ÙģØ§Úĺ": 18599,
  "ÙģØ§ÚĺÙĩØ§": 34212,
  "ÙģØ§ÛĮ": 4379,
  "ÙģØ§ÛĮØªÛĮ": 34830,
  "ÙģØ§ÛĮØ¯Ùĩ": 23000,
  "ÙģØ§ÛĮØ±": 30172,
  "ÙģØ§ÛĮÙĨØ§ÙĨØ³": 32393,
  "ÙģØ§ÛĮÛĮ": 4042,
  "ÙģØª": 333,
  "ÙģØªØ§": 29153,
  "ÙģØªØ§ØŃ": 27348,
  "ÙģØªØ§ÙĨ": 34431,
  "ÙģØªØ¯": 6186,
  "ÙģØªØ±": 2193,
  "ÙģØªØ±ÛĮ": 37581,
  "ÙģØªØ±ÛĮÙĨ": 35328,
  "ÙģØªØŃ": 15498,
  "ÙģØªÙĨ": 11096,
  "ÙģØªÙĨØ¯": 15955,
  "ÙģØªÙĩ": 515,
  "ÙģØªÚ¯ÛĮ": 8763,
  "ÙģØªÛĮ": 9330,
  "ÙģØ¬Ø§Ø±": 35267,
  "ÙģØ¬Ø±": 24633,
  "ÙģØ®": 29116,
  "ÙģØ®Ø§Ø³": 33423,
  "ÙģØ®Ø±": 36306,
  "ÙģØ®ÙĪØ²": 37514,
  "ÙģØ¯Ø±": 6016,
  "ÙģØ¯Ø±Ø§Ø³ÛĮÙĪÙĨ": 6047,
  "ÙģØ¯ÛĮ": 38792,
  "ÙģØ±": 484,
  "ÙģØ±Ø¢ÙĪØ±Ø¯Ùĩ": 33653,
  "ÙģØ±Ø§": 31358,
  "ÙģØ±Ø§Ø¨": 29731,
  "ÙģØ±Ø§Ø¨ÙĪØ±Ø³": 31282,
  "ÙģØ±Ø§Ø¯": 25278,
  "ÙģØ±Ø§Ø¯ÛĮ": 7512,
  "ÙģØ±Ø§Ø²": 33651,
  "ÙģØ±Ø§Ùħ": 42240,
  "ÙģØ±Ø§ÙĨ": 7731,
  "ÙģØ±Ø§ÙĨØ³": 2987,
  "ÙģØ±Ø§ÙĨØ³Ùĩ": 26426,
  "ÙģØ±Ø§ÙĨØ³ÙĪÛĮ": 41021,
  "ÙģØ±Ø§ÙĨØ³ÛĮ": 8941,
  "ÙģØ±Ø§ÙĨØ³ÛĮØ³Ú©ÙĪ": 24259,
  "ÙģØ±Ø§ÙĨØ³ÛĮÙĦ": 28287,
  "ÙģØ±Ø§ÙĨÚ©": 33256,
  "ÙģØ±Ø§ÙĨÛĮ": 29204,
  "ÙģØ±Ø§Ùĩ": 34519,
  "ÙģØ±Ø§ÙĩØ§ÙĨÛĮ": 37359,
  "ÙģØ±Ø§ÙĩÙħ": 37718,
  "ÙģØ±Øª": 24988,
  "ÙģØ±Ø¯": 7032,
  "ÙģØ±Ø¯Ø§": 27615,
  "ÙģØ±Ø¯ÙĪØ³ÛĮ": 43060,
  "ÙģØ±Ø¯ÛĮ": 23559,
  "ÙģØ±Ø²Ø§Ø¯": 30288,
  "ÙģØ±Ø²ÛĮÙĨ": 22908,
  "ÙģØ±Ø³": 39028,
  "ÙģØ±Ø³Ø§": 28286,
  "ÙģØ±Ø³Ø§ÛĮ": 35427,
  "ÙģØ±Ø³Øª": 8972,
  "ÙģØ±Ø³ØªØ§Ø¯": 41374,
  "ÙģØ±Ø³ØªØ§Ø¯ÙĨØ¯": 43141,
  "ÙģØ±Ø³ØªØ¯": 17639,
  "ÙģØ±Ø³ØªÙħ": 33654,
  "ÙģØ±Ø³ØªÙĨØ¯": 24560,
  "ÙģØ±Ø³ØªÛĮÙħ": 35957,
  "ÙģØ±Ø´": 14202,
  "ÙģØ±Ø´Ø§Ø¯": 42242,
  "ÙģØ±ØµØª": 40531,
  "ÙģØ±Ø¶": 21432,
  "ÙģØ±ØŃ": 39030,
  "ÙģØ±Ùħ": 5508,
  "ÙģØ±ÙħØ§": 20529,
  "ÙģØ±ÙħØ§ÙĨ": 33652,
  "ÙģØ±ÙħØ§ÛĮ": 18738,
  "ÙģØ±ÙħØ§ÛĮÙĨØ¯": 41588,
  "ÙģØ±ÙħØ§ÛĮÛĮØ¯": 23060,
  "ÙģØ±ÙħÛĮ": 22245,
  "ÙģØ±ÙĨÚ¯ÛĮ": 28285,
  "ÙģØ±Ùĩ": 5017,
  "ÙģØ±ÙĩØ§Ø¯": 15621,
  "ÙģØ±ÙĩÙĨÚ¯": 18229,
  "ÙģØ±ÙĩÙĨÚ¯ÛĮ": 6611,
  "ÙģØ±ÙĪ": 4518,
  "ÙģØ±ÙĪØª": 41156,
  "ÙģØ±ÙĪØ®Øª": 23004,
  "ÙģØ±ÙĪØ®ØªÙĨØ¯": 28014,
  "ÙģØ±ÙĪØ®ØªÙĩ": 42896,
  "ÙģØ±ÙĪØ®ØªÛĮÙħ": 39994,
  "ÙģØ±ÙĪØ¯": 39029,
  "ÙģØ±ÙĪØ¯Ú¯Ø§Ùĩ": 43577,
  "ÙģØ±ÙĪØ±Ø¯ÛĮÙĨ": 17995,
  "ÙģØ±ÙĪØ´": 4885,
  "ÙģØ±ÙĪØ´Ø§ÙĨ": 9465,
  "ÙģØ±ÙĪØ´Ø¯": 9219,
  "ÙģØ±ÙĪØ´ÙĨØ¯": 8622,
  "ÙģØ±ÙĪØ´ÛĮ": 5605,
  "ÙģØ±ÙĪØ´ÛĮÙħ": 28023,
  "ÙģØ±ÙĪØº": 26780,
  "ÙģØ±ÙĪÙĨ": 24989,
  "ÙģØ±ÛĮ": 7181,
  "ÙģØ±ÛĮØ¨": 30747,
  "ÙģØ±ÛĮØ¨Ø§": 35907,
  "ÙģØ±ÛĮØ¨Ø§ÙĨÙĩ": 36166,
  "ÙģØ±ÛĮØ¨ÛĮ": 34943,
  "ÙģØ±ÛĮØ¯": 22631,
  "ÙģØ±ÛĮØ¯Ùĩ": 25137,
  "ÙģØ±ÛĮØ¯ÙĪÙĨ": 26517,
  "ÙģØ±ÛĮÙĨ": 20851,
  "ÙģØ±ÛĮÙĨØ¯": 42241,
  "ÙģØ±ÛĮÙĨÛĮ": 35426,
  "ÙģØ³": 15081,
  "ÙģØ´": 10315,
  "ÙģØ´Ø§Ø±": 18963,
  "ÙģØ´Ø§ÙĨ": 19125,
  "ÙģØ´Ø§ÙĨÛĮ": 20950,
  "ÙģØ´Ùĩ": 18711,
  "ÙģØµÙĦ": 13536,
  "ÙģØ¶": 27763,
  "ÙģØ¶Ø§": 41946,
  "ÙģØ¶Ø§ÛĮ": 35266,
  "ÙģØ¶ÙĦ": 8771,
  "ÙģØ¶ÙĦÛĮ": 25231,
  "ÙģØ¶ÙĪÙĦÛĮ": 30670,
  "ÙģØ·Ø±": 41948,
  "ÙģØ¸": 37509,
  "ÙģØ¹": 1253,
  "ÙģØ¹Ø§ÙĦ": 7151,
  "ÙģØ¹Ø§ÙĦÛĮØª": 23023,
  "ÙģØ¹Ø§ÙĨ": 6674,
  "ÙģÙģ": 22412,
  "ÙģÙĤ": 1353,
  "ÙģÙĤØ±Ùĩ": 40799,
  "ÙģÙĤØ·": 27481,
  "ÙģÙĤÛĮ": 10223,
  "ÙģÙĦ": 6380,
  "ÙģÙĦØ§ØŃ": 30746,
  "ÙģÙĦØª": 41949,
  "ÙģÙĦØ±": 27179,
  "ÙģÙĦØ²ÛĮ": 21523,
  "ÙģÙĦÙĪ": 37511,
  "ÙģÙĦÛĮ": 13100,
  "ÙģÙĦÛĮÚ©Ø³": 15207,
  "ÙģÙħÙĦÛĮ": 23797,
  "ÙģÙĨ": 21797,
  "ÙģÙĨØ§ÙĪØ±ÛĮ": 13679,
  "ÙģÙĨØ¯": 2188,
  "ÙģÙĨÚ¯": 41944,
  "ÙģÙĨÛĮ": 14784,
  "ÙģÙĩ": 679,
  "ÙģÙĩØ±Ø³Øª": 29117,
  "ÙģÙĩÙħØ¯": 34569,
  "ÙģÙĩÙħÙħ": 30324,
  "ÙģÙĩÙħÙĨØ¯": 25299,
  "ÙģÙĩÙħÛĮØ¯": 25629,
  "ÙģÙĩÙħÛĮØ¯Ùħ": 41651,
  "ÙģÙĩÙħÛĮÙħ": 34570,
  "ÙģÙĩÛĮÙħ": 21038,
  "ÙģÙĪ": 20661,
  "ÙģÙĪØ¨": 41945,
  "ÙģÙĪØª": 24929,
  "ÙģÙĪØªØ¨Ø§ÙĦ": 34225,
  "ÙģÙĪØªØ³ÛĮ": 29559,
  "ÙģÙĪØ¯": 30170,
  "ÙģÙĪØ¯ÙĩØ§": 35268,
  "ÙģÙĪØ°": 30174,
  "ÙģÙĪØ±": 5909,
  "ÙģÙĪØ±Øª": 13678,
  "ÙģÙĪØ±Ø¯": 9098,
  "ÙģÙĪØ±Ùħ": 28934,
  "ÙģÙĪØ±ÙħØ§Øª": 15352,
  "ÙģÙĪØ±ÙħÛĮÙĨ": 27596,
  "ÙģÙĪØ±ÛĮ": 24632,
  "ÙģÙĪØ±ÛĮØª": 30173,
  "ÙģÙĪØ±ÛĮØªÛĮ": 13614,
  "ÙģÙĪÙĤ": 28630,
  "ÙģÙĪÙĦ": 8016,
  "ÙģÙĪÙĦØ§Ø¯": 18410,
  "ÙģÙĪÙĦÛĮ": 24930,
  "ÙģÙĪÙĨ": 6836,
  "ÙģÙĪÚĺ": 37513,
  "ÙģÙĪÛĮ": 9031,
  "ÙģÚ©": 16342,
  "ÙģÚ©Ø±": 11949,
  "ÙģÚ©Ø±Ø§ÙĨ": 17769,
  "ÙģÚ©Ø±ÛĮ": 8759,
  "ÙģÚ©Ø³": 17266,
  "ÙģÚ©ÙĨÛĮ": 16682,
  "ÙģÛĮ": 689,
  "ÙģÛĮØ§": 19309,
  "ÙģÛĮØ§ÙĨ": 35488,
  "ÙģÛĮØ¨Ø±": 34571,
  "ÙģÛĮØª": 37508,
  "ÙģÛĮØ¯": 36305,
  "ÙģÛĮØ±ÙĪØ²": 40275,
  "ÙģÛĮØ²ÛĮ": 35489,
  "ÙģÛĮØ²ÛĮÚ©ÛĮ": 31507,
  "ÙģÛĮØ³": 24349,
  "ÙģÛĮØ´ÛĮÙĨÚ¯": 37775,
  "ÙģÛĮØ¹": 25973,
  "ÙģÛĮØ¹ÛĮ": 6136,
  "ÙģÛĮÙģ": 3886,
  "ÙģÛĮÙģØ§": 29243,
  "ÙģÛĮÙģÛĮ": 17188,
  "ÙģÛĮÙĤ": 4643,
  "ÙģÛĮÙĤÛĮ": 6248,
  "ÙģÛĮÙĦ": 13275,
  "ÙģÛĮÙĦØ¯": 25471,
  "ÙģÛĮÙĦÙħ": 23516,
  "ÙģÛĮÙĦÛĮ": 21240,
  "ÙģÛĮÙĦÛĮÙ¾Ø³": 23775,
  "ÙģÛĮÙĨ": 9239,
  "ÙģÛĮÙĩ": 3338,
  "ÙģÛĮÙĪÚĺ": 17292,
  "ÙģÛĮÚ©": 13372,
  "ÙģÛĮÚ©Ø§": 32918,
  "ÙĤ": 302,
  "ÙĤØ§": 6969,
  "ÙĤØ§Ø¡": 26939,
  "ÙĤØ§Ø¦Ùħ": 33240,
  "ÙĤØ§Ø¨": 17979,
  "ÙĤØ§Ø¨ÙĦ": 6302,
  "ÙĤØ§Ø¨ÙĦÛĮØª": 43369,
  "ÙĤØ§Ø¨ÛĮ": 41991,
  "ÙĤØ§Ø¯Ø±": 34400,
  "ÙĤØ§Ø±": 27330,
  "ÙĤØ§Ø±Ùĩ": 36330,
  "ÙĤØ§Ø²": 36329,
  "ÙĤØ§Ø³Ùħ": 10986,
  "ÙĤØ§Ø³ÙħÛĮ": 21805,
  "ÙĤØ§Ø¶ÛĮ": 37542,
  "ÙĤØ§Ø¹Ø¯Ùĩ": 35904,
  "ÙĤØ§Ù¾": 41992,
  "ÙĤØ§Ù¾ÛĮ": 40303,
  "ÙĤØ§ÙĤ": 9548,
  "ÙĤØ§ÙĤÛĮ": 26573,
  "ÙĤØ§ÙĦ": 12680,
  "ÙĤØ§ÙĦÙĩ": 23565,
  "ÙĤØ§Ùħ": 5365,
  "ÙĤØ§ÙħØª": 21600,
  "ÙĤØ§ÙħØªØ§ÙĨ": 24601,
  "ÙĤØ§ÙĨ": 3318,
  "ÙĤØ§ÙĨÙĪÙĨ": 20583,
  "ÙĤØ§ÙĨÙĪÙĨÛĮ": 5139,
  "ÙĤØ§ÙĨÛĮ": 6522,
  "ÙĤØ§ÚĨØ§ÙĤ": 35903,
  "ÙĤØ§ÛĮ": 5750,
  "ÙĤØ§ÛĮÙĤÛĮ": 8756,
  "ÙĤØ§ÛĮÛĮ": 9678,
  "ÙĤØ¨": 26572,
  "ÙĤØ¨Ø§Ø¯": 30191,
  "ÙĤØ¨Ø§Ø¯ÙĦÛĮ": 36157,
  "ÙĤØ¨ÙĦ": 13584,
  "ÙĤØ¨Ùĩ": 12596,
  "ÙĤØ¨ÙĪÙĦ": 23113,
  "ÙĤØª": 2545,
  "ÙĤØªÛĮ": 20666,
  "ÙĤØ«Ø§Ø¨Øª": 40304,
  "ÙĤØ¯": 4295,
  "ÙĤØ¯Ø±": 3742,
  "ÙĤØ¯Ø±Øª": 11235,
  "ÙĤØ¯Ø±ØªÛĮ": 34803,
  "ÙĤØ¯Ø±ÛĮ": 15468,
  "ÙĤØ¯Ùħ": 17772,
  "ÙĤØ¯Ùĩ": 15084,
  "ÙĤØ¯ÙĪØ±": 25396,
  "ÙĤØ±": 10182,
  "ÙĤØ±Ø¢ÙĨ": 25156,
  "ÙĤØ±Ø§Ø±": 20667,
  "ÙĤØ±Ø§Ø±Ø¯": 26837,
  "ÙĤØ±Ø§Ø±Ø¯Ø§Ø¯": 31929,
  "ÙĤØ±Ø§Ø±ÛĮ": 35291,
  "ÙĤØ±Ø¨Ø§ÙĨ": 32013,
  "ÙĤØ±ÙħØ²": 28081,
  "ÙĤØ±ÙĨ": 34127,
  "ÙĤØ±ÙĨØ·": 33299,
  "ÙĤØ±ÙĨØ·ÛĮÙĨÙĩ": 37352,
  "ÙĤØ±Ùĩ": 29643,
  "ÙĤØ±ÙĪ": 38824,
  "ÙĤØ²": 23357,
  "ÙĤØ²Ø§ÙĤØ³ØªØ§ÙĨ": 43423,
  "ÙĤØ²ÙĪÛĮÙĨ": 26877,
  "ÙĤØ´": 41988,
  "ÙĤØ¶": 10549,
  "ÙĤØ¶Ø§Øª": 32499,
  "ÙĤØ¶Ø§ÛĮÛĮ": 21195,
  "ÙĤØ¶Ø§ÛĮÛĮÙĩ": 23067,
  "ÙĤØ¶ÛĮ": 30764,
  "ÙĤØ·": 12243,
  "ÙĤØ·Ø¨ÛĮ": 17980,
  "ÙĤØ·Ø±": 35290,
  "ÙĤØ·Ø¹": 34155,
  "ÙĤØ·Ø¹Ùĩ": 30602,
  "ÙĤØ·Ø¹ÛĮ": 25803,
  "ÙĤÙģ": 16590,
  "ÙĤÙģÛĮ": 23564,
  "ÙĤÙĤ": 1320,
  "ÙĤÙĦ": 891,
  "ÙĤÙĦØ§": 33532,
  "ÙĤÙĦØ§Ø¨": 23877,
  "ÙĤÙĦØ§ÙĦ": 30352,
  "ÙĤÙĦØ¨": 30351,
  "ÙĤÙĦØ¹Ùĩ": 29788,
  "ÙĤÙĦÙħ": 30915,
  "ÙĤÙĦÛĮ": 8203,
  "ÙĤÙħ": 21194,
  "ÙĤÙħÛĮ": 35289,
  "ÙĤÙĨØ¯": 20991,
  "ÙĤÙĨØ¯ÛĮ": 20826,
  "ÙĤÙĩ": 565,
  "ÙĤÙĩØ±": 21599,
  "ÙĤÙĩØ±ÙħØ§ÙĨ": 26512,
  "ÙĤÙĪØ¨": 41989,
  "ÙĤÙĪØª": 28642,
  "ÙĤÙĪÙĤ": 41990,
  "ÙĤÙĪÙĦ": 7483,
  "ÙĤÙĪÙĦÛĮ": 19427,
  "ÙĤÙĪÙĩ": 6333,
  "ÙĤÙĪÛĮ": 34399,
  "ÙĤÙĪÛĮÙĩ": 29644,
  "ÙĤÚ¯ÛĮ": 40302,
  "ÙĤÛĮ": 530,
  "ÙĤÛĮØ§Øª": 37730,
  "ÙĤÛĮØ§Ø³": 5352,
  "ÙĤÛĮØ§ÙĨ": 17997,
  "ÙĤÛĮØ¨": 4824,
  "ÙĤÛĮØ±": 14288,
  "ÙĤÛĮØµØ±ÛĮ": 33676,
  "ÙĤÛĮØ¹Øª": 40566,
  "ÙĤÛĮÙĤ": 1185,
  "ÙĤÛĮÙĤØª": 4715,
  "ÙĤÛĮÙĤÙĩ": 10952,
  "ÙĤÛĮÙĤÛĮ": 12774,
  "ÙĤÛĮÙħ": 5931,
  "ÙĤÛĮÙħØª": 9805,
  "ÙĤÛĮÙħØªÛĮ": 27599,
  "ÙĤÛĮÙĨ": 9807,
  "ÙĤÛĮÙĨØ§": 14289,
  "ÙĤÛĮÙĩ": 4182,
  "ÙĦ": 275,
  "ÙĦØ§": 388,
  "ÙĦØ§Ø¨": 35245,
  "ÙĦØ§Ø¨Ùĩ": 23336,
  "ÙĦØ§Øª": 2418,
  "ÙĦØ§ØªØ³": 23672,
  "ÙĦØ§ØªÙĪØ±": 10325,
  "ÙĦØ§ØªÙĪÚ©Ø³ÛĮÙĨ": 19964,
  "ÙĦØ§ØªÛĮ": 31976,
  "ÙĦØ§Ø«": 19449,
  "ÙĦØ§Ø¬": 16041,
  "ÙĦØ§Ø¬ÛĮ": 19913,
  "ÙĦØ§Ø¯": 9287,
  "ÙĦØ§Ø¯ÙĨ": 34359,
  "ÙĦØ§Ø±": 29614,
  "ÙĦØ§Ø²Ùħ": 31978,
  "ÙĦØ§Ø³": 3888,
  "ÙĦØ§Ø³Ø§Ø²ÛĮ": 34810,
  "ÙĦØ§Ø³Øª": 35370,
  "ÙĦØ§Ø³ÛĮÙĪÙĨ": 23098,
  "ÙĦØ§Ø´": 12280,
  "ÙĦØ§Ø·": 15264,
  "ÙĦØ§Ø·ÙĪÙĨ": 23304,
  "ÙĦØ§Ø¹": 30255,
  "ÙĦØ§ØºÙĩ": 42143,
  "ÙĦØ§ØŃ": 1087,
  "ÙĦØ§Ù¾": 40448,
  "ÙĦØ§Ù¾Ø³": 38948,
  "ÙĦØ§Ùģ": 1680,
  "ÙĦØ§ÙģÛĮ": 11986,
  "ÙĦØ§ÙĤ": 2450,
  "ÙĦØ§ÙĤÛĮ": 5853,
  "ÙĦØ§ÙĦ": 2293,
  "ÙĦØ§ÙĦÛĮ": 38751,
  "ÙĦØ§Ùħ": 450,
  "ÙĦØ§ÙħØª": 35412,
  "ÙĦØ§ÙħØŃ": 39007,
  "ÙĦØ§ÙħÛĮ": 37689,
  "ÙĦØ§ÙħÛĮÙĨ": 18985,
  "ÙĦØ§ÙĨ": 5496,
  "ÙĦØ§ÙĨØ§Øª": 32694,
  "ÙĦØ§ÙĨØ¯": 9619,
  "ÙĦØ§ÙĨØ¯ÙĪ": 32491,
  "ÙĦØ§ÙĨØ³": 32693,
  "ÙĦØ§ÙĨÛĮ": 10509,
  "ÙĦØ§ÙĪ": 17566,
  "ÙĦØ§ÙĪØ§": 25577,
  "ÙĦØ§ÙĪÙĩ": 12472,
  "ÙĦØ§ÙĪÛĮ": 24397,
  "ÙĦØ§Ú©": 2385,
  "ÙĦØ§Ú©Øª": 25576,
  "ÙĦØ§Ú©Ø³": 23140,
  "ÙĦØ§Ú©ÛĮ": 15373,
  "ÙĦØ§ÚĨÛĮÙĨ": 34469,
  "ÙĦØ§Úĺ": 24108,
  "ÙĦØ§ÛĮ": 913,
  "ÙĦØ§ÛĮØª": 37467,
  "ÙĦØ§ÛĮØ¯": 40240,
  "ÙĦØ§ÛĮØ²Ø±": 36627,
  "ÙĦØ§ÛĮØŃÙĩ": 29792,
  "ÙĦØ§ÛĮÙĦ": 34607,
  "ÙĦØ§ÛĮÙĨ": 1949,
  "ÙĦØ§ÛĮÙĨÛĮ": 25990,
  "ÙĦØ§ÛĮÙĩ": 20257,
  "ÙĦØ§ÛĮÛĮ": 15722,
  "ÙĦØ¨": 1469,
  "ÙĦØ¨Ø§Ø³": 35615,
  "ÙĦØ¨Ø§ÙĨ": 3414,
  "ÙĦØ¨Ø§ÙĨÛĮ": 27485,
  "ÙĦØ¨ÙĪØ³ÛĮ": 36721,
  "ÙĦØ¨Ú©": 37924,
  "ÙĦØ¨ÛĮ": 8631,
  "ÙĦØª": 2803,
  "ÙĦØªØ³ÛĮÙĨ": 29345,
  "ÙĦØªÙģØ±Ùħ": 27975,
  "ÙĦØªÙĪÙĨ": 26743,
  "ÙĦØªÛĮ": 12521,
  "ÙĦØ®ÙĦ": 23786,
  "ÙĦØ¯": 6243,
  "ÙĦØ¯Ø§": 40239,
  "ÙĦØ±": 8097,
  "ÙĦØ±Ø²Ùĩ": 12923,
  "ÙĦØ±Ø³ØªØ§ÙĨ": 41347,
  "ÙĦØ±Ú©ÛĮ": 38752,
  "ÙĦØ²": 14899,
  "ÙĦØ²Ùħ": 6711,
  "ÙĦØ²ÙĪÙħ": 36271,
  "ÙĦØ³": 874,
  "ÙĦØ³Ø±": 18126,
  "ÙĦØ³ÙĨ": 23628,
  "ÙĦØ³Ùĩ": 31977,
  "ÙĦØ³ÙĪÙĨ": 16449,
  "ÙĦØ³ÛĮ": 8893,
  "ÙĦØµ": 35243,
  "ÙĦØ·": 9471,
  "ÙĦØ·Ø§ÙĨ": 31819,
  "ÙĦØ·Ùģ": 41394,
  "ÙĦØ·ÛĮÙģ": 38753,
  "ÙĦØº": 30161,
  "ÙĦØºÙĪ": 36156,
  "ÙĦØŃ": 2492,
  "ÙĦØŃØ§Ø¸": 22520,
  "ÙĦØŃØ¸Ùĩ": 33877,
  "ÙĦÙ¾": 41905,
  "ÙĦÙģ": 812,
  "ÙĦÙģÙĦ": 12906,
  "ÙĦÙģÙĩ": 8937,
  "ÙĦÙģÛĮ": 13719,
  "ÙĦÙĤ": 2537,
  "ÙĦÙĤÙĩ": 19275,
  "ÙĦÙĦ": 11484,
  "ÙĦÙĦÙĩ": 40241,
  "ÙĦÙĦÛĮ": 35244,
  "ÙĦÙħ": 1998,
  "ÙĦÙħØ§ÙĨ": 30160,
  "ÙĦÙħÙĨ": 28181,
  "ÙĦÙħÙĩ": 39355,
  "ÙĦÙħÙĪÙĨ": 15539,
  "ÙĦÙħÛĮ": 20818,
  "ÙĦÙĨ": 4218,
  "ÙĦÙĨØ¯": 5958,
  "ÙĦÙĨØ¯ÙĨ": 41250,
  "ÙĦÙĨØ¯ÛĮ": 11033,
  "ÙĦÙĨÚ¯": 35246,
  "ÙĦÙĨÚ¯Ùĩ": 21992,
  "ÙĦÙĩ": 596,
  "ÙĦÙĩØ§": 36269,
  "ÙĦÙĪ": 2395,
  "ÙĦÙĪØ¢ÙĨØ²": 7052,
  "ÙĦÙĪØ§ÙĨ": 5872,
  "ÙĦÙĪØª": 6190,
  "ÙĦÙĪØªÙĪØ³": 43013,
  "ÙĦÙĪØªÛĮ": 19040,
  "ÙĦÙĪØ¯": 9017,
  "ÙĦÙĪØ±": 18554,
  "ÙĦÙĪØ³": 36270,
  "ÙĦÙĪØŃÙĩ": 12663,
  "ÙĦÙĪÙ¾": 26343,
  "ÙĦÙĪÙģ": 31001,
  "ÙĦÙĪÙĦÙĩ": 26181,
  "ÙĦÙĪÙħ": 37466,
  "ÙĦÙĪÙĨ": 16858,
  "ÙĦÙĪÙĨØ§": 41907,
  "ÙĦÙĪÙĨÛĮ": 41906,
  "ÙĦÙĪÚ©": 31646,
  "ÙĦÙĪÚ¯ÛĮØ±ÛĮ": 27523,
  "ÙĦÙĪÚĨØ³ØªØ§ÙĨ": 10541,
  "ÙĦÙĪÚĺÛĮ": 17379,
  "ÙĦÙĪÛĮ": 33490,
  "ÙĦÙĪÛĮÛĮ": 40242,
  "ÙĦÚ©": 9741,
  "ÙĦÚ©Ø³": 30729,
  "ÙĦÛĢ": 41908,
  "ÙĦÛĮ": 330,
  "ÙĦÛĮØ§": 18720,
  "ÙĦÛĮØ§ÙĨ": 14471,
  "ÙĦÛĮØ§ÙĨØ§": 37579,
  "ÙĦÛĮØ¨": 12599,
  "ÙĦÛĮØª": 2017,
  "ÙĦÛĮØªØ±": 24091,
  "ÙĦÛĮØªØ±ÛĮ": 31408,
  "ÙĦÛĮØªÛĮ": 9788,
  "ÙĦÛĮØªÛĮÚ©": 14910,
  "ÙĦÛĮØªÛĮÚ©ÛĮ": 22585,
  "ÙĦÛĮØ¬ÙĨØ³": 32049,
  "ÙĦÛĮØ¯": 15364,
  "ÙĦÛĮØ¯ÛĮ": 36372,
  "ÙĦÛĮØ²": 27347,
  "ÙĦÛĮØ²Ùĩ": 40365,
  "ÙĦÛĮØ³": 1556,
  "ÙĦÛĮØ³Ø§ÙĨØ³": 37936,
  "ÙĦÛĮØ³Øª": 21210,
  "ÙĦÛĮØ³Ùĩ": 26957,
  "ÙĦÛĮØ³ÙĪÙĨ": 32241,
  "ÙĦÛĮØ³ÛĮ": 4312,
  "ÙĦÛĮØ¹Ùĩ": 36371,
  "ÙĦÛĮÙģ": 3488,
  "ÙĦÛĮÙģØª": 40364,
  "ÙĦÛĮÙģÛĮ": 11345,
  "ÙĦÛĮÙĦ": 803,
  "ÙĦÛĮÙĦØ§": 42059,
  "ÙĦÛĮÙĦÛĮ": 5247,
  "ÙĦÛĮÙħ": 3791,
  "ÙĦÛĮÙħÙĪ": 25383,
  "ÙĦÛĮÙħÛĮ": 37578,
  "ÙĦÛĮÙĨ": 7110,
  "ÙĦÛĮÙĨÚ©": 19249,
  "ÙĦÛĮÙĨÚ¯": 17145,
  "ÙĦÛĮÙĩ": 1053,
  "ÙĦÛĮÙĪ": 24090,
  "ÙĦÛĮÙĪÙħ": 8554,
  "ÙĦÛĮÙĪÙĨ": 4204,
  "ÙĦÛĮÚ©": 6460,
  "ÙĦÛĮÚ©ÙĪ": 32772,
  "ÙĦÛĮÚ©ÛĮ": 3795,
  "ÙĦÛĮÚ©ÛĮØ´ÙĨ": 28433,
  "ÙĦÛĮÚ¯": 20833,
  "Ùħ": 272,
  "ÙħØ¤": 31974,
  "ÙħØ¤Ø³Ø³Ùĩ": 38620,
  "ÙħØ¦": 3842,
  "ÙħØ§": 1464,
  "ÙħØ§Ø¡": 36718,
  "ÙħØ§Ø¦ÛĮ": 36719,
  "ÙħØ§Ø¨ÛĮÙĨ": 15857,
  "ÙħØ§Øª": 4610,
  "ÙħØ§ØªÙĪØ±": 27580,
  "ÙħØ§ØªÙĪÙĨ": 41160,
  "ÙħØ§ØªÛĮ": 19273,
  "ÙħØ§Ø¬": 32233,
  "ÙħØ§Ø¯": 13673,
  "ÙħØ§Ø¯Ø±": 31973,
  "ÙħØ§Ø¯Ø±ÛĮØ¯": 19721,
  "ÙħØ§Ø¯Ùĩ": 20501,
  "ÙħØ§Ø¯ÛĮ": 10747,
  "ÙħØ§Ø¯ÛĮØ±Ø§": 41519,
  "ÙħØ§Ø±": 4009,
  "ÙħØ§Ø±Øª": 41890,
  "ÙħØ§Ø±Ø³": 29095,
  "ÙħØ§Ø±ÙĪÙĨ": 29384,
  "ÙħØ§Ø±Ú©": 6663,
  "ÙħØ§Ø±Ú©Øª": 12623,
  "ÙħØ§Ø±ÛĮ": 7615,
  "ÙħØ§Ø±ÛĮØ§": 39747,
  "ÙħØ§Ø²": 22403,
  "ÙħØ§Ø²ÙĨØ¯": 18553,
  "ÙħØ§Ø²ÙĨØ¯Ø±Ø§ÙĨ": 19112,
  "ÙħØ§Ø³Øª": 35235,
  "ÙħØ§Ø³Ú©": 24052,
  "ÙħØ§Ø´ÛĮÙĨ": 32234,
  "ÙħØ§Ø¹": 6737,
  "ÙħØ§Ø¹ÛĮ": 4759,
  "ÙħØ§ÙĦ": 7272,
  "ÙħØ§ÙĦØ§": 24247,
  "ÙħØ§ÙĦÚ©": 20309,
  "ÙħØ§ÙĦÛĮ": 11732,
  "ÙħØ§ÙĦÛĮØ§Øª": 28521,
  "ÙħØ§Ùħ": 10624,
  "ÙħØ§ÙħÛĮ": 40225,
  "ÙħØ§ÙĨ": 366,
  "ÙħØ§ÙĨØª": 4860,
  "ÙħØ§ÙĨØ¯": 2300,
  "ÙħØ§ÙĨØ¯Ø§Ø±Ø§ÙĨ": 10231,
  "ÙħØ§ÙĨØ¯Ùħ": 38923,
  "ÙħØ§ÙĨØ¯ÙĨ": 21006,
  "ÙħØ§ÙĨØ¯ÙĨØ¯": 34718,
  "ÙħØ§ÙĨØ¯ÙĨÛĮ": 25682,
  "ÙħØ§ÙĨØ¯Ùĩ": 6367,
  "ÙħØ§ÙĨØ¯ÙĪØ³Øª": 36787,
  "ÙħØ§ÙĨØ¯Ú¯Ø§Ø±": 30445,
  "ÙħØ§ÙĨØ¯Ú¯ÛĮ": 18886,
  "ÙħØ§ÙĨØ¯ÛĮ": 34458,
  "ÙħØ§ÙĨÙħ": 30241,
  "ÙħØ§ÙĨÙĨØ¯": 5491,
  "ÙħØ§ÙĨÙĩ": 3762,
  "ÙħØ§ÙĨÛĮ": 1540,
  "ÙħØ§ÙĨÛĮØ¯": 32799,
  "ÙħØ§ÙĨÛĮÙħ": 17447,
  "ÙħØ§Ùĩ": 934,
  "ÙħØ§ÙĩØ§": 8429,
  "ÙħØ§ÙĩØ´ÙĩØ±": 22689,
  "ÙħØ§ÙĩÙĨÚ¯": 26679,
  "ÙħØ§ÙĩÙĨÚ¯ÛĮ": 11921,
  "ÙħØ§ÙĩÙĩ": 7574,
  "ÙħØ§ÙĩÛĮ": 22067,
  "ÙħØ§Ú©": 35236,
  "ÙħØ§ÛĮ": 474,
  "ÙħØ§ÛĮØª": 17878,
  "ÙħØ§ÛĮØ¯": 30285,
  "ÙħØ§ÛĮØ±": 27403,
  "ÙħØ§ÛĮØ³ÛĮÙĨ": 27839,
  "ÙħØ§ÛĮØ¹": 15225,
  "ÙħØ§ÛĮÙĦ": 23387,
  "ÙħØ§ÛĮÙĨØ¯": 37711,
  "ÙħØ§ÛĮÙĩ": 739,
  "ÙħØ§ÛĮÚ©": 35424,
  "ÙħØ§ÛĮÛĮ": 2197,
  "ÙħØ¨": 4883,
  "ÙħØ¨Ø§Ø±": 23548,
  "ÙħØ¨Ø§Ø±Ú©": 39996,
  "ÙħØ¨Ø§Ø±Ú©Ùĩ": 29554,
  "ÙħØ¨Øª": 32682,
  "ÙħØ¨Ø±Ú¯": 40227,
  "ÙħØ¨ÙĦØº": 31331,
  "ÙħØ¨ÙĨØ§ÛĮ": 12420,
  "ÙħØª": 1064,
  "ÙħØªØ§ÙĨ": 28331,
  "ÙħØªØ®ØµØµ": 19484,
  "ÙħØªØ±": 5823,
  "ÙħØªØ±ÙħÚ©Ø¹Ø¨": 33481,
  "ÙħØªØ±ÙĪ": 26684,
  "ÙħØªØ±ÛĮ": 11899,
  "ÙħØªØ±ÛĮÚ©": 40741,
  "ÙħØªØµ": 41889,
  "ÙħØªØ¹ÙĦÙĤ": 29803,
  "ÙħØªØŃ": 13509,
  "ÙħØªØŃØ¯Ùĩ": 13811,
  "ÙħØªÙĤ": 27464,
  "ÙħØªÙĤØ§Ø¨ÙĦ": 34620,
  "ÙħØªÙĤØ§Ø¶ÛĮ": 37314,
  "ÙħØªÙĤØ§Ø¶ÛĮØ§ÙĨ": 41672,
  "ÙħØªÙħØ±Ú©Ø²": 40228,
  "ÙħØªÙĨ": 14744,
  "ÙħØªÙĪØ³Ø·": 26685,
  "ÙħØªÙĪÙĦØ¯": 36664,
  "ÙħØªÛĮ": 7109,
  "ÙħØ«": 14530,
  "ÙħØ«Ø§Ø¨Ùĩ": 34182,
  "ÙħØ«Ø§ÙĦ": 29098,
  "ÙħØ«Ø¨Øª": 39918,
  "ÙħØ«ÙĦ": 21764,
  "ÙħØ«ÙĦØ§": 26479,
  "ÙħØ¬": 7271,
  "ÙħØ¬Ø§Ø±Ø³ØªØ§ÙĨ": 41893,
  "ÙħØ¬Ø§Ø²ÛĮ": 39728,
  "ÙħØ¬ØªØ¨ÛĮ": 13905,
  "ÙħØ¬ØªÙħ": 37063,
  "ÙħØ¬ØªÙħØ¹": 38670,
  "ÙħØ¬Ø±ÛĮ": 22349,
  "ÙħØ¬ÙĦØ³": 20004,
  "ÙħØ¬Ùħ": 5266,
  "ÙħØ¬ÙħØ¹": 34021,
  "ÙħØ¬ÙħÙĪØ¹": 14698,
  "ÙħØ¬ÙħÙĪØ¹Ø§": 36043,
  "ÙħØ¬ÙħÙĪØ¹Ùĩ": 5663,
  "ÙħØ¬ÛĮØ¯": 10837,
  "ÙħØ®": 8630,
  "ÙħØ®Ø§Ø²ÙĨ": 29997,
  "ÙħØ®Ø§Ø·": 15133,
  "ÙħØ®Ø¨Ø±": 35950,
  "ÙħØ®Øª": 40223,
  "ÙħØ®Ø²ÙĨ": 22784,
  "ÙħØ®ØµÙĪØµ": 29607,
  "ÙħØ¯": 706,
  "ÙħØ¯Ø§": 27297,
  "ÙħØ¯Ø§Ø¯": 5011,
  "ÙħØ¯Ø§Ø±": 9309,
  "ÙħØ¯Ø§Ø±Ø§ÙĨ": 10073,
  "ÙħØ¯Ø§Ø±Ø§ÙĨÙĩ": 38353,
  "ÙħØ¯Ø§Ø±Ø³": 42350,
  "ÙħØ¯Ø§Ø±ÛĮ": 8318,
  "ÙħØ¯Ø§ÙĦÙĦÙĩ": 20697,
  "ÙħØ¯Ø§ÙĨ": 12052,
  "ÙħØ¯Ø§ÙĨÛĮ": 28311,
  "ÙħØ¯Øª": 3463,
  "ÙħØ¯ØªÙĤÛĮ": 41061,
  "ÙħØ¯ØªÛĮ": 20251,
  "ÙħØ¯Ø±": 42349,
  "ÙħØ¯Ø±Ø³": 19310,
  "ÙħØ¯Ø±Ø³Ùĩ": 26144,
  "ÙħØ¯Ø±Ùĩ": 21640,
  "ÙħØ¯Ø³ÛĮ": 11635,
  "ÙħØ¯Ø¸ÙĦÙĩ": 39131,
  "ÙħØ¯ÙĦ": 21639,
  "ÙħØ¯ÙĦÙĦÙĩ": 38544,
  "ÙħØ¯Ùĩ": 24049,
  "ÙħØ¯ÙĪ": 35496,
  "ÙħØ¯ÛĮ": 3314,
  "ÙħØ¯ÛĮØª": 12573,
  "ÙħØ¯ÛĮØ±": 3468,
  "ÙħØ¯ÛĮØ±Ø§ÙĨ": 28878,
  "ÙħØ¯ÛĮØ±Ø´Ø±Ú©Øª": 24517,
  "ÙħØ¯ÛĮØ±Ø¹Ø§ÙħÙĦ": 5875,
  "ÙħØ¯ÛĮØ±Ùĩ": 10124,
  "ÙħØ¯ÛĮØ±Ú©ÙĦ": 26760,
  "ÙħØ¯ÛĮØ±ÛĮØª": 14215,
  "ÙħØ¯ÛĮØ³ÛĮÙĨ": 39486,
  "ÙħØ¯ÛĮÚ©Ø§ÙĦ": 28874,
  "ÙħØ°Ø§Ú©": 34352,
  "ÙħØ°Ø§Ú©Ø±Ùĩ": 40105,
  "ÙħØ±": 1264,
  "ÙħØ±Ø§": 18834,
  "ÙħØ±Ø§Øª": 33480,
  "ÙħØ±Ø§ØªØ¨": 35186,
  "ÙħØ±Ø§Ø¬": 40226,
  "ÙħØ±Ø§Ø¯": 18481,
  "ÙħØ±Ø§Ø¯ÛĮ": 23427,
  "ÙħØ±Ø§Ø³Ùħ": 40780,
  "ÙħØ±Ø§ÙĨÛĮ": 8863,
  "ÙħØ±Ø§Ú©Ø²": 32565,
  "ÙħØ±Ø¨Ø¹": 20502,
  "ÙħØ±Ø¨ÙĪØ·": 22405,
  "ÙħØ±Ø¨ÛĮ": 2765,
  "ÙħØ±ØªØ¨Ø·": 24455,
  "ÙħØ±ØªØ¨Ùĩ": 19635,
  "ÙħØ±ØªØ¶ÛĮ": 13108,
  "ÙħØ±Ø¯": 8904,
  "ÙħØ±Ø¯Ø§Ø¯": 17764,
  "ÙħØ±Ø¯Ø§Ø¯ÙħØ§Ùĩ": 27250,
  "ÙħØ±Ø¯Ø§ÙĨ": 23996,
  "ÙħØ±Ø¯Ø§ÙĨÙĩ": 15068,
  "ÙħØ±Ø¯Ø§ÙĨÛĮ": 37103,
  "ÙħØ±Ø¯Ùħ": 21537,
  "ÙħØ±Ø¯Ùĩ": 30940,
  "ÙħØ±Ø¯ÛĮ": 19120,
  "ÙħØ±Ø²": 15675,
  "ÙħØ±Ø²ÛĮ": 24165,
  "ÙħØ±Ø¶ÛĮÙĩ": 39265,
  "ÙħØ±Øº": 12283,
  "ÙħØ±ØŃÙĦÙĩ": 24624,
  "ÙħØ±Ùĩ": 6925,
  "ÙħØ±ÙĪØ±": 23426,
  "ÙħØ±Ú©": 1978,
  "ÙħØ±Ú©Ø²": 4266,
  "ÙħØ±Ú©Ø²ÛĮ": 15827,
  "ÙħØ±Ú¯": 26694,
  "ÙħØ±Ú¯ÛĮ": 19803,
  "ÙħØ±ÛĮ": 4727,
  "ÙħØ±ÛĮÙħ": 20653,
  "ÙħØ²": 1463,
  "ÙħØ²Ø¯": 4211,
  "ÙħØ²ÙħØ§ÙĨ": 26312,
  "ÙħØ²ÙĪØ¬": 42536,
  "ÙħØ³": 5569,
  "ÙħØ³Ø¦": 20769,
  "ÙħØ³Ø¦ÙĦÙĩ": 43398,
  "ÙħØ³Ø¦ÙĪÙĦ": 18528,
  "ÙħØ³Ø¦ÙĪÙĦØ§ÙĨ": 39984,
  "ÙħØ³Ø¦ÙĪÙĦÛĮØª": 32582,
  "ÙħØ³Ø§": 26909,
  "ÙħØ³Ø§Ø¨ÙĤÙĩ": 42982,
  "ÙħØ³Ø§ÙģØ±": 40032,
  "ÙħØ³Øª": 23546,
  "ÙħØ³ØªØ±": 41891,
  "ÙħØ³ØªÙĤÛĮÙħ": 28617,
  "ÙħØ³Ø±ÛĮ": 41227,
  "ÙħØ³Ø¹ÙĪØ¯": 11760,
  "ÙħØ³ÙĦÙħ": 39652,
  "ÙħØ³Ú©ÙĨ": 18527,
  "ÙħØ³ÛĮØ±": 29096,
  "ÙħØ´": 11031,
  "ÙħØ´Ø§Ø±Ú©Øª": 26179,
  "ÙħØ´Ø§ÙĪØ±": 30596,
  "ÙħØ´Ø§ÙĪØ±Ùĩ": 35024,
  "ÙħØ´Øª": 21790,
  "ÙħØ´ØªØ±Ú©": 29052,
  "ÙħØ´ØªÙħÙĦ": 39987,
  "ÙħØ´Ø®Øµ": 28999,
  "ÙħØ´Øº": 41447,
  "ÙħØ´Ùĩ": 19742,
  "ÙħØ´ÙĩØ¯": 25496,
  "ÙħØ´ÙĩØ¯ÛĮ": 31896,
  "ÙħØ´Ú©": 31330,
  "ÙħØ´Ú©ÙĦ": 38740,
  "ÙħØ´ÛĮ": 22404,
  "ÙħØµ": 5133,
  "ÙħØµØ±Ùģ": 6254,
  "ÙħØµØ±ÙģÛĮ": 27165,
  "ÙħØµØ·ÙģÛĮ": 13196,
  "ÙħØµÙĨÙĪØ¹ÛĮ": 33192,
  "ÙħØµÙĪØ¨": 17840,
  "ÙħØµÙĪØ¨Ùĩ": 41202,
  "ÙħØ·Ø§Ø¨ÙĤ": 25216,
  "ÙħØ·Ø§ÙĦ": 31975,
  "ÙħØ·Ø§ÙĦØ¹Ùĩ": 40082,
  "ÙħØ·Ø¨ÙĪØ¹": 23549,
  "ÙħØ·Ø¨ÙĪØ¹Ø§Øª": 24611,
  "ÙħØ¹": 3283,
  "ÙħØ¹Ø§Ø¯ÙĦ": 8609,
  "ÙħØ¹Ø§ÙħÙĦ": 24922,
  "ÙħØ¹Ø§ÙħÙĦØ§Øª": 27269,
  "ÙħØ¹Ø§ÙĪÙĨ": 10219,
  "ÙħØ¹Ø§ÙĪÙĨØª": 25788,
  "ÙħØ¹Øª": 41888,
  "ÙħØ¹Ø¯": 22195,
  "ÙħØ¹Ø¯ÙĦ": 43412,
  "ÙħØ¹Ø¯ÙĨ": 33928,
  "ÙħØ¹Ø¯ÙĨÛĮ": 24891,
  "ÙħØ¹Ø¯Ùĩ": 27546,
  "ÙħØ¹Ø±ÙģÛĮ": 38087,
  "ÙħØ¹Ø±ÙĪÙģ": 41045,
  "ÙħØ¹Øµ": 32338,
  "ÙħØ¹ØµÙĪÙħÙĩ": 33438,
  "ÙħØ¹Ø¸Ùħ": 42757,
  "ÙħØ¹ÙħÙĪÙĦ": 15346,
  "ÙħØ¹ÙħÙĪÙĦØ§": 29517,
  "ÙħØ¹ÙħÙĪÙĦÛĮ": 28408,
  "ÙħØ¹ÙĨØ§": 23236,
  "ÙħØ¹ÙĨØ§Ø³Øª": 41631,
  "ÙħØ¹ÙĨØ§ÛĮ": 39483,
  "ÙħØ¹ÙĨÛĮ": 37458,
  "ÙħØ¹ÛĮ": 36257,
  "ÙħØ¹ÛĮÙĨ": 36867,
  "ÙħØº": 23094,
  "ÙħØºØ²": 35129,
  "ÙħØŃ": 2262,
  "ÙħØŃØ§ÙĦ": 4913,
  "ÙħØŃØª": 29864,
  "ÙħØŃØªÙĪ": 40926,
  "ÙħØŃØªÙĪØ§": 43494,
  "ÙħØŃØ¯": 26736,
  "ÙħØŃØ¯ÙĪØ¯": 29333,
  "ÙħØŃØ¯ÙĪØ¯Ùĩ": 28585,
  "ÙħØŃØ¯ÙĪØ¯ÛĮØª": 40053,
  "ÙħØŃØ³ÙĨ": 11265,
  "ÙħØŃØµÙĪÙĦ": 22974,
  "ÙħØŃØµÙĪÙĦØ§Øª": 32596,
  "ÙħØŃØµÙĪÙĦÛĮ": 33058,
  "ÙħØŃØ¶": 35677,
  "ÙħØŃÙĤÙĤ": 34714,
  "ÙħØŃÙĤÙĤØ§ÙĨ": 43529,
  "ÙħØŃÙĦ": 24050,
  "ÙħØŃÙĦÙĩ": 31640,
  "ÙħØŃÙĦÛĮ": 38003,
  "ÙħØŃÙħ": 9751,
  "ÙħØŃÙħØ¯": 4081,
  "ÙħØŃÙħØ¯Ø¨Ø§ÙĤØ±": 28903,
  "ÙħØŃÙħØ¯ØªÙĤÛĮ": 42639,
  "ÙħØŃÙħØ¯Ø¬ÙĪØ§Ø¯": 31704,
  "ÙħØŃÙħØ¯Ø±Ø¶Ø§": 9595,
  "ÙħØŃÙħØ¯Ø¹ÙĦÛĮ": 20159,
  "ÙħØŃÙħØ¯ØŃØ³ÙĨ": 27148,
  "ÙħØŃÙħØ¯ØŃØ³ÛĮÙĨ": 24801,
  "ÙħØŃÙħØ¯ÙħØ³Ø¹ÙĪØ¯": 43182,
  "ÙħØŃÙħØ¯ÙħÙĩØ¯ÛĮ": 21942,
  "ÙħØŃÙħØ¯ÙĩØ§Ø¯ÛĮ": 43181,
  "ÙħØŃÙħØ¯ÛĮ": 6638,
  "ÙħØŃÙħÙĪØ¯": 11910,
  "ÙħØŃÙħÙĪÙĦÙĩ": 30588,
  "ÙħØŃÙĪØ±": 7899,
  "ÙħØŃÙĪØ±ÛĮ": 15829,
  "ÙħØŃÛĮ": 6612,
  "ÙħØŃÛĮØ·": 24832,
  "ÙħØŃÛĮØ·ÛĮ": 6824,
  "ÙħÙ¾": 1943,
  "ÙħÙ¾Ø§Ø±Ùĩ": 20729,
  "ÙħÙ¾ØªÙĪÙĨ": 26023,
  "ÙħÙ¾ÙĪØ±": 21679,
  "ÙħÙĤ": 9161,
  "ÙħÙĤØ§Ùħ": 14059,
  "ÙħÙĤØ§ÙħÛĮ": 38347,
  "ÙħÙĤØ§ÙĪÙħ": 34110,
  "ÙħÙĤØ¯Ø§Ø±": 43148,
  "ÙħÙĤØ¯Ùħ": 13006,
  "ÙħÙĤØ±": 35959,
  "ÙħÙĤØ±Ø±Ø§Øª": 41740,
  "ÙħÙĤÛĮØ§Ø³": 24338,
  "ÙħÙĦ": 478,
  "ÙħÙĦØ§Ø±Ø¯": 37714,
  "ÙħÙĦØ§ØŃ": 24921,
  "ÙħÙĦØ§ØŃØ¸Ùĩ": 26524,
  "ÙħÙĦØª": 14369,
  "ÙħÙĦÙĦ": 3102,
  "ÙħÙĦÙĦÛĮ": 1157,
  "ÙħÙĦÙĩ": 985,
  "ÙħÙĦÙĪ": 13639,
  "ÙħÙĦÚ©": 5616,
  "ÙħÙĦÚ©ÛĮ": 23841,
  "ÙħÙĦÚ©ÛĮØ§ÙĨ": 37715,
  "ÙħÙĦÛĮ": 7104,
  "ÙħÙĦÛĮØªÛĮ": 22568,
  "ÙħÙĦÛĮÙĨ": 12212,
  "ÙħÙħ": 7726,
  "ÙħÙħÙĨ": 37457,
  "ÙħÙĨ": 691,
  "ÙħÙĨØ§": 10481,
  "ÙħÙĨØ§Ø¨Ø¹": 21844,
  "ÙħÙĨØ§Ø³Ø¨Øª": 36566,
  "ÙħÙĨØ§Ø·ÙĤ": 30017,
  "ÙħÙĨØ§Ùģ": 41430,
  "ÙħÙĨØ§ÙĨ": 2696,
  "ÙħÙĨØ¨Ø¹": 29244,
  "ÙħÙĨØª": 7513,
  "ÙħÙĨØªØ¸": 13710,
  "ÙħÙĨØªÙĩÛĮ": 34074,
  "ÙħÙĨØªÛĮ": 32919,
  "ÙħÙĨØ¯": 745,
  "ÙħÙĨØ¯Ø§ÙĨ": 2040,
  "ÙħÙĨØ¯Ø§ÙĨÙĩ": 16885,
  "ÙħÙĨØ¯Ø¨": 35504,
  "ÙħÙĨØ¯ØªØ±": 42366,
  "ÙħÙĨØ¯Ø±Ø§": 20107,
  "ÙħÙĨØ¯Ø³Ø§Ø²ÛĮ": 30898,
  "ÙħÙĨØ¯ÙĨØ¯": 30897,
  "ÙħÙĨØ¯Ú¯ÛĮ": 32161,
  "ÙħÙĨØ¯ÛĮ": 2144,
  "ÙħÙĨØ¯ÛĮÙħ": 36584,
  "ÙħÙĨØ³ØªØ§ÙĨ": 2646,
  "ÙħÙĨØ´": 13694,
  "ÙħÙĨØµ": 30327,
  "ÙħÙĨØµÙĪØ±": 15446,
  "ÙħÙĨØ·": 9795,
  "ÙħÙĨØ·ÙĤ": 41409,
  "ÙħÙĨØ·ÙĤÙĩ": 13045,
  "ÙħÙĨØ¸": 3740,
  "ÙħÙĨØ¸ÙĪØ±": 3758,
  "ÙħÙĨØ¸ÙĪØ±Ùĩ": 14390,
  "ÙħÙĨÙģ": 14372,
  "ÙħÙĨÙģØ¹Ùĩ": 14837,
  "ÙħÙĨÙģÛĮ": 30328,
  "ÙħÙĨÙĪÚĨÙĩØ±": 39125,
  "ÙħÙĨÚ¯": 35234,
  "ÙħÙĨÛĮ": 5319,
  "ÙħÙĨÛĮÙĨ": 24919,
  "ÙħÙĩ": 2122,
  "ÙħÙĩØ§": 36256,
  "ÙħÙĩØ§Ø±": 34351,
  "ÙħÙĩØ¯ÛĮ": 6604,
  "ÙħÙĩØ±": 9350,
  "ÙħÙĩØ±Ø§ÙĨ": 24337,
  "ÙħÙĩØ±Ø¯Ø§Ø¯": 24482,
  "ÙħÙĩØ±ÙħØ§Ùĩ": 18823,
  "ÙħÙĩØ±ÛĮ": 26725,
  "ÙħÙĩÙħ": 22970,
  "ÙħÙĩÙħØªØ±ÛĮÙĨ": 39993,
  "ÙħÙĩÙĨØ¯": 14620,
  "ÙħÙĩÙĨØ¯Ø³": 27238,
  "ÙħÙĩÙĨØ¯Ø³ÛĮ": 16766,
  "ÙħÙĩÛĮØ§Ø±": 40903,
  "ÙħÙĪ": 7818,
  "ÙħÙĪØ§Ø¯": 21532,
  "ÙħÙĪØ§Ø±Ø¯": 35924,
  "ÙħÙĪØª": 25867,
  "ÙħÙĪØªÙĪØ±": 32684,
  "ÙħÙĪØªÙĪØ±Ø²": 34267,
  "ÙħÙĪØ«": 31148,
  "ÙħÙĪØ¬": 16940,
  "ÙħÙĪØ¬Ø¨": 25179,
  "ÙħÙĪØ¯": 20816,
  "ÙħÙĪØ±": 25520,
  "ÙħÙĪØ±Ø®": 40019,
  "ÙħÙĪØ±Ø¯": 17437,
  "ÙħÙĪØ±ÛĮ": 32683,
  "ÙħÙĪØ²Ùĩ": 26908,
  "ÙħÙĪØ³": 8103,
  "ÙħÙĪØ³Ø³Ùĩ": 28497,
  "ÙħÙĪØ³ÙĪÙħ": 38324,
  "ÙħÙĪØ³ÙĪÛĮ": 25142,
  "ÙħÙĪØ³ÛĮ": 17858,
  "ÙħÙĪØ´": 38739,
  "ÙħÙĪØ¶ÙĪØ¹": 19121,
  "ÙħÙĪÙģÙĤ": 37080,
  "ÙħÙĪÙĤØª": 29097,
  "ÙħÙĪÙĤØ¹": 9633,
  "ÙħÙĪÙĦ": 1905,
  "ÙħÙĪÙĦØ§": 40884,
  "ÙħÙĪÙĦØ¯": 24178,
  "ÙħÙĪÙĦÛĮ": 24920,
  "ÙħÙĪÙħ": 18312,
  "ÙħÙĪÙĨ": 6732,
  "ÙħÙĪÙĨØ¯": 11885,
  "ÙħÙĪÙĨÛĮ": 11824,
  "ÙħÙĪÙĨÛĮØ®": 24051,
  "ÙħÙĪÙĨÛĮÚ©": 38741,
  "ÙħÙĪÚĨØ§ÛĮÙĨØ§": 21340,
  "ÙħÚ©": 12591,
  "ÙħÚ©Ø§ÙĨ": 40224,
  "ÙħÚ©Ø§ÙĨÛĮ": 41892,
  "ÙħÚ©Ø«": 35042,
  "ÙħÚ©Ø³": 23547,
  "ÙħÚ©Ø¹Ø¨": 15942,
  "ÙħÚ©ÙĨ": 1549,
  "ÙħÚ©ÙĨØ²ÛĮ": 37935,
  "ÙħÚ¯": 24048,
  "ÙħÚ¯Ø§ÙĪØ§Øª": 35136,
  "ÙħÚĺ": 32681,
  "ÙħÚĺÚ¯Ø§ÙĨ": 40091,
  "ÙħÛĮ": 395,
  "ÙħÛĮØ§": 26979,
  "ÙħÛĮØ§ÙĨ": 9053,
  "ÙħÛĮØ§ÙĨØ¯": 23144,
  "ÙħÛĮØ§ÙĨØ¯Ø´Øª": 25199,
  "ÙħÛĮØ§ÙĨÙĩ": 4124,
  "ÙħÛĮØ§ÙĨÚ¯ÛĮÙĨ": 21939,
  "ÙħÛĮØ§ÙĨÛĮ": 34472,
  "ÙħÛĮØª": 1332,
  "ÙħÛĮØªØ§": 35604,
  "ÙħÛĮØªØ§Úĺ": 40796,
  "ÙħÛĮØªØ±": 28177,
  "ÙħÛĮØªÙĩ": 22951,
  "ÙħÛĮØ«Ùħ": 35377,
  "ÙħÛĮØ¯": 3235,
  "ÙħÛĮØ¯Ø§ÙĨ": 19970,
  "ÙħÛĮØ¯Ùĩ": 12528,
  "ÙħÛĮØ¯Ú©ÙĪ": 31036,
  "ÙħÛĮØ¯ÛĮ": 35237,
  "ÙħÛĮØ±": 1685,
  "ÙħÛĮØ±Ø§": 35641,
  "ÙħÛĮØ±Ø§Ø«": 40852,
  "ÙħÛĮØ±Ø¯": 32252,
  "ÙħÛĮØ±Ø²Ø§ÛĮÛĮ": 21066,
  "ÙħÛĮØ±ÙĨØ¯": 22506,
  "ÙħÛĮØ±ÙĪ": 35642,
  "ÙħÛĮØ±ÛĮ": 11424,
  "ÙħÛĮØ²": 3398,
  "ÙħÛĮØ²Ø§ÙĨ": 22114,
  "ÙħÛĮØ²Ø¨Ø§ÙĨ": 26051,
  "ÙħÛĮØ²ÛĮ": 5510,
  "ÙħÛĮØ³": 19768,
  "ÙħÛĮØ´Ùĩ": 38957,
  "ÙħÛĮØ¹": 6397,
  "ÙħÛĮØ¹ÛĮ": 19297,
  "ÙħÛĮÙĤ": 4292,
  "ÙħÛĮÙĦ": 4655,
  "ÙħÛĮÙĦØ§Ø¯": 35822,
  "ÙħÛĮÙĦØ§Ø¯ÛĮ": 15840,
  "ÙħÛĮÙĦØ§ÙĨ": 24222,
  "ÙħÛĮÙĦÛĮ": 5943,
  "ÙħÛĮÙĦÛĮØ§Ø±Ø¯": 7467,
  "ÙħÛĮÙĦÛĮÙĪÙĨ": 6145,
  "ÙħÛĮÙĦÛĮÙĪÙĨÛĮ": 41247,
  "ÙħÛĮÙħ": 1195,
  "ÙħÛĮÙħÙĩ": 13149,
  "ÙħÛĮÙħÛĮ": 5376,
  "ÙħÛĮÙĨ": 560,
  "ÙħÛĮÙĨØ§": 27857,
  "ÙħÛĮÙĨÙĩ": 26645,
  "ÙħÛĮÙĨÙĪ": 31491,
  "ÙħÛĮÙĨÚ¯": 22914,
  "ÙħÛĮÙĨÚ¯ØªÙĪÙĨ": 36120,
  "ÙħÛĮÙĨÛĮ": 15972,
  "ÙħÛĮÙĩ": 2203,
  "ÙħÛĮÙĩÙĨØ§ÙĨ": 33055,
  "ÙħÛĮÙĪÙħ": 38956,
  "ÙħÛĮÙĪÙĩ": 15438,
  "ÙħÛĮÚ©": 21615,
  "ÙħÛĮÚ©Ø§ÙĦ": 40458,
  "ÙħÛĮÚ©Ø±ÙĪ": 20522,
  "ÙħÛĮÚ©Ø±ÙĪØ¨ÛĮ": 23774,
  "ÙĨ": 266,
  "ÙĨØ§": 470,
  "ÙĨØ§Øª": 27743,
  "ÙĨØ§ØªÙĪ": 30149,
  "ÙĨØ§Ø¬": 20091,
  "ÙĨØ§Ø®ØªÙĩ": 9572,
  "ÙĨØ§Ø®ØªÛĮ": 39019,
  "ÙĨØ§Ø¯": 2452,
  "ÙĨØ§Ø¯Ø±": 25213,
  "ÙĨØ§Ø±": 27742,
  "ÙĨØ§Ø²": 10360,
  "ÙĨØ§Ø²ÛĮ": 17553,
  "ÙĨØ§Ø³": 9382,
  "ÙĨØ§Ø´ÛĮ": 40523,
  "ÙĨØ§ØµØ±": 7961,
  "ÙĨØ§ØµØ±ÛĮ": 36477,
  "ÙĨØ§Ø·ÙĤ": 34509,
  "ÙĨØ§Ø¹": 8351,
  "ÙĨØ§Ø¹ÛĮ": 33647,
  "ÙĨØ§Ù¾Ø°ÛĮØ±": 8205,
  "ÙĨØ§Ù¾Ø°ÛĮØ±ÛĮ": 15269,
  "ÙĨØ§Ùģ": 32865,
  "ÙĨØ§ÙģØ¹": 26627,
  "ÙĨØ§ÙĦ": 7566,
  "ÙĨØ§Ùħ": 3060,
  "ÙĨØ§ÙħØ¯": 33910,
  "ÙĨØ§ÙħÙĨØ¯": 19207,
  "ÙĨØ§ÙħÙĩ": 538,
  "ÙĨØ§ÙħÙĩØ§": 33911,
  "ÙĨØ§ÙħÙĩØ§Ø¯Ø´Ø¯Ùĩ": 36519,
  "ÙĨØ§ÙħÛĢ": 32324,
  "ÙĨØ§ÙħÛĮ": 15423,
  "ÙĨØ§ÙĨ": 1076,
  "ÙĨØ§ÙĨØ¯": 13397,
  "ÙĨØ§ÙĨØ¯Ø²": 21553,
  "ÙĨØ§ÙĨØ³": 8137,
  "ÙĨØ§ÙĨØ³ÙĪØ±": 36666,
  "ÙĨØ§ÙĨÙĪ": 27063,
  "ÙĨØ§ÙĨÛĮ": 8679,
  "ÙĨØ§Ùĩ": 36241,
  "ÙĨØ§ÙĩØ§": 17657,
  "ÙĨØ§ÙĩØ§ÛĮ": 9038,
  "ÙĨØ§ÙĩÛĮØ¯": 37379,
  "ÙĨØ§ÙĪ": 36476,
  "ÙĨØ§ÙĪØ±": 18334,
  "ÙĨØ§ÙĪØ±ÛĮ": 10153,
  "ÙĨØ§ÙĪÙĩ": 12023,
  "ÙĨØ§Ú©": 4018,
  "ÙĨØ§Ú©ÛĮ": 9477,
  "ÙĨØ§ÛĮ": 2228,
  "ÙĨØ§ÛĮØ¨": 40921,
  "ÙĨØ§ÛĮÙħÚ©Ø³": 23544,
  "ÙĨØ§ÛĮÛĮ": 4820,
  "ÙĨØ¨Ø§Øª": 37443,
  "ÙĨØ¨Ø§ÙĦ": 1460,
  "ÙĨØ¨Ø±Ú¯": 37444,
  "ÙĨØ¨ÛĮ": 19885,
  "ÙĨØª": 1973,
  "ÙĨØªØ§": 21680,
  "ÙĨØªØ§ÙĦ": 24755,
  "ÙĨØªØ§ÙĨ": 24754,
  "ÙĨØªØ§ÛĮØ¬": 30979,
  "ÙĨØªØ²": 28824,
  "ÙĨØªØ³": 25061,
  "ÙĨØªÙĩ": 26331,
  "ÙĨØªÙĪ": 15390,
  "ÙĨØªÙĪÙĨ": 29851,
  "ÙĨØªÛĮ": 2669,
  "ÙĨØªÛĮØ¬Ùĩ": 17435,
  "ÙĨØªÛĮÙģ": 39418,
  "ÙĨØªÛĮÙĨ": 33848,
  "ÙĨØªÛĮÙĨØ§": 25062,
  "ÙĨØªÛĮÙĨÙĪ": 30431,
  "ÙĨØªÛĮÚ©": 40973,
  "ÙĨØ¬": 660,
  "ÙĨØ¬Ø§": 21037,
  "ÙĨØ¬Ø§Øª": 23615,
  "ÙĨØ¬Ø§Ø±": 30881,
  "ÙĨØ¬Ø§ÙĨ": 4213,
  "ÙĨØ¬Ø§ÙĨØ¯Ùĩ": 10643,
  "ÙĨØ¬Ø§ÙĨÛĮ": 23616,
  "ÙĨØ¬Ø±": 27877,
  "ÙĨØ¬Ùĩ": 27744,
  "ÙĨØ¬ÛĮ": 2500,
  "ÙĨØ¬ÛĮØ¯Ùĩ": 23223,
  "ÙĨØ®": 15795,
  "ÙĨØ®Ø³Øª": 38476,
  "ÙĨØ®Ø³ØªÛĮÙĨ": 30620,
  "ÙĨØ®ÙĪØ±Ø¯Ùĩ": 31969,
  "ÙĨØ¯": 311,
  "ÙĨØ¯Ø§": 16782,
  "ÙĨØ¯Ø§Ø±": 30202,
  "ÙĨØ¯Ø§ÙĨ": 1191,
  "ÙĨØ¯Ø§ÙĨÛĮ": 17668,
  "ÙĨØ¯Ø¬": 5487,
  "ÙĨØ¯Ø¬ÛĮ": 35303,
  "ÙĨØ¯Ø±": 9772,
  "ÙĨØ¯Ø±Ø§": 22009,
  "ÙĨØ¯Ø±Øª": 42015,
  "ÙĨØ¯Ø±ÛĮ": 35302,
  "ÙĨØ¯Ø²": 37561,
  "ÙĨØ¯Ùħ": 21808,
  "ÙĨØ¯Ùĩ": 590,
  "ÙĨØ¯ÙĩØ§": 10576,
  "ÙĨØ¯ÙĩØ§ÛĮ": 6539,
  "ÙĨØ¯ÙĩØ§ÛĮÛĮ": 22262,
  "ÙĨØ¯ÙĪÙĤ": 13681,
  "ÙĨØ¯Ú©": 38842,
  "ÙĨØ¯Ú¯Ø§ÙĨ": 1120,
  "ÙĨØ¯Ú¯Ø§ÙĨÛĮ": 10604,
  "ÙĨØ¯Ú¯ÛĮ": 1216,
  "ÙĨØ¯ÛĮ": 1043,
  "ÙĨØ¯ÛĮÙħ": 42014,
  "ÙĨØ±": 8927,
  "ÙĨØ±Ø®": 17434,
  "ÙĨØ±Ø®ÛĮ": 26441,
  "ÙĨØ±Ø²": 38726,
  "ÙĨØ±Ùħ": 28612,
  "ÙĨØ²": 2210,
  "ÙĨØ²Ø§": 23213,
  "ÙĨØ²Ø¯ÛĮÚ©": 26731,
  "ÙĨØ²ÙĪ": 27959,
  "ÙĨØ²ÛĮ": 25212,
  "ÙĨØ³": 6583,
  "ÙĨØ³Ø§": 34342,
  "ÙĨØ³Ø¨": 16678,
  "ÙĨØ³Ø¨Øª": 20000,
  "ÙĨØ³Ø®Ùĩ": 39695,
  "ÙĨØ³Ø±": 18203,
  "ÙĨØ³Ù¾Ø±Ú¯Ø±": 41279,
  "ÙĨØ³ÙĦ": 40208,
  "ÙĨØ³Ú©ÛĮ": 34922,
  "ÙĨØ³ÛĮ": 28171,
  "ÙĨØ³ÛĮØ§": 16855,
  "ÙĨØ´": 1749,
  "ÙĨØ´Ø§": 37950,
  "ÙĨØ´Ø§Ø·": 31612,
  "ÙĨØ´Ø§ÙĦ": 16627,
  "ÙĨØ´Ø§ÙĨ": 1346,
  "ÙĨØ´Ø§ÙĨØ§ÙĨ": 10696,
  "ÙĨØ´Ø§ÙĨÙĩ": 32255,
  "ÙĨØ´Ø§ÙĨÛĮ": 4604,
  "ÙĨØ´Ø¯ÙĨ": 40209,
  "ÙĨØ´Ø¯ÙĨÛĮ": 31318,
  "ÙĨØ´Ø¯Ùĩ": 17087,
  "ÙĨØ´Ø±ÛĮÙĩ": 37951,
  "ÙĨØ´Ø³Øª": 17304,
  "ÙĨØ´ÙĨØ§ÙĦ": 17554,
  "ÙĨØ´ÛĮØ§ÙĦ": 31319,
  "ÙĨØ´ÛĮÙĨ": 4702,
  "ÙĨØ´ÛĮÙĨØ§ÙĨ": 8375,
  "ÙĨØ´ÛĮÙĨØ¯": 18245,
  "ÙĨØ´ÛĮÙĨÙĨØ¯": 23254,
  "ÙĨØ´ÛĮÙĨÛĮ": 7422,
  "ÙĨØ´ÛĮÙĨÛĮÙħ": 38194,
  "ÙĨØµ": 30717,
  "ÙĨØµØ¨": 32678,
  "ÙĨØµØ±": 5238,
  "ÙĨØµÛĮØ¨": 35172,
  "ÙĨØµÛĮØ±": 38727,
  "ÙĨØ·": 15077,
  "ÙĨØ·ÙĤÙĩ": 18300,
  "ÙĨØ¸": 4862,
  "ÙĨØ¸Ø§Ø±Øª": 31080,
  "ÙĨØ¸Ø§Ùħ": 17407,
  "ÙĨØ¸Ø§ÙħÛĮ": 9297,
  "ÙĨØ¸Ø§ÙħÛĮÙĩ": 43360,
  "ÙĨØ¸Ø±": 2650,
  "ÙĨØ¸Ø±Ø§Øª": 31081,
  "ÙĨØ¸Ø±Ø§ÙĨ": 13947,
  "ÙĨØ¸Ø±Ùħ": 42692,
  "ÙĨØ¸Ø±ÛĮ": 17935,
  "ÙĨØ¸ÙħÛĮ": 24915,
  "ÙĨØ¸ÛĮØ±": 8057,
  "ÙĨØ¸ÛĮØ±ØªØ±ÛĮÙĨ": 41343,
  "ÙĨØ¸ÛĮØ±ÛĮ": 17229,
  "ÙĨØ¹": 8962,
  "ÙĨØ¹Øª": 24620,
  "ÙĨØ¹ÙħØª": 38343,
  "ÙĨØ¹ÛĮ": 37442,
  "ÙĨØŃ": 20051,
  "ÙĨØŃÙĪ": 43391,
  "ÙĨØŃÙĪÙĩ": 41604,
  "ÙĨØŃÙĪÛĮ": 24597,
  "ÙĨÙģ": 20978,
  "ÙĨÙģØª": 4036,
  "ÙĨÙģØªÚ©Ø´": 32376,
  "ÙĨÙģØªÚ¯Ø§Ø²": 36938,
  "ÙĨÙģØªÛĮ": 5886,
  "ÙĨÙģØ±": 11164,
  "ÙĨÙģØ±Ùĩ": 18954,
  "ÙĨÙģØ±ÛĮ": 20979,
  "ÙĨÙģØ³": 24621,
  "ÙĨÙģØ´": 16497,
  "ÙĨÙģØ¹": 16771,
  "ÙĨÙģØ¹Ø§ÙĨ": 9068,
  "ÙĨÙģÙĪØ°": 28569,
  "ÙĨÙĤ": 9707,
  "ÙĨÙĤØ¯": 26904,
  "ÙĨÙĤØ¯ÛĮ": 15565,
  "ÙĨÙĤØ´": 21941,
  "ÙĨÙĤØ´Ùĩ": 33291,
  "ÙĨÙĤØµ": 28074,
  "ÙĨÙĤØ·Ùĩ": 26832,
  "ÙĨÙĤÙĦ": 22401,
  "ÙĨÙĤÛĮ": 30148,
  "ÙĨÙħ": 8892,
  "ÙĨÙħØ§": 8102,
  "ÙĨÙħØ§Ø¯": 34104,
  "ÙĨÙħØ§ÙĩØ§": 21182,
  "ÙĨÙħØ§ÛĮ": 3766,
  "ÙĨÙħØ§ÛĮØ¯": 8715,
  "ÙĨÙħØ§ÛĮØ´": 18937,
  "ÙĨÙħØ§ÛĮØ´Ú¯Ø§Ùĩ": 31814,
  "ÙĨÙħØ§ÛĮÙħ": 15192,
  "ÙĨÙħØ§ÛĮÙĨØ¯": 12795,
  "ÙĨÙħØ§ÛĮÙĨØ¯Ùĩ": 24206,
  "ÙĨÙħØ§ÛĮÙĨØ¯Ú¯Ø§ÙĨ": 29377,
  "ÙĨÙħØ§ÛĮÙĨØ¯Ú¯ÛĮ": 41095,
  "ÙĨÙħØ§ÛĮÛĮ": 4964,
  "ÙĨÙħØ§ÛĮÛĮÙħ": 33959,
  "ÙĨÙħÙĪØ¯": 34103,
  "ÙĨÙħÚ©": 34102,
  "ÙĨÙħÛĮ": 31317,
  "ÙĨÙĨØ¯": 26549,
  "ÙĨÙĩ": 997,
  "ÙĨÙĩØ§": 5155,
  "ÙĨÙĩØ§Ø¨ÛĮ": 38222,
  "ÙĨÙĩØ§Ø¯": 12949,
  "ÙĨÙĩØ§Ùħ": 12030,
  "ÙĨÙĩØ§ÛĮØª": 28172,
  "ÙĨÙĩØ§ÛĮÛĮ": 15720,
  "ÙĨÙĩÙħ": 14865,
  "ÙĨÙĪ": 2649,
  "ÙĨÙĪØ¢ÙĪØ±ÛĮ": 28390,
  "ÙĨÙĪØ§": 35223,
  "ÙĨÙĪØ§Ø¨": 40971,
  "ÙĨÙĪØ§Ø®Øª": 33887,
  "ÙĨÙĪØ§Ø²": 20909,
  "ÙĨÙĪØ§Ø²Ø§ÙĨ": 31654,
  "ÙĨÙĪØ§Ø²Ø¯": 42691,
  "ÙĨÙĪØ§Ø²ÙĨØ¯": 40972,
  "ÙĨÙĪØ§Ø²ÛĮ": 18147,
  "ÙĨÙĪØ§ÙħØ¨Ø±": 32299,
  "ÙĨÙĪØ§ÙĨ": 654,
  "ÙĨÙĪØ§ÛĮÛĮ": 42690,
  "ÙĨÙĪØ¨": 27745,
  "ÙĨÙĪØ¨Øª": 30462,
  "ÙĨÙĪØªÛĮ": 38033,
  "ÙĨÙĪØªÛĮØ²Ùħ": 41763,
  "ÙĨÙĪØ¬": 13115,
  "ÙĨÙĪØ¯": 29091,
  "ÙĨÙĪØ¯Ø§Ø±": 35224,
  "ÙĨÙĪØ±": 14149,
  "ÙĨÙĪØ±Ø§ÙĦØ¯ÛĮÙĨ": 37201,
  "ÙĨÙĪØ±Ø¯": 17433,
  "ÙĨÙĪØ±Ø¯Ø¯": 41571,
  "ÙĨÙĪØ±Ø¯ÛĮ": 24914,
  "ÙĨÙĪØ±ÛĮ": 12891,
  "ÙĨÙĪØ³": 12840,
  "ÙĨÙĪØ´": 12637,
  "ÙĨÙĪØ´Øª": 6119,
  "ÙĨÙĪØ´ØªÙĩ": 21886,
  "ÙĨÙĪØ´ØªÛĮ": 24494,
  "ÙĨÙĪØ´ÙĨØ¯": 37179,
  "ÙĨÙĪØ¹": 10313,
  "ÙĨÙĪØ¹ÛĮ": 4641,
  "ÙĨÙĪÙģ": 39417,
  "ÙĨÙĪÙĦØ¯": 24334,
  "ÙĨÙĪÙĨ": 12200,
  "ÙĨÙĪÙĪ": 22735,
  "ÙĨÙĪÚ©": 22736,
  "ÙĨÙĪÚ©Ø³ÛĮØ¯": 23680,
  "ÙĨÙĪÛĮ": 6284,
  "ÙĨÙĪÛĮØ¯": 36242,
  "ÙĨÙĪÛĮØ³": 5580,
  "ÙĨÙĪÛĮØ³Ø§ÙĨ": 22338,
  "ÙĨÙĪÛĮØ³Ø¯": 10028,
  "ÙĨÙĪÛĮØ³Ùħ": 28931,
  "ÙĨÙĪÛĮØ³ÙĨØ¯": 19847,
  "ÙĨÙĪÛĮØ³ÙĨØ¯Ùĩ": 32432,
  "ÙĨÙĪÛĮØ³ÛĮ": 7416,
  "ÙĨÙĪÛĮØ³ÛĮÙħ": 33201,
  "ÙĨÙĪÛĮÛĮ": 27746,
  "ÙĨÚ©": 20349,
  "ÙĨÚ©Ø§": 28613,
  "ÙĨÚ©Ø±Ø¯ÙĨ": 37445,
  "ÙĨÚ©ÙĪ": 23090,
  "ÙĨÚ¯": 438,
  "ÙĨÚ¯Ø§Ø±": 9848,
  "ÙĨÚ¯Ø§Ø±Ø§ÙĨ": 19601,
  "ÙĨÚ¯Ø§Ø±Ø¹ÙĦÛĮ": 39824,
  "ÙĨÚ¯Ø§Ø±Ùĩ": 24114,
  "ÙĨÚ¯Ø§Ø±ÛĮ": 7333,
  "ÙĨÚ¯Ø§Ùħ": 6586,
  "ÙĨÚ¯Ø§ÙĨ": 20237,
  "ÙĨÚ¯Ø§Ùĩ": 29600,
  "ÙĨÚ¯Ø§ÙĩÛĮ": 41866,
  "ÙĨÚ¯ØªÙĨ": 4237,
  "ÙĨÚ¯Ø±": 8066,
  "ÙĨÚ¯Ø±Ø§ÙĨÙĩ": 31798,
  "ÙĨÚ¯Ø±Ø¯": 15511,
  "ÙĨÚ¯Ø±ÙĨØ¯": 37086,
  "ÙĨÚ¯Ø±ÛĮ": 4337,
  "ÙĨÚ¯Ùĩ": 12773,
  "ÙĨÚ¯ÙĩØ¯Ø§Ø±ÛĮ": 38419,
  "ÙĨÚ¯ÛĮ": 949,
  "ÙĨÚ¯ÛĮØ±": 32102,
  "ÙĨÚĨ": 31316,
  "ÙĨÚĺ": 26175,
  "ÙĨÚĺØ§Ø¯": 4688,
  "ÙĨÚĺØ§Ø¯ÛĮ": 30661,
  "ÙĨÛĮ": 473,
  "ÙĨÛĮØ§": 4775,
  "ÙĨÛĮØ§Ø²": 5644,
  "ÙĨÛĮØ§Ø²ÙĩØ§ÛĮ": 31762,
  "ÙĨÛĮØ§Ø²ÛĮ": 24411,
  "ÙĨÛĮØ§ÙģØªÙĩ": 35827,
  "ÙĨÛĮØ§ÙĨ": 23600,
  "ÙĨÛĮØª": 17857,
  "ÙĨÛĮØ¯Ùĩ": 22460,
  "ÙĨÛĮØ±": 25860,
  "ÙĨÛĮØ±ÙĪ": 13270,
  "ÙĨÛĮØ±ÙĪÙĩØ§ÛĮ": 37305,
  "ÙĨÛĮØ±ÙĪÚ¯Ø§Ùĩ": 28534,
  "ÙĨÛĮØ±ÙĪÚ¯Ø§ÙĩÛĮ": 16846,
  "ÙĨÛĮØ±ÙĪÛĮ": 37304,
  "ÙĨÛĮØ²": 11632,
  "ÙĨÛĮØ³Øª": 30848,
  "ÙĨÛĮØ´": 40525,
  "ÙĨÛĮÙģ": 13928,
  "ÙĨÛĮÙģØ±": 26251,
  "ÙĨÛĮÙģÛĮ": 25599,
  "ÙĨÛĮÙħ": 23782,
  "ÙĨÛĮÙħØ§": 36243,
  "ÙĨÛĮÙħÙĩ": 24045,
  "ÙĨÛĮÙĨ": 593,
  "ÙĨÛĮÙĨÚ¯": 20860,
  "ÙĨÛĮÙĩ": 9745,
  "ÙĨÛĮÙĪØ²": 15664,
  "ÙĨÛĮÙĪØ³": 34514,
  "ÙĨÛĮÙĪÙħ": 17289,
  "ÙĨÛĮÙĪÛĮÙĪØ±Ú©": 24984,
  "ÙĨÛĮÚ©": 5727,
  "ÙĨÛĮÚ©ÙĪ": 33648,
  "ÙĨÛĮÚ©ÙĪÙĦ": 36481,
  "ÙĨÛĮÚĨ": 42236,
  "Ùĩ": 267,
  "ÙĩØ§": 349,
  "ÙĩØ§Ø¨": 4381,
  "ÙĩØ§Ø¨Ø§Øª": 13862,
  "ÙĩØ§Ø¨ÛĮ": 7671,
  "ÙĩØ§Ø¬": 34442,
  "ÙĩØ§Ø¬ÙħÛĮ": 31422,
  "ÙĩØ§Ø¯ÛĮ": 18702,
  "ÙĩØ§Ø±": 491,
  "ÙĩØ§Ø±Ø§": 31471,
  "ÙĩØ§Ø±Ø§ÙĨÙĩ": 15162,
  "ÙĩØ§Ø±Øª": 29210,
  "ÙĩØ§Ø±ÛĮ": 14012,
  "ÙĩØ§Ø³": 35340,
  "ÙĩØ§Ø³Øª": 4071,
  "ÙĩØ§Ø³ÙħÛĮ": 37607,
  "ÙĩØ§Ø´": 17354,
  "ÙĩØ§Ø´Ùħ": 18722,
  "ÙĩØ§Ø´ÙħÛĮ": 20337,
  "ÙĩØ§Ø¶": 36398,
  "ÙĩØ§Ø¶ÙħÙĩ": 37385,
  "ÙĩØ§Ù¾": 20673,
  "ÙĩØ§Ùģ": 42088,
  "ÙĩØ§ÙģØª": 33582,
  "ÙĩØ§ÙģØªÙĨ": 32059,
  "ÙĩØ§ÙģØªÙĩ": 28678,
  "ÙĩØ§ÙĦ": 8902,
  "ÙĩØ§Ùħ": 4149,
  "ÙĩØ§ÙħÛĮ": 19269,
  "ÙĩØ§ÙĨ": 9760,
  "ÙĩØ§Ùī": 25257,
  "ÙĩØ§ÛĮ": 323,
  "ÙĩØ§ÛĮØª": 2198,
  "ÙĩØ§ÛĮØªØ§ÙĨ": 13113,
  "ÙĩØ§ÛĮØ´": 6052,
  "ÙĩØ§ÛĮØ´Ø§ÙĨ": 6800,
  "ÙĩØ§ÛĮÙħ": 12469,
  "ÙĩØ§ÛĮÙħØ§ÙĨ": 11074,
  "ÙĩØ§ÛĮÙĪ": 18968,
  "ÙĩØ§ÛĮÛĮ": 708,
  "ÙĩØ¯": 23783,
  "ÙĩØ¯Ùģ": 18955,
  "ÙĩØ¯ÛĮ": 9724,
  "ÙĩØ±": 383,
  "ÙĩØ±Ø§": 5638,
  "ÙĩØ±Ø§Ø¨": 34467,
  "ÙĩØ±Ø§Øª": 20081,
  "ÙĩØ±Ø§Ø³": 42137,
  "ÙĩØ±Ø§Ø³ÛĮ": 21614,
  "ÙĩØ±Ø§ÙĨ": 767,
  "ÙĩØ±Ø§ÙĨÛĮ": 8098,
  "ÙĩØ±Ø³Øª": 28250,
  "ÙĩØ±ØŃØ§ÙĦ": 24106,
  "ÙĩØ±Ùħ": 26976,
  "ÙĩØ±ÙħØ²": 16952,
  "ÙĩØ±ÙħØ²Ú¯Ø§ÙĨ": 30625,
  "ÙĩØ±Ùĩ": 3708,
  "ÙĩØ±Ú©": 35225,
  "ÙĩØ±Ú¯Ø§Ùĩ": 38944,
  "ÙĩØ±ÚĨÙĨØ¯": 37645,
  "ÙĩØ±ÛĮ": 7193,
  "ÙĩØ±ÛĮØ³": 39724,
  "ÙĩØ±ÛĮÙĨ": 42136,
  "ÙĩØ²Ø§Ø±": 3018,
  "ÙĩØ²Ø§Ø±ÙĪ": 27980,
  "ÙĩØ²ÛĮÙĨÙĩ": 13578,
  "ÙĩØ³ØªÙĨØ¯": 35228,
  "ÙĩØ³ØªÙĩ": 37446,
  "ÙĩØ´Øª": 10194,
  "ÙĩØ´ØªÙħ": 15135,
  "ÙĩÙģØª": 9002,
  "ÙĩÙģØªÙħ": 11158,
  "ÙĩÙģØªÙĩ": 11535,
  "ÙĩÙĦ": 19573,
  "ÙĩÙĦØ¯ÛĮÙĨÚ¯": 22606,
  "ÙĩÙĦÙĨØ¯": 30150,
  "ÙĩÙĦÙĨØ¯ÛĮ": 13716,
  "ÙĩÙħ": 2330,
  "ÙĩÙħØ§": 24335,
  "ÙĩÙħØ§ÙĨ": 5391,
  "ÙĩÙħØ§ÙĨØ·ÙĪØ±": 39638,
  "ÙĩÙħØ§ÙĨÙĨØ¯": 42969,
  "ÙĩÙħØ§ÛĮ": 35226,
  "ÙĩÙħØ§ÛĮØ´": 40933,
  "ÙĩÙħØ§ÛĮÙĪÙĨ": 36198,
  "ÙĩÙħØª": 27747,
  "ÙĩÙħØ¯Ø§ÙĨ": 35227,
  "ÙĩÙħØ±Ø§Ùĩ": 13339,
  "ÙĩÙħØ²ÙħØ§ÙĨ": 27748,
  "ÙĩÙħØ³Ø±": 40934,
  "ÙĩÙħÙ¾ØªÙĪÙĨ": 35229,
  "ÙĩÙħÙĩ": 18551,
  "ÙĩÙħÙĪØ²ÙĨ": 42645,
  "ÙĩÙħÚ©Ø§Ø±ÛĮ": 27102,
  "ÙĩÙħÚĨÙĨÛĮÙĨ": 17610,
  "ÙĩÙħÚĨÙĪÙĨ": 32287,
  "ÙĩÙħÛĮ": 25861,
  "ÙĩÙħÛĮÙĨ": 18309,
  "ÙĩÙĨ": 1659,
  "ÙĩÙĨØ¯": 24622,
  "ÙĩÙĨØ±": 12911,
  "ÙĩÙĨØ±ÛĮ": 35637,
  "ÙĩÙĨÚ¯": 3931,
  "ÙĩÙĨÚ¯Ø§Ùħ": 21310,
  "ÙĩÙĨÛĮ": 6325,
  "ÙĩÙĪ": 17144,
  "ÙĩÙĪØ¢ÙĪÛĮ": 43354,
  "ÙĩÙĪØ§": 16108,
  "ÙĩÙĪØ§Ø²ÛĮ": 28117,
  "ÙĩÙĪØ¯ÛĮØ§ÙĨ": 40210,
  "ÙĩÙĪØ±": 33473,
  "ÙĩÙĪØ´": 20350,
  "ÙĩÙĪØ´ÙħÙĨØ¯": 39980,
  "ÙĩÙĪØ´ÙĨÚ¯": 34223,
  "ÙĩÙĪØ´ÛĮ": 33474,
  "ÙĩÙĪÛĮØª": 36244,
  "ÙĩÚ©ØªØ§Ø±": 28614,
  "ÙĩÛĮ": 2033,
  "ÙĩÛĮØ¦Øª": 25064,
  "ÙĩÛĮØ§Øª": 30982,
  "ÙĩÛĮØ¨": 36765,
  "ÙĩÛĮØ¯Ø±ÙĪ": 30718,
  "ÙĩÛĮØ¯Ùĩ": 28367,
  "ÙĩÛĮÙĦ": 41867,
  "ÙĩÛĮÙĨ": 8517,
  "ÙĩÛĮÙĨÛĮ": 31970,
  "ÙĩÛĮÚĨ": 15757,
  "ÙĪ": 269,
  "ÙĪØ¢": 14057,
  "ÙĪØ¢ÙħØ¯": 16026,
  "ÙĪØ¢ÙħØ¯ÙĩØ§": 29604,
  "ÙĪØ¢ÙħØ¯ÙĩØ§ÛĮ": 38733,
  "ÙĪØ¢ÙĪÙĩ": 27674,
  "ÙĪØ¦": 1603,
  "ÙĪØ¦Ø±": 28353,
  "ÙĪØ¦ÙĦ": 8842,
  "ÙĪØ¦ÙĦØ§": 33829,
  "ÙĪØ¦ÙĨ": 14039,
  "ÙĪØ¦ÙĨØ³Ø±": 31208,
  "ÙĪØ¦ÙĪ": 35634,
  "ÙĪØ¦ÛĮ": 10352,
  "ÙĪØ¦ÛĮØ§ÙĨ": 32246,
  "ÙĪØ¦ÛĮØ¯": 10204,
  "ÙĪØ¦ÛĮØ¯ÙĩØ§": 21945,
  "ÙĪØ¦ÛĮØ¯ÙĩØ§ÛĮ": 43207,
  "ÙĪØ¦ÛĮØ¯ÛĮ": 27493,
  "ÙĪØ¦ÛĮÙĦ": 5212,
  "ÙĪØ¦ÛĮÙĦÛĮ": 27933,
  "ÙĪØ¦ÛĮÙĩ": 26012,
  "ÙĪØ§": 1295,
  "ÙĪØ§Ø¦Ø¯": 20886,
  "ÙĪØ§Ø¨": 20052,
  "ÙĪØ§Ø¨Ø³ØªÙĩ": 31899,
  "ÙĪØ§Ø¨Ø·": 4034,
  "ÙĪØ§Ø¨ÛĮ": 30153,
  "ÙĪØ§Øª": 4863,
  "ÙĪØ§ØªÛĮ": 9957,
  "ÙĪØ§ØªÛĮÙĦÙĨ": 32410,
  "ÙĪØ§Ø¬": 4265,
  "ÙĪØ§Ø¬Ø±Ø¯": 32384,
  "ÙĪØ§Ø¬ÛĮ": 37909,
  "ÙĪØ§Ø®ÛĮÙħ": 34643,
  "ÙĪØ§Ø¯Ø§Ø±": 41876,
  "ÙĪØ§Ø¯Ø«": 37452,
  "ÙĪØ§Ø¯ÙĪØ±": 31971,
  "ÙĪØ§Ø±": 919,
  "ÙĪØ§Ø±Ø§": 40706,
  "ÙĪØ§Ø±Ø§ÙĨ": 23545,
  "ÙĪØ§Ø±Øª": 23091,
  "ÙĪØ§Ø±Ø¯": 13271,
  "ÙĪØ§Ø±Ø¯Ø§Øª": 31855,
  "ÙĪØ§Ø±Ø¶": 36630,
  "ÙĪØ§Ø±Ùĩ": 1448,
  "ÙĪØ§Ø±ÙĪ": 21856,
  "ÙĪØ§Ø±ÙĪØ´": 33754,
  "ÙĪØ§Ø±ÛĮ": 2516,
  "ÙĪØ§Ø²": 3423,
  "ÙĪØ§Ø²Ùĩ": 20652,
  "ÙĪØ§Ø²ÛĮ": 21394,
  "ÙĪØ§Ø³": 8241,
  "ÙĪØ§Ø³Øª": 31321,
  "ÙĪØ§Ø³Ø·Ùĩ": 12717,
  "ÙĪØ§Ø³ÛĮ": 31322,
  "ÙĪØ§Ø´": 15752,
  "ÙĪØ§Ø´ÙĨÚ¯ØªÙĨ": 32550,
  "ÙĪØ§Ø¹": 1994,
  "ÙĪØ§Ø¹ÛĮ": 31590,
  "ÙĪØ§ØŃ": 11340,
  "ÙĪØ§ØŃØ¯": 13621,
  "ÙĪØ§ØŃØ¯Ùĩ": 37158,
  "ÙĪØ§ØŃØ¯ÙĩØ§ÛĮ": 29490,
  "ÙĪØ§ØŃØ¯ÛĮ": 38390,
  "ÙĪØ§ÙĤ": 38732,
  "ÙĪØ§ÙĤØ¹": 23334,
  "ÙĪØ§ÙĤØ¹ÛĮØª": 43569,
  "ÙĪØ§ÙĦ": 2899,
  "ÙĪØ§ÙĦÙħ": 31023,
  "ÙĪØ§ÙĦÙħØ³ÙĦÙħÛĮÙĨ": 36168,
  "ÙĪØ§ÙĦÛĮ": 13177,
  "ÙĪØ§Ùħ": 8903,
  "ÙĪØ§ÙħÛĮ": 37450,
  "ÙĪØ§ÙħÛĮØ¯": 36250,
  "ÙĪØ§ÙĨ": 387,
  "ÙĪØ§ÙĨØ§": 21010,
  "ÙĪØ§ÙĨØª": 34468,
  "ÙĪØ§ÙĨØªÙĤØ§ÙĦ": 25266,
  "ÙĪØ§ÙĨØªÙĤØ§ÙĦØ§Øª": 29697,
  "ÙĪØ§ÙĨØ¯": 14113,
  "ÙĪØ§ÙĨØ¯Ùĩ": 15964,
  "ÙĪØ§ÙĨØ¯ÙĪ": 7027,
  "ÙĪØ§ÙĨØ¯Ú¯ÛĮ": 20801,
  "ÙĪØ§ÙĨØ³ÛĮÙĪÙĨ": 8919,
  "ÙĪØ§ÙĨÙĩ": 6571,
  "ÙĪØ§ÙĨÚ©ÙĪÙĦÙĪÚĺÛĮ": 42142,
  "ÙĪØ§ÙĨÚ¯": 28699,
  "ÙĪØ§ÙĨÛĮ": 2906,
  "ÙĪØ§ÙĨÛĮÙĩ": 25215,
  "ÙĪØ§ÙĩØ±ÛĮ": 24623,
  "ÙĪØ§Ú©": 41875,
  "ÙĪØ§Ú©Ø³": 19119,
  "ÙĪØ§Ú©Ø³ÙĨ": 30631,
  "ÙĪØ§Ú©ÛĮ": 12612,
  "ÙĪØ§Ú¯ÙĨ": 35598,
  "ÙĪØ§ÚĨ": 30945,
  "ÙĪØ§ÚĺÙĩ": 25654,
  "ÙĪØ§ÛĮ": 5351,
  "ÙĪØ§ÛĮØ§ÙĨ": 9487,
  "ÙĪØ§ÛĮÚ©ÙĪ": 22761,
  "ÙĪØ§ÛĮÛĮ": 5544,
  "ÙĪØ¨": 665,
  "ÙĪØ¨Ø§": 22473,
  "ÙĪØ¨Ø§Ø±": 28309,
  "ÙĪØ¨Ø§ÙĨÚ©": 23171,
  "ÙĪØ¨Ø§Ú©": 32913,
  "ÙĪØ¨Øª": 7995,
  "ÙĪØ¨ØªØ±ÛĮ": 31796,
  "ÙĪØ¨ØªÛĮ": 19925,
  "ÙĪØ¨Ø®ØªÛĮØ§Ø±ÛĮ": 40627,
  "ÙĪØ¨Ø±": 29092,
  "ÙĪØ¨Ø±Ø¯Ø§Ø±ÛĮ": 19165,
  "ÙĪØ¨Ø±ÛĮ": 9732,
  "ÙĪØ¨ØµØ§Ø¯Ø±": 26653,
  "ÙĪØ¨ÙĦÙĪÚĨØ³ØªØ§ÙĨ": 11387,
  "ÙĪØ¨ÙĦÛĮØ§ÙĨØ§": 40626,
  "ÙĪØ¨ÙħÙĦØª": 21636,
  "ÙĪØ¨ÙĨ": 37767,
  "ÙĪØ¨ÙĨØ¯": 24133,
  "ÙĪØ¨ÙĨØ¯ÛĮ": 39119,
  "ÙĪØ¨ÙĨÛĮ": 40625,
  "ÙĪØ¨Ùĩ": 2050,
  "ÙĪØ¨ÙĪ": 27878,
  "ÙĪØ¨ÙĪØª": 42332,
  "ÙĪØ¨ÙĪØ¯": 18343,
  "ÙĪØ¨ÙĪØ¯Ø¬Ùĩ": 19410,
  "ÙĪØ¨ÙĪØ³": 30322,
  "ÙĪØ¨ÙĪÙĦÛĮÙĨ": 42333,
  "ÙĪØ¨ÛĮ": 1251,
  "ÙĪØ¨ÛĮØ§": 39258,
  "ÙĪØ¨ÛĮØ§Ø¨Ø§ÙĨÚ©": 19485,
  "ÙĪØ¨ÛĮØ¯Ú¯ÙĦ": 27024,
  "ÙĪØ¨ÛĮØ´ÛĮ": 25324,
  "ÙĪØ¨ÛĮÙĦ": 23644,
  "ÙĪØ¨ÛĮÙħÙĩØŃ": 39120,
  "ÙĪØ¨ÛĮÙĨ": 19003,
  "ÙĪØ¨ÛĮÚ©": 37902,
  "ÙĪØª": 839,
  "ÙĪØªØ§": 9575,
  "ÙĪØªØ§Ø±": 39161,
  "ÙĪØªØ§Ø±ÙĪ": 22931,
  "ÙĪØªØ§ÙĦ": 33735,
  "ÙĪØªØ§ÙĨØ³": 35532,
  "ÙĪØªØ§ÙĨØ³ÛĮÙĨ": 36204,
  "ÙĪØªØ§ÛĮ": 31530,
  "ÙĪØªØ¬Ø§Ø±Øª": 24723,
  "ÙĪØªØ±": 6067,
  "ÙĪØªØ±Ø§Ù¾": 32176,
  "ÙĪØªØ±Ø§Ù¾ÛĮ": 8338,
  "ÙĪØªØ±Ø´": 16317,
  "ÙĪØªØ±ÙĪ": 40682,
  "ÙĪØªØ±ÛĮ": 14609,
  "ÙĪØªØ³": 8646,
  "ÙĪØªØŃ": 32952,
  "ÙĪØªØŃÙĦÛĮÙĦ": 36177,
  "ÙĪØªÙĦÛĮ": 32175,
  "ÙĪØªÙĦÛĮØ§ÙĦ": 40086,
  "ÙĪØªÙĨ": 12691,
  "ÙĪØªÙĨÛĮÚ©": 40683,
  "ÙĪØªÙĪ": 10780,
  "ÙĪØªÙĪØ±": 12780,
  "ÙĪØªÙĪÙĨ": 33736,
  "ÙĪØªÙĪÚ©Ø³ÛĮÙĨ": 39162,
  "ÙĪØªÚ©": 26674,
  "ÙĪØªÚ©Ø³": 20112,
  "ÙĪØªÚ©ÙĨ": 12860,
  "ÙĪØªÚ©ÙĨÙĪÙĦÙĪÚĺÛĮ": 13712,
  "ÙĪØªÚ©ÙĨÛĮÚ©": 32521,
  "ÙĪØªÛĮ": 2885,
  "ÙĪØªÛĮÙĦÛĮØªÛĮ": 32317,
  "ÙĪØªÛĮÙĨ": 5640,
  "ÙĪØªÛĮÚ©": 8407,
  "ÙĪØªÛĮÚ©ÛĮ": 26352,
  "ÙĪØ«ÛĮ": 28173,
  "ÙĪØ¬": 3518,
  "ÙĪØ¬Ø¨": 31683,
  "ÙĪØ¬Ø±Ø³ÛĮ": 21103,
  "ÙĪØ¬Ùĩ": 10430,
  "ÙĪØ¬ÙĩÛĮ": 24567,
  "ÙĪØ¬ÙĪ": 13755,
  "ÙĪØ¬ÙĪØ§ÙĨ": 33133,
  "ÙĪØ¬ÙĪØ¯": 6041,
  "ÙĪØ¬ÙĪØ¯Ø¢ÙħØ¯Ùĩ": 41254,
  "ÙĪØ¬ÙĪÛĮ": 15190,
  "ÙĪØ¬ÛĮ": 15948,
  "ÙĪØ¬ÛĮÙĨ": 36886,
  "ÙĪØ¬ÛĮÙĪ": 34193,
  "ÙĪØ®": 17262,
  "ÙĪØ®ØªÙĩ": 11884,
  "ÙĪØ¯": 313,
  "ÙĪØ¯Ø§": 28648,
  "ÙĪØ¯Ø§Ø±": 13492,
  "ÙĪØ¯Ø§Ø±ÛĮ": 16194,
  "ÙĪØ¯Ø§Ø´Øª": 18209,
  "ÙĪØ¯Ø§ÙĨ": 23360,
  "ÙĪØ¯Ø§ÙĨÛĮ": 9241,
  "ÙĪØ¯Ø¬Ø§ÙĨ": 42020,
  "ÙĪØ¯Ø±": 4921,
  "ÙĪØ¯Ø±Ø§": 37565,
  "ÙĪØ¯Ø±Ø¯": 17981,
  "ÙĪØ¯Ø±ÙħØ§ÙĨÛĮ": 22758,
  "ÙĪØ¯Ø´Øª": 14062,
  "ÙĪØ¯ÙħÙĨØ¯": 42019,
  "ÙĪØ¯ÙĨ": 12765,
  "ÙĪØ¯ÙĨØ¯": 18318,
  "ÙĪØ¯Ùĩ": 609,
  "ÙĪØ¯ÙĩØ§": 9211,
  "ÙĪØ¯ÙĩØ§ÛĮ": 7366,
  "ÙĪØ¯ÙĩØ§ÛĮÛĮ": 16133,
  "ÙĪØ¯ÙĩÛĮ": 19000,
  "ÙĪØ¯ÙĪ": 8526,
  "ÙĪØ¯ÙĪØ±": 34414,
  "ÙĪØ¯ÙĪÙħÛĮÙĨ": 25896,
  "ÙĪØ¯Ú¯ÛĮ": 2425,
  "ÙĪØ¯ÛĮ": 1256,
  "ÙĪØ¯ÛĮØ§ÙĦÛĮØ²": 39259,
  "ÙĪØ¯ÛĮØ§ÙĨ": 21471,
  "ÙĪØ¯ÛĮØªÛĮ": 30206,
  "ÙĪØ¯ÛĮØ²ÙĦ": 36344,
  "ÙĪØ¯ÛĮÙħ": 42018,
  "ÙĪØ¯ÛĮÙĨ": 26580,
  "ÙĪØ¯ÛĮÙĨØ§ÙħÛĮÚ©": 40024,
  "ÙĪØ¯ÛĮÙĪ": 30937,
  "ÙĪØ°": 3893,
  "ÙĪØ°Ø±": 16559,
  "ÙĪØ±": 303,
  "ÙĪØ±Ø§": 8761,
  "ÙĪØ±Ø§Ø¡": 18714,
  "ÙĪØ±Ø§Øª": 19428,
  "ÙĪØ±Ø§ÙĦ": 34401,
  "ÙĪØ±Ø§ÙĨ": 2315,
  "ÙĪØ±Ø§ÙĨØ¯": 38825,
  "ÙĪØ±Ø§ÙĨÙĩ": 14191,
  "ÙĪØ±Ø§ÙĨÛĮ": 24936,
  "ÙĪØ±Ø§Ùĩ": 37544,
  "ÙĪØ±Ø§ÙĪÛĮÙĦ": 43133,
  "ÙĪØ±Ø§Úĺ": 41996,
  "ÙĪØ±Ø§ÛĮ": 16945,
  "ÙĪØ±Ø§ÛĮÛĮ": 27332,
  "ÙĪØ±Øª": 573,
  "ÙĪØ±ØªØ§": 39085,
  "ÙĪØ±ØªØ§ÙĨ": 17291,
  "ÙĪØ±ØªØ³": 37746,
  "ÙĪØ±ØªÙħØ¨Ø±Ú¯": 42292,
  "ÙĪØ±ØªÛĮ": 2465,
  "ÙĪØ±ØªÛĮÙĪÙĪ": 30455,
  "ÙĪØ±Ø«": 41993,
  "ÙĪØ±Ø¯": 483,
  "ÙĪØ±Ø¯Ø§Ø±": 36489,
  "ÙĪØ±Ø¯Ø§ÙĨ": 9811,
  "ÙĪØ±Ø¯Ø±": 30850,
  "ÙĪØ±Ø¯Ø±Ø§Ù¾": 39027,
  "ÙĪØ±Ø¯ÙĨ": 26630,
  "ÙĪØ±Ø¯Ùĩ": 6164,
  "ÙĪØ±Ø¯ÙĪÙĨ": 24987,
  "ÙĪØ±Ø¯Ú¯ÛĮ": 25277,
  "ÙĪØ±Ø¯ÛĮ": 4404,
  "ÙĪØ±Ø¯ÛĮØ§ÙĨ": 38173,
  "ÙĪØ±Ø¯ÛĮÙĨ": 2567,
  "ÙĪØ±Ø²": 11506,
  "ÙĪØ±Ø²Ø§Ø¯Ùĩ": 41995,
  "ÙĪØ±Ø²Ø§ÙĨ": 21402,
  "ÙĪØ±Ø²Ø¯": 30193,
  "ÙĪØ±Ø²Ø´": 25889,
  "ÙĪØ±Ø²Ø´ÛĮ": 19391,
  "ÙĪØ±Ø²ÙĨØ¯": 31380,
  "ÙĪØ±Ø²ÛĮ": 11054,
  "ÙĪØ±Ø³": 1233,
  "ÙĪØ±Ø³Ø§ÙĦ": 30192,
  "ÙĪØ±Ø³Ø§ÙĨ": 19633,
  "ÙĪØ±Ø³ÛĮ": 19892,
  "ÙĪØ±Ø³ÛĮØ§Ø¯": 38521,
  "ÙĪØ±Ø´": 1686,
  "ÙĪØ±Ø´ÛĮ": 41994,
  "ÙĪØ±Ù¾": 34402,
  "ÙĪØ±Ùģ": 27331,
  "ÙĪØ±Ùħ": 15801,
  "ÙĪØ±ÙħÙĨ": 29130,
  "ÙĪØ±ÙĨ": 23566,
  "ÙĪØ±Ùĩ": 6786,
  "ÙĪØ±ÙĩØ§": 11217,
  "ÙĪØ±ÙĩØ§ÛĮ": 3915,
  "ÙĪØ±ÙĩÙħÙ¾ØªÙĪÙĨ": 34931,
  "ÙĪØ±ÙĪ": 2169,
  "ÙĪØ±ÙĪØ¯": 23805,
  "ÙĪØ±ÙĪØ³ÛĮ": 28836,
  "ÙĪØ±ÙĪØ³ÛĮØ³Ú©": 40051,
  "ÙĪØ±ÙĪÙĨ": 32739,
  "ÙĪØ±Ú©": 4550,
  "ÙĪØ±Ú©ÙĪØ²ÙĨ": 32398,
  "ÙĪØ±Ú¯": 24076,
  "ÙĪØ±ÛĮ": 471,
  "ÙĪØ±ÛĮØ§": 9589,
  "ÙĪØ±ÛĮØ§Ø²ÛĮØ³": 26250,
  "ÙĪØ±ÛĮØ§ÙĨ": 15034,
  "ÙĪØ±ÛĮØª": 2801,
  "ÙĪØ±ÛĮØªÛĮØ²": 39436,
  "ÙĪØ±ÛĮØ²": 39020,
  "ÙĪØ±ÛĮØ²Ùĩ": 16359,
  "ÙĪØ±ÛĮØ²ÛĮ": 32866,
  "ÙĪØ±ÛĮØ³": 10989,
  "ÙĪØ±ÛĮØ³Ø§ÛĮ": 17287,
  "ÙĪØ±ÛĮØ³Ø§ÛĮÚ©ÙĦ": 17343,
  "ÙĪØ±ÛĮØ³ØªÛĮ": 34510,
  "ÙĪØ±ÛĮØ³Ùħ": 22036,
  "ÙĪØ±ÛĮØ³ÛĮÙĪ": 37709,
  "ÙĪØ±ÛĮØŃØ§ÙĨ": 27838,
  "ÙĪØ±ÛĮÙĨ": 37543,
  "ÙĪØ±ÛĮÙĩ": 2998,
  "ÙĪØ±ÛĮÚ©": 17181,
  "ÙĪØ±ÛĮÚ©ÙĪ": 28726,
  "ÙĪØ²": 448,
  "ÙĪØ²Ø§": 21830,
  "ÙĪØ²Ø§Ø±Øª": 14150,
  "ÙĪØ²Ø§ÙĦ": 16357,
  "ÙĪØ²Ø§ÙĨ": 10301,
  "ÙĪØ²Ø§ÛĮÙĦÛĮÙĨ": 22033,
  "ÙĪØ²Ø±": 20088,
  "ÙĪØ²ÙĨ": 13636,
  "ÙĪØ²ÙĨÛĮ": 23834,
  "ÙĪØ²Ùĩ": 811,
  "ÙĪØ²ÙĪ": 20385,
  "ÙĪØ²ÛĮ": 1747,
  "ÙĪØ²ÛĮØ§": 33022,
  "ÙĪØ²ÛĮØª": 11192,
  "ÙĪØ²ÛĮØªÛĮ": 23835,
  "ÙĪØ²ÛĮØ¯": 20386,
  "ÙĪØ²ÛĮØ±": 8011,
  "ÙĪØ²ÛĮØ±Ø§ÙĨ": 26099,
  "ÙĪØ²ÛĮØ±ÛĮ": 22454,
  "ÙĪØ²ÛĮØ³ÛĮÙĪÙĨ": 22964,
  "ÙĪØ²ÛĮØ¹": 21276,
  "ÙĪØ²ÛĮÙħ": 42207,
  "ÙĪØ²ÛĮÙĨ": 33640,
  "ÙĪØ³": 606,
  "ÙĪØ³Ø§": 13870,
  "ÙĪØ³Ø§Ø²": 8557,
  "ÙĪØ³Ø§Ø²ÙĩØ§": 32479,
  "ÙĪØ³Ø§Ø²ÙĩØ§ÛĮ": 27640,
  "ÙĪØ³Ø§Ø²ÛĮ": 6634,
  "ÙĪØ³Ø§ÙĦ": 39101,
  "ÙĪØ³Øª": 2313,
  "ÙĪØ³ØªØ§Øª": 32285,
  "ÙĪØ³ØªØ§ÙĨ": 9708,
  "ÙĪØ³ØªØ§ÙĨÙĩ": 8460,
  "ÙĪØ³ØªØ±ÙĪÙĨ": 30154,
  "ÙĪØ³ØªÙĨ": 22512,
  "ÙĪØ³ØªÙĩ": 5468,
  "ÙĪØ³ØªÙĪÙĨ": 14678,
  "ÙĪØ³ØªÙĪÚ©": 40932,
  "ÙĪØ³ØªÛĮ": 16772,
  "ÙĪØ³ØªÛĮÙĨ": 36788,
  "ÙĪØ³Ø±": 39100,
  "ÙĪØ³Ø·": 19466,
  "ÙĪØ³Ø¹Ùĩ": 27425,
  "ÙĪØ³Ù¾": 19922,
  "ÙĪØ³Ù¾ÙĩØ±": 31237,
  "ÙĪØ³Ùģ": 16704,
  "ÙĪØ³ÙģÛĮ": 27022,
  "ÙĪØ³ÙģÛĮØ§ÙĨ": 43468,
  "ÙĪØ³ÙĦØ§ÙĪ": 36543,
  "ÙĪØ³ÙĨ": 33694,
  "ÙĪØ³ÙĨØªØ²": 35468,
  "ÙĪØ³Ùĩ": 14029,
  "ÙĪØ³ÙĪ": 25969,
  "ÙĪØ³ÙĪØ¯Ø±": 22051,
  "ÙĪØ³ÙĪØ±": 37759,
  "ÙĪØ³ÙĪÙħÛĮÙĨ": 16881,
  "ÙĪØ³ÙĪÛĮ": 28748,
  "ÙĪØ³Ú©ÙĪÙ¾ÛĮ": 22052,
  "ÙĪØ³Ú©ÛĮ": 21840,
  "ÙĪØ³ÛĮ": 2890,
  "ÙĪØ³ÛĮØ§": 36840,
  "ÙĪØ³ÛĮØª": 27869,
  "ÙĪØ³ÛĮØªÛĮ": 25970,
  "ÙĪØ³ÛĮØ³": 39450,
  "ÙĪØ³ÛĮÙĦÙĩ": 10059,
  "ÙĪØ³ÛĮÙĦÙĩÚ©": 43195,
  "ÙĪØ³ÛĮÙĨ": 42310,
  "ÙĪØ´": 992,
  "ÙĪØ´Ø§": 24730,
  "ÙĪØ´Ø§Ø±Úĺ": 22692,
  "ÙĪØ´Ø§ÙĨÛĮ": 40719,
  "ÙĪØ´Øª": 21183,
  "ÙĪØ´Ø¯Ùĩ": 33759,
  "ÙĪØ´Ø´": 23412,
  "ÙĪØ´Ø´ÙħÛĮÙĨ": 24610,
  "ÙĪØ´ÙĦ": 39204,
  "ÙĪØ´ÙĨ": 25519,
  "ÙĪØ´ÙĨÚ¯": 39205,
  "ÙĪØ´Ùĩ": 37848,
  "ÙĪØ´ÙĩØ±": 22276,
  "ÙĪØ´ÙĩØ±Ø³Ø§Ø²ÛĮ": 28131,
  "ÙĪØ´ÙĪ": 10156,
  "ÙĪØ´ÙĪÛĮ": 16374,
  "ÙĪØ´ÙĪÛĮÚĨ": 32191,
  "ÙĪØ´ÛĮ": 6177,
  "ÙĪØ´ÛĮØªØ¯": 11692,
  "ÙĪØ´ÛĮØ±ÛĮÙĨ": 25317,
  "ÙĪØ´ÛĮÙħÛĮ": 16375,
  "ÙĪØ´ÛĮÙħÛĮØ§ÛĮÛĮ": 21378,
  "ÙĪØ´ÛĮÙĨ": 31556,
  "ÙĪØµ": 722,
  "ÙĪØµÙģ": 42361,
  "ÙĪØµÙĦ": 30891,
  "ÙĪØµÙĦÙĩ": 14204,
  "ÙĪØµÙĦÚ¯ÛĮ": 34289,
  "ÙĪØµÙĨØ¯ÙĪÙĤ": 18587,
  "ÙĪØµÙĪÙĦ": 30333,
  "ÙĪØ¶": 5812,
  "ÙĪØ¶Ø¹ÛĮØª": 28468,
  "ÙĪØ¶ÙĪØ¹": 18055,
  "ÙĪØ¶ÛĮ": 37451,
  "ÙĪØ·": 749,
  "ÙĪØ·ÙĨ": 16138,
  "ÙĪØ·ÙĨØ§ÙĨ": 4693,
  "ÙĪØ·Ùĩ": 5123,
  "ÙĪØ·ÛĮ": 6812,
  "ÙĪØ¸": 7508,
  "ÙĪØ¸Ø¨ÛĮ": 9299,
  "ÙĪØ¹": 514,
  "ÙĪØ¹ÙĦÛĮ": 8470,
  "ÙĪØ¹Ùĩ": 1503,
  "ÙĪØ¹ÛĮ": 4302,
  "ÙĪØº": 19574,
  "ÙĪØºØ¯ÛĮØ±": 29603,
  "ÙĪØºÙĦÛĮ": 41877,
  "ÙĪØŃ": 3509,
  "ÙĪØŃØ§ÙĨÙĩ": 41066,
  "ÙĪØŃØ±ÙģÙĩ": 21896,
  "ÙĪØŃØ´": 22312,
  "ÙĪØŃÛĮ": 12379,
  "ÙĪØŃÛĮØ¯": 18902,
  "ÙĪÙ¾": 6316,
  "ÙĪÙ¾Ø§": 40213,
  "ÙĪÙ¾Ø§ØªÛĮ": 27607,
  "ÙĪÙ¾Ø§Ø±Ø³": 32451,
  "ÙĪÙ¾Ø±": 6297,
  "ÙĪÙ¾Ø±ÙĪØ±Ø´": 6413,
  "ÙĪÙ¾Ø²": 41268,
  "ÙĪÙ¾ÙĦØ§": 22138,
  "ÙĪÙ¾ÙĦØ§Ø³ØªÛĮ": 26150,
  "ÙĪÙ¾ÙĨØ¬Ùħ": 41878,
  "ÙĪÙ¾ÙĨØ¬ÙħÛĮÙĨ": 26550,
  "ÙĪÙ¾ÙĨØ¬Ùĩ": 28475,
  "ÙĪÙ¾Ùĩ": 41267,
  "ÙĪÙ¾ÛĮ": 11536,
  "ÙĪÙģ": 2877,
  "ÙĪÙģØ§": 28615,
  "ÙĪÙģØ§Ø¶ÙĦØ§Ø¨": 41004,
  "ÙĪÙģØ§ÙĨ": 41003,
  "ÙĪÙģØ±": 12345,
  "ÙĪÙģØ±ÙĪØ´": 23684,
  "ÙĪÙģØ³Ú©ÛĮ": 21290,
  "ÙĪÙģØµÙĦ": 20913,
  "ÙĪÙģÙĤ": 13961,
  "ÙĪÙģÙĨ": 22738,
  "ÙĪÙģÙĨØ§ÙĪØ±ÛĮ": 20431,
  "ÙĪÙģÙĩ": 11339,
  "ÙĪÙģÙĪØ±": 25701,
  "ÙĪÙģÛĮ": 8423,
  "ÙĪÙģÛĮØ¯": 25085,
  "ÙĪÙģÛĮÙĦÛĮ": 13430,
  "ÙĪÙģÛĮÙĩ": 23333,
  "ÙĪÙĤ": 837,
  "ÙĪÙĤØ§Øª": 35531,
  "ÙĪÙĤØª": 10537,
  "ÙĪÙĤØªÛĮ": 24435,
  "ÙĪÙĤØ¹": 7504,
  "ÙĪÙĤØ¹ÛĮØª": 37816,
  "ÙĪÙĤÙģ": 42395,
  "ÙĪÙĤÙģÙĩ": 12053,
  "ÙĪÙĤÙĩ": 11504,
  "ÙĪÙĤÙĪØ¹": 19014,
  "ÙĪÙĤÛĮ": 2320,
  "ÙĪÙĦ": 370,
  "ÙĪÙĦØ§": 6092,
  "ÙĪÙĦØ§Øª": 7589,
  "ÙĪÙĦØ§ØªÙĪØ±": 18327,
  "ÙĪÙĦØ§ØªÛĮ": 42117,
  "ÙĪÙĦØ§Ø¯ÛĮ": 38930,
  "ÙĪÙĦØ§Ø±": 33601,
  "ÙĪÙĦØ§Ø³ÛĮÙĪÙĨ": 28244,
  "ÙĪÙĦØ§ÙĨ": 3279,
  "ÙĪÙĦØ§ÙĨÙĩ": 19445,
  "ÙĪÙĦØ§ÛĮ": 7451,
  "ÙĪÙĦØ§ÛĮÛĮ": 17984,
  "ÙĪÙĦØª": 4797,
  "ÙĪÙĦØªØ§Ø¦ÛĮÚ©": 32805,
  "ÙĪÙĦØªÛĮ": 5152,
  "ÙĪÙĦØ¯": 6566,
  "ÙĪÙĦØ±": 38929,
  "ÙĪÙĦØ²": 30244,
  "ÙĪÙĦÙģ": 28687,
  "ÙĪÙĦÙħ": 42116,
  "ÙĪÙĦÙĨ": 18727,
  "ÙĪÙĦÙĨØ¯": 30245,
  "ÙĪÙĦÙĨÛĮÚ©": 35358,
  "ÙĪÙĦÙĩ": 1092,
  "ÙĪÙĦÙĪ": 2553,
  "ÙĪÙĦÙĪØ³": 37632,
  "ÙĪÙĦÙĪØ´ÙĨ": 19044,
  "ÙĪÙĦÙĪÙģ": 30458,
  "ÙĪÙĦÙĪÙĦ": 35357,
  "ÙĪÙĦÙĪÙĨ": 30246,
  "ÙĪÙĦÙĪÙĪÛĮÚĨ": 28386,
  "ÙĪÙĦÙĪÚ¯": 33085,
  "ÙĪÙĦÙĪÚĺÛĮ": 2720,
  "ÙĪÙĦÙĪÚĺÛĮØ³Øª": 31016,
  "ÙĪÙĦÙĪÚĺÛĮÚ©": 15183,
  "ÙĪÙĦÙĪÚĺÛĮÚ©ÛĮ": 15047,
  "ÙĪÙĦÛĮ": 860,
  "ÙĪÙĦÛĮØª": 1968,
  "ÙĪÙĦÛĮØªÛĮ": 23876,
  "ÙĪÙĦÛĮØ¯": 10001,
  "ÙĪÙĦÛĮØ¯ÛĮ": 25986,
  "ÙĪÙĦÛĮØ²": 18125,
  "ÙĪÙĦÛĮØ³": 33740,
  "ÙĪÙĦÛĮØ³Ùħ": 32179,
  "ÙĪÙĦÛĮÙĨ": 4904,
  "ÙĪÙĦÛĮÙĨØ§": 39618,
  "ÙĪÙĦÛĮÙĨÛĮ": 40427,
  "ÙĪÙĦÛĮÚ©": 14120,
  "ÙĪÙħ": 526,
  "ÙĪÙħØ¦ÙĪ": 18460,
  "ÙĪÙħØ§": 16439,
  "ÙĪÙħØ§Ø¨": 36512,
  "ÙĪÙħØ§ØªÛĮÚ©": 40563,
  "ÙĪÙħØ§Ø¯Ø±ÛĮØ¯": 30303,
  "ÙĪÙħØ§Ø±": 22252,
  "ÙĪÙħØ§ÙĨ": 10083,
  "ÙĪÙħØ§Ú©Ø³": 20393,
  "ÙĪÙħØª": 11736,
  "ÙĪÙħØªØ±": 10199,
  "ÙĪÙħØªØ±ÛĮ": 13106,
  "ÙĪÙħØªØ±ÛĮÚ©": 23293,
  "ÙĪÙħØ¯": 32885,
  "ÙĪÙħØ±": 12532,
  "ÙĪÙħØ±Ø«": 17425,
  "ÙĪÙħØ¹": 29222,
  "ÙĪÙħØ¹Ø§Ø¯ÙĨ": 33427,
  "ÙĪÙħØ¹ÙĦ": 42271,
  "ÙĪÙħØŃ": 24695,
  "ÙĪÙħØŃÙĪØ±": 38571,
  "ÙĪÙħÙĨ": 31485,
  "ÙĪÙħÙĨØª": 39056,
  "ÙĪÙħÙĨØ¯": 15518,
  "ÙĪÙħÙĨØ¯ÛĮ": 39055,
  "ÙĪÙħÙĨÛĮÙĨ": 24415,
  "ÙĪÙħÙĩ": 5402,
  "ÙĪÙħÙĩØ§ÙĨ": 35851,
  "ÙĪÙħÙĪ": 21436,
  "ÙĪÙħÙĪØ§Ø¯": 31903,
  "ÙĪÙħÙĪØªÛĮ": 14655,
  "ÙĪÙħÙĪØªÛĮÙĪ": 16179,
  "ÙĪÙħÛĮ": 896,
  "ÙĪÙħÛĮØª": 4189,
  "ÙĪÙħÛĮØ±": 15598,
  "ÙĪÙħÛĮØ´": 27902,
  "ÙĪÙħÛĮÙĨ": 10388,
  "ÙĪÙħÛĮÙĨÚ¯": 26262,
  "ÙĪÙħÛĮÙĩ": 37827,
  "ÙĪÙĨ": 339,
  "ÙĪÙĨØ§": 2964,
  "ÙĪÙĨØ§Ø³": 16196,
  "ÙĪÙĨØ§Ùħ": 14967,
  "ÙĪÙĨØ§ÙĨ": 17564,
  "ÙĪÙĨØ§ÙĨÛĮ": 35332,
  "ÙĪÙĨØ§ÚĨÛĮÚĨ": 29352,
  "ÙĪÙĨØ§ÛĮ": 33574,
  "ÙĪÙĨØ§ÛĮØªØ¯": 12896,
  "ÙĪÙĨØ§ÛĮÛĮ": 36386,
  "ÙĪÙĨØª": 2652,
  "ÙĪÙĨØªØ§Úĺ": 40382,
  "ÙĪÙĨØªØ³Ú©": 27111,
  "ÙĪÙĨØªÙĩ": 18369,
  "ÙĪÙĨØªÙĪ": 24376,
  "ÙĪÙĨØªÙĪØ³": 8189,
  "ÙĪÙĨØªÚ©": 34741,
  "ÙĪÙĨØªÛĮ": 24097,
  "ÙĪÙĨØ¬Ø§Øª": 32055,
  "ÙĪÙĨØ¯": 832,
  "ÙĪÙĨØ¯Ø§": 32949,
  "ÙĪÙĨØ¯Ø§Ø±Ø§ÙĨ": 40679,
  "ÙĪÙĨØ¯Ùĩ": 1969,
  "ÙĪÙĨØ¯Ú¯Ø§ÙĨ": 24142,
  "ÙĪÙĨØ¯ÛĮ": 11573,
  "ÙĪÙĨØ±ÛĮ": 30228,
  "ÙĪÙĨØ²": 9877,
  "ÙĪÙĨØ²ÙĪØ¦ÙĦØ§": 39826,
  "ÙĪÙĨØ²ÛĮ": 4576,
  "ÙĪÙĨØ³": 29157,
  "ÙĪÙĨØ³ÙĪ": 35333,
  "ÙĪÙĨØ³Ú©ÙĪ": 22872,
  "ÙĪÙĨØ´ÛĮÙĨ": 23818,
  "ÙĪÙĨÙĤÙĦ": 3771,
  "ÙĪÙĨÙĤÙĦÛĮ": 24377,
  "ÙĪÙĨÙĤÛĮ": 12895,
  "ÙĪÙĨÙħØ§": 19903,
  "ÙĪÙĨÙħØ§ÙĨ": 17871,
  "ÙĪÙĨÙĨ": 31414,
  "ÙĪÙĨÙĩ": 1046,
  "ÙĪÙĨÙĩÙħ": 37863,
  "ÙĪÙĨÙĩÙħÛĮÙĨ": 22073,
  "ÙĪÙĨÙĪ": 23817,
  "ÙĪÙĨÙĪØ³": 33575,
  "ÙĪÙĨÙĪÙģ": 38886,
  "ÙĪÙĨÙĪÙħÛĮ": 16349,
  "ÙĪÙĨÚ©": 33573,
  "ÙĪÙĨÚ¯": 7062,
  "ÙĪÙĨÚ¯ÛĮ": 19592,
  "ÙĪÙĨÛĮ": 684,
  "ÙĪÙĨÛĮØ§": 14658,
  "ÙĪÙĨÛĮØ§ÙĦ": 39122,
  "ÙĪÙĨÛĮØ§ÙĨ": 40630,
  "ÙĪÙĨÛĮØª": 36385,
  "ÙĪÙĨÛĮØ®": 10347,
  "ÙĪÙĨÛĮØ¯": 40381,
  "ÙĪÙĨÛĮØ±": 31415,
  "ÙĪÙĨÛĮØ±ÙĪØŃ": 37342,
  "ÙĪÙĨÛĮØ³Øª": 15523,
  "ÙĪÙĨÛĮØ³ØªÛĮ": 30886,
  "ÙĪÙĨÛĮØ³Ùģ": 36387,
  "ÙĪÙĨÛĮØ³Ùħ": 24098,
  "ÙĪÙĨÛĮÙħ": 27799,
  "ÙĪÙĨÛĮÙĨ": 22871,
  "ÙĪÙĨÛĮÙĩ": 20696,
  "ÙĪÙĨÛĮÙĪ": 27880,
  "ÙĪÙĨÛĮÙĪØ²": 15975,
  "ÙĪÙĨÛĮÙĪÙħ": 37774,
  "ÙĪÙĨÛĮÚ©": 8480,
  "ÙĪÙĨÛĮÚ©Ø§": 35487,
  "ÙĪÙĨÛĮÚ©ÛĮ": 24710,
  "ÙĪÙĩ": 625,
  "ÙĪÙĩØ§": 11943,
  "ÙĪÙĩØ§Ø¨": 21582,
  "ÙĪÙĩØ§ÙĨ": 9385,
  "ÙĪÙĩØ§ÙĨØ³": 28308,
  "ÙĪÙĩØ§ÛĮ": 5021,
  "ÙĪÙĩØ±ÛĮ": 20103,
  "ÙĪÙĩØ´Øª": 16280,
  "ÙĪÙĩØ´ØªØ§Ø¯": 30064,
  "ÙĪÙĩØ´ØªØ§Ø¯ÙħÛĮÙĨ": 30688,
  "ÙĪÙĩØ´ØªÙħÛĮÙĨ": 20336,
  "ÙĪÙĩÙģØª": 12857,
  "ÙĪÙĩÙģØªØ§Ø¯": 17850,
  "ÙĪÙĩÙģØªØ§Ø¯ÙĪ": 32520,
  "ÙĪÙĩÙģØªÙħÛĮÙĨ": 29015,
  "ÙĪÙĩÙĪ": 37761,
  "ÙĪÙĩÙĪØ§": 31500,
  "ÙĪÙĩÙĪØ§ÛĮ": 27871,
  "ÙĪÙĩÙĪØ§ÛĮÛĮ": 22672,
  "ÙĪÙĩÙĪØ±": 34557,
  "ÙĪÙĩÛĮ": 28753,
  "ÙĪÙĪ": 11704,
  "ÙĪÙĪØ§": 19739,
  "ÙĪÙĪØ§Ú©": 28520,
  "ÙĪÙĪØ¯": 8312,
  "ÙĪÙĪØ¯ÛĮ": 21789,
  "ÙĪÙĪÙĨ": 21990,
  "ÙĪÙĪÙĨØªÙĪØ³": 15145,
  "ÙĪÙĪÛĮÚĨ": 19741,
  "ÙĪÚ©": 3728,
  "ÙĪÚ©Ø§": 40215,
  "ÙĪÚ©Ø§Ø¯ÙĪ": 27556,
  "ÙĪÚ©Ø§Ø±": 3261,
  "ÙĪÚ©Ø§Ø±Ø¯": 31693,
  "ÙĪÚ©Ø§Ø±Ù¾ÙĪØ³": 38082,
  "ÙĪÚ©Ø§Ø±ÙĩØ§": 9314,
  "ÙĪÚ©Ø§Ø±ÙĩØ§ÛĮ": 8030,
  "ÙĪÚ©Ø§Ø±ÙĩØ§ÛĮÛĮ": 24513,
  "ÙĪÚ©Ø§Ø±ÛĮ": 24917,
  "ÙĪÚ©Ø§Ù¾": 31694,
  "ÙĪÚ©Ø§ÙħÙ¾": 26766,
  "ÙĪÚ©Ø§ÛĮÙģ": 39514,
  "ÙĪÚ©Ø±": 3429,
  "ÙĪÚ©Ø±ÙĪÙĨ": 14880,
  "ÙĪÚ©Ø³": 7401,
  "ÙĪÚ©Ø³Ø§ÙħÛĮÙĨ": 39738,
  "ÙĪÚ©Ø³ÛĮ": 16739,
  "ÙĪÚ©Ø³ÛĮØ¯": 16482,
  "ÙĪÚ©Ø³ÛĮÙĨ": 17746,
  "ÙĪÚ©ÙĦ": 33476,
  "ÙĪÚ©ÙħØ§ÙĨ": 27142,
  "ÙĪÚ©ÙħÛĮÚ©Ø§ÙĦ": 42805,
  "ÙĪÚ©ÙĪ": 18310,
  "ÙĪÚ©ÛĮ": 11979,
  "ÙĪÚ©ÛĮÙĦÛĮ": 33317,
  "ÙĪÚ¯": 7180,
  "ÙĪÚ¯Ø§Ø²": 13319,
  "ÙĪÚ¯Ø±Ø§Ùģ": 38295,
  "ÙĪÚ¯Ø±Ø§ÙģÛĮ": 10329,
  "ÙĪÚ¯Ø±Ø§Ùħ": 37453,
  "ÙĪÚ¯Ø±Ùħ": 8015,
  "ÙĪÚ¯ÙĦ": 22622,
  "ÙĪÚ¯ÙĦÙĪØ¨ÛĮÙĨ": 24894,
  "ÙĪÚ¯ÙĪ": 2054,
  "ÙĪÚ¯ÙĪÙĩØ§": 16543,
  "ÙĪÚ¯ÙĪÙĩØ§ÛĮ": 12147,
  "ÙĪÚ¯ÙĪÙĩØ§ÛĮÛĮ": 25350,
  "ÙĪÚ¯ÙĪÛĮ": 7857,
  "ÙĪÚ¯ÙĪÛĮÛĮ": 12520,
  "ÙĪÚĨ": 9833,
  "ÙĪÚĨÙĩØ§Ø±Ùħ": 34345,
  "ÙĪÚĨÙĩØ§Ø±ÙħÛĮÙĨ": 15856,
  "ÙĪÚĨÙĩØ±": 33295,
  "ÙĪÚĨÛĮ": 40214,
  "ÙĪÚĺ": 11483,
  "ÙĪÚĺÙĨ": 19740,
  "ÙĪÚĺÙĨÛĮÚ©": 33311,
  "ÙĪÛĮ": 402,
  "ÙĪÛĮØ§": 14158,
  "ÙĪÛĮØ§ÙĨ": 2428,
  "ÙĪÛĮØ§ÙĨÙĩ": 35382,
  "ÙĪÛĮØ¨": 1651,
  "ÙĪÛĮØ¨Ø§Ø±ÛĮ": 36737,
  "ÙĪÛĮØª": 1135,
  "ÙĪÛĮØªØ§": 37875,
  "ÙĪÛĮØªØ²": 39226,
  "ÙĪÛĮØªØ³": 42469,
  "ÙĪÛĮØªÙĩ": 37876,
  "ÙĪÛĮØªÛĮ": 29809,
  "ÙĪÛĮØ¯": 1564,
  "ÙĪÛĮØ¯ÛĮ": 23902,
  "ÙĪÛĮØ¯ÛĮØ§": 32242,
  "ÙĪÛĮØ±": 3130,
  "ÙĪÛĮØ±Ø§": 35735,
  "ÙĪÛĮØ±Ø§ØŃÙħØ¯": 28871,
  "ÙĪÛĮØ±ÙĪØ³": 7015,
  "ÙĪÛĮØ±ÙĪØ³ÛĮ": 22986,
  "ÙĪÛĮØ±ÛĮ": 5360,
  "ÙĪÛĮØ²": 6048,
  "ÙĪÛĮØ²ÛĮ": 3182,
  "ÙĪÛĮØ²ÛĮÙĪØ³ÙĪ": 35740,
  "ÙĪÛĮØ³": 2869,
  "ÙĪÛĮØ³Ø§": 41000,
  "ÙĪÛĮØ³ÛĮ": 4680,
  "ÙĪÛĮØ´": 20233,
  "ÙĪÛĮÙģ": 32090,
  "ÙĪÛĮÙĤ": 25929,
  "ÙĪÛĮÙĦ": 1773,
  "ÙĪÛĮÙĦØ±": 36747,
  "ÙĪÛĮÙĦÛĮ": 7639,
  "ÙĪÛĮÙħ": 3803,
  "ÙĪÛĮÙĨ": 1602,
  "ÙĪÛĮÙĨØª": 22288,
  "ÙĪÛĮÙĨØ¯": 22621,
  "ÙĪÛĮÙĨÚ¯": 34671,
  "ÙĪÛĮÙĨÛĮ": 14963,
  "ÙĪÛĮÙĩ": 1868,
  "ÙĪÛĮÙĪ": 20380,
  "ÙĪÛĮÙĪØ±": 28702,
  "ÙĪÛĮÙĪØ±Ú©": 4734,
  "ÙĪÛĮÚ©": 10050,
  "ÙĪÛĮÚ©ØªÙĪØ±ÛĮØ§": 25930,
  "ÙĪÛĮÚ©Ùħ": 38970,
  "ÙĪÛĮÚ©ÙħÛĮÙĨ": 23505,
  "ÙĪÛĮÚ¯": 38969,
  "ÙĪÛĮÚ¯ÙĪ": 36439,
  "ÙĪÛĮÚĨ": 6237,
  "ÙĪÛĮÚĺÙĩ": 2953,
  "ÙĪÛĮÛĮ": 1259,
  "ÙĪÛĮÛĮØª": 40468,
  "ÙĪÛĮÛĮØ¯": 15507,
  "ÙĪÛĮÛĮÙĦ": 6868,
  "ÙĪÛĮÛĮÙĩ": 16201,
  "ÙĪÛĮÛĮÚ©": 12360,
  "Ùī": 7687,
  "ÙĶ": 33468,
  "Ùł": 1617,
  "ÙłÙł": 3860,
  "ÙłÙłÙł": 39527,
  "Ú": 155,
  "Ú©": 274,
  "Ú©Ø§": 2876,
  "Ú©Ø§Ø¦ÙĪ": 15288,
  "Ú©Ø§Ø¨": 9222,
  "Ú©Ø§Ø¨ÛĮ": 18427,
  "Ú©Ø§Ø¨ÛĮÙĨ": 30005,
  "Ú©Ø§Øª": 3276,
  "Ú©Ø§ØªØ§ÙĦÛĮØ³Øª": 38086,
  "Ú©Ø§ØªØ§ÙĦÛĮØ³ØªÛĮ": 42756,
  "Ú©Ø§ØªÙĪÙĨ": 38085,
  "Ú©Ø§Ø¯": 34357,
  "Ú©Ø§Ø¯Ø§Ø³ØªØ±": 40106,
  "Ú©Ø§Ø±": 978,
  "Ú©Ø§Ø±Ø§": 7886,
  "Ú©Ø§Ø±Ø§ÙĨ": 1916,
  "Ú©Ø§Ø±Ø§ÙĨÙĩ": 12861,
  "Ú©Ø§Ø±Ø¨Ø±Ø¯ÛĮ": 27455,
  "Ú©Ø§Ø±Ø¨Ø±ÛĮ": 37844,
  "Ú©Ø§Ø±Øª": 8553,
  "Ú©Ø§Ø±ØªÛĮ": 28785,
  "Ú©Ø§Ø±Ø®Ø§ÙĨÙĩ": 27454,
  "Ú©Ø§Ø±Ø¯": 23551,
  "Ú©Ø§Ø±Ø¯ÛĮ": 24053,
  "Ú©Ø§Ø±Ø³ÙĨØ¬ÛĮ": 29613,
  "Ú©Ø§Ø±Ø´ÙĨØ§Ø³": 26681,
  "Ú©Ø§Ø±Ø´ÙĨØ§Ø³Ø§ÙĨ": 29797,
  "Ú©Ø§Ø±Ø´ÙĨØ§Ø³ÛĮ": 39202,
  "Ú©Ø§Ø±ÙĨ": 42430,
  "Ú©Ø§Ø±ÙĨØ³ÛĮ": 36644,
  "Ú©Ø§Ø±Ùĩ": 17972,
  "Ú©Ø§Ø±ÙĩØ§": 23181,
  "Ú©Ø§Ø±ÙĩØ§ÛĮ": 12083,
  "Ú©Ø§Ø±Ú¯Ø±ÙĪÙĩ": 34612,
  "Ú©Ø§Ø±Ú¯ÙĪ": 42432,
  "Ú©Ø§Ø±Ú¯ÛĮØ±ÛĮ": 4849,
  "Ú©Ø§Ø±ÛĮ": 764,
  "Ú©Ø§Ø±ÛĮÙħ": 42431,
  "Ú©Ø§Ø³": 9317,
  "Ú©Ø§Ø³Øª": 37461,
  "Ú©Ø§Ø³ÛĮ": 32691,
  "Ú©Ø§Ø³ÛĮÙĪÙĨ": 40236,
  "Ú©Ø§Ø´": 40235,
  "Ú©Ø§Ø¸": 20503,
  "Ú©Ø§Ø¸Ùħ": 20646,
  "Ú©Ø§Ø¸ÙħÛĮ": 37465,
  "Ú©Ø§ØºØ°": 41002,
  "Ú©Ø§Ù¾": 23097,
  "Ú©Ø§Ùģ": 18085,
  "Ú©Ø§ÙģÙĩ": 36268,
  "Ú©Ø§ÙĦ": 4700,
  "Ú©Ø§ÙĦØ§": 17228,
  "Ú©Ø§ÙĦØ§ÙĩØ§ÛĮ": 38193,
  "Ú©Ø§ÙĦØ§ÛĮ": 34848,
  "Ú©Ø§ÙĦÙĩ": 20353,
  "Ú©Ø§ÙĦÛĮ": 28179,
  "Ú©Ø§Ùħ": 4399,
  "Ú©Ø§ÙħØ§": 42890,
  "Ú©Ø§ÙħØ±Ø§ÙĨ": 31073,
  "Ú©Ø§ÙħÙĦ": 27753,
  "Ú©Ø§ÙħÛĮ": 15797,
  "Ú©Ø§ÙĨ": 780,
  "Ú©Ø§ÙĨØ³ÛĮÙĨ": 14989,
  "Ú©Ø§ÙĨÙĦ": 39149,
  "Ú©Ø§ÙĨÙĪÙĨ": 33724,
  "Ú©Ø§ÙĨÛĮ": 6677,
  "Ú©Ø§ÙĨÛĮÚ©": 22772,
  "Ú©Ø§ÙĨÛĮÚ©ÛĮ": 25757,
  "Ú©Ø§Ùĩ": 12013,
  "Ú©Ø§ÙĩØ§": 38749,
  "Ú©Ø§ÙĩØ¯": 13625,
  "Ú©Ø§ÙĩØ´": 14574,
  "Ú©Ø§ÙĪ": 13356,
  "Ú©Ø§ÙĪØ§": 31663,
  "Ú©Ø§ÙĪØª": 38053,
  "Ú©Ø§ÙĪØ³": 33101,
  "Ú©Ø§ÙĪÙĩ": 29887,
  "Ú©Ø§ÙĪÙĪØ³": 14835,
  "Ú©Ø§ÙĪÛĮ": 11523,
  "Ú©Ø§Ú©": 14236,
  "Ú©Ø§Ú©ÙĪ": 37464,
  "Ú©Ø§ÚĨÙĪØ§ÙĨ": 32316,
  "Ú©Ø§ÛĮ": 9266,
  "Ú©Ø§ÛĮÛĮ": 10036,
  "Ú©Ø¨": 7808,
  "Ú©Ø¨Ø§Ø¨ÛĮ": 32470,
  "Ú©Ø¨Ø§Ø±": 9873,
  "Ú©Ø¨ÛĮØ±": 7172,
  "Ú©Øª": 823,
  "Ú©ØªØ§": 33730,
  "Ú©ØªØ§Ø¨": 14861,
  "Ú©ØªØ§Ø¨Ø®Ø§ÙĨÙĩ": 39927,
  "Ú©ØªØ§Ø¨ÙģØ±ÙĪØ´ÛĮ": 39928,
  "Ú©ØªØ§Ø¯": 25982,
  "Ú©ØªØ§Ø±": 26670,
  "Ú©ØªØ§Ø´": 37810,
  "Ú©ØªØ§Ù¾": 36604,
  "Ú©ØªØ§ÙĦ": 42387,
  "Ú©ØªØ§ÙĨ": 25632,
  "Ú©ØªØ§ÛĮ": 36603,
  "Ú©ØªØ±": 1405,
  "Ú©ØªØ±Ø§": 12907,
  "Ú©ØªØ±ÛĮ": 3519,
  "Ú©ØªØ±ÛĮÚ©": 33732,
  "Ú©ØªØ³": 21247,
  "Ú©ØªÙĦ": 39158,
  "Ú©ØªÙĩ": 2672,
  "Ú©ØªÙĪØ±": 5018,
  "Ú©ØªÙĪØ±ÙĩØ§ÛĮ": 25308,
  "Ú©ØªÙĪØ±ÛĮ": 19935,
  "Ú©ØªÙĪØ±ÛĮØ§": 18592,
  "Ú©ØªÙĪØ²": 29778,
  "Ú©ØªÙĪÙĦ": 33731,
  "Ú©ØªÛĮ": 6898,
  "Ú©ØªÛĮÙĨ": 32946,
  "Ú©ØªÛĮÙĪ": 30551,
  "Ú©Ø«Ø±": 17038,
  "Ú©Ø«ÛĮØ±": 13675,
  "Ú©Ø¬Ø§ÙĨØ¨Ùĩ": 30728,
  "Ú©Ø¯": 7036,
  "Ú©Ø¯Ø§Ùħ": 9286,
  "Ú©Ø¯Ùħ": 28180,
  "Ú©Ø¯ÙħØ§": 37319,
  "Ú©Ø¯ÙħØ§ØŃ": 43483,
  "Ú©Ø¯Ùĩ": 3450,
  "Ú©Ø¯ÛĮÙĨ": 34062,
  "Ú©Ø¯ÛĮÚ¯Ø±": 19888,
  "Ú©Ø±": 800,
  "Ú©Ø±Ø§": 29099,
  "Ú©Ø±Ø§ØªÛĮÚ©": 40663,
  "Ú©Ø±Ø§Ø±": 27438,
  "Ú©Ø±Ø§Ø³ÛĮ": 18590,
  "Ú©Ø±Ø§ÙĨ": 6322,
  "Ú©Ø±Ø§ÙĨÙĩ": 32942,
  "Ú©Ø±Ø§ÙĨÛĮ": 18121,
  "Ú©Ø±Ø§Ú©Ø±": 37329,
  "Ú©Ø±Ø§ÛĮ": 40234,
  "Ú©Ø±Ø¨ÙĨ": 11802,
  "Ú©Ø±Ø¨ÙĨØ§Øª": 35033,
  "Ú©Ø±ØªØ±ÙĨØ³": 40664,
  "Ú©Ø±Ø¬": 17069,
  "Ú©Ø±Ø®Ùĩ": 32168,
  "Ú©Ø±Ø¯": 877,
  "Ú©Ø±Ø¯Ø³ØªØ§ÙĨ": 31538,
  "Ú©Ø±Ø¯Ùħ": 8024,
  "Ú©Ø±Ø¯ÙĨ": 7204,
  "Ú©Ø±Ø¯ÙĨØ¯": 3454,
  "Ú©Ø±Ø¯ÙĨÛĮ": 18008,
  "Ú©Ø±Ø¯Ùĩ": 2533,
  "Ú©Ø±Ø¯ÙĩØ§": 10349,
  "Ú©Ø±Ø¯ÙĩØ§ÛĮ": 5694,
  "Ú©Ø±Ø¯ÙĩØ§ÛĮÛĮ": 22299,
  "Ú©Ø±Ø¯ÛĮ": 14610,
  "Ú©Ø±Ø¯ÛĮØ¯": 24146,
  "Ú©Ø±Ø¯ÛĮÙħ": 6744,
  "Ú©Ø±Ø²": 26280,
  "Ú©Ø±Ùħ": 30346,
  "Ú©Ø±ÙħØ§ÙĨ": 17070,
  "Ú©Ø±ÙħØ§ÙĨØ´Ø§Ùĩ": 24880,
  "Ú©Ø±ÙħÛĮ": 14304,
  "Ú©Ø±Ùĩ": 12098,
  "Ú©Ø±ÙĪ": 4158,
  "Ú©Ø±ÙĪØ¯": 35518,
  "Ú©Ø±ÙĪØ²": 33489,
  "Ú©Ø±ÙĪÙħ": 38750,
  "Ú©Ø±ÙĪÙĨ": 9324,
  "Ú©Ø±ÙĪÙĨØ§": 16710,
  "Ú©Ø±ÙĪÙĨØ§ÛĮÛĮ": 28980,
  "Ú©Ø±Ú©": 41904,
  "Ú©Ø±ÛĮ": 3204,
  "Ú©Ø±ÛĮÙħ": 16209,
  "Ú©Ø±ÛĮÙħÛĮ": 26281,
  "Ú©Ø±ÛĮÙĨÚ¯": 31523,
  "Ú©Ø²": 1384,
  "Ú©Ø²Ø§Ùħ": 14492,
  "Ú©Ø²ÛĮ": 10684,
  "Ú©Ø²ÛĮÚ©ÙĪ": 21545,
  "Ú©Ø³": 1030,
  "Ú©Ø³Ø§ÙĦÛĮ": 8880,
  "Ú©Ø³Ø§ÙĨ": 17591,
  "Ú©Ø³Ø§ÙĨÛĮ": 34617,
  "Ú©Ø³Ø¨": 22072,
  "Ú©Ø³Øª": 14151,
  "Ú©Ø³ØªØ§ÙĨ": 29611,
  "Ú©Ø³Ø±": 33768,
  "Ú©Ø³Ø±ÛĮ": 19937,
  "Ú©Ø³ÙĦ": 11804,
  "Ú©Ø³ÙĨ": 33769,
  "Ú©Ø³ÙĪØª": 5690,
  "Ú©Ø³ÙĪÙĨ": 15747,
  "Ú©Ø³ÛĮ": 6551,
  "Ú©Ø³ÛĮØ¯": 12479,
  "Ú©Ø³ÛĮÙĨ": 39213,
  "Ú©Ø³ÛĮÙĪÙĨ": 6777,
  "Ú©Ø³ÛĮÙĪÙĨÛĮ": 35893,
  "Ú©Ø´": 2117,
  "Ú©Ø´Ø§ÙĨ": 29100,
  "Ú©Ø´Ø§ÙĨØ¯": 20901,
  "Ú©Ø´Ø§ÙĨÛĮ": 17606,
  "Ú©Ø´Ø§ÙĩÛĮ": 23663,
  "Ú©Ø´Ø§ÙĪØ±": 26029,
  "Ú©Ø´Ø§ÙĪØ±Ø²ÛĮ": 27722,
  "Ú©Ø´Øª": 30725,
  "Ú©Ø´ØªÛĮ": 30727,
  "Ú©Ø´Ø¯": 7436,
  "Ú©Ø´Ùģ": 29321,
  "Ú©Ø´Ùħ": 31336,
  "Ú©Ø´ÙĨ": 29612,
  "Ú©Ø´ÙĨØ¨Ùĩ": 13179,
  "Ú©Ø´ÙĨØ¯": 13033,
  "Ú©Ø´ÙĪØ±": 11104,
  "Ú©Ø´ÙĪØ±ÙĩØ§ÛĮ": 25065,
  "Ú©Ø´ÙĪØ±ÛĮ": 39363,
  "Ú©Ø´ÙĪÛĮÛĮ": 20730,
  "Ú©Ø´ÛĮ": 5670,
  "Ú©Ø´ÛĮØ¯": 14757,
  "Ú©Ø´ÛĮØ¯ÙĨ": 33048,
  "Ú©Ø´ÛĮØ¯ÙĨØ¯": 28834,
  "Ú©Ø´ÛĮØ¯Ùĩ": 40238,
  "Ú©Ø´ÛĮÙħ": 29322,
  "Ú©Ø´ÛĮÙĨ": 28369,
  "Ú©ØµØ¯": 21584,
  "Ú©Ø¹Ø¨": 25222,
  "Ú©Ù¾": 38748,
  "Ú©Ù¾Ø§Ø±ÚĨÙĩ": 11460,
  "Ú©Ù¾Ø´ÛĮØ±": 43570,
  "Ú©Ù¾ÛĮ": 31337,
  "Ú©Ùģ": 14355,
  "Ú©ÙģØ§ÛĮØªÛĮ": 35242,
  "Ú©ÙĦ": 568,
  "Ú©ÙĦØ§": 40233,
  "Ú©ÙĦØ§Ø±Ø§": 32895,
  "Ú©ÙĦØ§Ø³": 30867,
  "Ú©ÙĦØ§Ø³ÛĮ": 18997,
  "Ú©ÙĦØ§Ø³ÛĮÚ©ÙĪ": 31232,
  "Ú©ÙĦØ§Ùħ": 27752,
  "Ú©ÙĦØ§ÙĨ": 22669,
  "Ú©ÙĦØ§ÙĨÛĮ": 40593,
  "Ú©ÙĦØ§Ùĩ": 42290,
  "Ú©ÙĦØ§ÛĮ": 8837,
  "Ú©ÙĦØ§ÛĮÛĮ": 27017,
  "Ú©ÙĦØ¨Ø¬Ø±": 40594,
  "Ú©ÙĦØª": 4493,
  "Ú©ÙĦØ±": 27859,
  "Ú©ÙĦØ±ÛĮØ¯": 32894,
  "Ú©ÙĦÙħ": 39081,
  "Ú©ÙĦÙħÛĮÙĨ": 36537,
  "Ú©ÙĦÙĨ": 22468,
  "Ú©ÙĦÙĨØ¯": 22259,
  "Ú©ÙĦÙĩ": 18866,
  "Ú©ÙĦÙĪÙĨ": 40592,
  "Ú©ÙĦÛĮ": 2497,
  "Ú©ÙĦÛĮØ§ÛĮÛĮ": 42665,
  "Ú©ÙĦÛĮØ¯": 27525,
  "Ú©ÙĦÛĮÙģ": 25358,
  "Ú©ÙĦÛĮÙĨ": 19306,
  "Ú©ÙĦÛĮÙĨÛĮÚ©": 19465,
  "Ú©ÙĦÛĮÙĨÛĮÚ©ÛĮ": 29231,
  "Ú©ÙĦÛĮÙĩ": 37462,
  "Ú©Ùħ": 3419,
  "Ú©ÙħØ§ÙĦ": 20440,
  "Ú©ÙħØ§ÙĨ": 33488,
  "Ú©ÙħØ¨ÙĪØ¯": 35753,
  "Ú©ÙħØªØ±": 22115,
  "Ú©ÙħÙ¾": 16185,
  "Ú©ÙħÙ¾Ø±Ø³ÙĪØ±": 30060,
  "Ú©ÙħÙ¾ÛĮÙĨ": 41548,
  "Ú©ÙħÚ©": 23943,
  "Ú©ÙħÛĮ": 12201,
  "Ú©ÙħÛĮØªÙĩ": 23785,
  "Ú©ÙħÛĮØ³ÛĮÙĪÙĨ": 27224,
  "Ú©ÙĨ": 397,
  "Ú©ÙĨØ§Ø±": 12433,
  "Ú©ÙĨØ§ÙħÛĮÚ©Ø³": 42151,
  "Ú©ÙĨØ§ÙĨ": 1241,
  "Ú©ÙĨØªØ±": 15157,
  "Ú©ÙĨØªØ±ÙĦ": 16670,
  "Ú©ÙĨØªØ±ÙĦÛĮ": 39931,
  "Ú©ÙĨØ¬": 36434,
  "Ú©ÙĨØ¯": 688,
  "Ú©ÙĨØ¯Ùĩ": 5780,
  "Ú©ÙĨØ¯Ú¯ÛĮ": 11445,
  "Ú©ÙĨØ¯ÛĮ": 16207,
  "Ú©ÙĨØ±": 38958,
  "Ú©ÙĨØ³": 30258,
  "Ú©ÙĨØ³Ø±Ø³ÛĮ": 36160,
  "Ú©ÙĨØ³Ø±Ø³ÛĮÙĪÙħ": 38662,
  "Ú©ÙĨØ´": 2493,
  "Ú©ÙĨØ´ÛĮ": 10575,
  "Ú©ÙĨØ¹ÙĦÛĮ": 33612,
  "Ú©ÙĨÙģØ±Ø§ÙĨØ³": 24659,
  "Ú©ÙĨÙģØ±Ø§ÙĨØ³ÛĮ": 40459,
  "Ú©ÙĨÙħ": 2529,
  "Ú©ÙĨÙĨ": 32826,
  "Ú©ÙĨÙĨØ¯": 792,
  "Ú©ÙĨÙĨØ¯Ùĩ": 1986,
  "Ú©ÙĨÙĨØ¯Ú¯Ø§ÙĨ": 1851,
  "Ú©ÙĨÙĨØ¯Ú¯Ø§ÙĨÛĮ": 16053,
  "Ú©ÙĨÙĨØ¯Ú¯ÛĮ": 13298,
  "Ú©ÙĨÙĩ": 10466,
  "Ú©ÙĨÙĪ": 10753,
  "Ú©ÙĨÙĪØ§Ø®Øª": 14520,
  "Ú©ÙĨÙĪÙĨ": 768,
  "Ú©ÙĨÚ¯": 12353,
  "Ú©ÙĨÚ¯Ø§ÙĨ": 42150,
  "Ú©ÙĨÚ¯ÛĮ": 42149,
  "Ú©ÙĨÛĮ": 5907,
  "Ú©ÙĨÛĮØ¯": 4531,
  "Ú©ÙĨÛĮÙħ": 1639,
  "Ú©Ùĩ": 432,
  "Ú©ÙĩØ§": 26911,
  "Ú©ÙĩØ²Ø§Ø±": 12685,
  "Ú©ÙĩÙĨ": 42190,
  "Ú©ÙĩÚ©": 25938,
  "Ú©ÙĩÚ©ÛĮ": 26988,
  "Ú©ÙĩÛĮØ¯": 32100,
  "Ú©ÙĪ": 1183,
  "Ú©ÙĪØ¨": 19274,
  "Ú©ÙĪØ¨Ø¯": 39972,
  "Ú©ÙĪØ¨ÛĮ": 16816,
  "Ú©ÙĪØª": 11053,
  "Ú©ÙĪØªØ§Ùĩ": 43233,
  "Ú©ÙĪØªØ§ÛĮ": 15354,
  "Ú©ÙĪØªØ³Ú©": 39860,
  "Ú©ÙĪØªÛĮ": 34635,
  "Ú©ÙĪØªÛĮØ§": 42483,
  "Ú©ÙĪØ«Ø±": 30385,
  "Ú©ÙĪØ¯": 13963,
  "Ú©ÙĪØ¯Ú©Ø§ÙĨ": 38443,
  "Ú©ÙĪØ±": 1860,
  "Ú©ÙĪØ±Ø§ÙĨÙĩ": 31617,
  "Ú©ÙĪØ±Øª": 32690,
  "Ú©ÙĪØ±ØªÛĮÚ©ÙĪ": 42593,
  "Ú©ÙĪØ±Ø´": 40237,
  "Ú©ÙĪØ±Ùĩ": 11719,
  "Ú©ÙĪØ±ÙĪØ´": 18617,
  "Ú©ÙĪØ²ÛĮ": 20555,
  "Ú©ÙĪØ³": 7356,
  "Ú©ÙĪØ´": 11852,
  "Ú©ÙĪØ´Ø¯": 14747,
  "Ú©ÙĪØ´ÙĨØ¯": 19105,
  "Ú©ÙĪØ´ÛĮ": 24452,
  "Ú©ÙĪØ´ÛĮÙħ": 38400,
  "Ú©ÙĪÙ¾": 9882,
  "Ú©ÙĪÙ¾ØªØ±": 19861,
  "Ú©ÙĪÙ¾ÛĮ": 18132,
  "Ú©ÙĪÙģ": 10341,
  "Ú©ÙĪÙģØ§ÛĮÛĮ": 39239,
  "Ú©ÙĪÙģØ³Ú©ÛĮ": 39836,
  "Ú©ÙĪÙĦ": 4489,
  "Ú©ÙĪÙĦØ§": 28012,
  "Ú©ÙĪÙĦÙĪÚĺÛĮ": 20982,
  "Ú©ÙĪÙĦÛĮ": 7668,
  "Ú©ÙĪÙħ": 19418,
  "Ú©ÙĪÙĨ": 10723,
  "Ú©ÙĪÙĨØ§": 37463,
  "Ú©ÙĪÙĨÛĮ": 2750,
  "Ú©ÙĪÙĨÛĮÙĪØ²": 33092,
  "Ú©ÙĪÙĩ": 6672,
  "Ú©ÙĪÙĩÛĮ": 43043,
  "Ú©ÙĪÙĪØ§": 31578,
  "Ú©ÙĪÙĪÛĮØ¯": 17473,
  "Ú©ÙĪÙĪÛĮÚĨ": 10404,
  "Ú©ÙĪÚ©": 3823,
  "Ú©ÙĪÚĨ": 40761,
  "Ú©ÙĪÚĨÙĩ": 35582,
  "Ú©ÙĪÚĨÚ©": 32984,
  "Ú©ÙĪÛĮ": 13815,
  "Ú©ÙĪÛĮØ±": 39238,
  "Ú©ÙĪÛĮÙĨ": 15981,
  "Ú©ÙĪÛĮÚĨ": 31338,
  "Ú©Ú©": 23096,
  "Ú©Ú¯ÙĦ": 25521,
  "Ú©Ú¯ÙĩØ±": 32692,
  "Ú©ÚĨ": 28178,
  "Ú©ÚĨØ§Ø¯": 30674,
  "Ú©ÛĮ": 541,
  "Ú©ÛĮØ§": 14543,
  "Ú©ÛĮØ§ÙĨ": 18463,
  "Ú©ÛĮØ§ÙĨÙĪØ´": 41584,
  "Ú©ÛĮØ§ÙĨÛĮ": 42276,
  "Ú©ÛĮØ¯": 29610,
  "Ú©ÛĮØ´": 30863,
  "Ú©ÛĮØ´ÙĨ": 15809,
  "Ú©ÛĮØ´ÛĮÙĨ": 42277,
  "Ú©ÛĮÙ¾": 8544,
  "Ú©ÛĮÙģ": 6973,
  "Ú©ÛĮÙģÛĮ": 40570,
  "Ú©ÛĮÙģÛĮØª": 7847,
  "Ú©ÛĮÙģÛĮØªÛĮ": 25135,
  "Ú©ÛĮÙĦ": 1432,
  "Ú©ÛĮÙĦØ§Ø³ÛĮÙĪÙĨ": 26703,
  "Ú©ÛĮÙĦÙĪ": 25658,
  "Ú©ÛĮÙĦÙĪÙħØªØ±": 16626,
  "Ú©ÛĮÙĦÙĪÙħØªØ±ÛĮ": 36717,
  "Ú©ÛĮÙĦÙĪÚ¯Ø±Ùħ": 8674,
  "Ú©ÛĮÙħ": 8412,
  "Ú©ÛĮÙħÛĮ": 34358,
  "Ú©ÛĮÙĨ": 5896,
  "Ú©ÛĮÙĨØ²": 20773,
  "Ú©ÛĮÙĨØ³ÙĪÙĨ": 34901,
  "Ú©ÛĮÙĨÚ¯": 11342,
  "Ú©ÛĮÙĨÛĮ": 30726,
  "Ú©ÛĮÙĩ": 4955,
  "Ú©ÛĮÙĪ": 5603,
  "Ú©ÛĮÙĪØ§ÙĨ": 40569,
  "Ú©ÛĮÚ©": 3996,
  "Ú©ÛĮÚ©ÛĮ": 22913,
  "Ú¯": 288,
  "Ú¯Ø§": 5724,
  "Ú¯Ø§Øª": 36301,
  "Ú¯Ø§Ø±": 2973,
  "Ú¯Ø§Ø±Ø§ÙĨ": 20988,
  "Ú¯Ø§Ø±Øª": 17147,
  "Ú¯Ø§Ø±Ø¯": 18710,
  "Ú¯Ø§Ø±ÙĪ": 34763,
  "Ú¯Ø§Ø±ÛĮ": 4310,
  "Ú¯Ø§Ø±ÛĮØ§ÙĨ": 29396,
  "Ú¯Ø§Ø±ÛĮÙĨ": 31667,
  "Ú¯Ø§Ø²": 4360,
  "Ú¯Ø§Ø²Ø±Ø³Ø§ÙĨÛĮ": 28913,
  "Ú¯Ø§Ø²Ø³ÙĪØ²": 41137,
  "Ú¯Ø§Ø²Ø·Ø¨ÛĮØ¹ÛĮ": 42883,
  "Ú¯Ø§Ø²ÙħØ§ÛĮØ¹": 41138,
  "Ú¯Ø§Ø²ÙĪØ¦ÛĮÙĦ": 21118,
  "Ú¯Ø§Ø²ÙĪÛĮÛĮÙĦ": 23712,
  "Ú¯Ø§Ø²ÛĮ": 25527,
  "Ú¯Ø§Ø³": 15578,
  "Ú¯Ø§ÙĦ": 37503,
  "Ú¯Ø§Ùħ": 6352,
  "Ú¯Ø§ÙħÛĮ": 17556,
  "Ú¯Ø§ÙĨ": 577,
  "Ú¯Ø§ÙĨØ¯Ø§": 24419,
  "Ú¯Ø§ÙĨÙĩ": 3085,
  "Ú¯Ø§ÙĨÚ¯": 32136,
  "Ú¯Ø§ÙĨÚ¯ÛĮ": 22260,
  "Ú¯Ø§ÙĨÛĮ": 1693,
  "Ú¯Ø§Ùĩ": 396,
  "Ú¯Ø§ÙĩØ§ÛĮ": 25411,
  "Ú¯Ø§ÙĩØ±Øª": 17449,
  "Ú¯Ø§ÙĩØ±ØªØ²": 18689,
  "Ú¯Ø§ÙĩØ±ØªØ²ÛĮ": 43363,
  "Ú¯Ø§ÙĩÙĩØ§ÛĮ": 32825,
  "Ú¯Ø§ÙĩÛĮ": 2292,
  "Ú¯Ø§ÙĪ": 38791,
  "Ú¯Ø§ÙĪÙħÛĮØ´": 39658,
  "Ú¯Ø§ÛĮ": 31995,
  "Ú¯Ø¨Ø§": 17347,
  "Ú¯Ø¨Ø¯": 34380,
  "Ú¯Øª": 26919,
  "Ú¯Ø¯": 12202,
  "Ú¯Ø¯Ø§Ø±": 41941,
  "Ú¯Ø¯Ø§Ø²": 36013,
  "Ú¯Ø°": 732,
  "Ú¯Ø°Ø§Ø±": 1696,
  "Ú¯Ø°Ø§Ø±Ø§ÙĨ": 3819,
  "Ú¯Ø°Ø§Ø±Ø§ÙĨÛĮ": 26319,
  "Ú¯Ø°Ø§Ø±Ø¯": 3787,
  "Ú¯Ø°Ø§Ø±Ùħ": 16983,
  "Ú¯Ø°Ø§Ø±ÙĨØ¯": 8131,
  "Ú¯Ø°Ø§Ø±ÛĮ": 1066,
  "Ú¯Ø°Ø§Ø±ÛĮØ¯": 20894,
  "Ú¯Ø°Ø§Ø±ÛĮÙħ": 12114,
  "Ú¯Ø°Ø§Ø±ÛĮÙĩØ§": 34621,
  "Ú¯Ø°Ø§Ø±ÛĮÙĩØ§ÛĮ": 20880,
  "Ú¯Ø°Ø§Ø´Øª": 9457,
  "Ú¯Ø°Ø§Ø´ØªÙħ": 37115,
  "Ú¯Ø°Ø§Ø´ØªÙĨ": 22787,
  "Ú¯Ø°Ø§Ø´ØªÙĨØ¯": 21542,
  "Ú¯Ø°Ø§Ø´ØªÙĩ": 13452,
  "Ú¯Ø°Ø§Ø´ØªÛĮÙħ": 34118,
  "Ú¯Ø°Ø±": 6150,
  "Ú¯Ø°Ø±Ø§ÙĨ": 9672,
  "Ú¯Ø°Ø±Ø§ÙĨØ¯": 14443,
  "Ú¯Ø°Ø±Ø§ÙĨØ¯ÙĨØ¯": 43317,
  "Ú¯Ø°Ø±Ø§ÙĨØ¯Ùĩ": 38361,
  "Ú¯Ø°Ø±Ø§ÙĨÙĨØ¯": 11482,
  "Ú¯Ø°Ø±Ø§ÙĨÛĮ": 31515,
  "Ú¯Ø°Ø±Ø§ÙĨÛĮÙħ": 37126,
  "Ú¯Ø°Ø±Ø¯": 5940,
  "Ú¯Ø°Ø±Ùħ": 39141,
  "Ú¯Ø°Ø±ÙĨØ¯": 23491,
  "Ú¯Ø°Ø±ÙĩØ§ÛĮ": 39142,
  "Ú¯Ø°Ø±ÛĮ": 32928,
  "Ú¯Ø°Ø±ÛĮÙħ": 19930,
  "Ú¯Ø°Ø´Øª": 5379,
  "Ú¯Ø°Ø´ØªÙĩ": 9915,
  "Ú¯Ø°Ø´ØªÚ¯ÛĮ": 21516,
  "Ú¯Ø±": 429,
  "Ú¯Ø±Ø§": 7567,
  "Ú¯Ø±Ø§Ø¯": 6553,
  "Ú¯Ø±Ø§Ø³Øª": 36304,
  "Ú¯Ø±Ø§Ùģ": 12842,
  "Ú¯Ø±Ø§ÙģÛĮ": 11887,
  "Ú¯Ø±Ø§ÙģÛĮÚ©": 37164,
  "Ú¯Ø±Ø§Ùħ": 18331,
  "Ú¯Ø±Ø§ÙĨ": 1413,
  "Ú¯Ø±Ø§ÙĨÙĩ": 16203,
  "Ú¯Ø±Ø§ÙĨÛĮ": 6781,
  "Ú¯Ø±Ø§ÙĩØ§": 34489,
  "Ú¯Ø±Ø§ÛĮ": 9342,
  "Ú¯Ø±Ø§ÛĮØ§ÙĨ": 9006,
  "Ú¯Ø±Ø§ÛĮØ§ÙĨÙĩ": 14451,
  "Ú¯Ø±Ø§ÛĮÛĮ": 5643,
  "Ú¯Ø±Øª": 33635,
  "Ú¯Ø±Ø¬Ø³ØªØ§ÙĨ": 37673,
  "Ú¯Ø±Ø¬ÛĮ": 35398,
  "Ú¯Ø±Ø¯": 1778,
  "Ú¯Ø±Ø¯Ø¯": 3203,
  "Ú¯Ø±Ø¯Ø´": 27937,
  "Ú¯Ø±Ø¯Ø´Ú¯Ø±ÛĮ": 26712,
  "Ú¯Ø±Ø¯Ùħ": 16064,
  "Ú¯Ø±Ø¯ÙĨØ¯": 7783,
  "Ú¯Ø±Ø¯ÙĩØ§": 11014,
  "Ú¯Ø±Ø¯ÙĩØ§ÛĮ": 10969,
  "Ú¯Ø±Ø¯ÙĪÙĨ": 15284,
  "Ú¯Ø±Ø¯ÛĮ": 6415,
  "Ú¯Ø±Ø¯ÛĮØ¯": 17480,
  "Ú¯Ø±Ø¯ÛĮØ¯Ùĩ": 24550,
  "Ú¯Ø±Ø¯ÛĮÙħ": 11179,
  "Ú¯Ø±Ø²": 40493,
  "Ú¯Ø±Ø³": 24676,
  "Ú¯Ø±ÙģØª": 4058,
  "Ú¯Ø±ÙģØªÙħ": 23469,
  "Ú¯Ø±ÙģØªÙĨ": 12513,
  "Ú¯Ø±ÙģØªÙĨØ¯": 13002,
  "Ú¯Ø±ÙģØªÙĩ": 5883,
  "Ú¯Ø±ÙģØªÚ¯ÛĮ": 6558,
  "Ú¯Ø±ÙģØªÛĮÙħ": 22540,
  "Ú¯Ø±Ùħ": 2744,
  "Ú¯Ø±ÙħØ§ÛĮÛĮ": 37672,
  "Ú¯Ø±ÙħÚ©ÙĨ": 14250,
  "Ú¯Ø±ÙħÛĮ": 7652,
  "Ú¯Ø±ÙĨ": 17570,
  "Ú¯Ø±Ùĩ": 35396,
  "Ú¯Ø±ÙĩØ§": 15510,
  "Ú¯Ø±ÙĩØ§ÛĮ": 14972,
  "Ú¯Ø±ÙĪ": 20056,
  "Ú¯Ø±ÙĪÙ¾": 34222,
  "Ú¯Ø±ÙĪÙĩ": 2826,
  "Ú¯Ø±ÙĪÙĩÛĮ": 38047,
  "Ú¯Ø±Ú¯": 12813,
  "Ú¯Ø±Ú¯Ø§ÙĨ": 35397,
  "Ú¯Ø±ÛĮ": 988,
  "Ú¯Ø±ÛĮØ§ÙĨ": 39203,
  "Ú¯Ø±ÛĮØ¯": 27456,
  "Ú¯Ø±ÛĮØ²": 29267,
  "Ú¯Ø±ÛĮØ²ÛĮ": 31555,
  "Ú¯Ø±ÛĮÙħ": 22901,
  "Ú¯Ø±ÛĮÙĨ": 30272,
  "Ú¯Ø±ÛĮÙĨÛĮ": 19299,
  "Ú¯Ø²": 3485,
  "Ú¯Ø²Ø§Ø±": 611,
  "Ú¯Ø²Ø§Ø±Ø§ÙĨ": 16365,
  "Ú¯Ø²Ø§Ø±Ø´": 8087,
  "Ú¯Ø²Ø§Ø±ÛĮ": 1137,
  "Ú¯Ø²Ø§ÙĨ": 19824,
  "Ú¯Ø²ÛĮØª": 27132,
  "Ú¯Ø²ÛĮÙĨ": 2632,
  "Ú¯Ø²ÛĮÙĨØ¯": 39416,
  "Ú¯Ø²ÛĮÙĨÛĮ": 20737,
  "Ú¯Ø³": 11282,
  "Ú¯Ø³ØªØ±": 18316,
  "Ú¯Ø³ØªØ±Ø´": 39964,
  "Ú¯Ø³ØªØ±ÛĮ": 5566,
  "Ú¯Ø³ÛĮ": 22854,
  "Ú¯Ø³ÛĮØ®ØªÙĩ": 41942,
  "Ú¯Ø´": 26920,
  "Ú¯Ø´Ø§": 17863,
  "Ú¯Ø´Ø§ÛĮ": 27762,
  "Ú¯Ø´Ø§ÛĮØ¯": 27316,
  "Ú¯Ø´Ø§ÛĮØ´": 37311,
  "Ú¯Ø´Ø§ÛĮÛĮ": 16681,
  "Ú¯Ø´Øª": 13627,
  "Ú¯Ù¾": 31356,
  "Ú¯ÙģØª": 4638,
  "Ú¯ÙģØªØ§Ø±": 26395,
  "Ú¯ÙģØªÙħ": 20763,
  "Ú¯ÙģØªÙĨØ¯": 11107,
  "Ú¯ÙģØªÙĩ": 12128,
  "Ú¯ÙģØªÛĮÙħ": 34841,
  "Ú¯ÙĦ": 2872,
  "Ú¯ÙĦØ§Ø³": 18786,
  "Ú¯ÙĦØ§ÙĨ": 12744,
  "Ú¯ÙĦØ¯": 23231,
  "Ú¯ÙĦØ³ØªØ§ÙĨ": 38052,
  "Ú¯ÙĦÙĩ": 23103,
  "Ú¯ÙĦÙĪ": 26560,
  "Ú¯ÙĦÙĪØ±": 22737,
  "Ú¯ÙĦÛĮ": 20660,
  "Ú¯ÙĦÛĮØ³": 31357,
  "Ú¯ÙĦÛĮÙģ": 40273,
  "Ú¯Ùħ": 23558,
  "Ú¯ÙħØ§ÙĨ": 19578,
  "Ú¯ÙħØ±Ú©": 30745,
  "Ú¯ÙħÛĮ": 35265,
  "Ú¯ÙĨ": 3850,
  "Ú¯ÙĨØ§Ùĩ": 19063,
  "Ú¯ÙĨØ§ÙĩÛĮ": 34805,
  "Ú¯ÙĨØ¨Ø¯": 38125,
  "Ú¯ÙĨØ¬": 18962,
  "Ú¯ÙĨØ¬Ø¯": 27694,
  "Ú¯ÙĨØ¬Ùĩ": 33961,
  "Ú¯ÙĨØ¬ÛĮ": 36303,
  "Ú¯ÙĨÛĮ": 24928,
  "Ú¯Ùĩ": 1427,
  "Ú¯ÙĩØ§Ùħ": 24461,
  "Ú¯ÙĩØ§ÛĮ": 6751,
  "Ú¯ÙĩØ±": 16503,
  "Ú¯ÙĩÛĮ": 4678,
  "Ú¯ÙĪ": 892,
  "Ú¯ÙĪØ¢ÙĨØ§": 40699,
  "Ú¯ÙĪØ¦": 14079,
  "Ú¯ÙĪØ¦Ùĩ": 11965,
  "Ú¯ÙĪØ¦ÛĮØ¯": 34602,
  "Ú¯ÙĪØ¦ÛĮÙħ": 15786,
  "Ú¯ÙĪØ§": 21463,
  "Ú¯ÙĪØ§Ø±": 9931,
  "Ú¯ÙĪØ§Ø±Ø§ÙĨ": 25988,
  "Ú¯ÙĪØ§Ø±ÛĮ": 13649,
  "Ú¯ÙĪØª": 36302,
  "Ú¯ÙĪØ¬Ùĩ": 40698,
  "Ú¯ÙĪØ¯": 37504,
  "Ú¯ÙĪØ¯Ø±": 15312,
  "Ú¯ÙĪØ¯Ø±Ø²": 15641,
  "Ú¯ÙĪØ±": 11562,
  "Ú¯ÙĪØ±Ø§": 25880,
  "Ú¯ÙĪØ³": 13215,
  "Ú¯ÙĪØ³Øª": 7145,
  "Ú¯ÙĪØ´": 22066,
  "Ú¯ÙĪØ´Øª": 28323,
  "Ú¯ÙĪØ´ÛĮ": 30916,
  "Ú¯ÙĪÙĨ": 2897,
  "Ú¯ÙĪÙĨØ§": 26353,
  "Ú¯ÙĪÙĨØ´ÙĦÛĮ": 32319,
  "Ú¯ÙĪÙĨÙĩ": 1717,
  "Ú¯ÙĪÙĨÙĪÙħÛĮ": 21094,
  "Ú¯ÙĪÙĨÚ¯ÛĮ": 4658,
  "Ú¯ÙĪÙĨÛĮ": 7820,
  "Ú¯ÙĪÙĨÛĮØ³Øª": 37081,
  "Ú¯ÙĪÙĩØ§": 31543,
  "Ú¯ÙĪÙĩØ§ÛĮ": 31542,
  "Ú¯ÙĪÚ©ÙĪ": 39177,
  "Ú¯ÙĪÚ¯": 22274,
  "Ú¯ÙĪÚ¯Ø±Ø¯": 17193,
  "Ú¯ÙĪÚ¯ÙĦ": 37825,
  "Ú¯ÙĪÚĨÛĮ": 33748,
  "Ú¯ÙĪÛĮ": 2201,
  "Ú¯ÙĪÛĮØ§": 17485,
  "Ú¯ÙĪÛĮØ§ÙĨ": 8296,
  "Ú¯ÙĪÛĮØ¯": 2721,
  "Ú¯ÙĪÛĮÙħ": 4483,
  "Ú¯ÙĪÛĮÙĨØ¯": 3744,
  "Ú¯ÙĪÛĮÛĮ": 3422,
  "Ú¯ÙĪÛĮÛĮØ¯": 12329,
  "Ú¯ÙĪÛĮÛĮÙħ": 6088,
  "Ú¯Ùī": 37505,
  "Ú¯ÛĮ": 517,
  "Ú¯ÛĮØª": 20987,
  "Ú¯ÛĮØ±": 504,
  "Ú¯ÛĮØ±Ø§ÙĨ": 7134,
  "Ú¯ÛĮØ±Ø§ÙĨÙĩ": 4569,
  "Ú¯ÛĮØ±Ø¯": 1359,
  "Ú¯ÛĮØ±Ùħ": 16272,
  "Ú¯ÛĮØ±ÙĨØ¯": 3432,
  "Ú¯ÛĮØ±ÙĨØ¯Ùĩ": 10139,
  "Ú¯ÛĮØ±ÙĨØ¯Ú¯Ø§ÙĨ": 20095,
  "Ú¯ÛĮØ±Ùĩ": 39040,
  "Ú¯ÛĮØ±ÙĩØ§": 25955,
  "Ú¯ÛĮØ±ÙĩØ§ÛĮ": 25605,
  "Ú¯ÛĮØ±ÛĮ": 662,
  "Ú¯ÛĮØ±ÛĮØ¯": 18580,
  "Ú¯ÛĮØ±ÛĮÙħ": 8394,
  "Ú¯ÛĮØ²": 6500,
  "Ú¯ÛĮØ²ÛĮ": 40562,
  "Ú¯ÛĮÙĦ": 4895,
  "Ú¯ÛĮÙĦØ§ÙĨ": 30169,
  "Ú¯ÛĮÙħ": 29115,
  "Ú¯ÛĮÙĨ": 2007,
  "Ú¯ÛĮÙĨØ§ÙħÙĩ": 26026,
  "Ú¯ÛĮÙĨÛĮ": 30744,
  "Ú¾": 13317,
  "Ú¾Ø§ÛĮ": 27671,
  "ÚĨ": 348,
  "ÚĨØ§": 28674,
  "ÚĨØ§Ø¨": 30799,
  "ÚĨØ§Ø¨ÙĩØ§Ø±": 33433,
  "ÚĨØ§Ø±": 2111,
  "ÚĨØ§Ø±ÚĨÙĪØ¨": 33853,
  "ÚĨØ§Ù¾": 34441,
  "ÚĨØ§ÙĤ": 2811,
  "ÚĨØ§ÙĦ": 6990,
  "ÚĨØ§ÙĦØ´": 23269,
  "ÚĨØ§ÙĦÙĩ": 14067,
  "ÚĨØ§ÙĦÙĪØ³": 31132,
  "ÚĨØ§ÙĦÛĮ": 21214,
  "ÚĨØ§ÙĨ": 33580,
  "ÚĨØ§ÙĨÚ¯": 36397,
  "ÚĨØ§Ùĩ": 35338,
  "ÚĨØ§ÙĩÛĮ": 13775,
  "ÚĨØ§Ú©": 38901,
  "ÚĨØ§ÛĮ": 11313,
  "ÚĨØ§ÛĮÙĦØ¯": 37606,
  "ÚĨØ§ÛĮÙĨØ§": 14400,
  "ÚĨØª": 24952,
  "ÚĨØ±": 9341,
  "ÚĨØ±Ø§": 29683,
  "ÚĨØ±Ø§Øº": 22017,
  "ÚĨØ±Ø¨": 35339,
  "ÚĨØ±Ø®": 10397,
  "ÚĨØ±Ø®Ø§ÙĨÛĮ": 20179,
  "ÚĨØ±Ø®Ø¯": 15633,
  "ÚĨØ±Ø®ÙĨØ¯": 39839,
  "ÚĨØ±Ø®ÛĮØ¯": 41428,
  "ÚĨØ±Ø²": 42087,
  "ÚĨØ±ÛĮ": 18217,
  "ÚĨØ³": 19907,
  "ÚĨØ³Ø¨": 24381,
  "ÚĨØ³Ø¨Ø¯": 30085,
  "ÚĨØ³Ø¨ÙĨØ¯": 38522,
  "ÚĨØ³ØªØ§ÙĨ": 3469,
  "ÚĨØ´Ùħ": 28677,
  "ÚĨØ´ÙħÙĩ": 20072,
  "ÚĨØ´ÙĨ": 42086,
  "ÚĨÙģ": 23580,
  "ÚĨÙĦØ§ÙĨ": 40401,
  "ÚĨÙĦÙĪ": 37605,
  "ÚĨÙĦÙĪØªÛĮ": 40402,
  "ÚĨÙħ": 30235,
  "ÚĨÙĨ": 18973,
  "ÚĨÙĨØ§Ø±": 37258,
  "ÚĨÙĨØ§ÙĨ": 10385,
  "ÚĨÙĨØ§ÙĨÚĨÙĩ": 43208,
  "ÚĨÙĨØ§ÙĨÛĮ": 19908,
  "ÚĨÙĨØ¬": 40400,
  "ÚĨÙĨØ¯": 16694,
  "ÚĨÙĨØ¯Ø§ÙĨ": 27358,
  "ÚĨÙĨÚ©ÙĪ": 38516,
  "ÚĨÙĨÚ¯": 28675,
  "ÚĨÙĨÛĮÙĨ": 7873,
  "ÚĨÙĨÛĮÙĨÛĮ": 26097,
  "ÚĨÙĩ": 1068,
  "ÚĨÙĩØ§Ø±": 3830,
  "ÚĨÙĩØ§Ø±Ø´ÙĨØ¨Ùĩ": 4640,
  "ÚĨÙĩØ§Ø±Ùħ": 11367,
  "ÚĨÙĩØ§Ø±ÙħÛĮÙĨ": 14628,
  "ÚĨÙĩØ±": 11775,
  "ÚĨÙĩØ±Ùĩ": 25256,
  "ÚĨÙĩÙĦ": 42456,
  "ÚĨÙĪ": 14293,
  "ÚĨÙĪØ§ÙĨ": 23373,
  "ÚĨÙĪØ¨": 30800,
  "ÚĨÙĪØ¨Ùĩ": 16695,
  "ÚĨÙĪÙĨ": 13137,
  "ÚĨÙĪÙĨÛĮ": 8328,
  "ÚĨÙĪÚ©": 33581,
  "ÚĨÚ©": 11798,
  "ÚĨÚ¯Ø§ÙĨ": 34440,
  "ÚĨÚ¯ÛĮ": 40399,
  "ÚĨÛĮ": 2342,
  "ÚĨÛĮØ§ÙĨ": 7411,
  "ÚĨÛĮØ¯Ùĩ": 4589,
  "ÚĨÛĮØ²": 8929,
  "ÚĨÛĮØ²ÛĮ": 13938,
  "ÚĨÛĮØ´ÛĮÙĨ": 33870,
  "ÚĨÛĮÙĤ": 20904,
  "ÚĨÛĮÙĦ": 28676,
  "ÚĨÛĮÙĨ": 6192,
  "ÚĨÛĮÙĨÚ¯": 7829,
  "ÚĨÛĮÙĨÛĮ": 16790,
  "ÚĨÛĮÚĨ": 10616,
  "Úĺ": 406,
  "ÚĺØ§Ø¯": 2713,
  "ÚĺØ§Ù¾ÙĨ": 29705,
  "ÚĺØ§ÙĨ": 22652,
  "ÚĺØ§ÙĨØª": 5772,
  "ÚĺØ§ÙĨØªÛĮÙĨ": 38246,
  "ÚĺØ§ÙĨØ³": 2518,
  "ÚĺØ§ÙĨØ³ÛĮ": 13323,
  "ÚĺØ§ÙĨÙĪÛĮÙĩ": 29704,
  "ÚĺØ§ÙĨÛĮØ±ÙĪ": 29549,
  "ÚĺØ¯ÛĮ": 23146,
  "ÚĺØ±ÙħÙĨ": 20843,
  "ÚĺÙĦ": 24109,
  "ÚĺÙħØ§ÙĨ": 27378,
  "ÚĺÙĨ": 2791,
  "ÚĺÙĨØ±Ø§ØªÙĪØ±": 33899,
  "ÚĺÙĨÙģØª": 22305,
  "ÚĺÙĨÙĩ": 32832,
  "ÚĺÙĨÙĪ": 34481,
  "ÚĺÙĨÛĮ": 13142,
  "ÚĺÙĨÛĮÚ©": 30265,
  "ÚĺÙĩ": 600,
  "ÚĺÙĪ": 16603,
  "ÚĺÙĪØ¦ÙĨ": 22026,
  "ÚĺÙĪØ¦ÛĮÙĩ": 31442,
  "ÚĺÙĪØ§ÙĨ": 10183,
  "ÚĺÙĪØ±": 31441,
  "ÚĺÙĪÙĦ": 38974,
  "ÚĺÙĪÛĮÛĮÙĩ": 33621,
  "ÚĺÚ©": 24663,
  "ÚĺÛĮ": 810,
  "ÚĺÛĮØ¯Ø§Ø±": 29179,
  "ÚĺÛĮÙĨ": 26614,
  "ÚĺÛĮÙĪÙĨ": 13072,
  "ÚĺÛĮÚ©": 17071,
  "Û": 156,
  "Û°": 355,
  "Û°Ùł": 26969,
  "Û°Û°": 561,
  "Û°Û°Û°": 3540,
  "Û°Û°Û°Û°": 20534,
  "Û°Û°Û±": 16440,
  "Û°Û±": 12498,
  "Û°Û²": 11565,
  "Û°Û²Û±": 18847,
  "Û°Û³": 13222,
  "Û°Û´": 12133,
  "Û°Û´Û°": 38904,
  "Û°Ûµ": 11892,
  "Û°ÛµÛ°": 42096,
  "Û°Û¶": 12648,
  "Û°Û·": 11119,
  "Û°Û¸": 12768,
  "Û°Û¹": 11541,
  "Û±": 506,
  "Û±Û°": 3358,
  "Û±Û°Û°": 10211,
  "Û±Û°Û°Û°": 23844,
  "Û±Û°Û±": 25708,
  "Û±Û°Û²": 29364,
  "Û±Û°Û³": 34780,
  "Û±Û°Û´": 38090,
  "Û±Û°Ûµ": 41050,
  "Û±Û°Û¸": 36870,
  "Û±Û°Û¹": 28414,
  "Û±Û±": 4639,
  "Û±Û±Û°": 24689,
  "Û±Û±Û±": 28018,
  "Û±Û±Û²": 29736,
  "Û±Û±Û³": 40550,
  "Û±Û±Ûµ": 32875,
  "Û±Û±Û·": 34842,
  "Û±Û±Û¸": 33996,
  "Û±Û±Û¹": 40549,
  "Û±Û²": 4049,
  "Û±Û²Û°": 25956,
  "Û±Û²Û±": 33664,
  "Û±Û²Û³": 38146,
  "Û±Û²Û´": 25725,
  "Û±Û²Ûµ": 32377,
  "Û±Û²Û¶": 39539,
  "Û±Û²Û·": 33971,
  "Û±Û²Û¸": 35782,
  "Û±Û²Û¹": 39538,
  "Û±Û³": 3526,
  "Û±Û³Û°": 26636,
  "Û±Û³Û±": 36887,
  "Û±Û³Û²": 17920,
  "Û±Û³Û³": 41069,
  "Û±Û³Ûµ": 33941,
  "Û±Û³Û¶": 36889,
  "Û±Û³Û¶Û¶": 39497,
  "Û±Û³Û·": 41070,
  "Û±Û³Û·Û°": 41072,
  "Û±Û³Û·Û²": 41075,
  "Û±Û³Û¸": 39496,
  "Û±Û³Û¸Û°": 41071,
  "Û±Û³Û¸Û±": 41074,
  "Û±Û³Û¸Û²": 42781,
  "Û±Û³Û¸Û´": 29907,
  "Û±Û³Û¸Û·": 30491,
  "Û±Û³Û¸Û¸": 34789,
  "Û±Û³Û¸Û¹": 41073,
  "Û±Û³Û¹": 36888,
  "Û±Û³Û¹Û°": 33134,
  "Û±Û³Û¹Û±": 38104,
  "Û±Û³Û¹Û²": 34790,
  "Û±Û³Û¹Û³": 35757,
  "Û±Û³Û¹Û´": 30492,
  "Û±Û³Û¹Ûµ": 26761,
  "Û±Û³Û¹Û¶": 25379,
  "Û±Û³Û¹Û·": 18381,
  "Û±Û³Û¹Û¸": 15996,
  "Û±Û³Û¹Û¹": 10941,
  "Û±Û´": 4872,
  "Û±Û´Û°": 28920,
  "Û±Û´Û°Û°": 20606,
  "Û±Û´Û°Û°Û±": 29937,
  "Û±Û´Û±": 35832,
  "Û±Û´Û³": 41175,
  "Û±Û´Ûµ": 42934,
  "Û±Û´Û¸": 39612,
  "Û±Ûµ": 3975,
  "Û±ÛµÛ°": 24688,
  "Û±ÛµÛ°Û°": 36936,
  "Û±ÛµÛ±": 29922,
  "Û±ÛµÛ³": 33155,
  "Û±ÛµÛ´": 41114,
  "Û±ÛµÛ¶": 35779,
  "Û±ÛµÛ·": 38137,
  "Û±ÛµÛ¸": 38136,
  "Û±Û¶": 4731,
  "Û±Û¶Û°": 29410,
  "Û±Û¶Û²": 33999,
  "Û±Û¶Û³": 42917,
  "Û±Û¶Ûµ": 39603,
  "Û±Û¶Û·": 42918,
  "Û±Û¶Û¸": 39604,
  "Û±Û¶Û¹": 28021,
  "Û±Û·": 5035,
  "Û±Û·Û°": 27162,
  "Û±Û·Û²": 39627,
  "Û±Û·Û·": 38216,
  "Û±Û·Û¹": 41193,
  "Û±Û¸": 4800,
  "Û±Û¸Û°": 29936,
  "Û±Û¸Û±": 34852,
  "Û±Û¸Û²": 38205,
  "Û±Û¸Û³": 35829,
  "Û±Û¸Û´": 39610,
  "Û±Û¸Ûµ": 42926,
  "Û±Û¸Û¶": 32409,
  "Û±Û¸Û¸": 32408,
  "Û±Û¸Û¹": 30529,
  "Û±Û¹": 2415,
  "Û±Û¹Û°": 32293,
  "Û±Û¹Û´": 34723,
  "Û±Û¹Ûµ": 34722,
  "Û±Û¹Û·": 42654,
  "Û²": 537,
  "Û²Û°": 1618,
  "Û²Û°Û°": 9007,
  "Û²Û°Û°Û°": 34535,
  "Û²Û°Û°Û²": 43144,
  "Û²Û°Û°Û´": 30000,
  "Û²Û°Û°Û·": 27645,
  "Û²Û°Û°Û¸": 29473,
  "Û²Û°Û°Û¹": 35958,
  "Û²Û°Û±": 40841,
  "Û²Û°Û±Û°": 35635,
  "Û²Û°Û±Û±": 28354,
  "Û²Û°Û±Û²": 37943,
  "Û²Û°Û±Û³": 32247,
  "Û²Û°Û±Û´": 32248,
  "Û²Û°Û±Ûµ": 14123,
  "Û²Û°Û±Û¶": 12286,
  "Û²Û°Û±Û·": 17375,
  "Û²Û°Û±Û¸": 15679,
  "Û²Û°Û±Û¹": 15610,
  "Û²Û°Û²": 37941,
  "Û²Û°Û²Û°": 11450,
  "Û²Û°Û²Û±": 20264,
  "Û²Û°Û²Ûµ": 42564,
  "Û²Û°Û´": 37942,
[...]
